FFEE
0030
0005
FFF3
000B
FFFF
0040
0017
FFF8
0065
0004
FFD4
FFDF
000F
FFFC
FFC4
0011
0021
FFC8
FFD2
FFEC
FFF7
FFF2
FFC8
FFC4
000C
FFA8
0030
FFF9
FFA4
0010
FFE3
FFF0
FFE2
FFEC
FFC7
0038
0010
0012
FFB5
FFDA
0019
FFF7
FFEE
0012
0015
000F
FFDB
FFC5
0001
0008
005B
FFD5
000C
FFCB
0017
0016
FFDC
FFEE
FFE0
FF9C
FFCE
000B
003E
0000
FFFC
FFE4
001A
0021
0001
0018
0026
000F
FFED
FFE0
0010
001E
FFF2
FFFA
000A
FFDA
FFDC
FFC1
0025
FF77
FFDF
FFF3
001D
002D
003D
0050
FF99
002F
002B
FFE4
000C
FFE3
FFF8
000E
FFE0
FFBA
FFEE
FFEB
FFE8
FFFE
0007
000E
0002
0000
FFFE
FFFC
FFE2
FFCB
0014
003C
002B
FFF0
002A
0002
FFF7
FFFF
0038
0022
0061
0014
FFB3
FFBC
FFA7
0008
003A
002F
0049
0008
FFE5
FFF8
FFE0
FFE7
0004
0020
0030
000E
FFC0
FFFE
FFFC
FFDC
FFFE
FFFC
FFB2
0004
0002
FFF6
FFE6
0037
FFE2
0071
FFB8
0025
0015
000D
FFF4
0020
000C
FFFC
FFC9
0046
0004
FFFF
0000
FFB7
000E
002D
001C
FFD8
FFE4
FFD1
FFE9
FFDF
FFC5
0005
000E
0012
0037
FFC2
FFB6
0034
FFCB
FFF3
FFFB
007C
0027
0000
003C
0005
0060
000A
0019
001D
FFE4
FFF7
FFF8
0020
0000
002C
001F
0010
FFE0
FFE2
FFFC
FF9F
FFFD
000E
FFE7
FFFB
FFE2
FFBE
0025
0021
FFA1
000B
0060
FF87
FFCB
0044
0022
FFE9
0000
FF80
FF7E
002D
FFF1
FFFA
FFDE
0000
007B
FFD4
0002
0024
FFC9
FFF0
FFFD
FFC2
FFF1
0021
0001
0022
FFC1
FFF0
FFB6
001B
FFCA
FFE5
0072
0052
0003
FFD2
0040
0005
0023
0009
001A
003C
FFB8
FFB2
0020
0006
FFF1
0051
0007
0049
0030
0015
FFE8
FF87
0027
0004
000B
FFF0
000D
FFBA
0024
0002
FFA1
003D
FFE2
FFE8
0068
001A
003A
FFE2
000F
FFDE
FFB8
FFEF
FFC6
FFD7
FFF1
FFF5
FFFF
FFE3
FFE1
FFD7
FFA7
FFBB
FFFD
0004
FFEE
0034
FFD6
001A
FFA7
0002
0027
FFD8
FFCB
FFB4
0030
001B
001B
FFD4
006C
FFD7
0040
001C
0030
0014
FFD4
FFF2
000F
FFDA
FFFA
0057
004C
FF82
FFB3
FFEE
0068
FF9F
004E
FFE4
FFEF
0041
0002
0005
0040
0027
FFC2
0026
0050
0001
0024
0040
FFF8
FFF8
0000
FFC4
FFEF
0015
0011
FFC4
FFBD
FFE8
003B
FFAB
FFD0
FFCA
FFFB
FFEB
0010
FFF4
FFEE
0019
FFA1
FFED
FFE5
0014
001B
FFF9
FFEF
0010
0044
0075
0058
0039
0026
0020
000E
0002
002F
000C
0042
0062
002C
0014
FFF4
FFF2
0001
004B
FFFE
FFF1
FFF3
FFDB
FFB1
002C
FFF4
FFE1
0012
FFEF
FFD6
FFF4
FFD6
000B
FFFE
FFFD
003E
FFFC
0044
FFFE
002A
000D
FFDB
FFEC
0009
FFAF
FFD6
FFFC
FFE6
FFD7
FFFA
0012
0018
FFFC
003A
FFE0
FFB9
FFFF
0006
004F
FFAF
000B
FFC6
FFE8
FFF6
0001
FFFC
0051
0010
FFBE
FFF0
0024
0001
0008
0028
0029
0011
005D
002F
FFC8
FFFF
0060
FFF9
FFEB
FFF7
FFD7
0007
0007
001C
0030
FFF6
0028
0019
000B
0008
FFE3
FFD8
FFC0
0023
0033
0008
0016
FFDC
FFC8
0029
FFE7
000C
FFF5
001C
FFE4
FF90
FFEF
FFF8
001C
FFF2
FFE6
FFD8
FFD2
FF93
FF8F
001F
0018
FFF3
FF9F
001D
0025
FFC8
0005
FFBF
0032
FFE8
0007
FFE8
FFAA
FFEE
0002
0003
0018
FFFA
FFFE
FFF4
FFEF
FFE8
FFF6
FFD8
0002
0005
0001
001F
0000
FFDA
000F
FFE5
0005
FFB3
0003
FFF4
000A
FFCC
0000
FFBC
000F
FFD2
000A
FFF4
000C
FFC5
000F
0007
0043
0002
FFFA
0000
FFC4
FFE4
FFE0
000F
FFE0
FFE2
002C
FFEB
000F
FF9F
0041
FFF9
FFBB
0025
0002
FFFE
0038
0005
FF9C
0039
FFEC
FFD1
003E
0035
FFE8
FFE2
0025
FFDB
000E
FFFE
0011
003E
006E
0012
0009
FFFB
0001
FFD7
0031
000C
FFE3
FFEE
FFD2
0014
0007
FFF6
FFD9
0010
FFED
0010
001B
FFEB
FFE3
FFEB
FFFD
0018
0011
FFD8
002F
FFDB
002D
FFBE
FFE8
001E
FFD9
FFD6
0043
FFBE
FFF2
FFEE
FFC9
FFAD
FFED
FFE3
FFFB
FFD4
0065
002A
FFFD
0035
FFD0
0018
000A
FFF8
005F
000A
FFB9
FFBC
FFFC
0014
FFDF
FFD2
0013
FFF8
FFB0
000F
0012
0010
0022
FFCB
FFAE
0003
FFC4
000A
FFEF
0010
0014
0009
000F
0001
0000
FFEA
0012
0012
FFCA
FFC2
001F
000B
FFC8
001D
0015
0003
0020
FFBB
0010
FFC4
0008
002E
FFF5
0011
005F
FFE9
0004
FFDE
FFFE
000A
FFE7
0062
0015
FFF6
FFD9
0041
001C
0025
FFF1
001F
FFFE
003B
0064
005F
FFE9
001E
0020
FFFF
000D
FFDE
001A
FFD7
0027
FFC1
FF92
FFF3
003E
FFDB
0032
0013
FFE7
FFC9
0034
FFE0
FFC8
FFCD
0061
001F
FFFD
0040
0000
FFEE
FFE7
004C
0033
0040
FF8C
0022
0042
0018
006D
FF8F
0026
FFE0
FFDA
0043
0008
0004
003C
FFBE
FFFF
0032
000C
0015
001E
0026
0070
FFFE
FFEC
001A
FFD9
0036
FFE3
FFD1
FFF6
0027
FFFF
FFF8
FFD7
FFD0
FFB8
0037
FFFD
FFEA
0010
FF92
0020
000C
0000
FFFB
0046
FFF9
FFFE
0039
FFDE
FF83
FFAF
0038
0042
0000
FFCA
FFFD
FFBF
FFEF
FFFC
0027
FFF7
FFF0
000C
FFE5
007B
FFA5
0027
0019
FFEC
0054
FFC6
FF7D
0010
FFF5
002A
FFAD
FFE0
001E
FFF8
FFEF
FFC1
FFD4
FFD8
0029
001E
FFDF
FFC5
005B
FFFB
0027
FFDE
0028
002C
FFD2
FF97
FFFB
FFEB
FFBC
FFCE
0031
FFFD
000F
FFD9
0000
0011
FFFF
000B
0001
0002
0049
0005
0005
0014
FF9E
FFC1
0035
FFAB
FFBE
0011
000F
0026
001C
0011
0030
FFF2
0020
FFD7
FFC5
0077
0008
FFBC
FFB1
FFF4
003F
0030
FFB4
FFE0
000A
FFF2
0034
FFD1
002F
FFD6
FF88
FFEA
0017
FFF3
FFF0
FFF3
0010
FFC5
0028
FFC4
FFEA
0004
FFE1
0082
0003
FFBE
FFF8
FFA3
0037
FFF6
007E
0004
0017
FFDA
0009
0045
002C
0028
FFF2
0059
003D
0003
000A
FFEC
FFC2
FFAB
FFFD
FFD9
FF7F
001A
0021
0009
0019
0011
FFC8
000D
FFF5
000D
FF9A
0043
0041
FFCD
FFF0
FFFE
004C
FFB9
FFBE
FFF0
001D
FFD9
0010
FFE8
0035
0004
FFE1
0036
0045
0001
001C
FFFE
0017
FFCB
0071
FFF6
FFB2
0001
FFA1
0031
FFD9
FFFD
FFFC
FFB6
0050
001B
0039
FFDC
FFFE
0014
FFFE
000C
0036
0020
FFF8
0005
FFF7
FFDE
0013
FFF8
FFF4
0005
002E
0048
FFCA
FFE8
FFF0
FFCC
001A
FFE7
0014
000C
0010
FFEB
FFF9
FFF7
FFE3
000F
FFDF
FFBF
FFEA
0036
0035
0026
FFBA
0014
0017
FFEE
0014
FFF6
FFEF
007B
007E
FFED
0028
FFFB
FFFD
FFBA
FFDF
FFFF
FFBC
0010
FFD7
FFF1
FFEC
FFF9
0004
000C
FFFA
0016
FFAF
FFD9
FFF8
FFDF
0002
FFB3
001B
002D
FFF8
FFE5
000F
FFC0
FFF7
0008
0027
002B
001C
0025
001C
FFF1
FFFE
0015
0026
FFED
FFF0
FFFD
0015
0005
FFF2
0048
FFE7
FFD1
FFF9
0030
0006
FFF1
0006
FFD2
0011
0021
0004
0046
FFFE
0009
FFED
FFCF
0004
0041
0022
FFE0
FFF7
FFE4
0023
006D
0022
FF9E
0001
0005
0027
FFEC
0009
0015
FFE0
0029
FFF6
0005
FFEF
FFF7
002A
000E
FFFD
FFB2
FFFC
003C
FFAA
FFF4
FFD8
0014
0022
000E
FFF6
FFF5
FFCC
0018
002E
FFB6
FFE9
FFB8
0040
FFEE
003E
001D
FFFE
FFF0
0038
FFB0
FFFF
FFE5
FFB2
FFD7
0048
FFF2
001B
FFEB
0028
FFEB
FFCA
0073
000D
FFD6
FFCF
FFD9
FFE8
FFF5
0004
FFF4
0000
0006
0000
FFE9
000B
FFF9
FFF1
0087
FFC8
0020
FF89
FFE5
FF89
FFF3
FFF1
FFFE
0005
0012
FFF4
FFCE
FFCF
0010
FFC4
0024
FFFF
FFBC
FFFD
001A
0036
0022
0018
0000
FFE9
000A
002F
0003
0064
0004
0032
FFFE
0018
002A
0004
FFB0
FFEC
0010
FFBC
FFFF
0024
0018
0016
FFE0
0046
004C
003F
006D
FFD4
FFF9
0013
0003
0000
0013
001B
FFB7
FFC7
0015
0024
FFE1
001C
FFE7
FFD8
FFFF
004D
003E
001E
FFF0
FFD7
0007
0009
FFF5
FFDF
0041
FFA0
FF74
FFEC
0020
FFF8
002F
0030
FFBA
FFC2
0049
003E
000C
FFCC
0023
0049
FFD8
0043
FFDD
0004
FFB8
0079
0024
001C
FFFE
FFFB
FFFD
0035
001F
FFFC
FFF8
FFEF
FFBB
FFFA
FFEE
0097
0021
FFE7
000F
003D
FFD8
FFFD
0044
0017
0024
FFC3
0037
000B
001C
FFC7
FFFD
000B
FFE8
FFE2
FFCE
0026
FFFF
FFCD
FFFC
0030
0006
0004
0020
001B
000A
FFE0
FFEF
FFFC
FFCD
002E
FFFC
0001
0016
0077
0010
0027
0035
FFE7
FFF0
FFE7
FFB9
FFF0
FFC9
0027
0020
FF9C
0045
FF9F
0031
FFC0
002C
0022
FFF9
0037
FFEE
FFFA
0026
0001
000F
FFEE
0018
000E
0061
004E
FFB6
FFEE
0031
0050
000F
FFD1
001A
FFFF
0008
0017
FFF2
FFFF
FF1F
FFED
FFF8
001E
0007
FFD8
FFCB
0046
FFF7
0015
FFF0
FFD0
FFD4
FFD0
FFD2
0020
FFCE
002F
FFEC
0016
FFFD
0027
0050
0070
FFD9
FFED
FFF0
FFDC
0021
0043
FFD8
0051
FFEC
001B
FFC0
0065
FFFF
FF88
FFAC
0014
FFDC
FFCC
003C
0004
000E
FFFE
FFC3
002A
FFDC
FFF1
FFE2
FFB4
FFDE
FFFC
001B
000C
0024
0030
006F
FFE1
FF9A
FFFE
0010
FFFF
FFA1
FFF2
FFFD
000F
FFCF
003B
FFD1
0053
FFF6
0009
FFDC
000A
FFEF
FFC9
FFB8
003E
0021
000E
FFF0
001B
FFCF
FFCC
FFDD
0079
FFDA
FFCA
FFFC
0002
0016
0004
0017
0059
001D
000A
FFFE
0000
0022
FFA8
FFC8
0028
FFE0
0036
FFF9
FFF3
0044
FFF0
0003
FFD0
FFA0
FFC1
0039
002E
FFD0
FFEB
0004
0027
002F
0009
005D
000C
FFF4
000A
001B
FF9C
FFD3
FFF3
0008
FFD1
FFFD
0032
000A
000B
FFB9
FFE0
0000
FFE3
FFF4
FF94
FF92
000A
000E
FFF8
FFE1
FFD5
0020
FFDE
FFAD
FFF3
003A
0000
FFC2
FFD0
FFCF
FFF1
FFD1
FFDD
002E
0023
FF90
0072
FFF8
FF11
000B
0018
FFEF
FF79
0046
FFFC
0032
FFD7
0010
FFDC
FFA7
FFB0
001D
005C
0003
0036
0030
FFDD
FFDE
FFDA
0004
0024
FFBF
002F
FF5F
FFFC
FFF4
0009
002E
FFDB
0013
FFF4
001C
0037
FFE0
FFE3
FFBF
000F
0002
FFD3
FFA0
FFD7
0040
FFB6
FFF0
FFF9
000E
0010
001F
0005
FFCC
0020
FFC0
0023
FFE3
0020
001D
FFFF
0001
004D
000C
0022
FFB6
0009
FFD5
0021
002A
FFF1
FFF9
FFDD
FFD6
0036
FFE0
003E
0018
FFD4
FFFA
004C
0011
000F
0018
0014
FFF6
0004
003F
000A
003C
0036
FFBD
FFFF
0024
FFCD
FFE1
001F
003E
FFEB
0040
003C
0006
FFC7
0008
FFE4
0022
FFF9
000E
FFD3
FFE0
FFAD
001B
FFDC
0022
0021
0022
FFDA
0000
001B
FFE9
0000
FFD9
FFB6
FFC5
FFD1
FFFE
0024
FFF1
FFFE
0048
0030
0001
0000
0071
FFF3
FFF8
0041
002A
FFA7
FFEA
FFFE
FFFE
FFD0
FFF5
0019
FFB0
FFE6
FFE8
FFE2
003E
FFDD
FFF2
0004
FFFC
FFE2
0030
000D
0003
002C
FFD8
FFFB
0026
000A
FFE0
FFD6
FFE9
FFD4
FFF5
0008
FFFF
0000
001D
FFDC
FFFE
FFFB
FFFE
FFE3
0001
0009
FFE0
FFEA
0023
0022
FFD9
0021
0000
0008
FFBE
FFC5
000B
FF9B
FFE1
0000
0028
0000
FFF6
FFF1
0021
0020
0020
FFFE
0001
FFA4
FFCD
FFDE
FFFC
FFCE
FFE9
FFCC
FFCC
FFF8
FFA8
FFF9
001F
FFB2
FFF4
FFFB
FFF2
FFCF
001F
FFF1
002C
0030
FFEC
FFD3
0001
0016
000A
0010
FFF1
0019
FFEF
0008
001F
0007
000E
FFEC
0005
003C
0048
FFE7
FFF9
0016
0003
FFF4
0026
0048
FFE5
FFFD
FFF8
FFDE
FFD6
FFF0
FFF1
FF9E
FFC8
0021
FFFE
FFF6
0006
0026
FFD1
FFE8
0040
0018
000D
FFCB
FFFB
FFBA
001E
0020
001E
0071
0050
008F
0011
002A
0012
FFD5
FFB4
0011
FFED
FFFF
0009
001C
0024
FFFF
003B
FFEC
FFEE
FFA7
FFD8
0024
FFF2
0027
FFD8
000E
0016
FFF2
FFEF
FFD7
000F
0032
0037
FFE5
0009
FFDC
0036
FFEC
FFEC
0048
FFDC
001E
0015
FFBE
FFFA
FFFF
FFC9
004B
0028
FFFB
FFE6
0026
FFE1
0019
FFF3
FFC0
000A
FFCB
FFFC
FFDD
FFED
001C
FFB0
0055
0011
FFF7
FFDA
FFF1
FFFD
FFDA
0033
000D
FFBE
0004
FFDA
FFFE
0001
FFF7
0046
0008
FFF1
FF98
FFD2
0005
0048
0001
0008
003A
FF9E
FFDC
FFE1
002F
0034
FFB8
FFCF
0024
FFE8
001B
FFFF
0038
0086
0028
FFD0
0004
0054
FFF2
FFF5
FFA5
FFE2
FFFE
FFDC
0012
0049
FF92
0040
008F
FF8F
0014
003E
007D
FFB0
FFFC
FF25
0007
004C
FFB3
0056
0027
000B
0030
0013
0011
001A
001C
0025
FFF7
0030
FFCE
FFF5
FFF4
FFD6
0001
FFFC
0000
FFE6
000A
0018
FFDF
0008
FFF2
FFFF
0001
005E
0014
0022
0030
0049
002F
FFE6
FFF9
001F
FFE7
0042
0022
FFDE
FFF2
FFE6
FFD0
0091
0009
FFE7
FFE6
FFB5
FFF9
FFDF
FFCF
FFB4
0029
0003
0023
002F
FFEB
FFC8
000D
FFEA
002F
00A4
FFDF
0052
FFCD
0039
FFFF
003E
0012
FFF4
0000
0044
FFFF
000A
FFCD
FFC1
FFFB
FFF2
FFA1
0022
FFB9
FFD5
0028
0027
FFDD
FFC3
FFD8
0009
FF93
001D
0026
0068
002B
FFF0
FFDE
FFBC
FFEF
0040
0008
FFCD
FFF0
0008
000C
FFDD
FFF8
000D
0018
FFE0
FFFE
FFC0
FFC6
FFC0
FFDF
FFF9
FFE9
0025
FFD9
FFD4
0063
005B
FFCA
002C
0000
FFFF
FFDA
0036
FFF6
0020
FFE9
FFE8
0007
FFFC
FFEF
0002
001E
0045
0014
FFF0
FFA0
001B
003E
FFE5
FFA8
0047
FFF9
002C
003B
0005
FFCE
0040
FFFD
FFF0
0021
FFC8
FFFE
FFFE
FFD7
000B
0014
FFEE
FFE2
0064
003C
0008
FFE4
FFE3
0033
001B
FFE6
FFF5
0007
FFF4
FFF5
003A
0004
0062
FFEC
0003
000E
FFF4
FFDF
FFEC
FFF1
000F
0013
0012
FFE6
005D
FFC0
FFFA
0014
0023
0026
0005
FFF6
FFC4
FFC3
002F
0009
FFFC
0005
000E
FFE9
0013
0038
FFFF
0053
FFBA
0047
FFE3
FFDD
003D
0031
0003
004E
0002
FFF8
0000
0000
0003
FFFC
0007
0006
0005
FFE4
FFF5
0028
FFFE
0014
FFD8
003E
0080
FFF4
0004
0000
001A
FFEF
000D
0020
0019
0011
FFD7
0071
0014
FFE2
FFF9
0004
FFD9
0001
006E
0002
001D
FFFC
003B
0012
FFF9
FFDC
001D
0044
FFDF
0008
FFEF
FFF5
0044
FFD3
0030
0039
001C
FFC4
FFCB
0000
0023
FFF8
FF88
002D
FFFA
0004
FFEF
0030
0025
FFF8
FFDB
FFEF
FFED
000C
001E
FFFB
FFE2
000D
FFF9
0018
0041
002A
000F
FFC8
FFFE
0039
0012
003E
FFCB
0003
003E
0021
0018
0038
0011
0000
0034
FFEC
FFE9
FFF6
FFD0
0011
002B
0019
FFB0
FFFE
FFD3
FFE1
FFE0
000E
FFB8
001F
FFF9
0042
FFF8
FFD6
0070
FFF0
0006
0042
0008
FFC1
001B
0007
FFD2
0014
001A
0041
0005
FFF8
FFF6
0064
001E
0021
FFFC
FFF6
FFFC
0008
FFF1
0039
0026
0022
001A
0009
000E
001A
FFF7
0004
0002
000F
FFFC
0014
0012
FFC1
0051
0033
0020
FFD2
FFE0
FFE1
0020
0017
0004
0005
0011
0019
FFDB
FFEB
0000
FFFB
FFC1
0002
FFE0
FFF8
0019
FFC4
FFD5
FFAF
FFF2
FFE4
000D
FFC2
0029
FFE4
FFDB
FFF8
FFDA
FFD9
FFF0
FFF8
FFFF
003B
000B
0047
FFF7
000D
FFED
FFE8
FFF0
FFF1
0012
0040
FFE8
FFDB
FFD1
0037
0034
FFF0
FFF3
FFDF
FFFB
FFFA
FFF1
FFC6
0001
0013
FFC9
001E
0028
0043
0000
FFFB
FFD6
0028
FFF0
FFF1
FFEC
0001
0004
0000
FFC4
0001
FFEC
FFCA
0041
0015
FFD4
FFF5
FFD8
0002
FFF5
0002
0018
FFFD
FFFE
0000
FFF1
FFF7
FFE4
FFF4
0046
FFD8
0003
FFDD
007C
FFDE
FFFA
0013
FFFA
0010
0023
FFFE
0000
FFC6
0040
0009
003F
0037
0016
0028
0079
FFC2
001F
0003
FFB3
0032
006D
000B
FFE1
0002
FFFE
0013
FFBE
FFCC
FFF0
FFF4
FFE7
001E
FFF7
0006
001C
FFE1
002C
FFC1
FFC3
FFF9
FFFF
FFF0
0060
0020
FFEE
0020
0027
FFBC
0000
FFE6
FFF6
FFF4
FFC9
FFEE
0031
FFE6
0005
0049
003B
FFFE
FFDF
006C
FF9C
FFF6
0066
002A
FFF9
FFC4
0049
FFD4
0042
FFC5
003A
0029
FFE3
0018
0002
0004
006E
FFD2
FFFE
FFF4
0005
FFDE
FFEC
0010
0021
000E
0002
000C
002C
FFEE
FFE2
003B
0015
0021
FFF7
003B
FFD5
FFF1
0031
FFE5
FFF2
FFD9
FFC4
FFAB
0050
001C
002C
001D
FFE1
FFD8
FFC6
FFDA
001B
FFF5
FFB0
FFB8
0053
0044
0005
0004
0019
FFC7
FFD1
001A
0039
001A
FFDD
FFCC
0011
0011
FFB3
0013
0007
0038
FFF1
0010
FFE8
0008
0004
000D
FFF7
0040
FFFE
0002
FFFE
001C
0038
FFE9
0000
FFE5
004A
FFF8
FFFD
FFEB
FFC0
0028
002F
FFFE
003B
FFEB
FFF0
0009
0001
FFC0
0024
FFBE
0001
FFE3
FFDB
FFF8
001C
0011
0007
0013
FFAA
FF89
001F
0004
FFEF
FFBF
0042
002E
FFEE
FFD6
0015
FF88
001C
001C
FFE8
0001
FF94
0002
FFFF
000B
000B
0024
FFDE
0008
FFEF
0001
0021
FFE9
FFB4
FFF9
007D
0003
0026
FFEE
0006
FFF3
0018
FFF2
002A
FFF1
0013
FFFF
FFC5
FFF0
FF96
004C
FFC3
0021
FFE0
FFD9
0009
FFF7
FFE8
FFDA
FFDA
0043
002E
FFE9
FFD4
0021
FFF4
0062
0041
FFE0
0021
0056
001D
FFE0
0000
FFDD
FFFC
FFFE
0001
0054
FFDC
000E
FFB0
FFD8
004F
000E
00A1
0042
0001
FF77
0039
FFD9
001E
0008
000E
0013
002A
FFF5
0003
FFF3
FFFF
0041
003B
000B
FF8D
FFE0
FFF0
000F
FFF8
0013
FFD2
0015
FFED
FFFC
FFF4
0018
002F
FFC7
0005
001A
FFD5
FFEC
FFF8
0014
0006
FFF2
000B
FFDD
FFFC
0036
0064
0012
FFE3
0025
002B
FFED
FFFE
FFF7
0013
FFFC
0033
001E
0042
001E
FFC5
FFF3
0020
FFED
0001
FFF8
0008
001B
FF71
FFC4
0002
FFDF
0013
000C
0019
FFFE
0015
FFDF
FFE4
0028
FFF9
000F
0031
FF88
0039
0079
FFDF
FF7E
0019
0042
FF88
FFF4
0047
005E
0048
0017
0057
FFC5
FF87
FFFE
003B
0022
0023
002F
FFE5
FFDD
0050
FFDE
0001
0008
0024
0010
FFCF
0039
0000
FFFA
FFBE
0001
FFF8
000F
FFF0
0041
002C
0002
0000
000E
FFE9
0012
FFE4
0001
FFFE
0032
FFB8
0006
FFFC
0003
FFEC
FFDB
0011
0029
000D
FFFD
FFF9
FFEE
0001
FFEE
FFAE
FFE8
000C
001C
000F
FFC1
FFF7
FFA2
001C
FFE4
FFF4
003E
0005
FFFA
FFC8
0002
FFF8
0000
FFD6
000B
0027
FFE9
0029
FFE6
0023
0030
0046
FFE2
0016
0006
0008
FFC5
FFF7
0004
0025
001D
0032
0055
FFE2
0010
0020
0002
0023
FFC0
FFFB
FFF6
003D
0035
0031
0030
0025
003C
0016
FFC0
FFE0
0007
FFC4
FFED
0022
0037
0022
0005
0018
0011
002B
FFED
FFF8
0011
FFEC
FFCA
FFFB
0016
003B
FFDB
0004
0026
0010
0011
0020
FFF0
FFE2
000A
0000
FFF1
0002
0003
000F
0020
FFDB
FFEE
FFCD
FFF5
FFDE
002B
0034
FFF1
FFD4
FFF7
001E
001E
FFEA
0008
0043
002F
0010
FFF0
0026
0010
FFF9
0003
FFC9
0028
0014
002D
FFD4
FFDF
0064
0030
FFF0
FF8E
FFCF
001B
FFF4
0014
0016
FFF8
FFEF
FF7E
000D
001D
001F
FFCE
FFE9
000C
FFF1
FFF0
FFEF
FFF0
FFF1
FF91
0003
0018
0041
FFF3
002D
0005
FFF3
0019
000C
FFBC
001E
FFE4
0002
FFF4
FFEB
FFD4
FFF6
0011
FFF3
FF83
FFE9
0012
FFFE
004E
0024
004C
FFEC
0007
0028
0022
0001
FFF0
0002
FFE9
000F
FFFA
FFF1
008C
0010
0003
FFEB
FFF5
00A8
FFFA
FFC6
FFE0
FFDE
FFF9
003C
FFFC
FFB2
FFF6
FFED
002F
FFFF
FFDE
0038
0038
0012
0002
FFE3
0004
0021
0008
0044
002D
0020
0040
0052
FFC7
0044
0016
FFD9
FF9F
0050
0000
FFF9
FFF7
FFCB
FFD1
001D
FFBB
000F
FFD8
001F
0025
FFCF
FFFE
FFB7
001D
FFEE
FFFA
000A
FFB2
FFEA
FFEF
0005
0020
000C
0019
FFB7
002E
FFF3
0018
FF61
0031
FFE5
0016
FFBF
0025
0001
FFC0
0007
FFC3
FFC1
0007
FFFA
0001
0031
FFE4
FFE1
FFEC
FFEC
FFAA
0042
FFF0
0005
FFE7
0044
0006
FFF1
FFF0
0004
FFE9
0038
FFCE
FF9D
FFE8
0057
0020
000E
000F
FFE0
001B
003F
FFE0
FFEA
FFEA
0050
0038
FFEF
FFFF
0000
FFF7
FFC7
0024
0023
000B
0009
FFE0
0064
FFD8
0048
FFF6
FFFD
0041
FFDC
000D
0007
FFBE
FFA8
0007
FFF1
FFDF
FFF7
0009
0040
FFE4
FFE3
FFFD
FFFE
001A
FFBA
0003
FFF7
0028
FFF8
0004
FFFA
FFE9
001E
0000
0015
002B
FFB6
0000
0001
FFEF
0041
0004
0029
FFCD
002A
000F
002C
FFD1
FFB8
0004
FFE1
000A
FFFC
0010
FFEC
003F
FFF5
FFF1
FFEF
FFFF
FFCC
FFF3
FFDE
0057
0045
000F
FFE2
FFF7
FFE3
0012
0005
FFE9
0020
FFDE
002D
0035
FFED
0002
0012
FFDF
FFE3
0002
0009
0020
FFFB
0008
0013
FFE4
001A
0032
0018
FFA9
FFE5
0016
000A
FFE5
FFE5
FFA1
FFB7
FFEA
000D
FFE1
FFD1
FFF1
FFDC
000A
0040
FFEA
FFBC
0075
FF7D
0021
0028
FFFD
FFF1
000E
0009
0002
FFF1
0040
0002
FFDC
0033
000A
000A
0000
FFFE
FFF0
000A
0004
004C
FFFF
FFF4
002F
003A
000E
FFEA
FFB3
FFF4
FFBC
FFE1
0012
FFFF
0015
FFD7
FFE2
FFFB
FFE9
FFC7
FFDF
0009
0021
FFEA
FFD6
0013
FFFD
001E
005C
FFF4
FFFB
002E
FFB6
002F
FFBE
FFFE
FFFA
0010
FFF4
0009
FFEE
001E
0009
0001
001B
FFD5
0046
FFF6
0003
FFED
FFE1
002D
0001
0002
000C
FFF4
FFFB
0024
0005
FFE9
0004
001A
FFC8
FFF8
0043
0023
0080
FFE5
000E
0015
FFFF
0040
0005
0014
FFC4
FFC9
0006
FFF7
0005
FFFB
0010
001F
FFC9
FFDF
FFBD
FFB1
001E
FFE3
FFE3
0004
0038
002B
FFBB
FFC0
000E
FF7C
FFB0
FFDE
0028
FFBC
0006
0019
001F
FFA0
FFF7
FFFC
000D
002E
FFC5
003A
0015
0001
FFFB
000F
0019
FF8A
0000
000E
FFFD
FFFF
FFC9
0042
0012
FFFA
0040
0042
FFC4
0012
0046
FFB6
FFE2
0018
FFDE
FFF6
FF88
0031
FF9F
0040
001D
FFDC
FFE4
FFEC
0042
FFEE
0003
0010
FFBD
FFF1
0002
FFC4
FFDC
FFEF
002E
0004
FFFA
0020
FF9B
0055
0008
FFD5
0028
FFE1
0020
FFF3
0011
FFEC
FFF7
FFFF
002C
0005
FFD2
0015
000E
FFF2
002F
FFF4
FFFF
FFCD
FFD2
0039
000C
0001
003F
FFCE
FFE8
0040
001C
FFE1
0036
0049
FFE1
FFEF
003C
FF5B
FFA5
FFDF
FFF8
FFFF
0027
FF99
000C
FFE5
FFEA
0099
FFF7
000A
0023
FFFC
FFE5
FFC4
FFF9
0015
002C
FFFB
FFFF
FFD2
0006
FFEA
FFDF
000A
FFFF
0014
002E
FFC4
FFB7
FFBB
FFE1
FFE1
FFF8
FFDD
0020
FFB4
FFF4
0021
FFE0
000C
FFDA
0004
0014
0008
FFE8
0014
0009
000E
FFC7
0005
0010
0027
FFB0
FFE7
000D
001E
000B
0008
FFCA
0007
0045
FF8E
FFE3
FFF3
FFE5
FFE8
FFDD
FFDA
001E
FF76
FFE1
0025
FFF4
FFF0
0002
FFEF
0001
0024
FFD3
FFD2
FFE0
FFF1
0011
FFFB
FFF3
FFF7
0002
FFEB
0000
0000
000E
0007
FFE1
FFF8
0035
0018
0017
FFFD
0020
FFD4
0000
0028
002B
0044
FFFF
004A
FFF4
FFE0
FFFA
FFDD
FFF0
FFEE
FFC5
0000
0003
FFD2
FF72
FFB8
FFF9
0004
0066
000F
FFBF
000A
004D
FFAE
FFD9
FFC2
0008
FFA3
001D
FFF2
0042
0010
0002
0010
FFFE
FFE2
0028
0003
FFE9
0002
FFFA
FFEB
FFD5
0003
000A
FFE1
0022
0009
FFF9
0000
0030
FFE9
FFD6
FFFF
FFEF
0023
FFFE
FFEF
FFE7
FFC6
0015
0047
FFA8
FFE7
FFFD
001D
FFF8
002C
0015
FFD4
0013
FFF3
0028
001C
0001
0012
0009
FFF6
0004
FFF5
FFE6
000D
0029
FFE7
0018
FFE1
003E
001B
002A
FFEB
001B
0014
FFE0
000F
001C
FFF6
FFCC
FFCF
FFC2
0017
0011
0014
FFE7
FFF8
FFD0
FFF1
FFEB
FFC7
FFF8
0000
FFDF
FFA0
0008
FFE2
FFBA
FFB8
FFEA
FFBE
0038
0001
FFFB
FFE5
FFDF
000F
0005
0005
0001
0030
0003
FFFD
FFD5
FFFF
0010
FFEB
FFF7
FFFE
0009
FFA7
FFCB
FFC5
FFE7
FFC9
FFD4
FFF7
0007
FFEF
FFF4
FFFA
0034
FFE0
FFED
003D
001D
0005
0007
0031
FFF5
FFC6
FFE0
0039
0004
FFFA
0008
FFEF
0016
FFF9
0051
0055
0022
FFF4
FFC9
002B
FFCE
003E
0048
0042
FFFC
FFFE
0020
0038
0036
003A
001E
000A
0035
0021
002B
FFD9
0000
0008
0021
0004
0005
FFEE
0038
FFD2
002C
FFFF
002B
FFD4
0020
0044
0066
0005
003C
FFFC
000E
001B
FFFF
0004
001E
000A
000F
0031
0026
FFE2
0008
0008
FFDE
003C
FFFA
004F
FFF0
0046
FFAD
0007
0009
FFE7
FFCE
FFE2
0012
0002
0025
0000
000D
FFD6
FFFE
001A
0008
0014
0019
FFDE
001E
FFCE
0086
001F
001A
001D
0010
0035
0000
0029
FFBC
000A
0007
FFFD
002A
FFE8
0029
0007
0018
0001
FFE9
000A
001A
000C
006E
FFD7
0011
004B
0026
FFF9
FFD5
0022
FFE3
FFD1
0023
FFC5
FFFA
FFFE
005F
0002
0014
FFF6
FFEC
0020
FFFA
0032
FFC6
000D
FFED
FFF3
0006
FFBA
000B
FFD1
0033
0010
FFD9
FF78
FFFC
003A
FFDA
FFDC
0004
FFFC
FFEF
FFB9
006F
FFD4
FFEC
000F
0024
003C
FFF3
FFFD
0025
FFA7
FFF6
0046
0021
FFDB
FFAB
0031
003C
000B
FFEB
0019
0044
000A
003B
FFCD
0041
0053
003B
0018
000D
0017
0025
FFFC
FFC5
FFBF
FFEC
0021
0087
0006
001E
000B
0026
0056
FFFF
0047
FFC2
FFF3
FFD6
FFE5
0019
FFE1
0027
0007
0030
FFC3
FFB7
FFA8
0015
000F
FFF4
FFF9
0042
FFFB
000B
FFB9
0061
FFF6
0020
0011
002B
0021
FFF3
FFF8
004B
FFDC
FFC5
000B
0029
FFE1
FFCE
0014
0067
FFE4
FFDD
0021
0021
FFFD
0006
FFEA
0018
0009
0017
FFED
FFC4
0044
FFDE
FFC1
FFAB
FFBF
FFF9
FFE9
007F
FFE0
FFCE
FFED
000C
FFF8
0041
0052
FFCF
003F
FFD9
FFF9
FFFD
0030
0051
0000
0005
FFEF
0001
FFE5
0018
FFF2
0000
FFD0
0062
0003
FFBA
0008
0032
FFE0
FFE2
FFFD
0042
0007
FFB0
0040
0001
FFC0
0035
0010
0022
0021
FFB9
006E
0051
FFF0
000B
0008
007D
000A
001A
FFF7
0040
0005
0047
0039
0011
00B4
0011
001C
FF89
FFB7
FFDF
0023
002E
FFD1
FFDA
FFC4
0028
FFBC
003C
0000
0012
0040
FFB2
FFE5
0002
0023
0011
FFFE
0015
FFCD
FFDA
0014
FFF8
0000
FFFE
FFED
FFBE
0018
FFEB
000B
0049
FFFC
FFE6
FFD1
FF80
FFC8
0040
FFD2
001F
0017
FFEB
002F
0001
FFC4
0040
FFE4
0052
FFF6
FFEC
0018
0030
0022
FFA8
FFD8
004C
FFE2
FFFE
002C
FFC6
0021
FFFF
0022
FF6F
FFFD
001C
FFFD
FFE5
0038
0022
0021
FFFA
FFDC
FFF1
0019
FFD1
0040
FFFC
FFD9
0008
FFEE
FFFC
0037
FFBC
FFDC
0001
0017
FFF5
FFE6
FFE0
FFC2
0013
0014
0069
FFB9
0021
0024
FFF9
002C
FFF7
0000
FFB8
FFFC
FFF4
000B
FFF8
FFE0
001A
001C
FFBA
0085
000E
FFF0
0013
FFFB
FFC4
0009
0006
0004
FFF9
FFFD
FFF6
0021
FFDE
FF8C
FFD5
001A
FFF0
0000
0050
FFC4
0049
FFF8
FFF0
0000
0010
0004
003C
FFA5
FFE1
