-0.69398820400238037109375000000000
0.01399923022836446762084960937500
0.19546301662921905517578125000000
-0.41192185878753662109375000000000
-0.00627143308520317077636718750000
0.62199664115905761718750000000000
0.19679608941078186035156250000000
-0.35969409346580505371093750000000
-0.15830053389072418212890625000000
-1.20449697971343994140625000000000
-0.42811238765716552734375000000000
-0.26771742105484008789062500000000
-0.67774915695190429687500000000000
-0.05720989406108856201171875000000
-0.26371467113494873046875000000000
-0.15665543079376220703125000000000
0.34170320630073547363281250000000
-0.36958426237106323242187500000000
-0.21405710279941558837890625000000
0.15457515418529510498046875000000
1.04422450065612792968750000000000
0.32512187957763671875000000000000
-0.56258094310760498046875000000000
0.15171405673027038574218750000000
-0.92260205745697021484375000000000
-0.49515667557716369628906250000000
0.47738376259803771972656250000000
-0.37147876620292663574218750000000
-0.07895227521657943725585937500000
-0.02608820982277393341064453125000
-0.92040878534317016601562500000000
0.38575875759124755859375000000000
-0.11524027585983276367187500000000
-0.20999339222908020019531250000000
0.79911601543426513671875000000000
-0.12636598944664001464843750000000
-0.02151275984942913055419921875000
-0.29139089584350585937500000000000
0.23483090102672576904296875000000
-0.39622861146926879882812500000000
0.31310060620307922363281250000000
-0.30126902461051940917968750000000
0.03121499903500080108642578125000
0.70071822404861450195312500000000
-0.02210277318954467773437500000000
-0.04682001844048500061035156250000
-0.12918902933597564697265625000000
0.42411988973617553710937500000000
0.44075655937194824218750000000000
-0.25331190228462219238281250000000
-0.07199738174676895141601562500000
-0.00131085515022277832031250000000
0.01961748860776424407958984375000
0.03998200222849845886230468750000
-0.29973050951957702636718750000000
-0.21153627336025238037109375000000
-0.40155971050262451171875000000000
-0.17138729989528656005859375000000
-0.04593622684478759765625000000000
-0.51181101799011230468750000000000
-0.04440165311098098754882812500000
-0.17708122730255126953125000000000
0.20204475522041320800781250000000
-0.25530391931533813476562500000000
-0.75779628753662109375000000000000
-0.68253195285797119140625000000000
0.73395633697509765625000000000000
0.26042440533638000488281250000000
-0.20638270676136016845703125000000
0.25454041361808776855468750000000
0.69634634256362915039062500000000
-1.00688087940216064453125000000000
0.07461199164390563964843750000000
-0.08507425338029861450195312500000
-0.35015282034873962402343750000000
0.02715159393846988677978515625000
-0.58575552701950073242187500000000
-0.26008576154708862304687500000000
-0.21888419985771179199218750000000
0.29294249415397644042968750000000
0.44620570540428161621093750000000
-0.69799357652664184570312500000000
-0.78093552589416503906250000000000
-0.20501811802387237548828125000000
0.13685661554336547851562500000000
0.10384290665388107299804687500000
-0.36007726192474365234375000000000
0.51039284467697143554687500000000
-0.48359590768814086914062500000000
-1.04360818862915039062500000000000
-0.13220310211181640625000000000000
0.14831288158893585205078125000000
0.07268713414669036865234375000000
-0.34819081425666809082031250000000
-0.55860084295272827148437500000000
-0.34580048918724060058593750000000
0.16941531002521514892578125000000
-0.13512399792671203613281250000000
-0.39516454935073852539062500000000
-0.40914034843444824218750000000000
-0.09367461502552032470703125000000
-0.42570248246192932128906250000000
-0.26434114575386047363281250000000
-0.74532479047775268554687500000000
-0.67804253101348876953125000000000
0.03831123560667037963867187500000
-0.20918272435665130615234375000000
-0.00246734567917883396148681640625
-0.13721862435340881347656250000000
0.31178191304206848144531250000000
0.93139302730560302734375000000000
-0.60248839855194091796875000000000
0.75910043716430664062500000000000
-0.14754618704319000244140625000000
0.33014804124832153320312500000000
0.30925002694129943847656250000000
0.81747436523437500000000000000000
0.93070691823959350585937500000000
-0.40205171704292297363281250000000
-0.99434131383895874023437500000000
0.55647343397140502929687500000000
-0.40033996105194091796875000000000
0.60599821805953979492187500000000
0.54941749572753906250000000000000
-0.18499444425106048583984375000000
-0.42417520284652709960937500000000
0.45162713527679443359375000000000
0.78445035219192504882812500000000
-0.01992153190076351165771484375000
-0.43890643119812011718750000000000
-0.29964300990104675292968750000000
-0.37619739770889282226562500000000
-0.18037433922290802001953125000000
-0.13092522323131561279296875000000
-0.39830291271209716796875000000000
0.25208464264869689941406250000000
0.19052118062973022460937500000000
-0.66124421358108520507812500000000
0.58819055557250976562500000000000
0.39779242873191833496093750000000
-0.47379517555236816406250000000000
-0.59814876317977905273437500000000
0.01169482246041297912597656250000
0.18400853872299194335937500000000
0.15082247555255889892578125000000
0.38166663050651550292968750000000
-0.09033808112144470214843750000000
-0.11238332837820053100585937500000
0.14782756567001342773437500000000
0.52128583192825317382812500000000
0.05820761248469352722167968750000
0.02659728564321994781494140625000
0.04385086521506309509277343750000
0.44216027855873107910156250000000
-0.25482800602912902832031250000000
0.37681162357330322265625000000000
0.10460016131401062011718750000000
0.14795061945915222167968750000000
-0.08006931096315383911132812500000
-0.47136035561561584472656250000000
1.07948219776153564453125000000000
-0.19293805956840515136718750000000
0.31590574979782104492187500000000
-0.15884871780872344970703125000000
1.28684759140014648437500000000000
0.68777823448181152343750000000000
-0.33291101455688476562500000000000
-0.09257897734642028808593750000000
0.41391339898109436035156250000000
-0.14022916555404663085937500000000
-0.13516572117805480957031250000000
-0.14722989499568939208984375000000
-0.67735660076141357421875000000000
-0.33972895145416259765625000000000
-0.01501411292701959609985351562500
0.07309653609991073608398437500000
0.60870975255966186523437500000000
0.52742612361907958984375000000000
-0.14526173472404479980468750000000
0.53334492444992065429687500000000
0.10119625926017761230468750000000
0.14978687465190887451171875000000
-0.30399531126022338867187500000000
-0.27583560347557067871093750000000
-0.01530502829700708389282226562500
0.16681835055351257324218750000000
0.41175934672355651855468750000000
-0.76994168758392333984375000000000
-0.27319261431694030761718750000000
0.33414840698242187500000000000000
-0.10713269561529159545898437500000
-0.43597200512886047363281250000000
0.42518672347068786621093750000000
0.56601619720458984375000000000000
0.35895159840583801269531250000000
0.05440886318683624267578125000000
0.40225487947463989257812500000000
-0.11769864708185195922851562500000
0.40435349941253662109375000000000
-0.46918621659278869628906250000000
1.01241493225097656250000000000000
0.11248489469289779663085937500000
-0.28637653589248657226562500000000
0.00556782493367791175842285156250
-0.54686921834945678710937500000000
-0.16582520306110382080078125000000
0.04421721771359443664550781250000
0.44919177889823913574218750000000
-0.08064988255500793457031250000000
0.20745131373405456542968750000000
-0.40705984830856323242187500000000
-0.42881405353546142578125000000000
-0.15218967199325561523437500000000
-0.22276876866817474365234375000000
-1.04136586189270019531250000000000
-0.24088226258754730224609375000000
-0.42802956700325012207031250000000
-0.49711748957633972167968750000000
0.20822723209857940673828125000000
-0.26244774460792541503906250000000
-0.01200975012034177780151367187500
-0.03956556692719459533691406250000
-0.13372340798377990722656250000000
0.76640266180038452148437500000000
-0.29065886139869689941406250000000
0.24647860229015350341796875000000
-0.63781464099884033203125000000000
-0.57862699031829833984375000000000
-0.57720828056335449218750000000000
-1.30482470989227294921875000000000
-0.84427428245544433593750000000000
-0.55387467145919799804687500000000
0.07674194872379302978515625000000
0.13319158554077148437500000000000
-0.63095092773437500000000000000000
-0.55651283264160156250000000000000
0.51150643825531005859375000000000
-0.56149137020111083984375000000000
-0.13554199039936065673828125000000
-0.53902602195739746093750000000000
-0.72432905435562133789062500000000
0.53943341970443725585937500000000
-0.79654330015182495117187500000000
-0.30253741145133972167968750000000
-0.63591760396957397460937500000000
-0.21882389485836029052734375000000
-0.12245451658964157104492187500000
-0.74926328659057617187500000000000
-0.24001346528530120849609375000000
-0.15873222053050994873046875000000
-0.01525171287357807159423828125000
0.21034699678421020507812500000000
0.09981872886419296264648437500000
0.00423465715721249580383300781250
-0.34769362211227416992187500000000
0.30480515956878662109375000000000
-0.44824630022048950195312500000000
-0.11540923267602920532226562500000
-0.04448302090167999267578125000000
-0.66271412372589111328125000000000
-0.16673175990581512451171875000000
-0.57270872592926025390625000000000
0.15917646884918212890625000000000
0.14735262095928192138671875000000
0.11780004948377609252929687500000
-0.33249676227569580078125000000000
0.05832177028059959411621093750000
-0.01776385121047496795654296875000
-0.50207883119583129882812500000000
-0.52259647846221923828125000000000
-0.84353047609329223632812500000000
0.36115640401840209960937500000000
-0.54073393344879150390625000000000
-0.21741314232349395751953125000000
-0.93563866615295410156250000000000
-0.65849649906158447265625000000000
0.20301784574985504150390625000000
-0.09310934692621231079101562500000
0.03040987253189086914062500000000
0.15678246319293975830078125000000
-0.06505770981311798095703125000000
0.22102054953575134277343750000000
0.60084986686706542968750000000000
0.18520554900169372558593750000000
0.42730739712715148925781250000000
-0.09943633526563644409179687500000
0.02145627327263355255126953125000
0.06069557368755340576171875000000
0.23913997411727905273437500000000
0.19107098877429962158203125000000
0.19314593076705932617187500000000
0.76650971174240112304687500000000
-0.32179725170135498046875000000000
0.39485770463943481445312500000000
0.08467108011245727539062500000000
-0.24576184153556823730468750000000
0.05187998339533805847167968750000
-0.47099485993385314941406250000000
0.22625699639320373535156250000000
0.18242585659027099609375000000000
0.40186241269111633300781250000000
0.36805543303489685058593750000000
-0.87736588716506958007812500000000
0.25168237090110778808593750000000
0.17117707431316375732421875000000
0.01537094637751579284667968750000
0.62140583992004394531250000000000
-0.74901467561721801757812500000000
-0.90518027544021606445312500000000
0.43256843090057373046875000000000
-0.21002063155174255371093750000000
0.32023608684539794921875000000000
0.05964152142405509948730468750000
-0.37877449393272399902343750000000
-0.64509022235870361328125000000000
0.02690211869776248931884765625000
1.42091310024261474609375000000000
1.74301004409790039062500000000000
-0.61654067039489746093750000000000
0.59037226438522338867187500000000
-0.27113199234008789062500000000000
-0.04540530219674110412597656250000
0.89314037561416625976562500000000
-0.13221015036106109619140625000000
0.40181627869606018066406250000000
0.14713601768016815185546875000000
-0.44433921575546264648437500000000
-0.28267306089401245117187500000000
-0.34261226654052734375000000000000
-0.72571253776550292968750000000000
-0.15111812949180603027343750000000
0.07329646497964859008789062500000
-0.56067329645156860351562500000000
0.41241270303726196289062500000000
-0.62474018335342407226562500000000
0.36086392402648925781250000000000
0.64398556947708129882812500000000
-0.16902688145637512207031250000000
0.13194645941257476806640625000000
-0.61388868093490600585937500000000
0.13518795371055603027343750000000
-0.75062793493270874023437500000000
-0.76067727804183959960937500000000
-0.17814788222312927246093750000000
-0.71279782056808471679687500000000
-0.14656037092208862304687500000000
0.10744628310203552246093750000000
-0.63880604505538940429687500000000
-0.33152994513511657714843750000000
0.06249087303876876831054687500000
0.20385681092739105224609375000000
0.22953099012374877929687500000000
0.15747381746768951416015625000000
0.19811323285102844238281250000000
-0.00159108894877135753631591796875
0.23277884721755981445312500000000
-0.18636798858642578125000000000000
0.19548547267913818359375000000000
0.08238498866558074951171875000000
-0.31278195977210998535156250000000
-0.47683194279670715332031250000000
-0.25261840224266052246093750000000
-0.77931350469589233398437500000000
-0.26820594072341918945312500000000
0.09218473732471466064453125000000
0.10247161984443664550781250000000
-0.26285246014595031738281250000000
0.63025027513504028320312500000000
0.47294980287551879882812500000000
0.07677873224020004272460937500000
-0.08575237542390823364257812500000
-0.15636162459850311279296875000000
-0.09948854148387908935546875000000
0.25457841157913208007812500000000
-0.71451818943023681640625000000000
-0.54874694347381591796875000000000
-0.24908266961574554443359375000000
0.14553213119506835937500000000000
-0.23811683058738708496093750000000
0.06089718267321586608886718750000
0.17132464051246643066406250000000
-0.05313536152243614196777343750000
0.18301233649253845214843750000000
0.30210334062576293945312500000000
-0.27305391430854797363281250000000
-1.62692403793334960937500000000000
-0.04086764901876449584960937500000
0.03421310335397720336914062500000
-0.12152118980884552001953125000000
-0.15330950915813446044921875000000
-1.18242371082305908203125000000000
-0.03865429013967514038085937500000
-0.11489979922771453857421875000000
-0.02752057649195194244384765625000
-0.14510765671730041503906250000000
0.03750719502568244934082031250000
-0.53899747133255004882812500000000
-0.80760920047760009765625000000000
0.28657945990562438964843750000000
-1.09455633163452148437500000000000
0.56592303514480590820312500000000
-0.38616871833801269531250000000000
-0.16373381018638610839843750000000
0.14795944094657897949218750000000
-0.26616683602333068847656250000000
-0.80220472812652587890625000000000
-0.46191930770874023437500000000000
-0.55442219972610473632812500000000
-0.59520941972732543945312500000000
-0.00946606136858463287353515625000
-0.31238871812820434570312500000000
-0.16910482943058013916015625000000
0.08140619099140167236328125000000
-0.07252476364374160766601562500000
0.18848934769630432128906250000000
0.38193905353546142578125000000000
-0.33336707949638366699218750000000
0.33033218979835510253906250000000
0.23235599696636199951171875000000
0.66269093751907348632812500000000
0.43338084220886230468750000000000
0.16873717308044433593750000000000
-0.03865324333310127258300781250000
0.35377845168113708496093750000000
0.41312327980995178222656250000000
-0.51593571901321411132812500000000
0.11611925810575485229492187500000
0.29243144392967224121093750000000
0.38358068466186523437500000000000
-0.58310174942016601562500000000000
0.13852095603942871093750000000000
0.39099591970443725585937500000000
-0.21249885857105255126953125000000
0.38478159904479980468750000000000
0.17182552814483642578125000000000
-0.67405128479003906250000000000000
-0.35514989495277404785156250000000
0.45032414793968200683593750000000
-0.07045831531286239624023437500000
-0.00908523052930831909179687500000
0.50430411100387573242187500000000
0.38410773873329162597656250000000
-0.37913957238197326660156250000000
0.22763088345527648925781250000000
0.18844933807849884033203125000000
1.21355593204498291015625000000000
0.44691425561904907226562500000000
0.25250458717346191406250000000000
0.28084823489189147949218750000000
-0.46979048848152160644531250000000
0.35595330595970153808593750000000
0.81597161293029785156250000000000
0.02684970758855342864990234375000
0.26104024052619934082031250000000
-0.16395467519760131835937500000000
-0.46062964200973510742187500000000
-0.05797948688268661499023437500000
0.07354924827814102172851562500000
-0.75418335199356079101562500000000
-1.37082207202911376953125000000000
-0.45487838983535766601562500000000
-0.16289097070693969726562500000000
0.13063433766365051269531250000000
0.22511221468448638916015625000000
-0.76876211166381835937500000000000
0.34011638164520263671875000000000
0.04035457968711853027343750000000
0.16963969171047210693359375000000
-0.25797051191329956054687500000000
0.31204345822334289550781250000000
0.66249567270278930664062500000000
-0.61691832542419433593750000000000
-0.14493626356124877929687500000000
0.00963321607559919357299804687500
-0.10434535145759582519531250000000
-0.86673706769943237304687500000000
0.73084336519241333007812500000000
-0.19246694445610046386718750000000
0.36012488603591918945312500000000
-0.09057381004095077514648437500000
-0.32114383578300476074218750000000
-0.31197273731231689453125000000000
0.53568297624588012695312500000000
0.51560008525848388671875000000000
0.17932987213134765625000000000000
0.29441297054290771484375000000000
0.42908409237861633300781250000000
-0.25525075197219848632812500000000
0.92441558837890625000000000000000
0.28837859630584716796875000000000
0.34731516242027282714843750000000
0.22961944341659545898437500000000
0.16732540726661682128906250000000
-0.49227568507194519042968750000000
0.20868253707885742187500000000000
0.22702631354331970214843750000000
0.50889945030212402343750000000000
-0.83711594343185424804687500000000
-0.59638756513595581054687500000000
0.20408739149570465087890625000000
-0.16942359507083892822265625000000
-0.35681185126304626464843750000000
-0.38453206419944763183593750000000
0.25922143459320068359375000000000
0.40973025560379028320312500000000
-0.86754494905471801757812500000000
0.06202111393213272094726562500000
-0.33639568090438842773437500000000
-0.41324412822723388671875000000000
-0.26474046707153320312500000000000
0.49062213301658630371093750000000
0.11832736432552337646484375000000
