FFFE
FFFE
0002
0001
0000
FFFF
0000
0003
FFFF
FFFF
0002
FFFB
0000
0002
FFFD
0002
FFFD
0001
0003
FFFE
FFFF
0000
0007
FFFF
0000
0000
FFFE
0001
0005
0001
0005
FFFA
0004
FFFD
FFFF
0002
FFFF
0002
FFFF
FFFF
0003
0001
FFFF
0004
FFFA
0002
0000
0000
FFFF
FFFF
FFFE
0003
0001
FFFF
0000
0002
0002
FFFF
0001
FFFD
0000
0004
0004
FFFE
