-0.51095604896545410156250000000000
0.21149195730686187744140625000000
0.54122334718704223632812500000000
-0.56603938341140747070312500000000
-0.31811854243278503417968750000000
-0.04298610240221023559570312500000
-0.57690554857254028320312500000000
0.44602373242378234863281250000000
-0.44561743736267089843750000000000
0.05078060552477836608886718750000
-0.66681319475173950195312500000000
-0.41184341907501220703125000000000
-0.83184969425201416015625000000000
-0.64346170425415039062500000000000
-0.37022852897644042968750000000000
0.07560367882251739501953125000000
-0.58013874292373657226562500000000
-1.00788235664367675781250000000000
0.92965853214263916015625000000000
-0.08246434479951858520507812500000
-0.12318915128707885742187500000000
-0.47440075874328613281250000000000
-0.17896333336830139160156250000000
0.70481508970260620117187500000000
-0.40109610557556152343750000000000
-1.04782116413116455078125000000000
-0.55188322067260742187500000000000
0.51414865255355834960937500000000
-0.04657928645610809326171875000000
0.24821875989437103271484375000000
0.09630301594734191894531250000000
-0.83801519870758056640625000000000
0.06684911996126174926757812500000
-0.13223056495189666748046875000000
0.36439809203147888183593750000000
0.31454926729202270507812500000000
-0.34746062755584716796875000000000
-0.46715137362480163574218750000000
-0.21854804456233978271484375000000
-0.67303454875946044921875000000000
-0.62134385108947753906250000000000
-0.02177429571747779846191406250000
-0.32690018415451049804687500000000
-0.06438931077718734741210937500000
-0.44576796889305114746093750000000
0.08771856129169464111328125000000
-0.62140136957168579101562500000000
0.17972390353679656982421875000000
0.91422140598297119140625000000000
0.17378988862037658691406250000000
-0.13823580741882324218750000000000
-0.29957038164138793945312500000000
0.47523567080497741699218750000000
0.20011182129383087158203125000000
-0.53946793079376220703125000000000
-0.23223474621772766113281250000000
0.14999657869338989257812500000000
-0.64096504449844360351562500000000
-0.03065695054829120635986328125000
0.48289847373962402343750000000000
-0.01038166973739862442016601562500
-0.45652523636817932128906250000000
-0.79673856496810913085937500000000
0.56646603345870971679687500000000
0.19653351604938507080078125000000
-0.00038542301626875996589660644531
-0.12113916873931884765625000000000
-0.19330240786075592041015625000000
-0.10571759939193725585937500000000
0.06756506860256195068359375000000
0.43158230185508728027343750000000
-0.06542941927909851074218750000000
-0.11529447138309478759765625000000
0.04824868962168693542480468750000
0.25216099619865417480468750000000
0.06810560077428817749023437500000
0.24439853429794311523437500000000
0.55149126052856445312500000000000
-0.11967677623033523559570312500000
0.14699429273605346679687500000000
0.27870306372642517089843750000000
-0.03442910313606262207031250000000
-0.16696864366531372070312500000000
0.11941453069448471069335937500000
0.14897640049457550048828125000000
0.13992974162101745605468750000000
-0.16969892382621765136718750000000
0.39917016029357910156250000000000
0.00454960297793149948120117187500
-0.07910764217376708984375000000000
0.40099525451660156250000000000000
0.38362994790077209472656250000000
-0.20296898484230041503906250000000
-0.06069833412766456604003906250000
-0.03266238048672676086425781250000
0.45744478702545166015625000000000
-0.28625094890594482421875000000000
0.41206020116806030273437500000000
0.62769109010696411132812500000000
-0.52021628618240356445312500000000
0.01249402202665805816650390625000
0.16383463144302368164062500000000
0.16576316952705383300781250000000
-0.03318914398550987243652343750000
0.21218930184841156005859375000000
0.24635666608810424804687500000000
-0.30707821249961853027343750000000
0.66210609674453735351562500000000
-0.37960135936737060546875000000000
-0.01382506266236305236816406250000
-0.49136039614677429199218750000000
-0.14627793431282043457031250000000
0.35568529367446899414062500000000
0.00609144940972328186035156250000
-0.32944944500923156738281250000000
-0.66457837820053100585937500000000
0.58610779047012329101562500000000
-0.12811312079429626464843750000000
-0.29557272791862487792968750000000
0.30000635981559753417968750000000
-0.05080366879701614379882812500000
0.29479584097862243652343750000000
0.16722297668457031250000000000000
0.25679314136505126953125000000000
0.91308808326721191406250000000000
-0.31097811460494995117187500000000
0.43514645099639892578125000000000
0.12343534082174301147460937500000
-0.14922951161861419677734375000000
-0.43743398785591125488281250000000
-0.10458409786224365234375000000000
-0.38779175281524658203125000000000
0.23863908648490905761718750000000
-0.19161562621593475341796875000000
0.14555388689041137695312500000000
-0.28075191378593444824218750000000
0.14851294457912445068359375000000
0.15180328488349914550781250000000
-0.19792106747627258300781250000000
0.14300224184989929199218750000000
0.01325635891407728195190429687500
-0.15953515470027923583984375000000
-0.30612099170684814453125000000000
-1.51022863388061523437500000000000
-0.32066133618354797363281250000000
0.10733502358198165893554687500000
-0.14556653797626495361328125000000
0.15325078368186950683593750000000
-0.21212036907672882080078125000000
0.09328875690698623657226562500000
-0.19138292968273162841796875000000
-0.38835746049880981445312500000000
0.52170729637145996093750000000000
-0.27620756626129150390625000000000
0.13713103532791137695312500000000
-0.04783726856112480163574218750000
0.66434401273727416992187500000000
0.71824383735656738281250000000000
-0.32856342196464538574218750000000
-0.22473981976509094238281250000000
-0.57928395271301269531250000000000
0.06420882791280746459960937500000
-0.35773938894271850585937500000000
0.38534599542617797851562500000000
-0.19070231914520263671875000000000
0.04041423276066780090332031250000
-0.09155958145856857299804687500000
-0.25159335136413574218750000000000
0.01530590560287237167358398437500
-0.10493279993534088134765625000000
-0.15274004638195037841796875000000
0.21481296420097351074218750000000
-0.51278698444366455078125000000000
-0.19449707865715026855468750000000
-0.48492503166198730468750000000000
-0.71968513727188110351562500000000
-0.29821631312370300292968750000000
0.40231564640998840332031250000000
-0.07830348610877990722656250000000
-0.20800739526748657226562500000000
0.51461094617843627929687500000000
-0.17798455059528350830078125000000
0.42644065618515014648437500000000
0.16245469450950622558593750000000
-0.01905533298850059509277343750000
-0.33656486868858337402343750000000
-0.02045984566211700439453125000000
-0.22178098559379577636718750000000
-0.16754296422004699707031250000000
-0.20647388696670532226562500000000
-0.48090219497680664062500000000000
-0.25721842050552368164062500000000
0.19801406562328338623046875000000
-0.83074480295181274414062500000000
0.09557373821735382080078125000000
-0.70518088340759277343750000000000
-0.22495138645172119140625000000000
0.15755829215049743652343750000000
-0.46294051408767700195312500000000
-0.26895776391029357910156250000000
-0.48686987161636352539062500000000
0.19373953342437744140625000000000
-0.06463107466697692871093750000000
-0.34461632370948791503906250000000
0.00306245591491460800170898437500
0.37194308638572692871093750000000
0.12580284476280212402343750000000
-0.07443569600582122802734375000000
-0.75569075345993041992187500000000
-0.48916992545127868652343750000000
-0.74852871894836425781250000000000
0.14589487016201019287109375000000
0.30360293388366699218750000000000
-0.08251763880252838134765625000000
0.24154500663280487060546875000000
-0.12531380355358123779296875000000
-0.57761389017105102539062500000000
-0.53831642866134643554687500000000
-0.28972291946411132812500000000000
0.20632773637771606445312500000000
-0.28333395719528198242187500000000
-0.24716046452522277832031250000000
-0.31471624970436096191406250000000
-0.89273643493652343750000000000000
-0.18282647430896759033203125000000
-0.76929444074630737304687500000000
-0.05150357633829116821289062500000
0.29368206858634948730468750000000
-0.60948675870895385742187500000000
0.41041442751884460449218750000000
0.58060985803604125976562500000000
-1.04030108451843261718750000000000
-0.07754389941692352294921875000000
-0.06975837796926498413085937500000
-0.45742368698120117187500000000000
-0.76522183418273925781250000000000
-1.07823777198791503906250000000000
0.37636330723762512207031250000000
-0.66961175203323364257812500000000
-0.50493943691253662109375000000000
-0.46558645367622375488281250000000
0.03399681672453880310058593750000
-0.00724814413115382194519042968750
-0.13572065532207489013671875000000
-0.03975813835859298706054687500000
-0.45033308863639831542968750000000
0.62900221347808837890625000000000
-0.49942556023597717285156250000000
-0.39097061753273010253906250000000
0.23918117582798004150390625000000
-0.23529763519763946533203125000000
-0.67371171712875366210937500000000
0.46321046352386474609375000000000
-0.21476452052593231201171875000000
-0.45542627573013305664062500000000
0.44580161571502685546875000000000
-0.17171363532543182373046875000000
-0.30664026737213134765625000000000
-0.27825236320495605468750000000000
-0.49580249190330505371093750000000
-0.43864327669143676757812500000000
-0.28723976016044616699218750000000
-0.27031651139259338378906250000000
-0.59940910339355468750000000000000
0.27559944987297058105468750000000
0.28236752748489379882812500000000
-0.21713317930698394775390625000000
-0.35414069890975952148437500000000
0.58224302530288696289062500000000
-0.09261044859886169433593750000000
-0.52805882692337036132812500000000
-0.27453684806823730468750000000000
-0.36131691932678222656250000000000
0.01755873113870620727539062500000
-0.23931130766868591308593750000000
0.48983350396156311035156250000000
-0.52605766057968139648437500000000
0.31618189811706542968750000000000
-0.02845329791307449340820312500000
-0.21601714193820953369140625000000
0.05477974936366081237792968750000
-0.01552804745733737945556640625000
-0.39068740606307983398437500000000
-0.08442295342683792114257812500000
0.06346610933542251586914062500000
0.81057107448577880859375000000000
0.31455525755882263183593750000000
-0.10336782038211822509765625000000
-0.56347656250000000000000000000000
0.04524450004100799560546875000000
-0.48038485646247863769531250000000
-0.40924558043479919433593750000000
0.32532039284706115722656250000000
0.14650620520114898681640625000000
0.16958753764629364013671875000000
-0.46513718366622924804687500000000
0.05246523022651672363281250000000
-0.51261800527572631835937500000000
-0.03432733565568923950195312500000
-0.11536915600299835205078125000000
0.17022718489170074462890625000000
0.08471268415451049804687500000000
0.34652402997016906738281250000000
-0.16878314316272735595703125000000
-0.93451941013336181640625000000000
0.36148637533187866210937500000000
0.39738610386848449707031250000000
-0.05524691566824913024902343750000
0.02503499202430248260498046875000
-0.35043948888778686523437500000000
0.38218224048614501953125000000000
-0.04928816482424736022949218750000
-0.50948381423950195312500000000000
-0.69061660766601562500000000000000
-0.59203767776489257812500000000000
-0.70937860012054443359375000000000
-0.02518596127629280090332031250000
0.33041208982467651367187500000000
-0.11682252585887908935546875000000
0.14114034175872802734375000000000
-0.25008332729339599609375000000000
-0.58602726459503173828125000000000
-0.67282497882843017578125000000000
0.12482096999883651733398437500000
-0.53938335180282592773437500000000
-0.35499954223632812500000000000000
-0.11768309772014617919921875000000
0.04900918155908584594726562500000
0.03959042951464653015136718750000
-0.13389188051223754882812500000000
0.37255507707595825195312500000000
0.45104795694351196289062500000000
0.51385968923568725585937500000000
0.29486337304115295410156250000000
0.29363340139389038085937500000000
0.51457375288009643554687500000000
-0.58912599086761474609375000000000
0.11612986028194427490234375000000
0.40784594416618347167968750000000
0.46012580394744873046875000000000
-0.29337784647941589355468750000000
0.22565741837024688720703125000000
-0.01790783740580081939697265625000
0.26241323351860046386718750000000
-0.02289234101772308349609375000000
0.35659080743789672851562500000000
-0.22072863578796386718750000000000
0.13237665593624114990234375000000
0.18623369932174682617187500000000
0.21012739837169647216796875000000
0.19858512282371520996093750000000
0.63528013229370117187500000000000
0.69639641046524047851562500000000
0.29717001318931579589843750000000
-0.16453000903129577636718750000000
0.23618249595165252685546875000000
0.26701003313064575195312500000000
0.47247999906539916992187500000000
-0.64218014478683471679687500000000
-0.03296088799834251403808593750000
-0.33519598841667175292968750000000
-0.31517776846885681152343750000000
-0.36732730269432067871093750000000
0.85219991207122802734375000000000
0.06439423561096191406250000000000
0.67757427692413330078125000000000
0.35200235247611999511718750000000
0.75534206628799438476562500000000
0.28151795268058776855468750000000
0.16650518774986267089843750000000
0.02969928272068500518798828125000
0.46820941567420959472656250000000
0.33211609721183776855468750000000
-0.06452104449272155761718750000000
0.09925468266010284423828125000000
-0.17918430268764495849609375000000
-0.20061446726322174072265625000000
-0.07380601763725280761718750000000
0.10533566772937774658203125000000
0.10743673145771026611328125000000
-0.52867090702056884765625000000000
0.22676150500774383544921875000000
0.74061423540115356445312500000000
-1.00737273693084716796875000000000
-0.07125474512577056884765625000000
-0.16115888953208923339843750000000
0.56816208362579345703125000000000
-0.14587131142616271972656250000000
0.15163230895996093750000000000000
-0.25607746839523315429687500000000
-0.40385138988494873046875000000000
-0.42584028840065002441406250000000
0.02804056741297245025634765625000
0.11190277338027954101562500000000
0.46529960632324218750000000000000
0.53936612606048583984375000000000
-0.18300424516201019287109375000000
0.43875220417976379394531250000000
-0.28923663496971130371093750000000
0.01789563149213790893554687500000
-0.06266213208436965942382812500000
-0.16151818633079528808593750000000
0.62684607505798339843750000000000
0.17916007339954376220703125000000
0.83550536632537841796875000000000
-0.64445239305496215820312500000000
0.53334563970565795898437500000000
-0.19587275385856628417968750000000
-0.30255544185638427734375000000000
-0.49311998486518859863281250000000
-0.13837233185768127441406250000000
-0.17378550767898559570312500000000
-0.12992504239082336425781250000000
-0.03024104051291942596435546875000
0.34779635071754455566406250000000
-0.54425221681594848632812500000000
-0.07760048657655715942382812500000
-0.70594567060470581054687500000000
-0.45331114530563354492187500000000
-0.01873220503330230712890625000000
0.15986949205398559570312500000000
0.09113999456167221069335937500000
-0.25137582421302795410156250000000
-0.50876295566558837890625000000000
-0.16468018293380737304687500000000
-0.10189689695835113525390625000000
0.26639154553413391113281250000000
-0.10573130100965499877929687500000
0.04741799831390380859375000000000
-0.21843948960304260253906250000000
0.05861655995249748229980468750000
0.02226632088422775268554687500000
0.32876005768775939941406250000000
0.04420582205057144165039062500000
0.22127446532249450683593750000000
0.20024426281452178955078125000000
-0.49093848466873168945312500000000
-0.02719900943338871002197265625000
0.39530333876609802246093750000000
-0.34107804298400878906250000000000
-0.34435102343559265136718750000000
-0.34285455942153930664062500000000
-0.30715897679328918457031250000000
-0.48789152503013610839843750000000
-0.23795235157012939453125000000000
0.10734109580516815185546875000000
-0.48315507173538208007812500000000
0.17972321808338165283203125000000
-0.13991965353488922119140625000000
-0.44121211767196655273437500000000
-0.16327913105487823486328125000000
0.32366815209388732910156250000000
0.30619168281555175781250000000000
-0.08004097640514373779296875000000
-0.66465061902999877929687500000000
0.11992109566926956176757812500000
-0.33438518643379211425781250000000
0.20589995384216308593750000000000
0.45344904065132141113281250000000
-0.18749530613422393798828125000000
-0.10847946256399154663085937500000
-0.05810899659991264343261718750000
0.73464357852935791015625000000000
0.01002437155693769454956054687500
0.13448509573936462402343750000000
0.43845087289810180664062500000000
0.00223402492702007293701171875000
0.17675246298313140869140625000000
0.71510559320449829101562500000000
-0.59899967908859252929687500000000
0.29932808876037597656250000000000
-0.24161764979362487792968750000000
-0.13210913538932800292968750000000
0.46746963262557983398437500000000
1.02532291412353515625000000000000
0.35375002026557922363281250000000
-0.92975431680679321289062500000000
0.27797958254814147949218750000000
0.47267404198646545410156250000000
0.40808477997779846191406250000000
0.45143991708755493164062500000000
-0.19783516228199005126953125000000
0.45847994089126586914062500000000
-0.15499633550643920898437500000000
0.61438834667205810546875000000000
0.55146354436874389648437500000000
0.37516954541206359863281250000000
-0.39188712835311889648437500000000
0.37659946084022521972656250000000
-0.11190316826105117797851562500000
0.53596752882003784179687500000000
0.24862639605998992919921875000000
0.58371663093566894531250000000000
-0.18722696602344512939453125000000
0.06598612666130065917968750000000
-0.13093709945678710937500000000000
-0.29866260290145874023437500000000
0.23039998114109039306640625000000
-0.04069654271006584167480468750000
0.61128002405166625976562500000000
0.18207779526710510253906250000000
-0.49878600239753723144531250000000
0.14555749297142028808593750000000
-0.66539198160171508789062500000000
-0.78036165237426757812500000000000
0.03910085186362266540527343750000
-0.78638964891433715820312500000000
-0.26021355390548706054687500000000
0.21311223506927490234375000000000
0.20879094302654266357421875000000
0.35505142807960510253906250000000
-0.40399605035781860351562500000000
0.76214885711669921875000000000000
-0.13390703499317169189453125000000
0.40674489736557006835937500000000
-0.17724116146564483642578125000000
-0.32358953356742858886718750000000
0.10241115093231201171875000000000
-0.81237012147903442382812500000000
-0.36020952463150024414062500000000
0.05216404423117637634277343750000
0.43633165955543518066406250000000
-0.34555381536483764648437500000000
0.32041490077972412109375000000000
-0.24139748513698577880859375000000
-0.50006288290023803710937500000000
-0.19103950262069702148437500000000
0.97200274467468261718750000000000
-0.01640354469418525695800781250000
0.28551027178764343261718750000000
0.09608535468578338623046875000000
0.09520033746957778930664062500000
-0.16911540925502777099609375000000
0.06942811608314514160156250000000
0.04086046293377876281738281250000
-0.45763728022575378417968750000000
-0.21323518455028533935546875000000
-0.04750860854983329772949218750000
-0.22486075758934020996093750000000
-0.82705527544021606445312500000000
0.20071363449096679687500000000000
0.36554318666458129882812500000000
0.29795688390731811523437500000000
-0.27717822790145874023437500000000
0.11185185611248016357421875000000
-0.48883897066116333007812500000000
-0.04624272137880325317382812500000
-0.23613859713077545166015625000000
-0.79069685935974121093750000000000
0.14630486071109771728515625000000
0.05911413952708244323730468750000
-0.34970703721046447753906250000000
0.15427662432193756103515625000000
-0.39119398593902587890625000000000
-0.17232130467891693115234375000000
-0.67981743812561035156250000000000
0.18162691593170166015625000000000
0.04047796875238418579101562500000
0.02675534039735794067382812500000
0.80305153131484985351562500000000
-0.27708455920219421386718750000000
-0.48928165435791015625000000000000
-0.21944145858287811279296875000000
-0.03183628991246223449707031250000
0.15816664695739746093750000000000
-0.14607748389244079589843750000000
0.03422567620873451232910156250000
-0.37661072611808776855468750000000
0.04993484541773796081542968750000
0.74153268337249755859375000000000
-0.36149233579635620117187500000000
-0.17597220838069915771484375000000
0.48899161815643310546875000000000
-0.22599884867668151855468750000000
-0.54174745082855224609375000000000
-0.29619553685188293457031250000000
1.61312854290008544921875000000000
0.08142233639955520629882812500000
-0.24237205088138580322265625000000
-0.08430495858192443847656250000000
-0.46014484763145446777343750000000
0.37543225288391113281250000000000
0.22497944533824920654296875000000
0.19529440999031066894531250000000
1.40735328197479248046875000000000
0.41288477182388305664062500000000
0.14833416044712066650390625000000
0.27283576130867004394531250000000
-0.95177221298217773437500000000000
-0.95394635200500488281250000000000
-0.71342122554779052734375000000000
-0.44840198755264282226562500000000
-0.19384811818599700927734375000000
-0.19155994057655334472656250000000
-0.06639138609170913696289062500000
-0.10081130266189575195312500000000
-0.19310493767261505126953125000000
0.98238277435302734375000000000000
-0.86165797710418701171875000000000
0.28470915555953979492187500000000
0.33913490176200866699218750000000
-0.00947888288646936416625976562500
0.12968182563781738281250000000000
0.29635727405548095703125000000000
0.35273864865303039550781250000000
-0.31971335411071777343750000000000
-0.98539483547210693359375000000000
-0.00502782827243208885192871093750
-0.17294332385063171386718750000000
0.26394504308700561523437500000000
-0.01855976693332195281982421875000
0.74210298061370849609375000000000
0.47370919585227966308593750000000
0.40769007802009582519531250000000
-0.04635253176093101501464843750000
-0.03960102796554565429687500000000
0.29197919368743896484375000000000
-0.54114329814910888671875000000000
0.18702207505702972412109375000000
0.19764538109302520751953125000000
-0.02601681090891361236572265625000
-0.06061616912484169006347656250000
-0.06124638020992279052734375000000
0.07110878825187683105468750000000
-0.11342861503362655639648437500000
0.15613137185573577880859375000000
0.28212615847587585449218750000000
0.11072840541601181030273437500000
0.02689997293055057525634765625000
-0.32389286160469055175781250000000
0.02179183438420295715332031250000
0.30693656206130981445312500000000
-0.07749187201261520385742187500000
-0.36941090226173400878906250000000
0.33552661538124084472656250000000
0.00480252690613269805908203125000
-0.23878371715545654296875000000000
0.16300792992115020751953125000000
-0.18669921159744262695312500000000
-0.19562897086143493652343750000000
0.13304764032363891601562500000000
-0.04376911744475364685058593750000
-0.05755580961704254150390625000000
-0.82705140113830566406250000000000
0.08355098217725753784179687500000
0.39140927791595458984375000000000
-0.32989093661308288574218750000000
0.25343018770217895507812500000000
-0.20149774849414825439453125000000
0.72343552112579345703125000000000
-0.88608121871948242187500000000000
0.32321187853813171386718750000000
0.15337853133678436279296875000000
-0.03949816524982452392578125000000
0.42792257666587829589843750000000
-0.06604982912540435791015625000000
-0.05747253447771072387695312500000
-0.27384582161903381347656250000000
0.12808689475059509277343750000000
-0.05568862333893775939941406250000
-0.14195419847965240478515625000000
-0.36614125967025756835937500000000
-0.41011106967926025390625000000000
0.02457403019070625305175781250000
0.20691525936126708984375000000000
-0.41449233889579772949218750000000
-0.21135318279266357421875000000000
-0.04152783006429672241210937500000
-0.08685670047998428344726562500000
0.53636229038238525390625000000000
0.03435217216610908508300781250000
-0.08295791596174240112304687500000
0.20560443401336669921875000000000
0.10504321753978729248046875000000
-0.40798988938331604003906250000000
-0.06777784228324890136718750000000
-0.16565668582916259765625000000000
0.13511770963668823242187500000000
0.27482932806015014648437500000000
0.12414129823446273803710937500000
0.48884364962577819824218750000000
-0.05309842526912689208984375000000
0.76658868789672851562500000000000
-0.61266350746154785156250000000000
-0.19088782370090484619140625000000
0.21583007276058197021484375000000
-0.20371180772781372070312500000000
-0.51388531923294067382812500000000
0.07840565592050552368164062500000
-0.25016894936561584472656250000000
0.14966459572315216064453125000000
0.16936759650707244873046875000000
-0.36306637525558471679687500000000
0.14007900655269622802734375000000
-0.17573042213916778564453125000000
0.50740969181060791015625000000000
0.98897749185562133789062500000000
0.52084368467330932617187500000000
0.04677302017807960510253906250000
-0.14194785058498382568359375000000
0.02462575212121009826660156250000
0.17831751704216003417968750000000
0.06069542467594146728515625000000
0.87789857387542724609375000000000
0.32657095789909362792968750000000
0.40990105271339416503906250000000
0.21950535476207733154296875000000
-0.19275373220443725585937500000000
0.20867829024791717529296875000000
0.61547923088073730468750000000000
0.24737636744976043701171875000000
-0.21277457475662231445312500000000
0.06818398088216781616210937500000
-0.18102858960628509521484375000000
-0.50776940584182739257812500000000
-0.48778995871543884277343750000000
-0.37235715985298156738281250000000
-0.07488912343978881835937500000000
-0.25390174984931945800781250000000
0.38685575127601623535156250000000
0.06040199473500251770019531250000
0.65400099754333496093750000000000
-0.03818026185035705566406250000000
-0.30465102195739746093750000000000
-0.37767988443374633789062500000000
-0.67319810390472412109375000000000
0.41283246874809265136718750000000
-0.19999583065509796142578125000000
-0.37202569842338562011718750000000
-0.32937967777252197265625000000000
0.05461196228861808776855468750000
0.28868192434310913085937500000000
0.30599582195281982421875000000000
-0.07485791295766830444335937500000
0.48767569661140441894531250000000
0.07246007025241851806640625000000
0.20713001489639282226562500000000
0.35316872596740722656250000000000
0.71318793296813964843750000000000
-0.46337977051734924316406250000000
-0.70450764894485473632812500000000
-0.05722780525684356689453125000000
0.33220797777175903320312500000000
0.30759942531585693359375000000000
0.72867619991302490234375000000000
0.03695162013173103332519531250000
-0.08244699984788894653320312500000
0.11142446845769882202148437500000
0.61310106515884399414062500000000
0.46053943037986755371093750000000
1.17121839523315429687500000000000
0.00219827750697731971740722656250
-0.15542230010032653808593750000000
0.23394256830215454101562500000000
-0.10470207780599594116210937500000
0.56848400831222534179687500000000
-0.16513024270534515380859375000000
0.20371182262897491455078125000000
-0.14054882526397705078125000000000
-0.09040922671556472778320312500000
0.07816649228334426879882812500000
0.54322475194931030273437500000000
0.84070801734924316406250000000000
-0.51508641242980957031250000000000
0.37412104010581970214843750000000
0.08667806535959243774414062500000
0.27587059140205383300781250000000
0.54571527242660522460937500000000
-0.26310873031616210937500000000000
-0.20177850127220153808593750000000
-0.11687135696411132812500000000000
0.29964980483055114746093750000000
-0.32185876369476318359375000000000
0.72348225116729736328125000000000
-0.11782480031251907348632812500000
0.08117604255676269531250000000000
-0.71701103448867797851562500000000
-0.63595658540725708007812500000000
0.20614343881607055664062500000000
0.49382832646369934082031250000000
-0.77336120605468750000000000000000
0.34181672334671020507812500000000
-0.64976429939270019531250000000000
-0.26375445723533630371093750000000
0.21080660820007324218750000000000
-0.19809509813785552978515625000000
-0.00223650620318949222564697265625
-0.44682875275611877441406250000000
-0.77254718542098999023437500000000
-0.34874632954597473144531250000000
-0.11851086467504501342773437500000
-0.15476977825164794921875000000000
0.11452846229076385498046875000000
0.62515014410018920898437500000000
-0.21426109969615936279296875000000
0.29698032140731811523437500000000
-0.25089433789253234863281250000000
0.35904687643051147460937500000000
-0.32039064168930053710937500000000
-0.60873514413833618164062500000000
-0.20245590806007385253906250000000
0.22493635118007659912109375000000
-0.59335094690322875976562500000000
-0.99494516849517822265625000000000
0.14907614886760711669921875000000
-0.23207335174083709716796875000000
-0.10558568686246871948242187500000
-0.40715560317039489746093750000000
-0.63359141349792480468750000000000
-0.19761978089809417724609375000000
-0.28540742397308349609375000000000
0.38827511668205261230468750000000
-0.26887157559394836425781250000000
0.14991642534732818603515625000000
0.29200011491775512695312500000000
0.10389809310436248779296875000000
-0.04654274880886077880859375000000
-0.19129796326160430908203125000000
-0.00277147535234689712524414062500
-0.22473789751529693603515625000000
0.02220164053142070770263671875000
-0.12809336185455322265625000000000
0.09593996405601501464843750000000
0.33880871534347534179687500000000
0.49070563912391662597656250000000
0.31641906499862670898437500000000
0.23998333513736724853515625000000
0.39306136965751647949218750000000
0.27980035543441772460937500000000
-0.56024050712585449218750000000000
0.07405485212802886962890625000000
0.26202449202537536621093750000000
-0.56711453199386596679687500000000
-0.29029047489166259765625000000000
-0.47202202677726745605468750000000
-0.44781890511512756347656250000000
0.04278279468417167663574218750000
-0.02611907757818698883056640625000
0.35692608356475830078125000000000
0.35778263211250305175781250000000
0.71212691068649291992187500000000
-0.12101281434297561645507812500000
0.18022017180919647216796875000000
0.42501291632652282714843750000000
0.55787169933319091796875000000000
0.34820121526718139648437500000000
0.30140417814254760742187500000000
0.77819865942001342773437500000000
-0.55239909887313842773437500000000
-0.16232687234878540039062500000000
-0.25300040841102600097656250000000
-0.14950233697891235351562500000000
0.07490205764770507812500000000000
-0.77525669336318969726562500000000
0.10455735772848129272460937500000
0.67880022525787353515625000000000
-0.05724446475505828857421875000000
0.04846785962581634521484375000000
-0.30330467224121093750000000000000
0.23836101591587066650390625000000
0.19635213911533355712890625000000
0.60281145572662353515625000000000
-0.55562287569046020507812500000000
0.69144153594970703125000000000000
0.10328666865825653076171875000000
-0.83120435476303100585937500000000
-0.27258595824241638183593750000000
0.43398731946945190429687500000000
0.69519835710525512695312500000000
0.27566426992416381835937500000000
-0.08507026731967926025390625000000
-0.10440056771039962768554687500000
0.37830573320388793945312500000000
0.20010864734649658203125000000000
0.24619345366954803466796875000000
0.35988363623619079589843750000000
0.14615359902381896972656250000000
-0.02582324668765068054199218750000
-0.02178577706217765808105468750000
0.24792367219924926757812500000000
0.04933973774313926696777343750000
0.29317480325698852539062500000000
0.76789933443069458007812500000000
0.19978050887584686279296875000000
0.43353965878486633300781250000000
0.10203496366739273071289062500000
0.36953732371330261230468750000000
-0.33356049656867980957031250000000
-0.39957693219184875488281250000000
0.16634058952331542968750000000000
-0.02929126471281051635742187500000
0.18212556838989257812500000000000
-0.28610646724700927734375000000000
0.31998023390769958496093750000000
0.54221343994140625000000000000000
0.45465567708015441894531250000000
-0.50470274686813354492187500000000
-0.02677240967750549316406250000000
-0.21882811188697814941406250000000
-0.20435337722301483154296875000000
0.29356813430786132812500000000000
-0.64332294464111328125000000000000
-0.39270821213722229003906250000000
-0.97249174118041992187500000000000
0.54478698968887329101562500000000
0.40238118171691894531250000000000
0.19089727103710174560546875000000
0.09888049960136413574218750000000
0.66251963376998901367187500000000
-0.41473743319511413574218750000000
-0.29305863380432128906250000000000
0.09099594503641128540039062500000
-0.35167855024337768554687500000000
0.14557407796382904052734375000000
-0.93998044729232788085937500000000
-0.86193186044692993164062500000000
-0.49898514151573181152343750000000
-0.58456248044967651367187500000000
0.09126713126897811889648437500000
-0.38444924354553222656250000000000
0.12297302484512329101562500000000
-0.48772472143173217773437500000000
-0.35691046714782714843750000000000
0.34389847517013549804687500000000
1.09663712978363037109375000000000
0.03905259072780609130859375000000
-0.02639832533895969390869140625000
-0.32435852289199829101562500000000
-0.64642292261123657226562500000000
-0.09974177926778793334960937500000
-0.25353413820266723632812500000000
0.37196975946426391601562500000000
0.31042003631591796875000000000000
-0.47746101021766662597656250000000
-0.46905523538589477539062500000000
0.22902598977088928222656250000000
0.15362876653671264648437500000000
0.09119279682636260986328125000000
-0.15965881943702697753906250000000
0.32846245169639587402343750000000
0.18559215962886810302734375000000
0.80091911554336547851562500000000
0.52096021175384521484375000000000
0.04810296744108200073242187500000
0.23328469693660736083984375000000
0.61015152931213378906250000000000
0.44422772526741027832031250000000
-0.02265429683029651641845703125000
-0.29071518778800964355468750000000
-0.11927169561386108398437500000000
0.25773859024047851562500000000000
0.18038718402385711669921875000000
-0.58430773019790649414062500000000
0.17571637034416198730468750000000
-0.23587097227573394775390625000000
-0.40445119142532348632812500000000
-0.63286501169204711914062500000000
0.24563457071781158447265625000000
0.05246868729591369628906250000000
-0.31589055061340332031250000000000
0.34089589118957519531250000000000
-0.34169763326644897460937500000000
-0.31628552079200744628906250000000
-0.15879581868648529052734375000000
-0.66757059097290039062500000000000
0.02127903513610363006591796875000
0.21167066693305969238281250000000
0.23357956111431121826171875000000
-0.31815397739410400390625000000000
-0.24857196211814880371093750000000
-0.13512212038040161132812500000000
-0.15166358649730682373046875000000
-0.18312923610210418701171875000000
0.44018256664276123046875000000000
0.35204386711120605468750000000000
0.01756080798804759979248046875000
-0.68287014961242675781250000000000
0.41597899794578552246093750000000
0.33266729116439819335937500000000
0.21989262104034423828125000000000
0.13360495865345001220703125000000
0.17758488655090332031250000000000
-0.16897663474082946777343750000000
-0.18826426565647125244140625000000
-0.20800358057022094726562500000000
0.20713897049427032470703125000000
-0.30385503172874450683593750000000
0.70738273859024047851562500000000
0.39058122038841247558593750000000
0.64441335201263427734375000000000
-0.05999176949262619018554687500000
-0.39356538653373718261718750000000
0.61325365304946899414062500000000
0.03978336974978446960449218750000
0.65239793062210083007812500000000
0.04002032056450843811035156250000
0.02237648516893386840820312500000
0.84447807073593139648437500000000
0.23301522433757781982421875000000
0.46742007136344909667968750000000
-0.15447950363159179687500000000000
-0.73425245285034179687500000000000
0.00605152407661080360412597656250
-0.16053199768066406250000000000000
-0.29183223843574523925781250000000
0.61311423778533935546875000000000
0.48851573467254638671875000000000
0.20585101842880249023437500000000
0.17833971977233886718750000000000
0.08612279593944549560546875000000
-0.31899857521057128906250000000000
-0.45581382513046264648437500000000
0.70985102653503417968750000000000
-0.20132844150066375732421875000000
-0.15549226105213165283203125000000
0.01195695251226425170898437500000
-0.34045884013175964355468750000000
0.33866709470748901367187500000000
0.17664508521556854248046875000000
-0.17474383115768432617187500000000
0.29687866568565368652343750000000
-0.24344141781330108642578125000000
0.12751552462577819824218750000000
-0.41709187626838684082031250000000
0.02920284122228622436523437500000
0.18060033023357391357421875000000
0.36714634299278259277343750000000
-0.08079915493726730346679687500000
-0.07431758195161819458007812500000
0.03274602815508842468261718750000
0.02342832647264003753662109375000
0.26049074530601501464843750000000
0.41048967838287353515625000000000
0.26705691218376159667968750000000
-0.18265303969383239746093750000000
-0.26302120089530944824218750000000
0.04073606431484222412109375000000
-0.53480708599090576171875000000000
-0.26600861549377441406250000000000
0.15794716775417327880859375000000
0.16625669598579406738281250000000
-0.22472529113292694091796875000000
-0.23396457731723785400390625000000
-0.61098366975784301757812500000000
-0.05178814381361007690429687500000
-0.05779517441987991333007812500000
-0.04943050071597099304199218750000
-0.05830236151814460754394531250000
0.07295954972505569458007812500000
-0.03967958316206932067871093750000
0.08733160793781280517578125000000
-0.64533323049545288085937500000000
-0.47540801763534545898437500000000
0.03278554603457450866699218750000
-0.06619964540004730224609375000000
-0.17345204949378967285156250000000
-0.11959138512611389160156250000000
0.06203886494040489196777343750000
-0.24151165783405303955078125000000
-1.01461696624755859375000000000000
0.62095355987548828125000000000000
0.58951115608215332031250000000000
-0.03202126547694206237792968750000
-0.33150595426559448242187500000000
-0.15253487229347229003906250000000
-0.05910370126366615295410156250000
-0.57656186819076538085937500000000
0.02628210000693798065185546875000
-0.12545470893383026123046875000000
-0.21890906989574432373046875000000
-0.37720015645027160644531250000000
0.32359945774078369140625000000000
0.56893420219421386718750000000000
0.09699151664972305297851562500000
-0.56087934970855712890625000000000
-0.52132004499435424804687500000000
0.16673845052719116210937500000000
0.21554838120937347412109375000000
0.09631028026342391967773437500000
0.26091590523719787597656250000000
0.51408630609512329101562500000000
0.32669568061828613281250000000000
-0.00585340103134512901306152343750
0.41186761856079101562500000000000
0.24571833014488220214843750000000
-0.37089130282402038574218750000000
-0.23798705637454986572265625000000
0.44554677605628967285156250000000
0.20586685836315155029296875000000
0.08978871256113052368164062500000
-0.84314107894897460937500000000000
0.03100356087088584899902343750000
-0.17553883790969848632812500000000
-0.18680746853351593017578125000000
-0.06306232511997222900390625000000
0.22423732280731201171875000000000
-0.02786618843674659729003906250000
0.18700607120990753173828125000000
0.02354339696466922760009765625000
0.09642759710550308227539062500000
0.29607540369033813476562500000000
0.35264945030212402343750000000000
0.46140235662460327148437500000000
-0.26586636900901794433593750000000
-0.52737057209014892578125000000000
0.52064043283462524414062500000000
0.19310274720191955566406250000000
0.08745296299457550048828125000000
-0.06069486588239669799804687500000
-0.08100161701440811157226562500000
-0.19576935470104217529296875000000
0.14562423527240753173828125000000
0.01966320164501667022705078125000
-0.35081809759140014648437500000000
0.24147716164588928222656250000000
0.65923494100570678710937500000000
0.59975296258926391601562500000000
-0.07270663976669311523437500000000
-0.41196113824844360351562500000000
-0.30118373036384582519531250000000
-0.29109814763069152832031250000000
0.23020088672637939453125000000000
0.05019583180546760559082031250000
0.07745347917079925537109375000000
-0.08243494480848312377929687500000
-0.02499536983668804168701171875000
1.12606012821197509765625000000000
-0.03884537145495414733886718750000
0.43217664957046508789062500000000
-0.26643073558807373046875000000000
0.34207421541213989257812500000000
0.43689939379692077636718750000000
-0.08911710232496261596679687500000
0.06424894928932189941406250000000
0.09083987027406692504882812500000
-0.09020305424928665161132812500000
-0.70345467329025268554687500000000
0.13117507100105285644531250000000
0.22550126910209655761718750000000
0.19764156639575958251953125000000
-0.14876572787761688232421875000000
-0.96167373657226562500000000000000
-0.60220623016357421875000000000000
-0.30577558279037475585937500000000
-0.05077357590198516845703125000000
-0.47194880247116088867187500000000
-0.58721762895584106445312500000000
-0.70731985569000244140625000000000
-0.52210444211959838867187500000000
0.12174919247627258300781250000000
0.00510158855468034744262695312500
-0.21198901534080505371093750000000
-0.03059671819210052490234375000000
-0.30430620908737182617187500000000
-0.71025806665420532226562500000000
0.09264001995325088500976562500000
-0.10013836622238159179687500000000
0.04681465029716491699218750000000
0.31789293885231018066406250000000
0.16487322747707366943359375000000
-0.48491293191909790039062500000000
-0.92308312654495239257812500000000
-0.25978001952171325683593750000000
-0.00249238405376672744750976562500
0.11243844777345657348632812500000
0.03845933079719543457031250000000
0.14590823650360107421875000000000
0.28070273995399475097656250000000
-0.20726643502712249755859375000000
0.40803581476211547851562500000000
-0.28596857190132141113281250000000
0.01490255538374185562133789062500
-0.17229187488555908203125000000000
0.20971269905567169189453125000000
-0.38789132237434387207031250000000
0.61389797925949096679687500000000
0.01229123026132583618164062500000
0.42991808056831359863281250000000
1.09767699241638183593750000000000
-0.03879076614975929260253906250000
0.35314986109733581542968750000000
0.34650740027427673339843750000000
-0.19803667068481445312500000000000
0.19457457959651947021484375000000
-0.36959370970726013183593750000000
-0.05219695344567298889160156250000
-0.27223944664001464843750000000000
-0.15188068151473999023437500000000
0.21412925422191619873046875000000
0.02880391478538513183593750000000
0.83226001262664794921875000000000
-0.68073630332946777343750000000000
0.59022474288940429687500000000000
0.44236323237419128417968750000000
0.46264934539794921875000000000000
-0.00430465023964643478393554687500
0.28382018208503723144531250000000
0.30200359225273132324218750000000
0.53665745258331298828125000000000
0.12978038191795349121093750000000
0.35381308197975158691406250000000
-0.05829971283674240112304687500000
-0.27736005187034606933593750000000
0.28155967593193054199218750000000
-0.02348320744931697845458984375000
-0.38112902641296386718750000000000
0.75564390420913696289062500000000
-0.19299073517322540283203125000000
-0.45675650238990783691406250000000
-0.22133553028106689453125000000000
-0.33108586072921752929687500000000
0.03386947512626647949218750000000
0.41270586848258972167968750000000
0.22557328641414642333984375000000
-0.13834962248802185058593750000000
0.00714809820055961608886718750000
-0.34353584051132202148437500000000
0.17567837238311767578125000000000
0.06624940037727355957031250000000
-0.59178346395492553710937500000000
0.07106155157089233398437500000000
0.37754538655281066894531250000000
-1.03762447834014892578125000000000
0.11403974890708923339843750000000
-0.65684229135513305664062500000000
-0.07615679502487182617187500000000
0.39219179749488830566406250000000
0.65148121118545532226562500000000
0.55232363939285278320312500000000
0.23907101154327392578125000000000
0.20822098851203918457031250000000
-0.42719855904579162597656250000000
-0.40722891688346862792968750000000
-0.29095068573951721191406250000000
-0.01026313006877899169921875000000
-0.21760733425617218017578125000000
-0.44207316637039184570312500000000
-0.25945961475372314453125000000000
-0.56613576412200927734375000000000
-0.60055100917816162109375000000000
-0.14094215631484985351562500000000
0.04196038842201232910156250000000
-0.14702299237251281738281250000000
0.04547819495201110839843750000000
-0.83931410312652587890625000000000
-0.10203050076961517333984375000000
0.07272069901227951049804687500000
-0.38210549950599670410156250000000
-0.26598492264747619628906250000000
0.13234165310859680175781250000000
-0.26321235299110412597656250000000
-0.19696453213691711425781250000000
-0.76307284832000732421875000000000
0.08753579854965209960937500000000
-0.20213618874549865722656250000000
0.49450337886810302734375000000000
-0.06828116625547409057617187500000
-0.44216349720954895019531250000000
0.57172018289566040039062500000000
0.10295318067073822021484375000000
-0.66637003421783447265625000000000
0.11549469083547592163085937500000
-0.17023992538452148437500000000000
-0.09855028241872787475585937500000
0.50520884990692138671875000000000
-0.66589969396591186523437500000000
-0.46945270895957946777343750000000
-0.18538367748260498046875000000000
-0.32998985052108764648437500000000
0.04998493567109107971191406250000
-0.11843673884868621826171875000000
0.52122837305068969726562500000000
0.42314547300338745117187500000000
-0.10017840564250946044921875000000
0.29013165831565856933593750000000
-0.13491381704807281494140625000000
-0.40092450380325317382812500000000
-0.37605333328247070312500000000000
-0.16972331702709197998046875000000
0.49259126186370849609375000000000
0.18660385906696319580078125000000
-0.39598551392555236816406250000000
-0.20264680683612823486328125000000
-0.29972600936889648437500000000000
-0.12422518432140350341796875000000
-0.74020475149154663085937500000000
-0.31943213939666748046875000000000
-0.64803940057754516601562500000000
0.14240565896034240722656250000000
0.19038628041744232177734375000000
-0.01726203411817550659179687500000
0.08401268720626831054687500000000
0.22206708788871765136718750000000
0.39183098077774047851562500000000
-0.09748407453298568725585937500000
0.30258455872535705566406250000000
-0.52426421642303466796875000000000
-0.11899068951606750488281250000000
-0.31433257460594177246093750000000
-0.19515825808048248291015625000000
0.56595742702484130859375000000000
0.24904361367225646972656250000000
0.48223185539245605468750000000000
-0.43109172582626342773437500000000
-1.29740965366363525390625000000000
-0.33029171824455261230468750000000
-0.01391188055276870727539062500000
0.30831220746040344238281250000000
0.13137036561965942382812500000000
-0.29294434189796447753906250000000
-0.34515210986137390136718750000000
0.04505639895796775817871093750000
-0.66903299093246459960937500000000
-0.68778622150421142578125000000000
0.64633005857467651367187500000000
0.41388040781021118164062500000000
-0.28159379959106445312500000000000
0.33819440007209777832031250000000
0.06464911252260208129882812500000
-0.68156570196151733398437500000000
0.09509796649217605590820312500000
-0.16453914344310760498046875000000
-0.36774361133575439453125000000000
-0.35504168272018432617187500000000
-0.70686030387878417968750000000000
-0.82549744844436645507812500000000
-0.29614111781120300292968750000000
0.11509296298027038574218750000000
-0.09679955989122390747070312500000
-0.41986909508705139160156250000000
-0.09177792817354202270507812500000
-0.46962335705757141113281250000000
-0.14569319784641265869140625000000
-0.99344062805175781250000000000000
0.09996236115694046020507812500000
-0.60011512041091918945312500000000
-0.84512889385223388671875000000000
0.30086287856101989746093750000000
-0.73043674230575561523437500000000
-0.53497564792633056640625000000000
-0.16211670637130737304687500000000
-0.11653514206409454345703125000000
-0.67232543230056762695312500000000
0.20765121281147003173828125000000
0.06288789212703704833984375000000
-0.81242644786834716796875000000000
-0.16330599784851074218750000000000
0.22993221879005432128906250000000
-0.92726987600326538085937500000000
0.16492982208728790283203125000000
-0.37926092743873596191406250000000
-0.28415068984031677246093750000000
0.21136486530303955078125000000000
-0.12694990634918212890625000000000
0.32783660292625427246093750000000
0.01213960722088813781738281250000
-0.21694268286228179931640625000000
-0.75603902339935302734375000000000
-0.68246293067932128906250000000000
-0.39386382699012756347656250000000
-0.45751050114631652832031250000000
0.26416319608688354492187500000000
0.56490480899810791015625000000000
-0.50480073690414428710937500000000
-0.67828547954559326171875000000000
0.32486319541931152343750000000000
-0.71068972349166870117187500000000
-0.18484708666801452636718750000000
-0.32408481836318969726562500000000
-0.38852322101593017578125000000000
0.44754025340080261230468750000000
0.31519627571105957031250000000000
-0.27187409996986389160156250000000
-0.49792012572288513183593750000000
-0.55930930376052856445312500000000
0.09800783544778823852539062500000
-0.31411868333816528320312500000000
-0.49175834655761718750000000000000
0.13962619006633758544921875000000
0.20096577703952789306640625000000
0.35431826114654541015625000000000
0.13374711573123931884765625000000
0.06569734960794448852539062500000
0.42290887236595153808593750000000
-0.04683526605367660522460937500000
0.05290096253156661987304687500000
0.47206625342369079589843750000000
0.08456213772296905517578125000000
0.22711083292961120605468750000000
0.46409121155738830566406250000000
-0.30588534474372863769531250000000
0.03679518401622772216796875000000
-0.39733731746673583984375000000000
-0.20351913571357727050781250000000
-0.06767068058252334594726562500000
0.51783418655395507812500000000000
0.17758706212043762207031250000000
0.41068565845489501953125000000000
0.04036979004740715026855468750000
-0.25004798173904418945312500000000
0.12093715369701385498046875000000
-0.33459931612014770507812500000000
0.16471888124942779541015625000000
-0.00745838927105069160461425781250
-0.19470261037349700927734375000000
-0.49201795458793640136718750000000
-0.04764963313937187194824218750000
0.23557785153388977050781250000000
0.12977649271488189697265625000000
0.52898120880126953125000000000000
-0.14894178509712219238281250000000
-0.72423028945922851562500000000000
0.01686357147991657257080078125000
0.18475989997386932373046875000000
0.19155143201351165771484375000000
-0.15230149030685424804687500000000
-0.13931177556514739990234375000000
0.33589994907379150390625000000000
-0.50082492828369140625000000000000
-0.10665537416934967041015625000000
-0.16878409683704376220703125000000
0.15120446681976318359375000000000
-0.02904289960861206054687500000000
-0.39760959148406982421875000000000
-0.45044130086898803710937500000000
-0.61977821588516235351562500000000
-0.35601317882537841796875000000000
0.27935248613357543945312500000000
-0.25370556116104125976562500000000
-0.00934953335672616958618164062500
-0.25199440121650695800781250000000
0.45003995299339294433593750000000
0.01109424047172069549560546875000
0.35605451464653015136718750000000
0.05938272178173065185546875000000
0.03148528933525085449218750000000
-0.04023082181811332702636718750000
0.12542060017585754394531250000000
0.20202480256557464599609375000000
0.07893317937850952148437500000000
0.17016901075839996337890625000000
-0.19973069429397583007812500000000
0.16615119576454162597656250000000
-0.11156364530324935913085937500000
0.02069920673966407775878906250000
-0.78063589334487915039062500000000
0.40069985389709472656250000000000
0.10172446072101593017578125000000
-0.57789939641952514648437500000000
0.80583065748214721679687500000000
0.56607401371002197265625000000000
-0.23138785362243652343750000000000
-0.04745164886116981506347656250000
-0.36516293883323669433593750000000
-0.14031529426574707031250000000000
0.45185878872871398925781250000000
0.44093984365463256835937500000000
-0.07926549762487411499023437500000
-0.18915881216526031494140625000000
-0.17938572168350219726562500000000
0.26848620176315307617187500000000
-0.40030959248542785644531250000000
-0.03187204897403717041015625000000
-0.58726263046264648437500000000000
0.29128953814506530761718750000000
0.74312210083007812500000000000000
-0.16046559810638427734375000000000
-0.03085809201002120971679687500000
-0.30217921733856201171875000000000
-0.80233013629913330078125000000000
-0.03469783067703247070312500000000
-0.05644230544567108154296875000000
0.00473015243187546730041503906250
-0.18845170736312866210937500000000
-0.60373741388320922851562500000000
-0.18003667891025543212890625000000
-0.38842600584030151367187500000000
0.19745163619518280029296875000000
-0.00545875448733568191528320312500
-0.61381685733795166015625000000000
-0.09606251120567321777343750000000
0.46386775374412536621093750000000
0.11473230272531509399414062500000
-0.50089043378829956054687500000000
0.24807469546794891357421875000000
0.41125819087028503417968750000000
-0.30536314845085144042968750000000
0.21115595102310180664062500000000
0.14575320482254028320312500000000
0.24785770475864410400390625000000
-0.00753020634874701499938964843750
-0.60666203498840332031250000000000
-0.09823559969663619995117187500000
-0.03673744946718215942382812500000
-0.11318524926900863647460937500000
0.19643786549568176269531250000000
-0.40593928098678588867187500000000
-0.03940602391958236694335937500000
-0.31838104128837585449218750000000
0.39010280370712280273437500000000
-0.36669716238975524902343750000000
-0.23562103509902954101562500000000
0.07423730194568634033203125000000
0.41241222620010375976562500000000
0.49659124016761779785156250000000
0.17049093544483184814453125000000
-0.58222174644470214843750000000000
-0.48460274934768676757812500000000
-0.28686183691024780273437500000000
-0.15781551599502563476562500000000
0.41622713208198547363281250000000
0.21091926097869873046875000000000
0.26488679647445678710937500000000
-0.09005559235811233520507812500000
0.13468877971172332763671875000000
0.72033864259719848632812500000000
-0.27555555105209350585937500000000
-0.58531194925308227539062500000000
-0.43491730093955993652343750000000
0.09734326601028442382812500000000
0.21191912889480590820312500000000
-0.12542521953582763671875000000000
0.15835884213447570800781250000000
0.47733274102210998535156250000000
-0.21969847381114959716796875000000
-0.06019154191017150878906250000000
-0.50098997354507446289062500000000
-0.50116604566574096679687500000000
-0.17479456961154937744140625000000
-0.00372746214270591735839843750000
-0.40450823307037353515625000000000
-0.39181047677993774414062500000000
-0.06604871898889541625976562500000
-0.51894986629486083984375000000000
-0.46049407124519348144531250000000
0.22922223806381225585937500000000
0.08910209685564041137695312500000
0.67095136642456054687500000000000
-0.76608324050903320312500000000000
0.05870713293552398681640625000000
-0.62476408481597900390625000000000
-1.01060521602630615234375000000000
-0.45494577288627624511718750000000
-0.18550990521907806396484375000000
0.03564386069774627685546875000000
-0.85941314697265625000000000000000
0.08243276923894882202148437500000
-0.56374007463455200195312500000000
-0.04774115234613418579101562500000
0.52558040618896484375000000000000
0.48887017369270324707031250000000
-0.66658353805541992187500000000000
-0.49818927049636840820312500000000
-0.43654143810272216796875000000000
0.12323520332574844360351562500000
-0.60137116909027099609375000000000
0.20875731110572814941406250000000
-0.23311945796012878417968750000000
-0.21505616605281829833984375000000
-0.77073198556900024414062500000000
-0.83562874794006347656250000000000
-0.73679012060165405273437500000000
0.16633981466293334960937500000000
0.23370145261287689208984375000000
0.03863137960433959960937500000000
0.30203467607498168945312500000000
0.70225095748901367187500000000000
-1.05330157279968261718750000000000
0.25883412361145019531250000000000
0.18459716439247131347656250000000
-0.24457439780235290527343750000000
-0.00572357000783085823059082031250
-0.22646543383598327636718750000000
0.51198035478591918945312500000000
-0.29337847232818603515625000000000
0.26053014397621154785156250000000
-1.04884040355682373046875000000000
0.39331868290901184082031250000000
-0.36923182010650634765625000000000
0.19429670274257659912109375000000
0.16845071315765380859375000000000
0.47450095415115356445312500000000
0.18214377760887145996093750000000
0.55730962753295898437500000000000
0.24171464145183563232421875000000
-0.93007266521453857421875000000000
-0.35186347365379333496093750000000
0.07285419106483459472656250000000
0.18677237629890441894531250000000
-0.70574772357940673828125000000000
-0.43401044607162475585937500000000
-0.56988197565078735351562500000000
-0.03046172484755516052246093750000
-0.04719809070229530334472656250000
-0.35171309113502502441406250000000
-0.35641667246818542480468750000000
-0.83638828992843627929687500000000
-1.11613905429840087890625000000000
-0.88114267587661743164062500000000
-0.42541363835334777832031250000000
-0.40706005692481994628906250000000
0.18888348340988159179687500000000
0.20471991598606109619140625000000
0.05097902938723564147949218750000
-0.52820146083831787109375000000000
-0.97823309898376464843750000000000
-0.29107359051704406738281250000000
-0.35296490788459777832031250000000
-0.22520194947719573974609375000000
-0.12109214812517166137695312500000
-0.80562967061996459960937500000000
-0.77600532770156860351562500000000
-0.01830198802053928375244140625000
-0.07652836292982101440429687500000
-0.61282742023468017578125000000000
0.14724045991897583007812500000000
-0.10589043796062469482421875000000
0.30024796724319458007812500000000
0.20182816684246063232421875000000
0.21575149893760681152343750000000
-0.20448476076126098632812500000000
0.10920259356498718261718750000000
-0.74458408355712890625000000000000
-0.82672673463821411132812500000000
-1.26480519771575927734375000000000
-0.89649230241775512695312500000000
-0.04228289425373077392578125000000
0.27023217082023620605468750000000
-0.16552706062793731689453125000000
0.14906254410743713378906250000000
-0.34545662999153137207031250000000
-0.39447301626205444335937500000000
0.05564812943339347839355468750000
-0.61235404014587402343750000000000
0.52789193391799926757812500000000
0.11971724033355712890625000000000
-0.51590490341186523437500000000000
-0.51299345493316650390625000000000
-0.75376278162002563476562500000000
-0.16004605591297149658203125000000
-0.28636285662651062011718750000000
-0.02429559640586376190185546875000
0.06942661106586456298828125000000
-0.51666313409805297851562500000000
0.48615157604217529296875000000000
0.48400968313217163085937500000000
0.17822742462158203125000000000000
0.46159762144088745117187500000000
0.52477782964706420898437500000000
-1.19343149662017822265625000000000
-0.20211233198642730712890625000000
-0.41300246119499206542968750000000
-0.72679525613784790039062500000000
0.38662520051002502441406250000000
0.56746923923492431640625000000000
-0.42898803949356079101562500000000
-0.65097922086715698242187500000000
-0.08388765901327133178710937500000
-0.22821594774723052978515625000000
-0.18527171015739440917968750000000
-0.40478128194808959960937500000000
-0.37914338707923889160156250000000
-0.99681282043457031250000000000000
-0.89587342739105224609375000000000
0.16293320059776306152343750000000
0.17996533215045928955078125000000
-0.19764792919158935546875000000000
-0.65510261058807373046875000000000
0.62312167882919311523437500000000
0.52110058069229125976562500000000
0.69235944747924804687500000000000
-0.03688652068376541137695312500000
0.13574025034904479980468750000000
0.29950425028800964355468750000000
0.23349095880985260009765625000000
-0.41567680239677429199218750000000
-0.10019146651029586791992187500000
0.44215345382690429687500000000000
-0.27971422672271728515625000000000
0.27541267871856689453125000000000
0.44704973697662353515625000000000
-0.15124960243701934814453125000000
-0.15531280636787414550781250000000
0.07937325537204742431640625000000
0.01930811628699302673339843750000
-0.01073753461241722106933593750000
0.02095400169491767883300781250000
0.35286375880241394042968750000000
-0.44112247228622436523437500000000
0.14842829108238220214843750000000
0.30723130702972412109375000000000
0.18815697729587554931640625000000
-0.33707556128501892089843750000000
-0.26258850097656250000000000000000
0.50266617536544799804687500000000
0.20328176021575927734375000000000
0.43888795375823974609375000000000
0.32865738868713378906250000000000
0.01228335499763488769531250000000
-0.16161501407623291015625000000000
-0.00287804612889885902404785156250
0.13738898932933807373046875000000
0.26920616626739501953125000000000
0.12504564225673675537109375000000
0.43255627155303955078125000000000
0.13394288718700408935546875000000
0.31843033432960510253906250000000
-0.09035891294479370117187500000000
0.13256157934665679931640625000000
-0.10687608271837234497070312500000
-0.21966576576232910156250000000000
0.50946289300918579101562500000000
0.07211472839117050170898437500000
-0.95531255006790161132812500000000
0.07515238970518112182617187500000
0.39505276083946228027343750000000
0.93433672189712524414062500000000
0.49373221397399902343750000000000
0.94608765840530395507812500000000
-0.09168631583452224731445312500000
-0.30656105279922485351562500000000
0.01446075271815061569213867187500
-0.53477281332015991210937500000000
0.72017127275466918945312500000000
0.20853064954280853271484375000000
-0.15780395269393920898437500000000
-0.15384638309478759765625000000000
0.16673558950424194335937500000000
0.15583005547523498535156250000000
0.11010268330574035644531250000000
0.46329447627067565917968750000000
0.31710019707679748535156250000000
-0.36364585161209106445312500000000
-0.36376795172691345214843750000000
-0.19526702165603637695312500000000
-0.10410705953836441040039062500000
0.38938832283020019531250000000000
0.33199131488800048828125000000000
-0.86593651771545410156250000000000
0.77996772527694702148437500000000
-0.03915812075138092041015625000000
-0.34295070171356201171875000000000
-0.08221354335546493530273437500000
0.25624674558639526367187500000000
0.12876424193382263183593750000000
-0.03099268302321434020996093750000
0.08470047265291213989257812500000
-0.39817589521408081054687500000000
-0.04481494426727294921875000000000
0.01957279816269874572753906250000
-0.24775709211826324462890625000000
-0.12532231211662292480468750000000
-0.04495219141244888305664062500000
0.12724727392196655273437500000000
-0.36194109916687011718750000000000
0.09287690371274948120117187500000
0.10300230979919433593750000000000
-0.34993723034858703613281250000000
-0.23420155048370361328125000000000
0.38537079095840454101562500000000
-0.15454174578189849853515625000000
-0.26326921582221984863281250000000
-0.61141508817672729492187500000000
0.33251547813415527343750000000000
0.03302582353353500366210937500000
0.03678835183382034301757812500000
-0.58114552497863769531250000000000
-0.48433819413185119628906250000000
0.47331115603446960449218750000000
-0.35460302233695983886718750000000
-0.33930608630180358886718750000000
0.01732013933360576629638671875000
-0.10855405032634735107421875000000
-0.32391387224197387695312500000000
-0.24104785919189453125000000000000
0.17981517314910888671875000000000
0.03930545970797538757324218750000
-0.45642912387847900390625000000000
-0.33239156007766723632812500000000
-0.34954455494880676269531250000000
0.11116532236337661743164062500000
0.34745112061500549316406250000000
0.41300845146179199218750000000000
-0.07279572635889053344726562500000
-0.14316615462303161621093750000000
-0.23491457104682922363281250000000
-0.09081129729747772216796875000000
0.03637838736176490783691406250000
-0.01907844841480255126953125000000
0.69067215919494628906250000000000
-0.39051711559295654296875000000000
-0.47817668318748474121093750000000
0.12373925000429153442382812500000
-0.30594563484191894531250000000000
-0.18031196296215057373046875000000
-0.45900681614875793457031250000000
0.45243597030639648437500000000000
-0.61464333534240722656250000000000
0.14258721470832824707031250000000
-0.29224202036857604980468750000000
0.11772183328866958618164062500000
-0.32919865846633911132812500000000
0.40428179502487182617187500000000
0.01514031738042831420898437500000
0.36874809861183166503906250000000
0.44098722934722900390625000000000
-0.23364900052547454833984375000000
-0.26245820522308349609375000000000
-0.26681041717529296875000000000000
-0.42571443319320678710937500000000
-0.53769570589065551757812500000000
0.21981485188007354736328125000000
0.04707457870244979858398437500000
-0.26847130060195922851562500000000
0.22435744106769561767578125000000
-0.37265506386756896972656250000000
-0.27486264705657958984375000000000
-0.30773133039474487304687500000000
-0.08369802683591842651367187500000
0.11470473557710647583007812500000
0.16741161048412322998046875000000
0.07769763469696044921875000000000
-0.67481106519699096679687500000000
-0.47252765297889709472656250000000
0.29347518086433410644531250000000
0.12744383513927459716796875000000
0.33136028051376342773437500000000
-0.49556875228881835937500000000000
0.10493182390928268432617187500000
0.56945163011550903320312500000000
-0.65925967693328857421875000000000
-0.78062266111373901367187500000000
-0.20645441114902496337890625000000
-1.01416218280792236328125000000000
0.58898872137069702148437500000000
0.44233313202857971191406250000000
0.07369941473007202148437500000000
-0.17533546686172485351562500000000
-0.05065065249800682067871093750000
-0.17003694176673889160156250000000
0.26552894711494445800781250000000
-0.70262879133224487304687500000000
-1.53039240837097167968750000000000
-0.62853777408599853515625000000000
-0.39944422245025634765625000000000
0.46868795156478881835937500000000
0.02835551276803016662597656250000
0.35240817070007324218750000000000
-0.37448802590370178222656250000000
-0.09553745388984680175781250000000
0.16949400305747985839843750000000
0.19729419052600860595703125000000
-0.10659990459680557250976562500000
0.00231224577873945236206054687500
-0.09920336306095123291015625000000
0.01236859243363142013549804687500
-0.00337862665764987468719482421875
0.00165598629973828792572021484375
-0.44218763709068298339843750000000
-0.22321005165576934814453125000000
0.36517554521560668945312500000000
0.29608356952667236328125000000000
0.17066355049610137939453125000000
0.70720487833023071289062500000000
-0.07467918843030929565429687500000
-0.08477786928415298461914062500000
0.37539127469062805175781250000000
-0.07901419699192047119140625000000
-0.03164898604154586791992187500000
-0.04843637719750404357910156250000
0.38016551733016967773437500000000
-0.02771624550223350524902343750000
-0.40364772081375122070312500000000
-0.15554955601692199707031250000000
0.07458805292844772338867187500000
0.49746507406234741210937500000000
-0.22801996767520904541015625000000
0.07340545952320098876953125000000
-0.70859438180923461914062500000000
0.32118856906890869140625000000000
0.54454571008682250976562500000000
-0.03492480888962745666503906250000
0.14118036627769470214843750000000
0.11165095120668411254882812500000
0.02914127148687839508056640625000
0.41595172882080078125000000000000
-0.31019642949104309082031250000000
-0.02329901792109012603759765625000
0.27038887143135070800781250000000
0.29103335738182067871093750000000
0.37169256806373596191406250000000
-0.01455449126660823822021484375000
-0.26860210299491882324218750000000
-0.13426853716373443603515625000000
0.25309887528419494628906250000000
0.22147367894649505615234375000000
-0.21953633427619934082031250000000
0.39531135559082031250000000000000
-0.89042264223098754882812500000000
0.06871553510427474975585937500000
0.31856027245521545410156250000000
-0.47236478328704833984375000000000
-0.08233359456062316894531250000000
-1.06624412536621093750000000000000
0.56767892837524414062500000000000
0.27792665362358093261718750000000
0.17746901512145996093750000000000
-0.42315432429313659667968750000000
0.49257507920265197753906250000000
-0.14298591017723083496093750000000
0.22085309028625488281250000000000
0.43675428628921508789062500000000
0.54288172721862792968750000000000
-0.37930849194526672363281250000000
0.45780807733535766601562500000000
0.14377769827842712402343750000000
-0.67225348949432373046875000000000
-0.19268673658370971679687500000000
0.03254940360784530639648437500000
0.18549931049346923828125000000000
0.00657748430967330932617187500000
0.07475306838750839233398437500000
0.05286224186420440673828125000000
0.42741706967353820800781250000000
0.19424498081207275390625000000000
0.28054565191268920898437500000000
-0.12718600034713745117187500000000
0.36391076445579528808593750000000
-0.01501925569027662277221679687500
-0.41701489686965942382812500000000
-0.18171112239360809326171875000000
0.79112482070922851562500000000000
-0.13717444241046905517578125000000
-0.02215624973177909851074218750000
-0.19480186700820922851562500000000
0.14392930269241333007812500000000
-0.77826184034347534179687500000000
-0.35366401076316833496093750000000
-0.18082866072654724121093750000000
0.68963640928268432617187500000000
-0.84472310543060302734375000000000
0.22901736199855804443359375000000
-0.51365619897842407226562500000000
0.15762604773044586181640625000000
-0.26983088254928588867187500000000
-0.17700719833374023437500000000000
-0.15589536726474761962890625000000
-0.65936076641082763671875000000000
-0.19680626690387725830078125000000
0.10541373491287231445312500000000
-0.05081618577241897583007812500000
-0.04557787999510765075683593750000
0.39912280440330505371093750000000
0.05985243245959281921386718750000
-0.12156844139099121093750000000000
-0.06235192343592643737792968750000
0.12540178000926971435546875000000
0.05381050333380699157714843750000
0.08506944775581359863281250000000
-0.35554319620132446289062500000000
0.09006163477897644042968750000000
-0.04773473739624023437500000000000
-0.18043366074562072753906250000000
-0.08022176474332809448242187500000
-0.00568457227200269699096679687500
-0.15900303423404693603515625000000
0.08701014518737792968750000000000
0.14854483306407928466796875000000
0.22675850987434387207031250000000
-0.16832461953163146972656250000000
0.31896129250526428222656250000000
0.08993817865848541259765625000000
-0.69184494018554687500000000000000
-0.22083358466625213623046875000000
-0.86373847723007202148437500000000
-0.91520053148269653320312500000000
0.00940092839300632476806640625000
-0.09560748189687728881835937500000
-0.29566264152526855468750000000000
-0.43570882081985473632812500000000
0.27928587794303894042968750000000
0.09857669472694396972656250000000
-0.03393095731735229492187500000000
0.23970510065555572509765625000000
0.26424655318260192871093750000000
-0.78916007280349731445312500000000
0.05772249400615692138671875000000
-0.23474115133285522460937500000000
-0.29443916678428649902343750000000
0.24724937975406646728515625000000
-0.08351932466030120849609375000000
-0.52594387531280517578125000000000
0.03031907416880130767822265625000
0.51053959131240844726562500000000
-0.02012523449957370758056640625000
0.56297647953033447265625000000000
0.06881953775882720947265625000000
0.07567960768938064575195312500000
-0.09572964161634445190429687500000
0.17015707492828369140625000000000
-0.21658490598201751708984375000000
0.64875048398971557617187500000000
-0.20781327784061431884765625000000
-0.58110648393630981445312500000000
-0.44497561454772949218750000000000
-0.10497041791677474975585937500000
0.05186504498124122619628906250000
0.59740281105041503906250000000000
-0.29624131321907043457031250000000
-0.09945811331272125244140625000000
0.68351149559020996093750000000000
-0.52978527545928955078125000000000
-0.19728629291057586669921875000000
-0.08553418517112731933593750000000
0.07345830649137496948242187500000
-0.19060929119586944580078125000000
-0.66033929586410522460937500000000
-0.30601689219474792480468750000000
-0.27786457538604736328125000000000
-0.46858486533164978027343750000000
0.18830050528049468994140625000000
-0.11582763493061065673828125000000
-0.11086231470108032226562500000000
0.19863477349281311035156250000000
0.66292858123779296875000000000000
-0.02833049371838569641113281250000
-0.17526800930500030517578125000000
0.07716044783592224121093750000000
-0.11102202534675598144531250000000
0.35044980049133300781250000000000
0.42746615409851074218750000000000
0.13786219060420989990234375000000
-0.20520018041133880615234375000000
-0.11259120702743530273437500000000
0.41060107946395874023437500000000
-0.11167209595441818237304687500000
0.24004761874675750732421875000000
-0.04818905517458915710449218750000
-0.07229565083980560302734375000000
-0.59399253129959106445312500000000
-0.52343809604644775390625000000000
0.31133925914764404296875000000000
0.16486781835556030273437500000000
-0.08040104806423187255859375000000
-0.05999258905649185180664062500000
-0.05645409226417541503906250000000
-0.06719538569450378417968750000000
0.36115828156471252441406250000000
