-0.00355787435546517372131347656250
-0.00753382034599781036376953125000
-0.00881593022495508193969726562500
-0.02157294377684593200683593750000
-0.00633913464844226837158203125000
0.01884677633643150329589843750000
0.00135950557887554168701171875000
-0.01575576327741146087646484375000
-0.00666063791140913963317871093750
0.00553445471450686454772949218750
-0.00976715609431266784667968750000
-0.00864118430763483047485351562500
0.00686687463894486427307128906250
-0.00827473215758800506591796875000
-0.01248222682625055313110351562500
-0.01436562743037939071655273437500
-0.00687420926988124847412109375000
-0.01700927130877971649169921875000
-0.03644708544015884399414062500000
0.00124674686230719089508056640625
0.00027228984981775283813476562500
0.00005935866283834911882877349854
0.01572904922068119049072265625000
0.02750128507614135742187500000000
-0.00332723441533744335174560546875
0.01097553875297307968139648437500
0.01741806976497173309326171875000
-0.00729108881205320358276367187500
0.02179163880646228790283203125000
0.00492689246311783790588378906250
-0.00581240328028798103332519531250
-0.00455206399783492088317871093750
