FF9B
FFAA
002A
0041
0034
FFC7
0092
FFA7
0037
FFFD
FFE0
FFF3
0004
0077
003E
FFFA
002B
FFB0
FFB7
FFC4
0069
FFF1
0015
007B
0074
0057
004F
FF5E
FFA4
FFD0
006E
FFDD
006D
FF00
FFE7
0059
0050
FFD8
FEC6
0012
FFDF
FFEE
0043
FFFD
002E
0086
0021
FFDF
FFE9
FF73
00F0
FF84
FFDE
0081
0060
0045
00AA
FF6A
0000
FFF2
FF8F
003B
FFAD
FFF4
000E
FFFB
003A
0038
0068
FF99
FFE2
FFEE
0005
FFB3
FF83
FFAB
FFC1
0008
001F
0015
FF80
FF3C
FF31
0056
0069
001E
010D
00BA
009C
FFE1
00CA
FF54
FFF9
FF23
FFAD
FF46
FE75
FFE7
FF9D
005B
006E
FFA0
0006
006C
FFA1
FFD2
FFA6
0046
FFBE
FFCA
FFE4
FFA4
FFC7
FF04
00D1
FFCF
FF5A
FFC0
00C2
005F
0075
FF8D
FEDA
FFEF
FFC0
0050
FFF2
FFFE
FFF2
FFC9
0021
FF98
004D
00FB
0086
005F
FFDB
0099
FF4F
006D
0092
000E
001F
FF2E
000B
FFCE
FFE7
FFEE
FFA8
0064
FFC7
0010
0027
00E9
FFE6
004B
FFBC
00CA
008E
FFF8
0072
000D
0152
0047
0088
00D2
002A
FF0B
00BD
000C
00C4
00D7
FFFA
007B
0078
0095
FF68
0027
0073
008F
0010
0053
000D
00BB
FFDC
FF59
0087
FFD7
004C
0031
0029
FFB2
0026
FFCC
001F
0098
FFF4
0068
FF85
005C
FFC5
0011
FFD0
004A
FFC5
002E
0021
FFE8
0015
005F
0073
00B4
FFA9
0040
000D
FFDC
FF87
004B
008C
FFB3
FFD2
FFF2
FF90
FFDB
0038
000D
0100
FF90
003F
008D
001F
FFA8
006F
006F
0051
0020
FF9E
FFE4
FF1E
FEC5
FEC3
FF7B
FFB5
00EB
FFC8
0081
FFFD
0030
FF34
00FF
0023
00E3
0065
FF9D
FF71
FF8F
0016
FF9D
001E
FF2B
00E1
FF7A
003E
FFEA
0065
006F
FF74
0054
FFE3
000E
FEE8
0052
FFA2
0032
FFCE
FFC0
0043
FF44
FFA6
007E
FFB8
FF9D
001A
0027
FFAB
FFCE
FFAA
0102
FFFC
FF4B
0026
0016
0047
004B
0001
0052
FFF7
0054
FFD2
001A
0003
0061
0000
0012
0087
0008
0066
FFFC
0045
0047
FF9D
002A
006C
FFEF
FF83
FF5F
FFEC
0073
FFDB
FF9E
FFDA
FF38
002D
FF33
007B
FFA7
006E
0002
0008
0035
FFA9
0016
00E3
005F
FF93
FFC7
0014
FF8E
0007
FFFE
0017
0092
0010
008B
FFEC
FFF3
0004
004C
FF6B
FFF0
002A
FFAE
0017
FF4B
0043
001A
0065
0039
0034
FFAF
0021
006B
FFF7
0036
FFF4
0063
005D
0032
FFFA
FFD1
FFAE
FFE8
FFFA
0066
FF72
0045
005E
FFAD
FFF4
FF9C
FF48
0043
0090
FF20
0088
000E
007B
000A
003B
FFDF
FFBE
005F
FF98
0148
0100
0086
FF4D
FFA1
FFB5
0009
FFBA
0069
0006
0037
FFBA
FF37
FF7A
006F
FFEC
007B
0080
00B7
FFB1
003F
007F
0018
000F
0001
FFF5
00D0
0064
FF5A
003F
0145
FF05
00D1
FFFB
0117
FF77
FF76
FFDA
0071
0020
00B0
FFB7
FF87
FF38
FF7F
FFCA
0036
00A8
0005
FFBA
007F
0031
FFEF
0004
FFF9
005B
FFDC
00CE
FFA6
008D
FFE9
0069
003C
0036
0018
FF50
0089
0007
00BA
0065
0066
00B1
FFCE
FFD2
FFDB
00BF
FF89
FFAA
006A
0098
000C
0045
FF95
FF83
0054
FF52
006B
0022
FFF1
00AB
000D
FFF4
0042
0018
FF96
FFA4
FFC5
0025
0039
009C
004C
0061
001C
0086
FFD9
0022
010D
FF64
0005
FF93
0036
0022
FFFB
0078
FFBF
FF41
FFA6
FF95
FF97
