0.10035230219364166259765625000000
0.08237750083208084106445312500000
-0.15149281919002532958984375000000
-0.62063056230545043945312500000000
-0.04453225433826446533203125000000
0.28430113196372985839843750000000
0.54742604494094848632812500000000
0.10131632536649703979492187500000
-0.08158325403928756713867187500000
-0.74942731857299804687500000000000
0.47675889730453491210937500000000
-0.12334811687469482421875000000000
0.19390861690044403076171875000000
0.00306482193991541862487792968750
0.03172360360622406005859375000000
0.60106825828552246093750000000000
0.03306666389107704162597656250000
0.22363634407520294189453125000000
-0.17835842072963714599609375000000
-0.71017563343048095703125000000000
-0.20977325737476348876953125000000
0.27998498082160949707031250000000
0.11214176565408706665039062500000
-0.16329996287822723388671875000000
0.00804614927619695663452148437500
-0.56746155023574829101562500000000
0.40858486294746398925781250000000
0.03969923779368400573730468750000
0.12054623663425445556640625000000
-0.53350633382797241210937500000000
-0.12984620034694671630859375000000
-0.00424465630203485488891601562500
-0.53692853450775146484375000000000
-0.25573292374610900878906250000000
-0.35984322428703308105468750000000
-0.30299788713455200195312500000000
0.52604997158050537109375000000000
0.13729427754878997802734375000000
0.19438497722148895263671875000000
0.02188364230096340179443359375000
-0.79460304975509643554687500000000
-0.13291104137897491455078125000000
0.07413788139820098876953125000000
-0.10585554689168930053710937500000
1.19859528541564941406250000000000
-0.35489511489868164062500000000000
-0.97892326116561889648437500000000
0.25572764873504638671875000000000
0.64593559503555297851562500000000
-0.65137797594070434570312500000000
-0.73729962110519409179687500000000
0.64186614751815795898437500000000
0.13329474627971649169921875000000
0.57201278209686279296875000000000
0.49251720309257507324218750000000
-0.21363444626331329345703125000000
0.21988196671009063720703125000000
-0.57059806585311889648437500000000
-0.21862785518169403076171875000000
-0.66304618120193481445312500000000
0.53464353084564208984375000000000
0.39738300442695617675781250000000
-0.12448020279407501220703125000000
0.46021717786788940429687500000000
-0.56755810976028442382812500000000
0.04447029531002044677734375000000
0.21136939525604248046875000000000
0.14846576750278472900390625000000
0.26597613096237182617187500000000
-0.12321189045906066894531250000000
0.26812782883644104003906250000000
0.29292193055152893066406250000000
-0.52743542194366455078125000000000
-0.00282288808375597000122070312500
-0.03473155945539474487304687500000
-0.33704289793968200683593750000000
0.72386187314987182617187500000000
-0.36739242076873779296875000000000
0.18100987374782562255859375000000
0.29208415746688842773437500000000
-0.26183289289474487304687500000000
-0.45386174321174621582031250000000
0.16432383656501770019531250000000
0.34786128997802734375000000000000
0.56806063652038574218750000000000
0.37607315182685852050781250000000
0.61344408988952636718750000000000
-0.24322642385959625244140625000000
-0.07653774321079254150390625000000
-0.15526565909385681152343750000000
-0.77212768793106079101562500000000
0.73588073253631591796875000000000
0.19758936762809753417968750000000
-0.30472874641418457031250000000000
-0.49861672520637512207031250000000
0.22740708291530609130859375000000
0.01080925390124320983886718750000
-0.62324482202529907226562500000000
0.16457386314868927001953125000000
-0.47461637854576110839843750000000
0.39495193958282470703125000000000
0.79513794183731079101562500000000
0.39185789227485656738281250000000
0.16929969191551208496093750000000
0.13822858035564422607421875000000
0.32099318504333496093750000000000
-0.81379884481430053710937500000000
0.54103183746337890625000000000000
-0.50367170572280883789062500000000
-0.23610371351242065429687500000000
-0.41057166457176208496093750000000
0.93172740936279296875000000000000
0.41148850321769714355468750000000
0.24924972653388977050781250000000
0.61026662588119506835937500000000
0.30481597781181335449218750000000
-0.27809986472129821777343750000000
-0.11224866658449172973632812500000
-0.30607777833938598632812500000000
0.43576025962829589843750000000000
0.21487289667129516601562500000000
0.20409215986728668212890625000000
0.18664473295211791992187500000000
0.12300621718168258666992187500000
0.13611146807670593261718750000000
-0.10001650452613830566406250000000
-0.03840308263897895812988281250000
-0.35351017117500305175781250000000
-0.37272930145263671875000000000000
0.37700155377388000488281250000000
0.83903461694717407226562500000000
0.24369931221008300781250000000000
-0.33718350529670715332031250000000
-0.43284538388252258300781250000000
-0.05733551457524299621582031250000
0.27932995557785034179687500000000
0.22585119307041168212890625000000
0.56344544887542724609375000000000
-0.15518027544021606445312500000000
-0.04196588695049285888671875000000
0.10191649943590164184570312500000
0.18709740042686462402343750000000
-0.04194497689604759216308593750000
-0.21120759844779968261718750000000
-0.57427126169204711914062500000000
-0.55560261011123657226562500000000
0.16570651531219482421875000000000
0.01384149212390184402465820312500
0.53330022096633911132812500000000
0.33500185608863830566406250000000
0.11916038393974304199218750000000
-0.37949392199516296386718750000000
-1.06630349159240722656250000000000
-0.35656467080116271972656250000000
0.10043506324291229248046875000000
0.02697029337286949157714843750000
0.65660095214843750000000000000000
-0.48393699526786804199218750000000
-0.64904612302780151367187500000000
0.36313816905021667480468750000000
0.12213936448097229003906250000000
-0.78684139251708984375000000000000
0.52799522876739501953125000000000
0.22829139232635498046875000000000
-0.39738255739212036132812500000000
0.60056728124618530273437500000000
0.90962898731231689453125000000000
0.10120714455842971801757812500000
0.55654865503311157226562500000000
0.22221741080284118652343750000000
-0.67207282781600952148437500000000
-0.08725627511739730834960937500000
-0.00895659253001213073730468750000
-0.32279440760612487792968750000000
0.20752619206905364990234375000000
-0.03473239392042160034179687500000
0.15535914897918701171875000000000
0.09176410734653472900390625000000
0.32718369364738464355468750000000
0.11276169866323471069335937500000
0.11244764178991317749023437500000
0.01333497837185859680175781250000
-0.46927019953727722167968750000000
0.12839607894420623779296875000000
0.30888250470161437988281250000000
0.68622529506683349609375000000000
0.27695339918136596679687500000000
0.24282185733318328857421875000000
0.08478271961212158203125000000000
0.00915278960019350051879882812500
-0.25713557004928588867187500000000
-0.28447335958480834960937500000000
0.08449903875589370727539062500000
0.08567970246076583862304687500000
-0.00267616240307688713073730468750
-0.14719043672084808349609375000000
0.41074395179748535156250000000000
0.01790872961282730102539062500000
0.07056722790002822875976562500000
-0.42052152752876281738281250000000
-0.15186844766139984130859375000000
-0.59417861700057983398437500000000
0.23567625880241394042968750000000
0.08594721555709838867187500000000
0.57606393098831176757812500000000
-0.31916460394859313964843750000000
-0.01788508519530296325683593750000
0.10428836941719055175781250000000
-0.41762715578079223632812500000000
0.05279263481497764587402343750000
0.03468906506896018981933593750000
-0.15062673389911651611328125000000
0.71626323461532592773437500000000
0.12275833636522293090820312500000
0.25820648670196533203125000000000
0.47474583983421325683593750000000
-0.19757065176963806152343750000000
-0.24035190045833587646484375000000
-0.00613440852612257003784179687500
0.16061204671859741210937500000000
0.69303894042968750000000000000000
-0.12671646475791931152343750000000
-0.87564247846603393554687500000000
-0.25474625825881958007812500000000
-0.21535518765449523925781250000000
-0.28782096505165100097656250000000
-0.14962320029735565185546875000000
-0.50293964147567749023437500000000
-0.53252625465393066406250000000000
0.39526280760765075683593750000000
0.11771342158317565917968750000000
0.38991662859916687011718750000000
0.13198250532150268554687500000000
-0.53260231018066406250000000000000
0.14284169673919677734375000000000
-0.45288813114166259765625000000000
0.06155718117952346801757812500000
-0.10585173219442367553710937500000
-0.17074613273143768310546875000000
-0.13446891307830810546875000000000
-0.00224266806617379188537597656250
-0.23508808016777038574218750000000
0.24611653387546539306640625000000
0.00479770079255104064941406250000
0.24741134047508239746093750000000
0.19419540464878082275390625000000
-0.14264622330665588378906250000000
-0.32713925838470458984375000000000
0.02892849035561084747314453125000
-0.44200912117958068847656250000000
0.77564716339111328125000000000000
0.27059093117713928222656250000000
0.11122833937406539916992187500000
-0.60180836915969848632812500000000
-0.54191827774047851562500000000000
0.30657136440277099609375000000000
0.68087816238403320312500000000000
-0.77336370944976806640625000000000
0.02848897315561771392822265625000
0.99983876943588256835937500000000
-0.34918081760406494140625000000000
0.26253303885459899902343750000000
0.19419483840465545654296875000000
0.81918370723724365234375000000000
0.42170706391334533691406250000000
0.22827082872390747070312500000000
0.05686239153146743774414062500000
0.25782412290573120117187500000000
0.74081552028656005859375000000000
0.05150894448161125183105468750000
0.18224096298217773437500000000000
0.15815477073192596435546875000000
0.59328258037567138671875000000000
-0.55375462770462036132812500000000
-0.14997282624244689941406250000000
-0.07993302494287490844726562500000
-0.72983849048614501953125000000000
-0.04668401554226875305175781250000
-0.19422985613346099853515625000000
0.52354449033737182617187500000000
0.50120466947555541992187500000000
0.01891656778752803802490234375000
0.31596601009368896484375000000000
-0.04697434976696968078613281250000
0.36356523633003234863281250000000
-0.20445072650909423828125000000000
-0.07704743742942810058593750000000
0.14116993546485900878906250000000
-0.58837759494781494140625000000000
0.24445706605911254882812500000000
1.17287003993988037109375000000000
0.51956874132156372070312500000000
-0.48621234297752380371093750000000
0.08807440102100372314453125000000
0.41306051611900329589843750000000
0.65007328987121582031250000000000
0.77492773532867431640625000000000
0.22030834853649139404296875000000
-0.30702832341194152832031250000000
0.11541386693716049194335937500000
0.10092189908027648925781250000000
-0.30622807145118713378906250000000
-0.25219705700874328613281250000000
0.05142397806048393249511718750000
0.29036426544189453125000000000000
0.32837346196174621582031250000000
0.05583860725164413452148437500000
-0.01121393311768770217895507812500
0.12414444983005523681640625000000
-0.29570710659027099609375000000000
-0.54364848136901855468750000000000
-0.14595100283622741699218750000000
0.14190635085105895996093750000000
0.45340171456336975097656250000000
0.21120408177375793457031250000000
0.20485600829124450683593750000000
0.19783499836921691894531250000000
-0.54644876718521118164062500000000
-0.20259413123130798339843750000000
-0.84965330362319946289062500000000
-0.13255304098129272460937500000000
0.14430658519268035888671875000000
0.41388306021690368652343750000000
-0.14837814867496490478515625000000
0.38950219750404357910156250000000
0.64627236127853393554687500000000
0.44579374790191650390625000000000
-0.10979518294334411621093750000000
0.13478116691112518310546875000000
0.42107349634170532226562500000000
-0.29201123118400573730468750000000
0.32659080624580383300781250000000
-0.11720288544893264770507812500000
-0.92266184091567993164062500000000
-0.80878561735153198242187500000000
0.26309865713119506835937500000000
0.59052884578704833984375000000000
-0.46793290972709655761718750000000
-0.11606810986995697021484375000000
0.30278709530830383300781250000000
0.52866196632385253906250000000000
0.16366462409496307373046875000000
0.09887976199388504028320312500000
-0.59019094705581665039062500000000
0.17788068950176239013671875000000
-0.73721653223037719726562500000000
0.39230638742446899414062500000000
-0.45542097091674804687500000000000
0.63110589981079101562500000000000
-0.11621099710464477539062500000000
-0.42497795820236206054687500000000
0.12752456963062286376953125000000
0.40888646245002746582031250000000
-0.24378745257854461669921875000000
0.29378268122673034667968750000000
-0.29891279339790344238281250000000
0.42963737249374389648437500000000
0.64925563335418701171875000000000
0.18423090875148773193359375000000
-0.37500789761543273925781250000000
0.49022275209426879882812500000000
0.29555007815361022949218750000000
-0.22570852935314178466796875000000
0.76409298181533813476562500000000
-0.50626325607299804687500000000000
-0.63824981451034545898437500000000
-0.62274605035781860351562500000000
0.39644607901573181152343750000000
0.51793181896209716796875000000000
0.05473727360367774963378906250000
0.25318098068237304687500000000000
-0.04094369709491729736328125000000
0.12828889489173889160156250000000
-0.15531291067600250244140625000000
-0.38123676180839538574218750000000
0.07151013612747192382812500000000
0.27992060780525207519531250000000
0.28348314762115478515625000000000
0.12799158692359924316406250000000
0.32351064682006835937500000000000
0.18896828591823577880859375000000
-0.54067599773406982421875000000000
-0.70003652572631835937500000000000
-0.40848007798194885253906250000000
-0.47323170304298400878906250000000
0.08402247726917266845703125000000
0.08388461172580718994140625000000
-0.07618179172277450561523437500000
0.53488075733184814453125000000000
0.62783771753311157226562500000000
0.20464271306991577148437500000000
-0.06490274518728256225585937500000
-0.29297611117362976074218750000000
-0.64590787887573242187500000000000
0.06350526213645935058593750000000
0.14668981730937957763671875000000
0.18662367761135101318359375000000
-0.29519596695899963378906250000000
-0.19529156386852264404296875000000
0.97462695837020874023437500000000
0.19602416455745697021484375000000
0.04957165569067001342773437500000
0.15187495946884155273437500000000
-0.17701478302478790283203125000000
0.30150479078292846679687500000000
-0.00701063638553023338317871093750
-0.33978697657585144042968750000000
-0.58330327272415161132812500000000
0.21299082040786743164062500000000
0.05418867617845535278320312500000
0.45010009407997131347656250000000
0.54574561119079589843750000000000
-0.00766747072339057922363281250000
-0.60183393955230712890625000000000
-0.21769197285175323486328125000000
-0.16635848581790924072265625000000
0.43734535574913024902343750000000
-0.75339937210083007812500000000000
-0.25016355514526367187500000000000
0.19491542875766754150390625000000
0.01673706620931625366210937500000
0.44055283069610595703125000000000
0.57495129108428955078125000000000
-0.37256103754043579101562500000000
0.44735115766525268554687500000000
-0.12202581018209457397460937500000
-0.96060955524444580078125000000000
0.46088188886642456054687500000000
0.04499864578247070312500000000000
0.47308361530303955078125000000000
-0.39744371175765991210937500000000
0.14700281620025634765625000000000
-0.31704205274581909179687500000000
-0.07593868672847747802734375000000
-0.11711107194423675537109375000000
-0.02191387303173542022705078125000
0.24355538189411163330078125000000
1.10362040996551513671875000000000
0.91187429428100585937500000000000
-0.11783560365438461303710937500000
0.16895326972007751464843750000000
-0.17962510883808135986328125000000
-0.19021475315093994140625000000000
0.07674956321716308593750000000000
-0.47236245870590209960937500000000
-0.14776697754859924316406250000000
-0.03827971220016479492187500000000
0.93835657835006713867187500000000
-0.09739441424608230590820312500000
0.22695003449916839599609375000000
0.77883851528167724609375000000000
0.17863824963569641113281250000000
-0.89879065752029418945312500000000
-0.00244852970354259014129638671875
0.33204030990600585937500000000000
0.33404058218002319335937500000000
0.85839599370956420898437500000000
0.16884632408618927001953125000000
-0.13342455029487609863281250000000
-0.48324492573738098144531250000000
0.16412605345249176025390625000000
0.13136042654514312744140625000000
-0.39430391788482666015625000000000
-0.18318895995616912841796875000000
-0.17428214848041534423828125000000
-0.28166338801383972167968750000000
0.23361054062843322753906250000000
0.39668914675712585449218750000000
-0.02719965949654579162597656250000
-0.00207409099675714969635009765625
0.44522303342819213867187500000000
0.83095961809158325195312500000000
0.42946183681488037109375000000000
-0.10423798114061355590820312500000
-0.40070670843124389648437500000000
1.15627157688140869140625000000000
0.46090301871299743652343750000000
0.32141515612602233886718750000000
0.06791625916957855224609375000000
0.17475299537181854248046875000000
-0.27432361245155334472656250000000
0.58288127183914184570312500000000
0.38786447048187255859375000000000
0.34419018030166625976562500000000
-0.42683577537536621093750000000000
-0.40851655602455139160156250000000
-0.01564455032348632812500000000000
0.26613500714302062988281250000000
0.22442056238651275634765625000000
0.28649261593818664550781250000000
-0.10438943654298782348632812500000
0.12303987890481948852539062500000
-0.07171618193387985229492187500000
0.05050892382860183715820312500000
-0.13221023976802825927734375000000
0.05023661255836486816406250000000
0.27451470494270324707031250000000
-0.26965755224227905273437500000000
0.18223038315773010253906250000000
-0.35817584395408630371093750000000
0.11929243803024291992187500000000
0.30290198326110839843750000000000
0.11246744543313980102539062500000
-0.06294797360897064208984375000000
-0.31264972686767578125000000000000
-0.13601122796535491943359375000000
0.17952325940132141113281250000000
0.33462688326835632324218750000000
0.13550272583961486816406250000000
-0.74125516414642333984375000000000
-0.46954053640365600585937500000000
0.14129912853240966796875000000000
