-0.12464744597673416137695312500000
0.54925471544265747070312500000000
-0.56165391206741333007812500000000
0.25768136978149414062500000000000
-0.20070664584636688232421875000000
0.50646495819091796875000000000000
0.33335661888122558593750000000000
-0.08996026962995529174804687500000
-0.04822059348225593566894531250000
0.55557644367218017578125000000000
0.25810784101486206054687500000000
0.41085979342460632324218750000000
-0.17328266799449920654296875000000
0.19375018775463104248046875000000
0.15772636234760284423828125000000
0.68115347623825073242187500000000
0.37413993477821350097656250000000
0.09856823086738586425781250000000
0.00327788060531020164489746093750
-0.49313423037528991699218750000000
-0.39349606633186340332031250000000
-0.02033819630742073059082031250000
0.20446759462356567382812500000000
0.68098312616348266601562500000000
-0.24673846364021301269531250000000
0.19604806602001190185546875000000
-0.29507002234458923339843750000000
0.23240499198436737060546875000000
0.83645886182785034179687500000000
0.21100878715515136718750000000000
0.07009804993867874145507812500000
0.02629113942384719848632812500000
-0.00910706818103790283203125000000
-0.09612245857715606689453125000000
-0.11071172356605529785156250000000
0.88670265674591064453125000000000
-0.37606579065322875976562500000000
-0.14150752127170562744140625000000
-0.01480416208505630493164062500000
-0.35466140508651733398437500000000
0.33098545670509338378906250000000
0.24535134434700012207031250000000
0.19525451958179473876953125000000
0.53106421232223510742187500000000
0.89953279495239257812500000000000
0.22185377776622772216796875000000
0.11136242002248764038085937500000
-0.10502079874277114868164062500000
0.87060940265655517578125000000000
-0.09764730930328369140625000000000
0.31624233722686767578125000000000
-0.01219588518142700195312500000000
1.05963301658630371093750000000000
0.11455896496772766113281250000000
-0.09711894392967224121093750000000
-0.29615935683250427246093750000000
0.52574747800827026367187500000000
0.22382545471191406250000000000000
0.06814842671155929565429687500000
0.06620077788829803466796875000000
-0.02625430561602115631103515625000
0.19234248995780944824218750000000
-0.65777325630187988281250000000000
0.24749921262264251708984375000000
0.08358476310968399047851562500000
-0.66787534952163696289062500000000
-1.70434284210205078125000000000000
0.57704764604568481445312500000000
-0.37295293807983398437500000000000
-0.23558782041072845458984375000000
-0.21704374253749847412109375000000
-0.37422999739646911621093750000000
-0.50001299381256103515625000000000
0.62001353502273559570312500000000
0.18754832446575164794921875000000
0.43031325936317443847656250000000
0.56181192398071289062500000000000
0.41870263218879699707031250000000
-0.03798508271574974060058593750000
0.00210804841481149196624755859375
-0.05296394228935241699218750000000
0.48703214526176452636718750000000
0.40793156623840332031250000000000
-0.91162598133087158203125000000000
-0.49864992499351501464843750000000
-0.13777016103267669677734375000000
0.13013464212417602539062500000000
-0.22685353457927703857421875000000
-0.59293031692504882812500000000000
0.31834480166435241699218750000000
-0.43393480777740478515625000000000
-0.67892134189605712890625000000000
0.12095279246568679809570312500000
-0.40527132153511047363281250000000
-0.21061892807483673095703125000000
-0.78224712610244750976562500000000
-0.05178905278444290161132812500000
-0.02290446870028972625732421875000
-0.18707169592380523681640625000000
0.51189213991165161132812500000000
-0.66468191146850585937500000000000
-0.52195000648498535156250000000000
0.45317557454109191894531250000000
-0.24190281331539154052734375000000
0.42696329951286315917968750000000
-0.37443509697914123535156250000000
0.09056037664413452148437500000000
0.49725356698036193847656250000000
-0.11742122471332550048828125000000
-0.81108021736145019531250000000000
-0.03305102884769439697265625000000
-0.63112926483154296875000000000000
0.48925584554672241210937500000000
-0.03185411915183067321777343750000
0.56079393625259399414062500000000
0.57847148180007934570312500000000
-0.31371864676475524902343750000000
-0.38301396369934082031250000000000
-0.27641850709915161132812500000000
-0.58906036615371704101562500000000
0.35240349173545837402343750000000
-0.01355308853089809417724609375000
-0.45221742987632751464843750000000
-0.41815403103828430175781250000000
-0.10566079616546630859375000000000
-0.08804018050432205200195312500000
-0.28279888629913330078125000000000
0.03527913987636566162109375000000
0.51775813102722167968750000000000
0.55264592170715332031250000000000
0.18530516326427459716796875000000
0.17884428799152374267578125000000
0.38468751311302185058593750000000
0.45458889007568359375000000000000
0.28453800082206726074218750000000
-0.19167673587799072265625000000000
-0.36261615157127380371093750000000
-0.10996579378843307495117187500000
0.26384639739990234375000000000000
0.26562905311584472656250000000000
-0.23556302487850189208984375000000
-0.58172261714935302734375000000000
-0.23047207295894622802734375000000
0.53821921348571777343750000000000
0.47274151444435119628906250000000
0.68061941862106323242187500000000
0.23215238749980926513671875000000
-0.09465917199850082397460937500000
0.24194900691509246826171875000000
0.29152023792266845703125000000000
-0.37676805257797241210937500000000
0.34825015068054199218750000000000
0.26087433099746704101562500000000
-0.06572421640157699584960937500000
-0.34503814578056335449218750000000
-0.17952147126197814941406250000000
-0.01603088900446891784667968750000
0.24850019812583923339843750000000
0.06192846968770027160644531250000
0.37603485584259033203125000000000
0.61335170269012451171875000000000
-0.11242193728685379028320312500000
-0.20473061501979827880859375000000
0.39795020222663879394531250000000
-0.63165605068206787109375000000000
-0.26753655076026916503906250000000
0.38810560107231140136718750000000
0.28447920083999633789062500000000
0.07346377521753311157226562500000
-0.71083396673202514648437500000000
-0.18319249153137207031250000000000
-0.00856626499444246292114257812500
-0.24341465532779693603515625000000
0.58632266521453857421875000000000
0.28249427676200866699218750000000
0.60831564664840698242187500000000
-0.26376295089721679687500000000000
-0.36084687709808349609375000000000
-0.30000767111778259277343750000000
0.17465952038764953613281250000000
0.16274088621139526367187500000000
0.38056552410125732421875000000000
0.07020694017410278320312500000000
0.32977166771888732910156250000000
0.35810422897338867187500000000000
0.68341928720474243164062500000000
0.45662984251976013183593750000000
-0.23565475642681121826171875000000
0.35552266240119934082031250000000
0.11432723701000213623046875000000
0.09631555527448654174804687500000
0.41607719659805297851562500000000
0.44826722145080566406250000000000
0.91209864616394042968750000000000
-0.21106477081775665283203125000000
-0.03958799317479133605957031250000
0.47776466608047485351562500000000
0.14530719816684722900390625000000
0.65889769792556762695312500000000
-0.18509647250175476074218750000000
-0.01039887219667434692382812500000
0.50313115119934082031250000000000
0.31358683109283447265625000000000
-0.14087606966495513916015625000000
0.19971406459808349609375000000000
0.61310678720474243164062500000000
0.53355967998504638671875000000000
0.69708949327468872070312500000000
0.40143382549285888671875000000000
0.64533245563507080078125000000000
-0.46200361847877502441406250000000
0.07012627273797988891601562500000
-0.11476144194602966308593750000000
-0.62788361310958862304687500000000
0.35345432162284851074218750000000
0.26182329654693603515625000000000
-0.43350952863693237304687500000000
-0.06909240782260894775390625000000
-0.50733786821365356445312500000000
-0.19398935139179229736328125000000
-0.01452477648854255676269531250000
0.08811186999082565307617187500000
0.03276224061846733093261718750000
0.58419382572174072265625000000000
0.75721997022628784179687500000000
-0.17451500892639160156250000000000
0.01598958298563957214355468750000
-0.07763269543647766113281250000000
-0.34819293022155761718750000000000
-0.24248848855495452880859375000000
-0.47276696562767028808593750000000
0.23635037243366241455078125000000
0.43433117866516113281250000000000
-0.06483017653226852416992187500000
0.04262734949588775634765625000000
-0.11376331746578216552734375000000
0.24053019285202026367187500000000
-0.05475475266575813293457031250000
0.35714536905288696289062500000000
0.91505670547485351562500000000000
-0.07753018289804458618164062500000
-0.40034106373786926269531250000000
0.00319103454239666461944580078125
0.32873365283012390136718750000000
0.29169237613677978515625000000000
0.25416916608810424804687500000000
0.75861674547195434570312500000000
-0.22744931280612945556640625000000
0.34999120235443115234375000000000
0.87819850444793701171875000000000
0.18001164495944976806640625000000
0.04434306547045707702636718750000
0.14730854332447052001953125000000
0.19677394628524780273437500000000
-0.31163102388381958007812500000000
0.60457301139831542968750000000000
-0.61412602663040161132812500000000
-0.43929621577262878417968750000000
0.31910869479179382324218750000000
-0.37412899732589721679687500000000
-0.17117002606391906738281250000000
-0.10362262278795242309570312500000
-0.15642994642257690429687500000000
-0.08030712604522705078125000000000
-0.61458396911621093750000000000000
-0.58150458335876464843750000000000
-0.28028768301010131835937500000000
-0.66239929199218750000000000000000
-0.14383605122566223144531250000000
-0.44622671604156494140625000000000
-0.53030025959014892578125000000000
-0.32739508152008056640625000000000
-0.06177966296672821044921875000000
0.00072368187829852104187011718750
-0.84710425138473510742187500000000
0.15704493224620819091796875000000
-0.08923663198947906494140625000000
-0.24942035973072052001953125000000
-0.77733641862869262695312500000000
-0.42671647667884826660156250000000
0.14872537553310394287109375000000
-0.57415938377380371093750000000000
-0.54057872295379638671875000000000
-0.70412474870681762695312500000000
-0.02788602188229560852050781250000
0.07390370219945907592773437500000
-1.06729578971862792968750000000000
-0.08442625403404235839843750000000
-0.15478174388408660888671875000000
-0.05973551794886589050292968750000
-0.61051827669143676757812500000000
-0.43159329891204833984375000000000
0.73121559619903564453125000000000
0.17478445172309875488281250000000
-0.15432481467723846435546875000000
-0.16492964327335357666015625000000
-0.16988933086395263671875000000000
0.31996750831604003906250000000000
0.19665223360061645507812500000000
0.31499153375625610351562500000000
0.17778874933719635009765625000000
0.33998772501945495605468750000000
0.27191159129142761230468750000000
-0.13316011428833007812500000000000
-0.02157990634441375732421875000000
-0.45147201418876647949218750000000
-0.72393685579299926757812500000000
-0.49636262655258178710937500000000
0.08693153411149978637695312500000
0.72627973556518554687500000000000
-0.69074100255966186523437500000000
0.31892123818397521972656250000000
-0.07177685201168060302734375000000
-0.67588853836059570312500000000000
0.02665569633245468139648437500000
-0.12033588439226150512695312500000
-0.17377485334873199462890625000000
-0.09376130998134613037109375000000
0.09245759248733520507812500000000
-0.10314293950796127319335937500000
0.24221511185169219970703125000000
-0.32960152626037597656250000000000
-0.03251154720783233642578125000000
-0.05290805175900459289550781250000
-0.49314704537391662597656250000000
0.18881022930145263671875000000000
-0.29684683680534362792968750000000
-0.91598588228225708007812500000000
0.28153991699218750000000000000000
0.24655570089817047119140625000000
-0.40871053934097290039062500000000
0.12637802958488464355468750000000
0.33728379011154174804687500000000
0.00241285981610417366027832031250
-0.30922520160675048828125000000000
-0.17645475268363952636718750000000
-0.09195603430271148681640625000000
-0.13174770772457122802734375000000
0.07450667768716812133789062500000
0.31916061043739318847656250000000
0.73739522695541381835937500000000
0.40244099497795104980468750000000
0.43775838613510131835937500000000
-0.28081041574478149414062500000000
-0.48074826598167419433593750000000
0.00562740070745348930358886718750
0.07519830763339996337890625000000
-0.18452894687652587890625000000000
-0.64413034915924072265625000000000
0.12328312546014785766601562500000
0.19842557609081268310546875000000
-0.21883471310138702392578125000000
-0.72617125511169433593750000000000
-0.51384991407394409179687500000000
0.36201530694961547851562500000000
0.26006293296813964843750000000000
-0.20516890287399291992187500000000
0.02675233781337738037109375000000
0.22677615284919738769531250000000
0.11705982685089111328125000000000
-0.31094312667846679687500000000000
-0.41108402609825134277343750000000
-0.13766507804393768310546875000000
-0.92902505397796630859375000000000
0.67121338844299316406250000000000
-0.09825363755226135253906250000000
-0.41726589202880859375000000000000
0.07351388037204742431640625000000
-0.24360045790672302246093750000000
-0.70055526494979858398437500000000
-0.24212490022182464599609375000000
0.06004720181226730346679687500000
-0.26126459240913391113281250000000
-0.34474247694015502929687500000000
-0.48449030518531799316406250000000
-0.75883740186691284179687500000000
-0.27187240123748779296875000000000
-0.21281035244464874267578125000000
-0.53814327716827392578125000000000
0.26990053057670593261718750000000
0.30342918634414672851562500000000
-0.57484030723571777343750000000000
-0.55101770162582397460937500000000
-0.01971934176981449127197265625000
-0.26764363050460815429687500000000
-0.09802453964948654174804687500000
-0.33693590760231018066406250000000
0.15869334340095520019531250000000
-0.54388058185577392578125000000000
-0.17784512042999267578125000000000
-0.35669338703155517578125000000000
-0.09138341993093490600585937500000
-0.69868505001068115234375000000000
-0.05477624759078025817871093750000
-0.65111780166625976562500000000000
0.39384126663208007812500000000000
-0.66882741451263427734375000000000
-0.34014132618904113769531250000000
-0.21098890900611877441406250000000
-0.35779234766960144042968750000000
-0.46540653705596923828125000000000
0.24041463434696197509765625000000
0.23996967077255249023437500000000
0.48699474334716796875000000000000
0.49256697297096252441406250000000
-0.47287082672119140625000000000000
0.03740584105253219604492187500000
-0.39637783169746398925781250000000
-0.57526755332946777343750000000000
-0.07581400871276855468750000000000
0.22573766112327575683593750000000
0.33528035879135131835937500000000
-0.32421821355819702148437500000000
-0.42234957218170166015625000000000
0.39020675420761108398437500000000
-0.51855725049972534179687500000000
-0.01040939427912235260009765625000
-0.09630052000284194946289062500000
-0.42991030216217041015625000000000
-0.33450415730476379394531250000000
0.08746693283319473266601562500000
-0.83097481727600097656250000000000
0.83320826292037963867187500000000
-0.23561841249465942382812500000000
0.08077766001224517822265625000000
-0.34236598014831542968750000000000
-0.11137752979993820190429687500000
-0.08670005947351455688476562500000
-0.08411274105310440063476562500000
-0.42605066299438476562500000000000
0.41269430518150329589843750000000
-0.47997960448265075683593750000000
0.41656437516212463378906250000000
-0.34485077857971191406250000000000
-0.81096959114074707031250000000000
-0.09571783989667892456054687500000
0.30136623978614807128906250000000
-0.11567180603742599487304687500000
-0.38285073637962341308593750000000
0.17409116029739379882812500000000
0.04165150597691535949707031250000
-0.31615155935287475585937500000000
0.23320174217224121093750000000000
-0.12192180007696151733398437500000
-0.10152066498994827270507812500000
-0.15344320237636566162109375000000
-0.26193961501121520996093750000000
-0.70719838142395019531250000000000
0.26446026563644409179687500000000
0.15492430329322814941406250000000
-0.14746709167957305908203125000000
-0.06154242530465126037597656250000
0.66239100694656372070312500000000
0.16594427824020385742187500000000
0.47216299176216125488281250000000
0.75258338451385498046875000000000
-0.42971411347389221191406250000000
-0.41475698351860046386718750000000
-0.15611508488655090332031250000000
-0.19761990010738372802734375000000
-0.13900576531887054443359375000000
0.69093263149261474609375000000000
0.71864056587219238281250000000000
-0.14460436999797821044921875000000
0.34518334269523620605468750000000
0.13278640806674957275390625000000
1.71879124641418457031250000000000
0.63959467411041259765625000000000
0.09039593487977981567382812500000
0.36368724703788757324218750000000
0.25703290104866027832031250000000
0.42157402634620666503906250000000
0.79812908172607421875000000000000
0.46754768490791320800781250000000
0.28383529186248779296875000000000
-0.41839906573295593261718750000000
0.18759159743785858154296875000000
-0.49613434076309204101562500000000
0.04947982728481292724609375000000
0.33114472031593322753906250000000
0.28978309035301208496093750000000
0.14977340400218963623046875000000
-0.31906476616859436035156250000000
0.34572669863700866699218750000000
-0.18836717307567596435546875000000
-0.73184245824813842773437500000000
0.18597438931465148925781250000000
0.53472864627838134765625000000000
0.02768569439649581909179687500000
0.14522664248943328857421875000000
-0.39706835150718688964843750000000
-0.00272485124878585338592529296875
-0.03318177536129951477050781250000
-0.34768271446228027343750000000000
0.25805473327636718750000000000000
-0.26944914460182189941406250000000
0.18666476011276245117187500000000
0.39365342259407043457031250000000
-0.30543133616447448730468750000000
-0.71806496381759643554687500000000
-0.35245001316070556640625000000000
-0.50480574369430541992187500000000
0.04494816064834594726562500000000
-0.19899339973926544189453125000000
0.02022876217961311340332031250000
0.01386825740337371826171875000000
0.14910954236984252929687500000000
0.37336128950119018554687500000000
-0.38778141140937805175781250000000
0.35688072443008422851562500000000
0.71343964338302612304687500000000
0.08056072890758514404296875000000
0.13113133609294891357421875000000
0.04394672438502311706542968750000
-0.17025147378444671630859375000000
0.11299765110015869140625000000000
0.20995445549488067626953125000000
0.36002415418624877929687500000000
0.57103699445724487304687500000000
0.84608662128448486328125000000000
0.20068912208080291748046875000000
0.19837076961994171142578125000000
-0.23107132315635681152343750000000
1.00478947162628173828125000000000
0.16433618962764739990234375000000
0.50550025701522827148437500000000
0.69167119264602661132812500000000
0.51514256000518798828125000000000
0.10498624294996261596679687500000
-0.38367223739624023437500000000000
0.15936256945133209228515625000000
-0.15436933934688568115234375000000
-0.72694468498229980468750000000000
-0.43829602003097534179687500000000
0.46452671289443969726562500000000
0.46917298436164855957031250000000
0.07527569681406021118164062500000
0.77813905477523803710937500000000
0.82651221752166748046875000000000
-0.02751447819173336029052734375000
-0.26698651909828186035156250000000
-0.20630124211311340332031250000000
-0.13531498610973358154296875000000
0.18989323079586029052734375000000
0.25021794438362121582031250000000
0.46644526720046997070312500000000
-0.23992198705673217773437500000000
-0.50182783603668212890625000000000
-0.20535963773727416992187500000000
-0.42078560590744018554687500000000
-0.24139764904975891113281250000000
-0.04922594502568244934082031250000
0.88213318586349487304687500000000
0.53785198926925659179687500000000
-0.02558521926403045654296875000000
0.05206338316202163696289062500000
0.40004861354827880859375000000000
-0.10062911361455917358398437500000
-0.11993189901113510131835937500000
-0.43329942226409912109375000000000
0.62364315986633300781250000000000
1.31573224067687988281250000000000
0.42462405562400817871093750000000
0.23260641098022460937500000000000
0.27741733193397521972656250000000
-0.34423169493675231933593750000000
-0.29894867539405822753906250000000
-0.18292012810707092285156250000000
0.26660385727882385253906250000000
0.49352696537971496582031250000000
0.03982904180884361267089843750000
0.11413913220167160034179687500000
0.47709766030311584472656250000000
0.87185662984848022460937500000000
0.31871786713600158691406250000000
0.00102949235588312149047851562500
-0.31079286336898803710937500000000
0.01723223179578781127929687500000
-0.60174417495727539062500000000000
0.17626522481441497802734375000000
0.13623856008052825927734375000000
-0.57121413946151733398437500000000
-0.18039980530738830566406250000000
-0.01473307050764560699462890625000
-0.68769788742065429687500000000000
-0.25163322687149047851562500000000
-0.21787701547145843505859375000000
0.15385073423385620117187500000000
-0.89288789033889770507812500000000
-0.23519505560398101806640625000000
-0.13861550390720367431640625000000
-0.52368873357772827148437500000000
-0.36469954252243041992187500000000
-0.35721033811569213867187500000000
0.26561620831489562988281250000000
-0.06376488506793975830078125000000
-0.02993378043174743652343750000000
0.84231579303741455078125000000000
0.24134618043899536132812500000000
0.11778846383094787597656250000000
-0.28040552139282226562500000000000
0.06817218661308288574218750000000
0.45686751604080200195312500000000
0.01556721422821283340454101562500
0.96906346082687377929687500000000
-0.07369001209735870361328125000000
0.13991603255271911621093750000000
-0.64650177955627441406250000000000
-0.44699546694755554199218750000000
-0.03393413498997688293457031250000
0.27384331822395324707031250000000
0.13218316435813903808593750000000
0.66295921802520751953125000000000
0.28131985664367675781250000000000
0.04507061466574668884277343750000
-0.63862890005111694335937500000000
0.07810445874929428100585937500000
0.15193496644496917724609375000000
0.37181663513183593750000000000000
0.33050838112831115722656250000000
0.30429908633232116699218750000000
0.13399794697761535644531250000000
0.15495650470256805419921875000000
-1.01771616935729980468750000000000
0.44202870130538940429687500000000
0.12340889126062393188476562500000
0.20913448929786682128906250000000
0.08073806017637252807617187500000
-0.16225470602512359619140625000000
-0.01324394159018993377685546875000
-0.47820556163787841796875000000000
-0.63010495901107788085937500000000
-0.49544686079025268554687500000000
-0.10485753417015075683593750000000
-0.36088219285011291503906250000000
-0.44459205865859985351562500000000
0.01764701493084430694580078125000
0.03373240679502487182617187500000
-0.62677162885665893554687500000000
0.05920599400997161865234375000000
0.25464749336242675781250000000000
0.38227891921997070312500000000000
-0.06316774338483810424804687500000
0.16299958527088165283203125000000
0.77478730678558349609375000000000
0.17207054793834686279296875000000
0.66779726743698120117187500000000
0.40981647372245788574218750000000
0.01084773521870374679565429687500
0.26077234745025634765625000000000
0.20723153650760650634765625000000
0.65914493799209594726562500000000
-0.22975124418735504150390625000000
0.41087305545806884765625000000000
0.62241727113723754882812500000000
-0.05833541974425315856933593750000
0.00754643650725483894348144531250
-0.17680919170379638671875000000000
-0.26669463515281677246093750000000
-0.70585733652114868164062500000000
-0.51907861232757568359375000000000
-0.31510356068611145019531250000000
0.85460352897644042968750000000000
0.61421465873718261718750000000000
0.47612699866294860839843750000000
0.81126487255096435546875000000000
0.37975361943244934082031250000000
0.35416090488433837890625000000000
-0.19469793140888214111328125000000
-0.32274395227432250976562500000000
0.09945201873779296875000000000000
0.29314705729484558105468750000000
0.02107132598757743835449218750000
0.04399849101901054382324218750000
-0.23778188228607177734375000000000
-0.20701043307781219482421875000000
-0.58295923471450805664062500000000
-0.41749560832977294921875000000000
-0.25816297531127929687500000000000
0.18760615587234497070312500000000
0.48300120234489440917968750000000
0.47332301735877990722656250000000
-0.14148439466953277587890625000000
0.06070761382579803466796875000000
0.09561743587255477905273437500000
-0.29275670647621154785156250000000
0.11534770578145980834960937500000
-0.12736432254314422607421875000000
0.45685365796089172363281250000000
0.28145253658294677734375000000000
0.01885733567178249359130859375000
-0.52141404151916503906250000000000
-0.63100218772888183593750000000000
-0.16115835309028625488281250000000
0.16725872457027435302734375000000
-0.37580808997154235839843750000000
0.24911968410015106201171875000000
0.27104073762893676757812500000000
-0.08599931746721267700195312500000
0.20719970762729644775390625000000
-0.29615452885627746582031250000000
0.53999251127243041992187500000000
0.32253435254096984863281250000000
0.11564132571220397949218750000000
-0.90281885862350463867187500000000
-0.12809419631958007812500000000000
0.07114161550998687744140625000000
-0.73660403490066528320312500000000
0.36633837223052978515625000000000
0.11022552847862243652343750000000
-0.62685292959213256835937500000000
-0.07828684151172637939453125000000
-0.80494350194931030273437500000000
-0.26693868637084960937500000000000
0.33085873723030090332031250000000
-0.02827998809516429901123046875000
0.45044618844985961914062500000000
0.20442502200603485107421875000000
0.15963155031204223632812500000000
-0.69587552547454833984375000000000
-0.49953749775886535644531250000000
-0.96939700841903686523437500000000
-0.23985368013381958007812500000000
-0.02959798648953437805175781250000
-0.47511300444602966308593750000000
-0.63402551412582397460937500000000
-0.95804095268249511718750000000000
-0.46863257884979248046875000000000
-0.45238071680068969726562500000000
-0.20028333365917205810546875000000
0.26534640789031982421875000000000
0.04675281792879104614257812500000
-0.01813347265124320983886718750000
-0.54394465684890747070312500000000
-0.59939694404602050781250000000000
-0.94495147466659545898437500000000
-0.16258803009986877441406250000000
-0.51288366317749023437500000000000
0.06434786319732666015625000000000
-0.64817184209823608398437500000000
-0.18221983313560485839843750000000
-0.10234364122152328491210937500000
-0.73857486248016357421875000000000
-0.68328875303268432617187500000000
-0.81327992677688598632812500000000
-0.23719602823257446289062500000000
-0.77929747104644775390625000000000
-1.02961361408233642578125000000000
0.07492367923259735107421875000000
-0.28065797686576843261718750000000
0.16951723396778106689453125000000
0.01804368384182453155517578125000
-0.16609738767147064208984375000000
0.22286526858806610107421875000000
0.25591045618057250976562500000000
0.49123767018318176269531250000000
0.23576939105987548828125000000000
-0.07594402134418487548828125000000
0.38885787129402160644531250000000
-1.16109001636505126953125000000000
-0.58702540397644042968750000000000
-0.13860696554183959960937500000000
-0.51055479049682617187500000000000
0.21528363227844238281250000000000
-0.30610847473144531250000000000000
-0.52773839235305786132812500000000
-0.20488831400871276855468750000000
-0.73084443807601928710937500000000
-0.00008812797022983431816101074219
-0.02691845782101154327392578125000
0.39291894435882568359375000000000
0.27881529927253723144531250000000
0.84956115484237670898437500000000
0.23073646426200866699218750000000
0.50066977739334106445312500000000
0.76330649852752685546875000000000
0.48130849003791809082031250000000
0.27301293611526489257812500000000
0.36199849843978881835937500000000
0.79790949821472167968750000000000
0.51491343975067138671875000000000
0.62646526098251342773437500000000
0.97725343704223632812500000000000
-0.15666590631008148193359375000000
0.27537280321121215820312500000000
-0.19630989432334899902343750000000
0.35110810399055480957031250000000
0.22158823907375335693359375000000
-0.15486681461334228515625000000000
-0.23098596930503845214843750000000
0.53537219762802124023437500000000
0.51158690452575683593750000000000
0.96170914173126220703125000000000
0.90755546092987060546875000000000
0.87940979003906250000000000000000
-0.50120216608047485351562500000000
-0.14943534135818481445312500000000
-0.38171422481536865234375000000000
0.06987456232309341430664062500000
0.43285939097404479980468750000000
0.18353980779647827148437500000000
0.08214256912469863891601562500000
0.10770910233259201049804687500000
0.44417369365692138671875000000000
-0.56685185432434082031250000000000
-0.46903857588768005371093750000000
0.30179738998413085937500000000000
0.55959111452102661132812500000000
0.27283325791358947753906250000000
-0.03383464366197586059570312500000
0.04437799751758575439453125000000
-0.09063317626714706420898437500000
-0.78173112869262695312500000000000
0.01844551414251327514648437500000
-0.56521546840667724609375000000000
-0.28809192776679992675781250000000
-0.41765588521957397460937500000000
1.20415997505187988281250000000000
0.01826364547014236450195312500000
-0.50328159332275390625000000000000
-0.46748858690261840820312500000000
-0.48983412981033325195312500000000
0.35494247078895568847656250000000
0.19421780109405517578125000000000
-0.04050870239734649658203125000000
0.22890356183052062988281250000000
0.19651448726654052734375000000000
0.11091965436935424804687500000000
0.37708395719528198242187500000000
0.59159505367279052734375000000000
0.83801746368408203125000000000000
0.20688238739967346191406250000000
-0.16872933506965637207031250000000
0.08979076892137527465820312500000
0.17777670919895172119140625000000
-0.01502704434096813201904296875000
-0.21031980216503143310546875000000
0.10515350103378295898437500000000
-0.35024914145469665527343750000000
-0.58339941501617431640625000000000
-0.43563687801361083984375000000000
0.12130772322416305541992187500000
0.05892213433980941772460937500000
0.14400820434093475341796875000000
0.32489278912544250488281250000000
-0.66562104225158691406250000000000
-0.63968193531036376953125000000000
-0.17166712880134582519531250000000
0.29264464974403381347656250000000
-0.02580627426505088806152343750000
-0.02834948524832725524902343750000
0.34924644231796264648437500000000
-0.31055361032485961914062500000000
-0.12371944636106491088867187500000
-0.28497600555419921875000000000000
-0.43986132740974426269531250000000
-0.26301988959312438964843750000000
-0.14387907087802886962890625000000
0.21961840987205505371093750000000
-0.21433684229850769042968750000000
-0.50917088985443115234375000000000
-0.42516729235649108886718750000000
-0.72483056783676147460937500000000
-0.21883146464824676513671875000000
-0.23470823466777801513671875000000
-0.41188475489616394042968750000000
-0.61262434720993041992187500000000
-0.34672737121582031250000000000000
0.11037674546241760253906250000000
0.12655012309551239013671875000000
-0.03620815277099609375000000000000
-0.17359417676925659179687500000000
-0.44041162729263305664062500000000
-0.29085591435432434082031250000000
0.04407570883631706237792968750000
-0.32485795021057128906250000000000
0.15481527149677276611328125000000
0.13882784545421600341796875000000
0.37294661998748779296875000000000
-0.11925274878740310668945312500000
-0.41616088151931762695312500000000
-0.73459410667419433593750000000000
0.09134238958358764648437500000000
0.64578765630722045898437500000000
-0.30025914311408996582031250000000
-0.04886811226606369018554687500000
-0.64918678998947143554687500000000
-0.17771092057228088378906250000000
-0.31818160414695739746093750000000
-0.62671113014221191406250000000000
-0.30236369371414184570312500000000
0.03823740035295486450195312500000
0.40215027332305908203125000000000
-0.48186188936233520507812500000000
-0.25585439801216125488281250000000
-0.21933229267597198486328125000000
-0.33833074569702148437500000000000
0.37609055638313293457031250000000
0.43497028946876525878906250000000
0.62408185005187988281250000000000
0.09114032983779907226562500000000
0.38085761666297912597656250000000
0.32572397589683532714843750000000
-0.33819964528083801269531250000000
-0.05530953034758567810058593750000
0.19810791313648223876953125000000
-0.04375575110316276550292968750000
-0.24302735924720764160156250000000
-0.42350390553474426269531250000000
-0.43806853890419006347656250000000
-0.19863808155059814453125000000000
0.47693386673927307128906250000000
0.73167413473129272460937500000000
0.41508606076240539550781250000000
0.65759760141372680664062500000000
0.39956867694854736328125000000000
0.83405894041061401367187500000000
0.60906887054443359375000000000000
-0.07838335633277893066406250000000
-0.14066636562347412109375000000000
-0.09713006019592285156250000000000
0.59581911563873291015625000000000
0.54387164115905761718750000000000
-0.42739495635032653808593750000000
0.11826532334089279174804687500000
0.56144195795059204101562500000000
-0.10787776857614517211914062500000
0.07968489825725555419921875000000
0.06946595013141632080078125000000
-0.21539717912673950195312500000000
0.40740928053855895996093750000000
-0.24911148846149444580078125000000
0.14857588708400726318359375000000
0.23791864514350891113281250000000
-0.04992997273802757263183593750000
-0.25915688276290893554687500000000
0.54683613777160644531250000000000
-0.38637650012969970703125000000000
-1.01257002353668212890625000000000
-0.43224900960922241210937500000000
0.70873963832855224609375000000000
0.58883005380630493164062500000000
-0.45524552464485168457031250000000
-0.34557950496673583984375000000000
-0.03178408369421958923339843750000
0.05465594306588172912597656250000
-0.23618485033512115478515625000000
-0.08761856704950332641601562500000
0.33040255308151245117187500000000
0.51900506019592285156250000000000
-0.29729428887367248535156250000000
-0.09407389909029006958007812500000
0.45522159337997436523437500000000
0.48668357729911804199218750000000
-0.00553190289065241813659667968750
0.65756851434707641601562500000000
0.93803954124450683593750000000000
0.22786027193069458007812500000000
-0.10815891623497009277343750000000
0.41435509920120239257812500000000
-0.44097301363945007324218750000000
-0.27840334177017211914062500000000
-0.14400653541088104248046875000000
-0.76756238937377929687500000000000
0.08957625180482864379882812500000
0.31921708583831787109375000000000
0.01805645599961280822753906250000
0.18626327812671661376953125000000
-0.68268001079559326171875000000000
-0.18997499346733093261718750000000
0.48783189058303833007812500000000
-0.42650875449180603027343750000000
0.18267850577831268310546875000000
0.13087613880634307861328125000000
0.04799453169107437133789062500000
0.37495252490043640136718750000000
0.09633815288543701171875000000000
-0.31067094206809997558593750000000
-0.18784210085868835449218750000000
-0.12901097536087036132812500000000
0.54720419645309448242187500000000
-0.38161379098892211914062500000000
-0.10633453726768493652343750000000
0.03455348312854766845703125000000
0.14708960056304931640625000000000
-0.02392898499965667724609375000000
0.35093039274215698242187500000000
-0.38057240843772888183593750000000
-0.53017270565032958984375000000000
0.51965451240539550781250000000000
0.61132633686065673828125000000000
0.09653051197528839111328125000000
0.06365540623664855957031250000000
0.39912742376327514648437500000000
0.37949880957603454589843750000000
-0.14626741409301757812500000000000
-0.12786816060543060302734375000000
0.64159685373306274414062500000000
0.24401524662971496582031250000000
-0.42043277621269226074218750000000
-0.24728626012802124023437500000000
0.03393835946917533874511718750000
-0.18061193823814392089843750000000
0.39589759707450866699218750000000
-0.30548793077468872070312500000000
-0.35069140791893005371093750000000
-0.89606696367263793945312500000000
0.27518445253372192382812500000000
-0.85809272527694702148437500000000
0.40198746323585510253906250000000
-0.12175178527832031250000000000000
-0.08649092912673950195312500000000
0.10683096945285797119140625000000
-0.21090486645698547363281250000000
-0.61971271038055419921875000000000
-0.10791742056608200073242187500000
-0.40450257062911987304687500000000
0.23372146487236022949218750000000
-0.14981523156166076660156250000000
-0.44676223397254943847656250000000
0.35072073340415954589843750000000
0.09117154777050018310546875000000
0.06093775853514671325683593750000
0.22544364631175994873046875000000
-0.07060720771551132202148437500000
0.01710001751780509948730468750000
0.05543680489063262939453125000000
-0.15570771694183349609375000000000
0.02325343526899814605712890625000
0.74220341444015502929687500000000
0.57111102342605590820312500000000
0.48013022541999816894531250000000
-0.31922131776809692382812500000000
-0.26549381017684936523437500000000
-0.16063946485519409179687500000000
-0.31113252043724060058593750000000
0.00349371577613055706024169921875
-0.23037466406822204589843750000000
0.37013977766036987304687500000000
0.70369130373001098632812500000000
0.73124903440475463867187500000000
0.34930440783500671386718750000000
-0.06911837309598922729492187500000
-0.44653400778770446777343750000000
0.06170414760708808898925781250000
-0.37281054258346557617187500000000
0.77256113290786743164062500000000
0.79454487562179565429687500000000
-0.29699718952178955078125000000000
0.21842154860496520996093750000000
-0.26664558053016662597656250000000
-0.33029454946517944335937500000000
-0.02745751477777957916259765625000
0.20130507647991180419921875000000
0.92952376604080200195312500000000
0.11882911622524261474609375000000
0.54512411355972290039062500000000
0.58735263347625732421875000000000
-0.44272294640541076660156250000000
0.22839704155921936035156250000000
-0.03918284922838211059570312500000
-0.08220100402832031250000000000000
0.22025418281555175781250000000000
-0.21018972992897033691406250000000
0.61642479896545410156250000000000
1.17668843269348144531250000000000
0.08805254101753234863281250000000
0.51329892873764038085937500000000
0.63757950067520141601562500000000
0.40295404195785522460937500000000
-0.10410426557064056396484375000000
-0.35373643040657043457031250000000
0.07165183871984481811523437500000
0.39875173568725585937500000000000
0.06674323976039886474609375000000
0.16338714957237243652343750000000
0.87246805429458618164062500000000
0.38059046864509582519531250000000
-0.50538694858551025390625000000000
0.10186644643545150756835937500000
0.31300804018974304199218750000000
0.65233057737350463867187500000000
-0.07607492059469223022460937500000
0.26237443089485168457031250000000
1.24469220638275146484375000000000
0.72472119331359863281250000000000
-0.22227230668067932128906250000000
0.64652180671691894531250000000000
-1.04239106178283691406250000000000
-0.24593722820281982421875000000000
0.19625623524188995361328125000000
0.41258245706558227539062500000000
-0.38812735676765441894531250000000
-0.25051882863044738769531250000000
-0.65897095203399658203125000000000
-0.39527857303619384765625000000000
0.11696920543909072875976562500000
-0.65452349185943603515625000000000
-0.63722032308578491210937500000000
-0.36478427052497863769531250000000
0.27973502874374389648437500000000
-0.32612496614456176757812500000000
-0.21971896290779113769531250000000
0.33265253901481628417968750000000
-0.34175494313240051269531250000000
0.06789353489875793457031250000000
-0.25467389822006225585937500000000
0.07398363202810287475585937500000
0.16586066782474517822265625000000
-0.39215296506881713867187500000000
-0.29525497555732727050781250000000
-0.55325293540954589843750000000000
-0.56534600257873535156250000000000
-0.06327747553586959838867187500000
-0.17181384563446044921875000000000
0.72441571950912475585937500000000
0.13871993124485015869140625000000
0.02519669011235237121582031250000
-0.12502878904342651367187500000000
-0.24450567364692687988281250000000
-0.67661899328231811523437500000000
0.45306509733200073242187500000000
-0.04858841374516487121582031250000
-0.16705191135406494140625000000000
-0.15469612181186676025390625000000
-0.42591330409049987792968750000000
-0.10148979723453521728515625000000
-0.45550838112831115722656250000000
0.16156269609928131103515625000000
0.90601253509521484375000000000000
-0.54080033302307128906250000000000
0.15268822014331817626953125000000
-0.51438808441162109375000000000000
-0.08377902209758758544921875000000
0.54555803537368774414062500000000
0.49064388871192932128906250000000
0.19273774325847625732421875000000
0.26091402769088745117187500000000
-0.00341429188847541809082031250000
-0.21184012293815612792968750000000
0.14694188535213470458984375000000
-0.12422090768814086914062500000000
0.23810036480426788330078125000000
-0.50785624980926513671875000000000
-0.59825593233108520507812500000000
-0.58803266286849975585937500000000
-0.51199579238891601562500000000000
-0.12053168565034866333007812500000
0.33766233921051025390625000000000
0.54946327209472656250000000000000
0.04621554166078567504882812500000
-0.43180954456329345703125000000000
0.27281343936920166015625000000000
0.16038544476032257080078125000000
-0.16834633052349090576171875000000
-0.21300821006298065185546875000000
0.33674499392509460449218750000000
0.03244074806571006774902343750000
0.45827645063400268554687500000000
0.57656043767929077148437500000000
-0.29385989904403686523437500000000
-0.19017629325389862060546875000000
-0.00499572791159152984619140625000
0.73984885215759277343750000000000
0.35401538014411926269531250000000
0.45083352923393249511718750000000
0.80232399702072143554687500000000
-0.29592457413673400878906250000000
0.53316253423690795898437500000000
-0.30657464265823364257812500000000
-0.15099726617336273193359375000000
-0.09485095739364624023437500000000
-0.22792381048202514648437500000000
0.12129037827253341674804687500000
0.43025684356689453125000000000000
0.78994649648666381835937500000000
0.21482250094413757324218750000000
0.35279968380928039550781250000000
0.38842576742172241210937500000000
0.26809006929397583007812500000000
0.24369756877422332763671875000000
-0.10577099025249481201171875000000
-0.06045419350266456604003906250000
0.03575508669018745422363281250000
0.21627129614353179931640625000000
-0.05614087358117103576660156250000
0.10825254768133163452148437500000
0.49384436011314392089843750000000
-0.00386011181399226188659667968750
-0.03141421452164649963378906250000
-0.41607931256294250488281250000000
0.24856513738632202148437500000000
0.01636997051537036895751953125000
0.05914350226521492004394531250000
-0.24933440983295440673828125000000
0.03925502672791481018066406250000
0.54991465806961059570312500000000
-0.29811584949493408203125000000000
0.47433051466941833496093750000000
-0.49384614825248718261718750000000
0.57547998428344726562500000000000
0.12881687283515930175781250000000
-0.08747289329767227172851562500000
-0.34871241450309753417968750000000
0.29809349775314331054687500000000
0.45959505438804626464843750000000
0.42656576633453369140625000000000
-0.21899813413619995117187500000000
0.33929899334907531738281250000000
0.22182869911193847656250000000000
0.13739749789237976074218750000000
0.05546928942203521728515625000000
-0.19802495837211608886718750000000
0.07435481250286102294921875000000
-0.03733966872096061706542968750000
0.17203153669834136962890625000000
-0.46643459796905517578125000000000
-0.98892444372177124023437500000000
-0.42215070128440856933593750000000
-0.13535130023956298828125000000000
-0.60184413194656372070312500000000
-0.25561144948005676269531250000000
-0.45973804593086242675781250000000
-0.38194063305854797363281250000000
-0.28249400854110717773437500000000
0.08376955240964889526367187500000
0.04190570116043090820312500000000
-0.04996878281235694885253906250000
0.09014105051755905151367187500000
0.37219145894050598144531250000000
-0.09211622178554534912109375000000
-0.52649194002151489257812500000000
-0.83941763639450073242187500000000
-0.08191388845443725585937500000000
0.13598176836967468261718750000000
0.40418678522109985351562500000000
-0.25589787960052490234375000000000
0.06163249909877777099609375000000
-0.12006795406341552734375000000000
-0.50316959619522094726562500000000
-0.86819487810134887695312500000000
-0.69481086730957031250000000000000
-0.36049625277519226074218750000000
0.27912998199462890625000000000000
-0.19459904730319976806640625000000
0.42696532607078552246093750000000
-0.18722258508205413818359375000000
-0.86680322885513305664062500000000
-0.58560067415237426757812500000000
-0.58714002370834350585937500000000
0.51867437362670898437500000000000
0.23166130483150482177734375000000
-0.55388528108596801757812500000000
0.14772194623947143554687500000000
-0.41380906105041503906250000000000
-0.71426618099212646484375000000000
-0.15100604295730590820312500000000
-0.35945090651512145996093750000000
0.36536636948585510253906250000000
-0.14854064583778381347656250000000
0.37121134996414184570312500000000
0.12120775878429412841796875000000
-0.56607621908187866210937500000000
-0.18773734569549560546875000000000
0.06066261231899261474609375000000
-0.00448379945009946823120117187500
-0.59574091434478759765625000000000
0.03275200724601745605468750000000
0.47602719068527221679687500000000
-0.82706058025360107421875000000000
0.06971445679664611816406250000000
-0.87768715620040893554687500000000
-0.15763409435749053955078125000000
-0.30244332551956176757812500000000
-0.88546258211135864257812500000000
-0.85935586690902709960937500000000
-0.11580932885408401489257812500000
-0.10518833994865417480468750000000
-0.36691340804100036621093750000000
-0.45891624689102172851562500000000
-0.17411698400974273681640625000000
0.57423204183578491210937500000000
0.03376775234937667846679687500000
0.23318988084793090820312500000000
0.27138274908065795898437500000000
-0.15626712143421173095703125000000
0.25357294082641601562500000000000
-0.18979187309741973876953125000000
-0.00778197962790727615356445312500
-0.26612046360969543457031250000000
-0.14718620479106903076171875000000
0.65476787090301513671875000000000
1.22361433506011962890625000000000
0.89662015438079833984375000000000
0.23119659721851348876953125000000
0.25901988148689270019531250000000
0.15896284580230712890625000000000
0.42066079378128051757812500000000
-0.18977512419223785400390625000000
-0.16853836178779602050781250000000
0.45319086313247680664062500000000
0.50501430034637451171875000000000
0.76172345876693725585937500000000
0.16397954523563385009765625000000
-0.11989064514636993408203125000000
-0.10568161308765411376953125000000
-0.50844275951385498046875000000000
-0.48236763477325439453125000000000
0.14409439265727996826171875000000
0.53333997726440429687500000000000
0.87784326076507568359375000000000
-0.02397672273218631744384765625000
-0.11977621912956237792968750000000
-0.21753722429275512695312500000000
-0.28845447301864624023437500000000
-0.29141125082969665527343750000000
-0.08890245109796524047851562500000
0.04770346358418464660644531250000
-0.16737641394138336181640625000000
0.35997003316879272460937500000000
-0.11940077692270278930664062500000
-0.37738049030303955078125000000000
-0.64575308561325073242187500000000
-0.29485064744949340820312500000000
-0.06159558519721031188964843750000
0.51929569244384765625000000000000
0.32132014632225036621093750000000
0.06978793442249298095703125000000
0.47504946589469909667968750000000
-0.32432025671005249023437500000000
-0.37043628096580505371093750000000
-0.09210587292909622192382812500000
-0.31067964434623718261718750000000
0.04605696722865104675292968750000
0.56936293840408325195312500000000
0.16366091370582580566406250000000
0.07607330381870269775390625000000
0.24193127453327178955078125000000
0.07092858105897903442382812500000
-0.48711353540420532226562500000000
0.40771025419235229492187500000000
0.14214611053466796875000000000000
-0.17126600444316864013671875000000
0.40443235635757446289062500000000
-0.34759461879730224609375000000000
0.21964804828166961669921875000000
-0.51136845350265502929687500000000
-0.09219701588153839111328125000000
0.18904452025890350341796875000000
-0.33053150773048400878906250000000
-0.13610817492008209228515625000000
0.13458186388015747070312500000000
-0.52887690067291259765625000000000
-0.56963866949081420898437500000000
-0.18846189975738525390625000000000
0.58567678928375244140625000000000
-0.24460840225219726562500000000000
0.31064686179161071777343750000000
0.08275043964385986328125000000000
-0.32960316538810729980468750000000
0.38358679413795471191406250000000
-0.52165335416793823242187500000000
0.18460528552532196044921875000000
-0.38075968623161315917968750000000
-0.39869505167007446289062500000000
0.32626831531524658203125000000000
-0.14946250617504119873046875000000
-0.22644889354705810546875000000000
0.21426898241043090820312500000000
0.02065647207200527191162109375000
-0.55114775896072387695312500000000
-0.09071379154920578002929687500000
0.65592503547668457031250000000000
-0.26408278942108154296875000000000
0.01592906191945075988769531250000
0.11937431991100311279296875000000
-0.05979314073920249938964843750000
0.28742226958274841308593750000000
-1.42130911350250244140625000000000
-0.06304802745580673217773437500000
0.03748193010687828063964843750000
-0.79224371910095214843750000000000
-0.11924220621585845947265625000000
-0.06470476835966110229492187500000
-0.60772758722305297851562500000000
0.28740733861923217773437500000000
-1.07595562934875488281250000000000
-0.07270230352878570556640625000000
-0.22705315053462982177734375000000
0.25550875067710876464843750000000
0.22838479280471801757812500000000
-0.22851066291332244873046875000000
0.14129562675952911376953125000000
0.20368558168411254882812500000000
-0.43157729506492614746093750000000
-0.44114452600479125976562500000000
0.29553553462028503417968750000000
0.14430648088455200195312500000000
0.28356876969337463378906250000000
-0.10615810751914978027343750000000
-0.26309829950332641601562500000000
-0.45438456535339355468750000000000
-0.46454125642776489257812500000000
-0.35198271274566650390625000000000
-0.40865573287010192871093750000000
-0.28497460484504699707031250000000
0.24544706940650939941406250000000
-0.64761865139007568359375000000000
0.24703022837638854980468750000000
0.72353923320770263671875000000000
-0.24774827063083648681640625000000
-0.34012556076049804687500000000000
0.31533667445182800292968750000000
0.29290053248405456542968750000000
0.27958473563194274902343750000000
0.10235284268856048583984375000000
-0.38761726021766662597656250000000
-0.47802847623825073242187500000000
0.07441847026348114013671875000000
0.11756438761949539184570312500000
0.21836830675601959228515625000000
0.25294378399848937988281250000000
0.19818599522113800048828125000000
0.00623454665765166282653808593750
0.17595422267913818359375000000000
0.42554393410682678222656250000000
0.55686402320861816406250000000000
-0.03586972132325172424316406250000
0.71289080381393432617187500000000
0.45817399024963378906250000000000
0.26284027099609375000000000000000
0.33850455284118652343750000000000
0.07707171142101287841796875000000
-0.14127780497074127197265625000000
-0.04914973303675651550292968750000
-0.40738618373870849609375000000000
0.50584810972213745117187500000000
-0.02145055308938026428222656250000
0.34705635905265808105468750000000
0.11961898952722549438476562500000
0.56195789575576782226562500000000
0.22041264176368713378906250000000
0.05082763731479644775390625000000
0.42643454670906066894531250000000
-0.34579721093177795410156250000000
-0.39575213193893432617187500000000
0.18860951066017150878906250000000
0.29647609591484069824218750000000
-0.06191681325435638427734375000000
-0.44221779704093933105468750000000
-0.38909423351287841796875000000000
-0.00764179090037941932678222656250
-0.22984579205513000488281250000000
0.67405599355697631835937500000000
-0.04070641100406646728515625000000
0.22241298854351043701171875000000
0.08767110854387283325195312500000
-0.43817239999771118164062500000000
-0.59180170297622680664062500000000
-0.66310387849807739257812500000000
-0.09047845751047134399414062500000
0.28310036659240722656250000000000
0.75620585680007934570312500000000
0.10391647368669509887695312500000
0.29030796885490417480468750000000
0.65718901157379150390625000000000
0.45611971616744995117187500000000
0.04087334871292114257812500000000
-0.06573756039142608642578125000000
-0.04597929120063781738281250000000
-0.21221095323562622070312500000000
0.54262030124664306640625000000000
-1.04209232330322265625000000000000
-0.65797126293182373046875000000000
-0.75981420278549194335937500000000
-0.45949837565422058105468750000000
-0.35615158081054687500000000000000
-0.25949409604072570800781250000000
-0.43626639246940612792968750000000
-0.12790244817733764648437500000000
-0.20534883439540863037109375000000
-1.32696461677551269531250000000000
-0.77739149332046508789062500000000
-0.59680879116058349609375000000000
0.20439392328262329101562500000000
0.24580934643745422363281250000000
-0.26570066809654235839843750000000
-0.46033954620361328125000000000000
-0.83266246318817138671875000000000
-0.37829619646072387695312500000000
0.18881450593471527099609375000000
0.01027640141546726226806640625000
-0.01266784500330686569213867187500
0.02890558540821075439453125000000
-0.33145523071289062500000000000000
-0.51081401109695434570312500000000
-0.71832960844039916992187500000000
0.43883746862411499023437500000000
-0.05754832178354263305664062500000
-0.13248836994171142578125000000000
-0.48223564028739929199218750000000
0.54573881626129150390625000000000
-0.04476223886013031005859375000000
-0.07616610080003738403320312500000
-0.28068423271179199218750000000000
0.70897889137268066406250000000000
-0.41298520565032958984375000000000
-0.00849141273647546768188476562500
-0.59014874696731567382812500000000
0.25189280509948730468750000000000
0.60213333368301391601562500000000
0.03946642577648162841796875000000
-0.42775818705558776855468750000000
0.17765498161315917968750000000000
0.43112987279891967773437500000000
-0.15714515745639801025390625000000
-0.34342899918556213378906250000000
0.46874889731407165527343750000000
-0.26184317469596862792968750000000
-0.19046755135059356689453125000000
0.07273928076028823852539062500000
0.11453548818826675415039062500000
-0.44050934910774230957031250000000
-0.54494065046310424804687500000000
0.25578454136848449707031250000000
-0.21974265575408935546875000000000
-0.02077735401690006256103515625000
-0.30791747570037841796875000000000
-0.55761921405792236328125000000000
-0.54830384254455566406250000000000
-0.60876739025115966796875000000000
-0.48604962229728698730468750000000
-0.26420611143112182617187500000000
-0.67527699470520019531250000000000
-0.00193099130410701036453247070312
-0.74525356292724609375000000000000
0.09018205106258392333984375000000
-0.17078585922718048095703125000000
0.26722425222396850585937500000000
-0.80640953779220581054687500000000
-0.10437270998954772949218750000000
0.03478451818227767944335937500000
-0.18058958649635314941406250000000
-0.38394758105278015136718750000000
-0.75195741653442382812500000000000
0.02794090844690799713134765625000
-0.07315402477979660034179687500000
0.28080353140830993652343750000000
0.46141430735588073730468750000000
0.80119448900222778320312500000000
0.19199329614639282226562500000000
-0.70347768068313598632812500000000
-0.19743224978446960449218750000000
-0.43542784452438354492187500000000
-0.17434799671173095703125000000000
1.24578297138214111328125000000000
0.41084936261177062988281250000000
-0.85118019580841064453125000000000
-0.29992717504501342773437500000000
-0.05844576656818389892578125000000
-0.09352990239858627319335937500000
-0.25528472661972045898437500000000
0.38613751530647277832031250000000
-0.18861673772335052490234375000000
-0.61932832002639770507812500000000
-1.58655321598052978515625000000000
-0.72878551483154296875000000000000
-1.01488816738128662109375000000000
-0.78449273109436035156250000000000
-1.11162579059600830078125000000000
0.09171574562788009643554687500000
-0.25416755676269531250000000000000
-0.46965670585632324218750000000000
0.06039794534444808959960937500000
-0.91004645824432373046875000000000
-1.25459384918212890625000000000000
-0.28642928600311279296875000000000
-0.14176051318645477294921875000000
0.17169287800788879394531250000000
0.12564969062805175781250000000000
0.46582978963851928710937500000000
-0.79067921638488769531250000000000
-0.29988980293273925781250000000000
-0.95666009187698364257812500000000
-0.05590633302927017211914062500000
0.57797038555145263671875000000000
0.75601404905319213867187500000000
0.11372701823711395263671875000000
-0.73427474498748779296875000000000
-0.51472896337509155273437500000000
-0.24635316431522369384765625000000
-0.44902142882347106933593750000000
-0.19790682196617126464843750000000
0.69300293922424316406250000000000
-0.06334318220615386962890625000000
0.08878580480813980102539062500000
0.42598485946655273437500000000000
-0.68334370851516723632812500000000
-1.33624422550201416015625000000000
-0.45026147365570068359375000000000
-0.48479348421096801757812500000000
-0.28160876035690307617187500000000
0.31198343634605407714843750000000
-1.09854626655578613281250000000000
-0.17722888290882110595703125000000
-0.05473038181662559509277343750000
-0.25150951743125915527343750000000
-0.39036926627159118652343750000000
-0.75218653678894042968750000000000
0.01909520104527473449707031250000
0.28097492456436157226562500000000
-0.10325335711240768432617187500000
-0.07474645227193832397460937500000
0.04332167282700538635253906250000
-0.18604548275470733642578125000000
-0.23036743700504302978515625000000
-0.21664665639400482177734375000000
-0.52888172864913940429687500000000
-0.67919832468032836914062500000000
0.59407758712768554687500000000000
0.38328373432159423828125000000000
-0.11800777912139892578125000000000
-0.29881051182746887207031250000000
-0.11435142159461975097656250000000
-0.16542397439479827880859375000000
-0.36517062783241271972656250000000
-0.38014680147171020507812500000000
0.68308657407760620117187500000000
-0.37362587451934814453125000000000
0.34740009903907775878906250000000
-0.36734029650688171386718750000000
-0.78508633375167846679687500000000
-0.14238590002059936523437500000000
-1.15468370914459228515625000000000
0.58824521303176879882812500000000
0.89690047502517700195312500000000
-0.00848746020346879959106445312500
0.32129558920860290527343750000000
0.05709861963987350463867187500000
-1.02516329288482666015625000000000
-0.92533171176910400390625000000000
-0.35893931984901428222656250000000
0.08698102086782455444335937500000
0.45336446166038513183593750000000
0.13718569278717041015625000000000
0.50072634220123291015625000000000
-0.54411566257476806640625000000000
-0.07335370033979415893554687500000
-0.89821404218673706054687500000000
-0.16983015835285186767578125000000
0.25011917948722839355468750000000
0.71732789278030395507812500000000
0.25438615679740905761718750000000
0.44901135563850402832031250000000
-0.34917998313903808593750000000000
-0.20029357075691223144531250000000
-0.60026162862777709960937500000000
0.44354066252708435058593750000000
-0.29821985960006713867187500000000
-0.40865969657897949218750000000000
-0.07583659887313842773437500000000
-0.51278382539749145507812500000000
-0.52835983037948608398437500000000
-0.29526183009147644042968750000000
0.25208401679992675781250000000000
-0.33446291089057922363281250000000
-0.44084221124649047851562500000000
0.30147287249565124511718750000000
0.12099581956863403320312500000000
-0.83122360706329345703125000000000
-0.53582853078842163085937500000000
0.07854507863521575927734375000000
0.24632908403873443603515625000000
-0.28406941890716552734375000000000
-0.05619128048419952392578125000000
0.09325289726257324218750000000000
0.39132896065711975097656250000000
0.30723267793655395507812500000000
-0.16955773532390594482421875000000
-0.07255318015813827514648437500000
-0.07893840968608856201171875000000
-0.18377603590488433837890625000000
0.36138418316841125488281250000000
0.24553385376930236816406250000000
0.48015084862709045410156250000000
0.77111601829528808593750000000000
-0.64137226343154907226562500000000
-0.41404494643211364746093750000000
-0.03930342942476272583007812500000
-0.08354569971561431884765625000000
0.14511056244373321533203125000000
-0.11586126685142517089843750000000
-0.05046317726373672485351562500000
-0.18750920891761779785156250000000
-0.19095800817012786865234375000000
-0.11952899396419525146484375000000
0.04112352430820465087890625000000
-0.23868830502033233642578125000000
-0.65698873996734619140625000000000
0.00469048321247100830078125000000
-0.18941736221313476562500000000000
-1.06602025032043457031250000000000
-0.30102041363716125488281250000000
-0.04371027275919914245605468750000
-0.18031367659568786621093750000000
-0.64230918884277343750000000000000
0.04522058740258216857910156250000
0.18539138138294219970703125000000
-0.41050404310226440429687500000000
-0.18123149871826171875000000000000
-0.20234423875808715820312500000000
0.02721294760704040527343750000000
0.57585936784744262695312500000000
0.02896652743220329284667968750000
-0.26201114058494567871093750000000
-0.30985191464424133300781250000000
-0.10254827886819839477539062500000
-0.28586754202842712402343750000000
0.46804705262184143066406250000000
-0.01595076359808444976806640625000
-0.37555664777755737304687500000000
-0.04738452658057212829589843750000
-0.30371695756912231445312500000000
-0.09948456287384033203125000000000
-0.02330372296273708343505859375000
-0.42528942227363586425781250000000
0.06869351863861083984375000000000
-0.81604570150375366210937500000000
-0.13520221412181854248046875000000
-0.23023705184459686279296875000000
-0.34636324644088745117187500000000
-0.40117537975311279296875000000000
-0.35842734575271606445312500000000
-0.21733288466930389404296875000000
-0.32580786943435668945312500000000
0.02563680708408355712890625000000
0.33749639987945556640625000000000
0.02520682103931903839111328125000
1.09430372714996337890625000000000
-0.25490650534629821777343750000000
-0.35543829202651977539062500000000
0.18556627631187438964843750000000
-0.08765587210655212402343750000000
0.15758211910724639892578125000000
0.00351230241358280181884765625000
-0.96888560056686401367187500000000
-0.10678120702505111694335937500000
0.23870190978050231933593750000000
0.09554934501647949218750000000000
-0.08949165046215057373046875000000
-0.20002456009387969970703125000000
0.06304277479648590087890625000000
-0.47923538088798522949218750000000
-0.70437431335449218750000000000000
-0.45608678460121154785156250000000
0.72847169637680053710937500000000
0.19651579856872558593750000000000
-0.41223758459091186523437500000000
-0.08726616948843002319335937500000
-0.14692392945289611816406250000000
0.03468148410320281982421875000000
-0.17477571964263916015625000000000
0.37028115987777709960937500000000
0.29389697313308715820312500000000
-0.31929072737693786621093750000000
0.19640137255191802978515625000000
-0.07635405659675598144531250000000
0.15242753922939300537109375000000
-0.63294297456741333007812500000000
0.37263414263725280761718750000000
0.51158672571182250976562500000000
-0.20662619173526763916015625000000
0.24096252024173736572265625000000
0.33215469121932983398437500000000
-0.11432188004255294799804687500000
0.40447038412094116210937500000000
-0.46810564398765563964843750000000
-0.15747746825218200683593750000000
0.25216305255889892578125000000000
-0.06255812197923660278320312500000
-0.19204065203666687011718750000000
0.41330114006996154785156250000000
-0.07490411400794982910156250000000
-0.60564577579498291015625000000000
-0.27775174379348754882812500000000
-0.30133131146430969238281250000000
-0.45351767539978027343750000000000
-0.35375672578811645507812500000000
-0.34605270624160766601562500000000
-0.86517447233200073242187500000000
-0.02645264752209186553955078125000
-0.29359760880470275878906250000000
0.50684183835983276367187500000000
-0.15668284893035888671875000000000
-0.42473593354225158691406250000000
-0.06729701906442642211914062500000
-0.67710924148559570312500000000000
0.63092064857482910156250000000000
0.04548915103077888488769531250000
0.07482362538576126098632812500000
-0.42541724443435668945312500000000
0.13771410286426544189453125000000
-0.24626298248767852783203125000000
-0.01374015957117080688476562500000
-0.30818760395050048828125000000000
-0.73053139448165893554687500000000
-0.22592967748641967773437500000000
-0.32917079329490661621093750000000
0.24975012242794036865234375000000
-0.06741734594106674194335937500000
-0.45759096741676330566406250000000
-0.12783482670783996582031250000000
-0.19672000408172607421875000000000
-0.36351987719535827636718750000000
0.34740856289863586425781250000000
0.01256244722753763198852539062500
-0.20573645830154418945312500000000
-0.17607261240482330322265625000000
0.14034245908260345458984375000000
0.11477413028478622436523437500000
-0.02388085238635540008544921875000
-0.82354718446731567382812500000000
-0.70433568954467773437500000000000
-0.10440647602081298828125000000000
-0.12860129773616790771484375000000
0.12253522127866744995117187500000
0.26858040690422058105468750000000
0.37342283129692077636718750000000
0.39991804957389831542968750000000
0.02849216759204864501953125000000
-0.37136870622634887695312500000000
-0.19100849330425262451171875000000
0.22458156943321228027343750000000
-0.23756781220436096191406250000000
-0.22047246992588043212890625000000
0.24224483966827392578125000000000
-0.04634001478552818298339843750000
-1.03644728660583496093750000000000
-0.81308287382125854492187500000000
-0.00018861482385545969009399414062
-0.51440060138702392578125000000000
-0.44020554423332214355468750000000
-0.18714666366577148437500000000000
0.53862696886062622070312500000000
-0.00010436138836666941642761230469
-0.34591966867446899414062500000000
-0.15754301846027374267578125000000
0.05236969515681266784667968750000
0.26584053039550781250000000000000
0.32321959733963012695312500000000
0.44969651103019714355468750000000
0.49457713961601257324218750000000
-0.30796080827713012695312500000000
-0.28801816701889038085937500000000
-0.20294201374053955078125000000000
0.23128508031368255615234375000000
0.07793554663658142089843750000000
0.09428383409976959228515625000000
-0.04458492621779441833496093750000
0.61146533489227294921875000000000
-0.41999655961990356445312500000000
0.71041756868362426757812500000000
-0.36925682425498962402343750000000
-0.42377728223800659179687500000000
0.32234749197959899902343750000000
0.45038452744483947753906250000000
-0.69327175617218017578125000000000
0.23945347964763641357421875000000
0.83330249786376953125000000000000
0.09274301677942276000976562500000
0.01805583760142326354980468750000
0.07182990759611129760742187500000
0.45299902558326721191406250000000
-0.28532725572586059570312500000000
-0.11469529569149017333984375000000
-0.08880864083766937255859375000000
-0.13306397199630737304687500000000
-0.26050886511802673339843750000000
0.05223071575164794921875000000000
-0.33091253042221069335937500000000
-0.23564831912517547607421875000000
-0.49163779616355895996093750000000
-0.08109261840581893920898437500000
-0.27262917160987854003906250000000
0.48361289501190185546875000000000
-0.21899348497390747070312500000000
-0.15329580008983612060546875000000
-0.21410922706127166748046875000000
-0.94453698396682739257812500000000
-0.32939210534095764160156250000000
-0.13386650383472442626953125000000
-0.68707329034805297851562500000000
-0.46353513002395629882812500000000
-0.14940555393695831298828125000000
-0.98151081800460815429687500000000
-0.34602284431457519531250000000000
0.39708429574966430664062500000000
-0.58878201246261596679687500000000
-0.93696254491806030273437500000000
-1.11995661258697509765625000000000
0.19017836451530456542968750000000
-0.28436392545700073242187500000000
0.16340306401252746582031250000000
0.70757484436035156250000000000000
0.03144659101963043212890625000000
-0.05315080657601356506347656250000
-0.49457064270973205566406250000000
-1.01142096519470214843750000000000
-0.62868714332580566406250000000000
-0.79788661003112792968750000000000
0.60554558038711547851562500000000
-0.75109380483627319335937500000000
0.46967366337776184082031250000000
0.01940776035189628601074218750000
-0.92423486709594726562500000000000
0.71578788757324218750000000000000
0.86915040016174316406250000000000
-0.08128003776073455810546875000000
0.08749627321958541870117187500000
0.25723001360893249511718750000000
-0.36848065257072448730468750000000
-0.37738394737243652343750000000000
-0.28046506643295288085937500000000
-0.15471068024635314941406250000000
0.13948345184326171875000000000000
-0.51445734500885009765625000000000
-0.48234495520591735839843750000000
-0.03522279486060142517089843750000
-0.26871094107627868652343750000000
-0.68110293149948120117187500000000
-0.49831876158714294433593750000000
-0.28472572565078735351562500000000
0.10657410323619842529296875000000
0.20092029869556427001953125000000
0.00315055297687649726867675781250
-0.69793760776519775390625000000000
-0.54606175422668457031250000000000
-0.32258528470993041992187500000000
0.07168562710285186767578125000000
0.03683665022253990173339843750000
0.19544500112533569335937500000000
0.16925758123397827148437500000000
0.15159578621387481689453125000000
-0.17807205021381378173828125000000
0.19823199510574340820312500000000
0.30182203650474548339843750000000
0.23074692487716674804687500000000
-0.25811105966567993164062500000000
0.25394257903099060058593750000000
-0.54888856410980224609375000000000
0.57528370618820190429687500000000
0.24807962775230407714843750000000
-0.33072078227996826171875000000000
0.44136771559715270996093750000000
-0.30547335743904113769531250000000
-0.43804794549942016601562500000000
-0.35591042041778564453125000000000
-0.88579559326171875000000000000000
1.02881586551666259765625000000000
0.54931360483169555664062500000000
-0.38339617848396301269531250000000
0.29603222012519836425781250000000
-0.27830377221107482910156250000000
-0.51901882886886596679687500000000
-0.14814451336860656738281250000000
-0.20815141499042510986328125000000
-0.10476469993591308593750000000000
-0.10358921438455581665039062500000
0.18234488368034362792968750000000
0.22469136118888854980468750000000
-0.58944201469421386718750000000000
-0.58059382438659667968750000000000
-0.52408474683761596679687500000000
-0.02561344392597675323486328125000
-0.00501485168933868408203125000000
-0.39262738823890686035156250000000
-0.64903837442398071289062500000000
-0.05575285106897354125976562500000
-0.20807749032974243164062500000000
-0.54080516099929809570312500000000
-0.30874240398406982421875000000000
-0.25119093060493469238281250000000
0.27418747544288635253906250000000
-0.39661723375320434570312500000000
0.32756036520004272460937500000000
-0.16157522797584533691406250000000
-0.54795408248901367187500000000000
-0.18887475132942199707031250000000
0.19163437187671661376953125000000
-0.52062690258026123046875000000000
0.12254005670547485351562500000000
0.23792295157909393310546875000000
0.19585907459259033203125000000000
-0.04884464293718338012695312500000
0.26653653383255004882812500000000
0.05145598948001861572265625000000
-0.15938964486122131347656250000000
-0.00531682977452874183654785156250
-0.55038011074066162109375000000000
0.17964833974838256835937500000000
0.05323779582977294921875000000000
-0.57332950830459594726562500000000
0.21623258292675018310546875000000
0.26678577065467834472656250000000
-0.24985054135322570800781250000000
0.18200825154781341552734375000000
-0.48735311627388000488281250000000
0.19323143362998962402343750000000
-0.40967935323715209960937500000000
0.15750637650489807128906250000000
0.65207850933074951171875000000000
-0.90406894683837890625000000000000
0.11099687963724136352539062500000
-0.10647465288639068603515625000000
0.33847096562385559082031250000000
0.32465586066246032714843750000000
-0.18658341467380523681640625000000
-0.23086541891098022460937500000000
0.70166522264480590820312500000000
-0.46060514450073242187500000000000
-0.64621239900588989257812500000000
0.17580240964889526367187500000000
0.31467881798744201660156250000000
-0.09743892401456832885742187500000
-0.16155138611793518066406250000000
-0.05683217570185661315917968750000
0.49072152376174926757812500000000
-0.17209814488887786865234375000000
0.07073518633842468261718750000000
-0.44201245903968811035156250000000
-1.34788978099822998046875000000000
0.27794119715690612792968750000000
-0.33356776833534240722656250000000
-0.18516045808792114257812500000000
0.31098514795303344726562500000000
-0.27817898988723754882812500000000
-0.02920048311352729797363281250000
-0.72879958152770996093750000000000
0.04283463582396507263183593750000
-0.53425461053848266601562500000000
-0.70017683506011962890625000000000
-0.08238552510738372802734375000000
-0.59344643354415893554687500000000
-1.01019561290740966796875000000000
-0.25231462717056274414062500000000
-0.11783300340175628662109375000000
-0.46849682927131652832031250000000
0.10812618583440780639648437500000
