FF49
FFE8
FFD4
0011
0032
FFED
FFE5
FF4B
FF66
0005
FF86
FFD3
002C
002A
0046
FF3D
FF58
FF94
FFDB
001A
FF86
0023
0021
FF41
FF38
FFE1
001F
0015
FF7E
00B4
005B
FF7A
FF8C
00B6
003E
002F
0031
FF65
FF2B
FF51
0079
008E
FFCB
00B0
FF3A
FF66
FE24
FFFB
005B
FF5B
0074
0062
0086
004C
FFC9
FEEB
FF11
0004
FFF4
FFC4
FF3F
FF78
FEA9
0007
007F
003C
FFE1
FFA7
FFBA
0007
0014
FFAD
FFED
FFCF
FFCB
FF70
FFEE
FF21
FF5B
FFBC
0007
FF6A
FFDD
000D
FFFE
FF70
FFBC
FFDA
006F
FF9E
FF73
FFD6
FFAE
FF73
FF74
0021
FF95
000A
FF6C
FF74
FF67
0020
FF82
FF91
FFBC
002F
FFD7
004B
FF3A
FFA0
FFB1
FED6
0030
0065
FFD9
002D
000D
FF70
FFE5
FFAB
0032
FFAD
FFE6
FFC0
00DB
FFF2
FFFB
000F
FF75
006B
FFAB
FF6B
FF8C
000A
0064
0013
FFCC
FF87
0035
0002
FFF5
FFB0
FF77
FEC2
FF87
FFC3
FFAF
0062
FFE9
0025
FFF1
004F
FF6D
FFF4
007F
FFD3
001C
0082
FFC3
FFCF
FFA3
FF2B
004C
0082
FFFF
FFCB
FF92
007A
FFF4
FFAD
0062
FFF0
0029
002E
FF64
0000
FFE0
002F
0010
009E
FFE2
FFFB
00C3
FF4B
FF63
FFEF
0042
FFD9
FFD8
FFA4
FF8C
0006
0071
002F
005A
FFEA
FFB0
003B
FFB4
000B
000E
FFB3
FFBD
FFEB
000B
0002
0026
0023
FFF5
FFC9
FFF3
FFB4
0015
FFBB
0005
FFB2
FFEE
FFF1
0031
003E
FFAC
FFAD
FFF1
0038
FF9A
004D
001A
00AE
FF8C
FFD1
FF09
0044
0075
000D
0081
002E
FFE5
FFA7
FFA7
FFA8
FFAF
0039
FF89
0059
FFDC
007F
00B6
FFFF
FF45
0009
FF87
00A7
FFC8
0017
FF9B
0025
FFB7
FEDA
FF8E
FF1F
FFE0
0007
FFD1
FFC7
FFF1
FFE9
FF36
FFC0
0034
0022
FFC4
FF3F
FFC3
FF53
0002
0058
FFCF
007E
0067
0033
003F
0056
00E3
FFB8
FFA3
003B
000D
FF11
0017
0016
00C4
0021
FF59
0084
0020
FFE5
0032
0000
0055
FF86
FFF9
0008
FFC8
FFE3
0002
FFFA
FE86
FFA8
0066
FFF9
0073
FFD7
FF6A
FFE4
FFD8
FFBA
FFD4
FFA6
FFF7
0020
FFF2
FF18
FF85
0073
003E
FFE2
FFAD
FF9B
FFB7
FF94
0032
0015
FFB1
FFF0
FFE2
0003
0045
FFDF
0039
0026
FF81
0010
001F
002B
FFC3
001B
010B
0075
0053
0028
0037
0023
006E
0011
FFC7
002B
009E
0020
00D9
0008
FF76
FFE6
FF8D
0068
0084
FFF2
FFC9
0027
0099
FFBC
FFDF
0040
004D
0027
0051
000F
FF52
002B
00D8
00BD
FFC4
0077
FFF9
FF58
FFA0
0001
002B
0016
0025
FFD8
FFD2
FFD9
FFEE
FF52
0014
0019
0004
0023
0022
002A
FFFF
0010
0000
FFCF
0021
0022
FFF0
000F
FFF8
FF7D
FFCB
0046
FF89
FFEA
0000
FF92
FF55
FFC4
001F
005B
FFC9
0028
FFD0
FFCA
FFD6
000F
FF43
00D4
FFB8
0020
FFF2
002C
FFF7
FFDB
0005
FF11
010C
0012
0041
0026
003C
FFB4
FFD8
FF48
FFFB
007A
FF95
FFCA
FFC8
FFAD
0057
FFE5
0004
FFA7
FF3F
FF64
FF5D
0033
FFB8
FFA7
00CE
FF46
00E3
FF92
FFBD
0096
002E
0059
0129
002C
FF25
FFF6
007A
002A
0015
001D
0047
000C
002A
FFB2
FF6F
FFE1
0070
0037
006A
001F
FFC4
FFAC
FFEF
0071
0044
0031
FFC6
004B
FFDB
00CC
0145
FFA2
003D
0040
0041
0001
0049
00CF
FF69
0068
FFB3
00D6
00B1
FFF1
FFE9
FFEB
FFDD
0004
FFCC
0034
FFFE
0081
FFEB
0078
0018
0055
FF78
FFEE
000D
FF77
FFBE
000C
FF7F
0042
0005
FF99
0045
FFBD
FFC8
FFE2
FFFA
0056
FFAB
FF88
FFCE
FFED
FF87
FF94
FFF0
FF1A
FF57
FF87
FF9B
FF73
FF37
0005
002A
0035
FFDF
0060
0001
FF52
002C
0085
006A
FF78
FFB3
FFC0
0057
0015
00A8
FFDE
0022
0033
0043
0055
FFD0
FFD0
FF99
FFFD
FFEA
FFF1
000F
008E
0028
FF83
FFDB
FF52
008B
0005
FF30
FF17
FFEA
FFF9
FFBC
FF89
FFBB
FFBD
FF3B
FFD8
FF98
0011
000B
FF6E
0097
00C0
FF7B
0115
000D
005B
0025
FFFD
003D
009A
0004
000D
FFED
FF9E
0047
FF80
002B
FFC9
0019
FFEF
FFD5
0063
0054
0002
FFEA
FFDE
0011
FFC9
FFCD
FFC8
0036
FFCE
0023
FFBF
FFBC
FFBA
001C
0000
0050
FFBF
0050
0069
FFD4
FF66
001D
005A
FF98
FFE8
FF61
0044
0059
FF9D
FFFC
FFA2
005F
003D
0120
FF9D
0003
FF77
FF48
FF7A
FF8A
001A
FF5E
FFF3
0011
FF66
FF8F
0096
00E0
00AE
FFC0
0032
FF9F
FFBA
008A
0089
0014
FF6E
FFA4
FF97
FFD0
FFD3
FF71
FF6E
FF79
FEE5
005A
00C4
FFD5
FFB3
FFD9
FF5A
0048
FFDE
000E
FF73
FF61
FF76
FF9C
0029
0018
001C
0077
0044
000A
FFCF
FFF7
0084
0021
0002
FFC0
FFD1
00F6
0078
FF93
FF01
FF93
0087
0068
0137
FFC2
FFC0
FF78
FF17
006F
008E
008B
FF79
FFBE
0044
FF83
FFC8
0013
FFA5
FFB3
00C4
0028
FFED
FFAB
FFBD
0005
0011
00A5
002F
0050
FFF7
FF94
FFF3
009C
009A
0053
0108
00B5
0066
0014
FF8B
FFCA
00C9
FFD7
00C6
00EF
00EA
0070
FFBB
0065
0096
0007
FFC5
002B
FFE1
0037
FF15
FF53
FF48
FF4C
FF1C
006C
007E
FE74
FF0C
FF8F
0066
FFF1
FFD7
0034
007B
FFEE
008C
FF55
FFD9
00A8
FF9A
FFE3
0065
FF28
FFF0
0031
0067
0007
FFFD
FFCF
FFEB
0001
FFF7
0023
FFCD
FF62
0011
003E
0034
0033
FFFC
FFE3
0007
FFFE
001C
FFE1
004A
0034
0038
002A
0032
FFA2
FF41
0014
FFF4
003A
FFD2
FFBD
FFF0
FFDD
FF6E
00BE
FFE7
FF95
FFED
003D
0003
FFE1
FFD5
FFE8
0006
008C
00F4
FFC7
FFEB
FFF0
0062
FFFF
0183
FFB8
FFC7
008E
FFF0
0038
009F
FFC6
004F
FFCB
0030
FFD4
FF4E
000C
001C
004A
0023
0109
001F
0011
0057
0072
FFD4
003D
006D
FFB0
FF7D
0020
FFD5
0034
FF9D
FFDF
0004
0025
0092
FFC4
FFEF
FF70
004F
FFE2
0031
FFED
00E3
FFD2
FFF1
FF90
FF69
FFBB
00A4
00DA
FFFF
FFF3
FF9D
006E
0006
FFFF
000A
FFE3
0034
0014
FF32
FEEC
FFFD
0055
0092
0034
00D7
0051
FF70
FFD4
FFFE
0025
0077
FFC3
0088
005D
FF17
FFF7
000B
0008
FFDE
0088
FFD0
0084
0042
FFC7
FFDA
003E
FFDB
002E
001F
004B
FFA5
0009
FFC8
FFED
0005
002A
FFB9
0047
FFF0
FF6C
000B
FF40
FFEA
FFFA
00B0
0019
0001
FF90
0017
0062
FFDF
0032
FF81
FF28
FFDD
FFF2
FF85
FFF7
FF85
FF39
FFB3
FF77
003A
FF87
0029
0002
FF96
FFCF
FF47
FFB0
FFC0
FF7E
FF64
0065
0089
FFE3
FEDB
FF2C
FFE2
FFE0
FFFA
001C
00C0
0042
FED8
004D
FFDE
0099
000A
FFE0
FFD8
FFED
0017
FFFC
FFE1
003C
FFC6
FFDD
FF18
FFF1
FF7A
FFE7
FFB4
001C
FFFE
FFD8
FFFB
0065
FFA6
FF75
0075
FFE1
FFC3
FF81
FEF6
FF99
FFD4
FF43
FFE4
FF5C
FF94
0039
0047
FFB4
FF43
FF80
FFD0
FFD6
FFAD
FFCE
FFAA
FFEF
FFC7
FF74
0020
FFE2
001C
0042
FFF8
FEEC
FF5C
FF9D
FFE8
FFD0
0048
FFE2
FFA3
000F
FFD4
FFED
FF4B
FF84
FFAE
FF31
FF82
FFA7
FF23
FFEA
FF99
00A3
0009
FF61
0012
FFDF
FF84
005A
FFA6
007B
FF80
FFF4
FFF2
FFF2
001A
FF8E
0079
FF37
FFE1
FFE5
FFBE
0042
FFA6
FF9A
FFC4
FFD2
FFE9
FFD0
0023
0025
0000
FFE0
FFB2
001A
0052
000E
0059
0034
002C
0019
FF1A
004E
FFF2
FFA5
0036
FF78
FFFF
000E
0005
FF99
FFB4
FFDF
FFB5
0021
004E
0093
FFF6
0103
0031
FFF3
0017
FFD9
FF43
FFE1
0052
0074
0004
008C
0032
0003
FF36
0014
0031
FFAA
000C
0069
0026
FFE6
FF6E
FFF1
00A9
0036
FFC2
FF82
FFE0
FFE8
FF67
FFC5
FF2B
FF70
FF69
001D
FF04
FFFF
0058
FF6A
FFEF
004C
FFCC
FFFA
002C
0036
FF7A
FF49
FFBC
FFCD
0028
0066
FFD1
FFC9
0010
0094
007A
FFBE
0002
FECD
FEC0
FF65
0002
000E
FF7E
0086
012E
0036
FFFB
FFB5
FFF0
0003
FFEC
007A
FF61
001D
001D
FF5A
FFC7
0045
FF77
003A
FF6E
0027
0082
FFE4
FF53
FFC3
002F
003D
FF9A
FFC2
0042
0020
FFFA
0033
FF95
0031
FFEF
00A2
FFF3
000C
FFF0
0030
FFCC
0013
0097
000F
FFD1
0015
0039
FFBF
00C9
0055
0020
FFFD
0068
0072
0010
FFDF
FF9F
0034
FFFD
FFF9
0076
FFE3
0081
0032
001B
FFF3
0011
0064
FFA3
0110
FFDA
0037
0003
0037
FF8A
FFA9
0007
FFBC
FFED
00C9
001B
FFBE
FFD5
0009
0027
0094
0039
00A0
FF47
FF64
FFE6
0092
004C
FF87
FF7B
FFAC
FFC6
FFDB
FFD7
FFCF
0096
005E
FFF2
0062
000F
FF66
FFDE
0005
FFD5
00B7
003A
0050
FF35
004A
0034
FFE1
0069
FFB0
0008
FFC0
0011
FF2F
FF6E
005B
0047
005B
0016
002C
FE88
FFBB
FF69
FFD8
002B
004F
0024
FFED
004B
FF95
FFAB
0041
0094
FEAD
FFED
003F
000B
FF8B
FF63
FFCA
FFB7
FEE8
005B
FF5A
FF3C
FF70
FFCC
003A
0003
FFDE
FF7B
FF75
0077
FF96
FF56
0054
0011
0047
FF97
0010
FFF7
0013
FF42
FFD7
FFDA
FF77
001B
FF98
FFAD
FEEC
FFC5
FFFA
0023
FFED
FFD2
FF7D
0050
FF15
FF97
FFF2
0059
009F
0000
005F
FF2A
FFD2
003A
00C6
0092
0029
FFBC
FFDF
003C
FFAE
FFE9
FFF8
002C
0094
FF7F
0010
FF7C
FF98
FF28
FFC3
FF67
FF15
0039
FF02
FF26
FFC8
00B0
001C
FFBA
0017
0032
004A
004A
FF86
FF92
003D
FFE7
0005
FFCB
0029
007C
00D0
FF9D
0014
FFD1
FF42
FF49
007F
00CB
0020
FFD5
008B
007C
0087
FFD4
0050
0074
FFC4
000C
0034
0008
0013
001B
002D
FFE2
0008
0072
001C
FFFE
FFF0
00FE
00C3
0017
FF4D
007F
FFE0
FFCD
0007
002E
FF8E
FFEF
FFDD
0038
004C
0024
0030
FFCC
0020
0010
FFDC
003E
FF74
005A
FFF7
FFAE
0028
0058
000B
0007
FFDC
0009
FFC1
0019
FF70
FFAE
FFFD
FFC8
0009
0074
FFDC
0065
0026
001A
FFC6
0043
FFF8
0035
FFF0
006F
FF66
FFF5
0045
FF89
0015
0010
0047
FFA8
FFAA
002D
FFCC
FF82
FF6A
0090
0076
001A
0012
FF49
0000
005E
0020
FF63
FFBB
0011
009F
FF8C
0001
004C
FFE5
0054
FFC6
FFF8
0095
001C
00B1
FFDA
FF7F
0040
FF52
000D
0007
0018
FFF7
00B4
004D
0005
000E
FFD3
FFCE
0040
FFD9
FFE1
FFF7
FFE5
0028
FFC6
FFBC
0022
003C
0056
FFDF
FF72
0047
0016
0074
FF73
FFAC
001C
0079
0063
FFFF
FFF2
000B
FFB0
FFFC
FF15
FEE9
FFC8
FFFC
FFE9
0007
0041
0036
0020
FF28
FF7A
FFE8
0030
0016
0096
0001
FFDF
FF83
0001
FFE8
FFA2
0052
FFD8
FFAB
0007
0086
0050
002B
FF1D
FF4C
FF62
001D
FFE1
0001
FF6E
FFCA
FFED
FF3D
FFA9
FFED
0002
00A7
0037
FF90
0025
FF68
FFD7
FFE7
FFE2
FFEC
FF95
FFF9
002E
0010
FFF3
FFB7
0035
0087
001D
FFFB
0052
FFF7
FFC0
0073
FFB1
0016
FFB5
004D
0012
000F
0020
000D
003C
FFFA
0012
0014
0085
FFC8
0038
002F
FF83
FFDA
FFDC
FFE2
002D
FFF1
FFD5
002F
00C5
FFAD
FFC0
0003
FFBA
0016
0020
FFE8
0034
006F
FF64
FFF3
FFDC
FFE9
FFDF
FF86
0047
FFB1
FF87
FFDC
0013
009C
0057
FF86
FF55
0007
FF66
0003
FFB5
000B
FFE9
0018
008B
0031
FF8A
FFDB
FFFF
0033
FFD6
FFF0
FFE2
002D
FFAF
FFBE
007A
FFCB
FFE3
003C
FF4C
FFC5
FFBB
0038
FF69
002A
FFD4
000B
FFAA
000E
FFAA
0028
FFAE
0008
0014
FFAC
0048
0017
FFFC
FF75
FFB5
FF96
FF7D
FFA8
004B
0038
00E3
FFAB
002E
FFC7
FFA9
FFF2
000D
FF02
0040
0025
002F
0013
FF56
FFE2
006E
0095
0034
000B
FFE9
FFB7
0054
0019
FFB8
FF65
FFBF
0046
FFEA
0030
FF8E
0074
0062
004A
0034
0059
FFC4
0025
FFFC
0061
FFA6
004B
FFC1
FFDB
0018
FF85
0013
001B
FFB5
000D
000F
0028
0006
004C
FF89
0016
0025
00AA
FFC4
004F
FFF0
FFC9
004B
0008
002B
000D
0017
0020
FFE8
000D
FFB8
004E
0008
0000
FFFE
0014
FFBA
0007
0030
FF8D
FF4C
0023
0006
0066
004B
FF0C
004A
0022
FFE1
0078
003A
0015
FF6F
FF70
000B
FF6E
FFD5
FFF7
FFA8
0032
002F
005B
FFD1
FF82
FF12
FFF4
0054
FFD2
FFF4
0008
FFCF
002E
002C
008B
FF9A
FFCE
00A1
003F
FFEB
FFBB
0061
0009
0059
0088
FF7E
FF64
FFE2
000B
FFBC
FFC7
FFF1
0026
FFC1
FFF0
FF8A
FF7B
FFE4
0007
FFF2
FFC4
0035
FFF4
0043
0021
FFE0
FFAB
004A
FFF5
FFBA
FFB5
FFA3
FF92
FFB1
FFAC
0002
FFD7
FFAA
FFE3
FFED
001C
00C1
FFFF
FF37
0045
FFD5
FFA9
0045
0012
FFFC
0006
005F
FF7E
FF9F
FFAF
0024
0098
FFC6
005E
0076
FFA9
0012
FFBE
00DE
FF52
000F
FF7D
0041
008D
FFC3
FFF1
FFA1
FEE3
FFAB
0084
0044
FFA7
0010
FFF7
FFAD
0040
FFD0
0004
FFC5
FFF2
FFF7
FFB4
FF87
FFE3
FFA2
FFB2
002B
FF7A
FF8E
FFEA
FFC2
FF77
FFF0
0025
0031
FFB0
FFC8
FFE1
FFD8
0006
0023
FFF5
FFC3
0025
0059
003F
0040
FFDD
FFF3
0090
008C
FFEB
FFEA
FF4D
0059
0022
FFB4
0059
000D
0039
008C
FFE0
FFEC
FFF6
FFDC
FF80
005D
FF82
0028
005C
001D
FF3B
0032
FFDC
FFF6
0046
FFF5
0053
001B
007C
00A5
FE71
FFE2
FFFE
FFCD
FF5E
0036
FFD6
0032
FFBA
FFEA
FFBE
FFCE
FFFC
0018
FF4C
FF9B
0017
FFD1
0006
0097
FFBE
FFD5
006B
FFFE
005B
007F
005A
003E
004B
FFE4
0054
001E
003C
0031
0041
0015
FFFB
FFC9
FF8B
0001
0008
000C
0043
002D
FFD4
FFE2
