-0.28928598761558532714843750000000
0.47709324955940246582031250000000
-0.27622219920158386230468750000000
-0.57995325326919555664062500000000
0.08209322392940521240234375000000
0.57389050722122192382812500000000
0.35790541768074035644531250000000
0.31768590211868286132812500000000
-0.26526463031768798828125000000000
-0.35918426513671875000000000000000
-0.27991074323654174804687500000000
0.40667685866355895996093750000000
-0.37067997455596923828125000000000
-0.28980711102485656738281250000000
-0.07119808346033096313476562500000
0.36439245939254760742187500000000
0.34330818057060241699218750000000
-0.92911612987518310546875000000000
-0.07054981589317321777343750000000
0.13637670874595642089843750000000
-0.56359153985977172851562500000000
0.33829179406166076660156250000000
-0.82152903079986572265625000000000
0.20392279326915740966796875000000
0.44366031885147094726562500000000
0.30631124973297119140625000000000
-0.23357538878917694091796875000000
-0.14813466370105743408203125000000
-0.37075421214103698730468750000000
0.31598666310310363769531250000000
0.56908792257308959960937500000000
-0.66569745540618896484375000000000
-0.12185129523277282714843750000000
-0.76409125328063964843750000000000
-0.85097539424896240234375000000000
0.27868580818176269531250000000000
0.56283509731292724609375000000000
0.25305220484733581542968750000000
0.02003343217074871063232421875000
0.43680438399314880371093750000000
-0.23347093164920806884765625000000
0.09213358163833618164062500000000
-0.67661356925964355468750000000000
-0.11276905983686447143554687500000
0.64391463994979858398437500000000
0.51455932855606079101562500000000
-0.74302721023559570312500000000000
-0.30815553665161132812500000000000
-0.25235289335250854492187500000000
0.57230985164642333984375000000000
0.25707012414932250976562500000000
-0.33047255873680114746093750000000
0.01999296061694622039794921875000
0.04500161111354827880859375000000
0.18792620301246643066406250000000
-0.40272447466850280761718750000000
-0.79518121480941772460937500000000
0.26440176367759704589843750000000
0.39149910211563110351562500000000
0.22414344549179077148437500000000
0.25749889016151428222656250000000
-0.09610028564929962158203125000000
0.24822591245174407958984375000000
0.30695104598999023437500000000000
0.48768705129623413085937500000000
0.44482618570327758789062500000000
-0.03384058922529220581054687500000
0.30170533061027526855468750000000
0.30477058887481689453125000000000
0.49461957812309265136718750000000
0.24701614677906036376953125000000
-0.09276971220970153808593750000000
0.23255208134651184082031250000000
-0.16667370498180389404296875000000
-0.48797848820686340332031250000000
0.00042530102655291557312011718750
-0.29095873236656188964843750000000
-0.17685484886169433593750000000000
-0.68026590347290039062500000000000
0.24722011387348175048828125000000
0.57830792665481567382812500000000
0.39385405182838439941406250000000
-0.22367876768112182617187500000000
0.02042846381664276123046875000000
0.40855351090431213378906250000000
0.22397865355014801025390625000000
-0.18578301370143890380859375000000
-0.34211754798889160156250000000000
0.01319303270429372787475585937500
0.13410240411758422851562500000000
-0.26350092887878417968750000000000
-0.25628551840782165527343750000000
-0.08103445917367935180664062500000
0.11311438679695129394531250000000
-0.69828200340270996093750000000000
0.01090923696756362915039062500000
0.07222549617290496826171875000000
-0.24795725941658020019531250000000
0.16161563992500305175781250000000
-0.43933352828025817871093750000000
0.08964099735021591186523437500000
0.20916460454463958740234375000000
-0.26204556226730346679687500000000
-0.36336934566497802734375000000000
-0.04979316890239715576171875000000
-0.09055831283330917358398437500000
0.00096644187578931450843811035156
0.11714810878038406372070312500000
-0.67697376012802124023437500000000
-0.34241330623626708984375000000000
0.52482444047927856445312500000000
0.16363683342933654785156250000000
-0.28443238139152526855468750000000
0.23785451054573059082031250000000
-0.21985167264938354492187500000000
-0.35717651247978210449218750000000
0.45211222767829895019531250000000
-0.40340536832809448242187500000000
-0.33020949363708496093750000000000
0.31736043095588684082031250000000
-0.18355819582939147949218750000000
-0.25865969061851501464843750000000
0.05705946683883666992187500000000
-0.62370932102203369140625000000000
0.15884865820407867431640625000000
-0.10662308335304260253906250000000
-0.17768807709217071533203125000000
0.06933533400297164916992187500000
0.69686704874038696289062500000000
0.11589059978723526000976562500000
-0.43617835640907287597656250000000
0.07594981044530868530273437500000
-0.67478919029235839843750000000000
0.48087978363037109375000000000000
-0.30774235725402832031250000000000
-0.70063263177871704101562500000000
-1.01214766502380371093750000000000
-0.26067441701889038085937500000000
0.50623697042465209960937500000000
-0.22599679231643676757812500000000
-0.24275635182857513427734375000000
-0.39734306931495666503906250000000
0.95554095506668090820312500000000
-0.36519667506217956542968750000000
0.50610554218292236328125000000000
-0.10109940916299819946289062500000
-0.71998339891433715820312500000000
0.39919406175613403320312500000000
0.87039160728454589843750000000000
-0.31573098897933959960937500000000
-0.16839012503623962402343750000000
-0.84795981645584106445312500000000
-0.61295235157012939453125000000000
0.77360838651657104492187500000000
0.22876474261283874511718750000000
0.26592913269996643066406250000000
0.24874603748321533203125000000000
1.05393278598785400390625000000000
0.21337598562240600585937500000000
-0.00028970796847715973854064941406
-0.10273132473230361938476562500000
0.46082445979118347167968750000000
0.34626021981239318847656250000000
-0.27225318551063537597656250000000
-0.00577895389869809150695800781250
-0.60919916629791259765625000000000
-0.32053574919700622558593750000000
-0.22341661155223846435546875000000
-0.08221995830535888671875000000000
0.02645661868155002593994140625000
-0.30001702904701232910156250000000
-0.67464029788970947265625000000000
0.04934620112180709838867187500000
0.04266229644417762756347656250000
-0.26369717717170715332031250000000
0.24676959216594696044921875000000
0.51960968971252441406250000000000
0.29102441668510437011718750000000
0.68552392721176147460937500000000
0.19303342700004577636718750000000
-0.55485314130783081054687500000000
-0.20585241913795471191406250000000
-0.07629451900720596313476562500000
-0.07066126912832260131835937500000
0.27906826138496398925781250000000
0.21793825924396514892578125000000
0.05033298954367637634277343750000
-0.19813272356986999511718750000000
-0.17959390580654144287109375000000
0.44670286774635314941406250000000
-0.05814781785011291503906250000000
0.52113115787506103515625000000000
-0.19269637763500213623046875000000
-0.48496207594871520996093750000000
0.16459968686103820800781250000000
0.54907017946243286132812500000000
-0.10219499468803405761718750000000
0.53675651550292968750000000000000
0.47697886824607849121093750000000
-0.14831453561782836914062500000000
-0.44214603304862976074218750000000
0.37844815850257873535156250000000
-0.60748434066772460937500000000000
-0.09437809139490127563476562500000
0.36522388458251953125000000000000
0.40629962086677551269531250000000
-0.15861321985721588134765625000000
-0.31281542778015136718750000000000
0.31718167662620544433593750000000
0.09183317422866821289062500000000
-0.03754147514700889587402343750000
0.11223497241735458374023437500000
-0.07521962374448776245117187500000
0.70956289768218994140625000000000
0.37820705771446228027343750000000
-0.14185006916522979736328125000000
0.07966595888137817382812500000000
-0.23326031863689422607421875000000
-0.65918737649917602539062500000000
0.00022990524303168058395385742188
-0.42931795120239257812500000000000
-0.35384270548820495605468750000000
0.12904098629951477050781250000000
-0.07060805708169937133789062500000
-0.34412276744842529296875000000000
0.07632021605968475341796875000000
0.25723060965538024902343750000000
0.22911459207534790039062500000000
0.46626734733581542968750000000000
-0.38192334771156311035156250000000
0.00612118002027273178100585937500
0.14520531892776489257812500000000
0.77827328443527221679687500000000
-0.02465497516095638275146484375000
-0.07310117036104202270507812500000
0.68886166810989379882812500000000
-0.64086389541625976562500000000000
-0.46483403444290161132812500000000
0.04689605534076690673828125000000
0.35596978664398193359375000000000
0.43086677789688110351562500000000
0.46513387560844421386718750000000
0.07170982658863067626953125000000
-0.36052334308624267578125000000000
0.48655712604522705078125000000000
0.21313595771789550781250000000000
-0.10956020653247833251953125000000
-0.27483090758323669433593750000000
0.01059838291257619857788085937500
-0.02415759302675724029541015625000
0.19346311688423156738281250000000
0.44204878807067871093750000000000
-0.27384445071220397949218750000000
-0.28790855407714843750000000000000
0.20781393349170684814453125000000
0.95941334962844848632812500000000
-0.64229452610015869140625000000000
-0.44428205490112304687500000000000
0.30171176791191101074218750000000
-0.10455635935068130493164062500000
-0.72295629978179931640625000000000
-0.45081567764282226562500000000000
-0.17148162424564361572265625000000
-0.30626839399337768554687500000000
-0.10628736019134521484375000000000
0.36277443170547485351562500000000
-0.60061144828796386718750000000000
-0.47697129845619201660156250000000
-0.83175420761108398437500000000000
0.27853879332542419433593750000000
-0.13283294439315795898437500000000
-0.51561713218688964843750000000000
0.12432853132486343383789062500000
-0.20052555203437805175781250000000
-0.53060650825500488281250000000000
-0.83450949192047119140625000000000
-0.09944719076156616210937500000000
0.06398845463991165161132812500000
-0.88345867395401000976562500000000
-0.17695593833923339843750000000000
-0.14892855286598205566406250000000
-0.30444738268852233886718750000000
-0.12851168215274810791015625000000
-0.38002118468284606933593750000000
-0.38692545890808105468750000000000
-0.24246925115585327148437500000000
0.38146093487739562988281250000000
-0.18268913030624389648437500000000
0.26648411154747009277343750000000
0.08323168009519577026367187500000
-0.07548882812261581420898437500000
0.28301990032196044921875000000000
0.00693368632346391677856445312500
0.26377797126770019531250000000000
0.08621177822351455688476562500000
-0.89894330501556396484375000000000
-0.91397488117218017578125000000000
-0.44367066025733947753906250000000
0.08102475851774215698242187500000
-0.26609426736831665039062500000000
0.15930539369583129882812500000000
-0.29064017534255981445312500000000
0.26619637012481689453125000000000
-0.36117944121360778808593750000000
0.02371475473046302795410156250000
-0.60273516178131103515625000000000
0.31695675849914550781250000000000
-0.01940893940627574920654296875000
-0.47648686170578002929687500000000
-0.05072926357388496398925781250000
-0.39912998676300048828125000000000
0.29403448104858398437500000000000
0.80847495794296264648437500000000
1.14722549915313720703125000000000
-0.10316186398267745971679687500000
0.34982040524482727050781250000000
-0.28570500016212463378906250000000
0.64399808645248413085937500000000
0.31849697232246398925781250000000
-0.02952692843973636627197265625000
-0.68968260288238525390625000000000
0.09829261153936386108398437500000
-0.21614643931388854980468750000000
-0.57453376054763793945312500000000
-0.06010034307837486267089843750000
0.10270151495933532714843750000000
0.14820401370525360107421875000000
-0.12975263595581054687500000000000
-0.65096199512481689453125000000000
0.76757520437240600585937500000000
-0.75443339347839355468750000000000
-0.16755640506744384765625000000000
0.20154675841331481933593750000000
0.72696828842163085937500000000000
-0.13383758068084716796875000000000
0.34552145004272460937500000000000
-0.12389633804559707641601562500000
-0.70617622137069702148437500000000
-0.26321262121200561523437500000000
0.22410191595554351806640625000000
0.45292830467224121093750000000000
-0.49187692999839782714843750000000
-0.35616561770439147949218750000000
-0.28729131817817687988281250000000
0.16560438275337219238281250000000
0.12370304763317108154296875000000
-0.05778694525361061096191406250000
0.65901976823806762695312500000000
0.36611306667327880859375000000000
-0.06354570388793945312500000000000
0.11928543448448181152343750000000
-0.13920001685619354248046875000000
0.37850472331047058105468750000000
-0.00833795499056577682495117187500
1.17639720439910888671875000000000
0.88627892732620239257812500000000
-0.41260924935340881347656250000000
0.06286647170782089233398437500000
0.80095463991165161132812500000000
-0.18192763626575469970703125000000
-0.00211101840250194072723388671875
0.53233540058135986328125000000000
-0.47879344224929809570312500000000
0.43979123234748840332031250000000
-0.22186905145645141601562500000000
-0.14452974498271942138671875000000
0.01586598716676235198974609375000
0.42946249246597290039062500000000
-0.42799323797225952148437500000000
0.04968408495187759399414062500000
0.16778057813644409179687500000000
-0.01200059894472360610961914062500
-0.33840441703796386718750000000000
0.10417324304580688476562500000000
-0.68683540821075439453125000000000
0.25566667318344116210937500000000
0.20894250273704528808593750000000
0.10807065665721893310546875000000
-0.24173748493194580078125000000000
-0.52606445550918579101562500000000
-0.69547712802886962890625000000000
0.02966178581118583679199218750000
0.52537822723388671875000000000000
0.04972001537680625915527343750000
-0.50771999359130859375000000000000
-0.22597505152225494384765625000000
-0.20930232107639312744140625000000
0.14449051022529602050781250000000
-0.16139423847198486328125000000000
-0.37177363038063049316406250000000
0.34313932061195373535156250000000
0.44170522689819335937500000000000
-0.13817033171653747558593750000000
-0.12619765102863311767578125000000
-0.67792814970016479492187500000000
-0.23903618752956390380859375000000
0.62700593471527099609375000000000
-0.29239693284034729003906250000000
-0.77371060848236083984375000000000
-0.20633888244628906250000000000000
-0.24954247474670410156250000000000
0.06338924169540405273437500000000
-0.43973708152770996093750000000000
-0.21924279630184173583984375000000
0.23415637016296386718750000000000
-0.35553032159805297851562500000000
-0.32271659374237060546875000000000
0.30237692594528198242187500000000
-0.14475682377815246582031250000000
-0.41843506693840026855468750000000
0.19328100979328155517578125000000
-0.38136497139930725097656250000000
0.34805101156234741210937500000000
-0.12553872168064117431640625000000
-0.06234040111303329467773437500000
0.15551199018955230712890625000000
0.40104809403419494628906250000000
-0.11558584868907928466796875000000
0.09020753204822540283203125000000
0.19036035239696502685546875000000
0.63746553659439086914062500000000
-0.17328658699989318847656250000000
-0.13580490648746490478515625000000
-0.59013283252716064453125000000000
-0.12519083917140960693359375000000
0.13590718805789947509765625000000
-0.30797865986824035644531250000000
0.32190841436386108398437500000000
-0.10082598775625228881835937500000
0.01890449412167072296142578125000
0.04185783490538597106933593750000
0.22339522838592529296875000000000
0.51750510931015014648437500000000
0.63502240180969238281250000000000
-0.60599726438522338867187500000000
-0.75847154855728149414062500000000
-0.13582420349121093750000000000000
1.01106297969818115234375000000000
0.13495135307312011718750000000000
0.07052697241306304931640625000000
0.09234094619750976562500000000000
0.01664799451828002929687500000000
-0.28141397237777709960937500000000
-0.35130804777145385742187500000000
-0.32705712318420410156250000000000
0.46492981910705566406250000000000
-0.49149107933044433593750000000000
0.24195025861263275146484375000000
-1.02843081951141357421875000000000
-0.24134378135204315185546875000000
0.13432402908802032470703125000000
-0.08045130968093872070312500000000
0.58468782901763916015625000000000
-0.27583685517311096191406250000000
0.38283577561378479003906250000000
-0.02336714789271354675292968750000
-0.47012537717819213867187500000000
0.02758325822651386260986328125000
-0.33679911494255065917968750000000
0.40350455045700073242187500000000
-0.36133360862731933593750000000000
-0.59060347080230712890625000000000
-0.45938664674758911132812500000000
1.10315847396850585937500000000000
-0.24132399260997772216796875000000
0.07781633734703063964843750000000
-0.08482865989208221435546875000000
-0.42804607748985290527343750000000
0.03556783497333526611328125000000
-0.06121371686458587646484375000000
-0.20047180354595184326171875000000
0.14806683361530303955078125000000
-0.17076331377029418945312500000000
1.06897592544555664062500000000000
0.46626985073089599609375000000000
0.42676991224288940429687500000000
0.13275064527988433837890625000000
0.80298650264739990234375000000000
0.17949758470058441162109375000000
0.30116295814514160156250000000000
0.09125059843063354492187500000000
0.06154758110642433166503906250000
0.42973482608795166015625000000000
0.21188396215438842773437500000000
-0.37560939788818359375000000000000
-0.33456611633300781250000000000000
0.36998745799064636230468750000000
0.43645918369293212890625000000000
-0.02652126923203468322753906250000
0.17870461940765380859375000000000
0.35898596048355102539062500000000
0.22806513309478759765625000000000
0.35089403390884399414062500000000
-0.54790300130844116210937500000000
0.31769883632659912109375000000000
-0.14352983236312866210937500000000
-0.55369085073471069335937500000000
0.15856586396694183349609375000000
0.16704311966896057128906250000000
-0.71247595548629760742187500000000
0.08910560607910156250000000000000
-0.18041023612022399902343750000000
-0.64383184909820556640625000000000
-0.76214677095413208007812500000000
-0.06490851938724517822265625000000
0.08843277394771575927734375000000
-0.60361796617507934570312500000000
-0.55076551437377929687500000000000
-0.97969758510589599609375000000000
0.02407991886138916015625000000000
-0.01107584498822689056396484375000
0.11091826856136322021484375000000
