-0.08142492175102233886718750000000
0.08098743855953216552734375000000
0.05487658083438873291015625000000
-0.04044143110513687133789062500000
-0.11745277792215347290039062500000
0.05132094025611877441406250000000
-0.08304207772016525268554687500000
-0.22542847692966461181640625000000
0.14326074719429016113281250000000
-0.09717272967100143432617187500000
-0.09313254803419113159179687500000
-0.10262002050876617431640625000000
-0.04173262789845466613769531250000
-0.13713243603706359863281250000000
0.01346140820533037185668945312500
-0.02845624834299087524414062500000
