FFDF
00AD
003F
FF9D
008E
003F
006B
000A
FFF4
005B
0001
FFE5
FF85
FFB9
0009
FFC5
00B6
FFD6
FF8E
00C6
0072
005E
FF4E
0074
FFD4
FFD2
0028
FFF3
FFB9
0040
FF95
0076
FFE0
0092
00B0
0057
0009
FF9A
009D
0002
005B
FF35
007A
FFD7
FF92
0084
FF54
00AA
0017
FFFE
FF9D
00D6
FFED
FFAB
009A
003A
FF27
006B
FF61
FFDE
FFA5
00B5
00C3
001B
FEB0
0020
0074
00B2
0081
0035
000E
FF87
00D4
0016
006E
00C1
FF76
FFDA
008A
004E
FFFD
FFCF
0016
001B
FFF1
FF6B
0001
FFF1
000F
FFFC
0064
FF7C
FFE6
FFDE
FFF6
FFD7
FFE7
0005
0036
0057
00A6
0008
FFCF
0006
FF89
0094
0050
00DF
FEE5
008A
0039
FFF6
006A
FFA8
FF82
0021
00AD
FFEE
FF93
FF90
0075
00CA
003A
FFDE
FFED
FFDC
00B0
FFCB
FFC6
FFFA
FFA9
000E
002F
FFF0
FF49
FF4A
FF66
FFA4
0079
005C
FF63
FF6D
001F
FFF6
004B
003E
FFC8
0024
FF0F
008B
0080
000C
FFFD
0027
FF2A
0057
FF98
FFA6
005E
FFFF
00B5
006D
006F
00A4
009C
00EA
FFAA
0129
00F8
FFBC
FF85
00F8
003D
FFDC
0076
FF52
005D
FFB5
FF6D
0010
008A
FFBB
FFF7
0024
0070
006D
0077
FF4C
FFA8
FFDF
0012
0003
0074
FFC6
FFA3
0081
008A
006B
00AA
FFC2
FFAC
0125
FF8A
FFB0
0050
0005
0010
FF8C
0164
006A
0005
FFE5
FFEA
0028
FFE5
FF2F
FF6B
0049
0015
00AA
0045
0093
0055
008D
FFD4
FF91
0013
FF40
FFBF
FF22
FF90
FF7F
000C
FFE6
FF90
FFAA
007B
0007
FFD0
FFC0
FFD0
0009
FEF6
FFA9
FF97
FFD2
FF1E
0003
FFC7
FFE7
FFE3
0080
0117
006D
FF8D
00FC
FF4A
004D
009B
FF81
000E
001D
FF97
003A
FF93
0012
FF9B
FFBD
FFA7
FF59
FF5C
00FD
FF39
FFA0
FFCC
002C
000B
FF72
FFEC
0021
FFF2
FF39
0077
FFF9
00B2
00B6
FF88
006A
003A
FFF9
FFA0
0093
0015
0094
00BA
000B
002E
FFD4
0059
FFEB
000A
FF4B
0027
FFF4
0060
FFD8
00B3
009C
0095
0001
FF8D
0047
FFF8
FF88
FF7D
00BA
FFE8
0061
FF99
0035
FFCC
00CB
003D
0022
0087
006B
0050
FFCD
FFDC
FFD4
FFAD
FFB9
FEF8
FFD5
FFF4
00A9
FF8A
FFED
FFC0
0075
00B4
FF3A
FFBB
0031
0005
FFAF
FFD5
FFBD
FFD0
004F
0006
0088
0018
00F8
FF86
FFFC
001D
004E
001E
FFBA
FFCA
FFA1
0077
FF4E
FFC0
FF98
0011
FFEB
FFCF
FFCC
FFC8
000A
FF63
FF96
0012
0085
FFD4
0074
FF7F
0038
0065
0044
0022
00BB
FF6B
004B
FF99
00B3
0018
0082
FF1B
0035
0060
003D
FF7C
0028
0052
FF8B
FEF2
0063
00B8
FF00
FFFF
FF1F
FF96
FF3F
FF5B
FF65
00E4
0050
FFCC
FFDC
FFA4
0007
0021
FF8D
0038
0066
00C3
FF9D
FFC8
FFD4
FFED
00B6
00BE
000B
0095
FFFE
FFCD
0034
FF38
0005
0033
0111
FFA9
0007
FFD8
007D
FF74
FF5E
00E0
006D
FFEB
004E
0053
00AC
0003
FF8E
001D
003C
004D
FFFA
FFDC
0030
0065
0008
0018
FF5F
FFB1
FFE0
FFF0
FF95
0094
FFB5
FF9D
FF41
FF97
006B
FFF7
FF9F
0009
004C
FFCE
0006
000B
000A
0086
0010
FF5D
000E
005D
0010
004F
0013
0079
0077
FFFC
FFBE
0035
FFC9
0035
FFF2
000B
FF96
FFD3
FF96
FFCB
FFE5
0073
002E
FFDA
FF72
FFDB
0015
FFCF
FF70
0055
0050
FFEE
0040
000C
002D
