FFCB
0051
FFC1
FFAD
FFF1
0023
0028
FFE0
FF78
004A
FFD0
FFF5
FFF1
000E
00B3
FFA0
0049
FF81
FFF7
FFF8
005C
00FE
0097
FF8B
FFCE
0073
0018
0021
0019
009E
0030
FFB9
001F
0063
FFD3
FF9E
0020
0007
003F
FFC4
FFF6
FFE7
007D
009E
002A
FFE1
FF74
FF4E
0094
0004
0055
00C3
007E
FFD7
FFCE
0013
FFF4
000D
00D5
004D
FFD0
FF77
0019
0011
FFD1
FEFB
FF8F
0037
FF5B
FF74
FFE5
FFD1
FFD8
FF5E
0064
FFED
FFA2
FF38
FF82
003B
002D
009C
0017
FFFB
FF6B
FFA8
0005
FFDA
FF7E
FFE4
0021
0087
FF65
FFA5
005A
FFDA
0005
FF84
002E
0039
0002
FFF0
FFBF
00BB
FF90
FFB0
0072
FFC5
FFE1
FF92
FFE5
FFCC
FFB9
0049
0096
FFE4
FFB5
0052
FF90
FFB2
0076
0042
FF50
0028
FFE6
0061
FFD9
0055
FFE0
FF89
FFE0
FFF9
FF50
0018
FFB3
007C
FF86
006C
FFD1
FFB5
0008
0003
001D
FF5F
FFA4
FFCF
FFE7
FF72
0041
003A
006D
FFB2
FFAD
0007
FFAA
FF4D
0026
0064
0060
FF6F
FF23
FFC5
003D
0079
000F
FFC4
FFC5
0020
002E
FF85
FFF6
007A
FFC9
000E
FF73
FFC1
001E
FFB8
FF68
FFE2
FF10
0055
FFD0
FF71
FFF9
FFA7
FF5F
FF83
FF46
0061
FFAA
FFF4
0083
0079
0093
0006
0017
FFC4
FF6E
FF97
FFE1
0089
FFA1
FFE6
0016
FF39
FF84
0009
FFFC
00A3
FF9C
FFEF
FFCD
0048
FF9C
0042
0096
00BB
0025
002B
0066
FFF9
006B
002B
FFF5
003E
FFD2
000A
00B8
003D
FFA0
FF62
0085
0050
FFCD
FF83
0112
00B9
FFB0
0011
00AB
004D
FFBA
001F
0070
005C
0027
0087
0015
FF9E
0033
002F
0052
0023
0059
008C
FFAE
0028
FFE4
0048
0032
FFEA
FFC5
FFB3
FFA8
0044
FF65
FF92
00AE
0071
002B
FFAD
FFD1
FFAC
FF96
FF58
002E
001A
FFAD
FFD2
FFB0
0032
FFED
FEC7
0094
0020
FF96
FF90
FF9E
FF7D
0027
0010
00B2
000B
0063
FFCE
FFE8
FF97
FF8F
0003
0055
0038
FF64
0027
0048
0024
FFFB
0075
0047
FED8
FFCB
FFCB
FFFC
FFFA
FFF8
0012
FFBB
0027
FFB6
FFDD
0046
FF9F
FFFD
FF7C
FFBA
006D
FFAB
FF8B
000E
FFF2
FFD7
FF33
FF60
FFDE
0044
FFE7
FFF6
0063
FFCA
FF53
0130
000D
0001
000B
0029
FFAC
0060
0028
0057
FFFE
FF76
FFFE
004B
FF5F
FFB3
003A
FFBB
004E
FFF9
0087
FFCA
FF5A
003C
FFF6
0066
0062
0077
FFFC
FF6B
0098
000D
FFA8
FF92
FF90
FEE7
FFD6
0051
0054
FF99
0039
0020
FF1C
0002
007A
FFEC
0025
0004
0084
0062
FFDD
FFBB
FF6C
FF9E
0013
FFFE
FF94
002B
0014
0086
FFCD
FF7A
0036
FF85
FFFD
FFD3
FF36
FEDD
FF76
FF59
FFBD
FFC8
FFE9
0013
FF97
FFA9
FFEF
004A
0005
FED3
FF7C
FFFF
FFB5
000E
FF8C
000C
FFCC
FF34
FFCA
003C
FFD9
FFEC
FFF0
005E
FEF9
FFA6
0007
FFE0
FFE9
0024
FF33
0008
FF58
005B
FEAB
FF14
009F
FFA5
FFD5
FF44
00CA
009B
FFD2
00A8
FF9A
0094
0023
0031
0002
FF84
FFBE
FFDE
00A6
00C5
0009
004F
0033
009D
FFFA
0010
FFEE
FFDF
0014
0076
007D
FFD6
FF97
0024
00B1
002F
006C
0084
009C
0072
0021
005F
009A
0039
0050
005B
0002
FF87
FFE0
FFEF
FF82
FFE8
0062
FFE1
FFBA
FFC3
FFEC
0012
002C
0083
FFAF
FFE9
006E
00B6
001F
FFF1
0069
FFEE
0027
00CF
007A
FF95
FFA7
0050
0068
00A2
003C
005B
0096
00AA
005B
FF83
FFDD
FFB1
0084
0005
FF5E
0032
004D
001D
FFAC
003E
0038
FFA5
FFB2
007D
0033
0046
008C
0051
00FE
0008
0056
0035
FF7B
FFF1
FFF5
0005
FFF6
FF85
005B
FFBD
FF68
FF6A
000D
001E
FF69
FF87
0080
FFBF
FFE2
00B8
003E
FF83
0016
0097
00A4
FFEE
00A2
0035
0005
0085
004D
FF29
007A
FF87
FF1C
001E
FFA0
FFB7
0054
FF77
003B
FF7F
FF77
FFC9
FFED
FFC3
FFAC
0042
FFE8
FF32
FF66
000C
0087
00C0
FF35
FFE8
FFF3
FF4A
FF30
0020
00B0
FFDD
FF45
0013
0032
0080
0053
FFCD
007C
00DF
003B
FFB8
FF85
FFFA
FF8A
FFBF
0031
0003
FF7F
006C
FFE2
0029
006B
0061
FF81
FFD9
FFDF
FFB5
FFD7
0008
FF7A
FFBC
FF91
FF5F
0043
004E
FFA4
FFF7
FFE8
FFC6
0086
00DA
007E
FFDA
0080
FFFE
0085
0024
0061
0091
0008
FF66
0012
FF8C
FFAF
FFC6
0024
0079
008B
00AD
0104
00B1
0031
FF3B
FFFE
0059
0034
FFB1
006D
FFEF
FFBF
FFAE
FFAF
FF5B
007F
001E
007C
000B
006A
0087
002D
FFEA
FFC2
0021
FFB8
0012
0007
0051
FFF8
0009
FFE5
FFF2
0118
FF97
0040
FF88
009E
0073
0115
FF80
000A
FFF3
FF4D
0050
0066
002B
007C
FFCF
000C
000F
003D
007E
007B
003D
FFEE
0019
FF38
FFD4
0021
FFC6
FFBC
FEF2
0017
FFA2
FF94
FF88
FFFB
0061
FF54
FF8A
FFF8
FFDE
0021
0020
0042
FFBA
FF65
FF8A
FF95
FFFA
004F
FF79
0085
FF26
FF90
FFBD
FFB5
FF55
FFA9
FF47
FE66
FF57
003E
FF90
FF6C
0021
0019
004E
FFA9
FF95
0014
FF71
0029
FF02
FF39
FF74
FFFD
FFE7
FFCB
FFFF
0044
FF5B
FFCD
FFEC
003D
FF52
FFF6
0064
0033
FFD1
FFEF
FF5C
FFF6
FFED
FFDB
002C
FF44
FF8D
005E
FF88
0043
FFEB
0055
0033
FFD9
FF41
0025
FFDF
FF69
005E
000B
000C
FFED
FFDA
FF6D
00D7
FFDE
FFD5
FFAF
FF88
FF8C
FFC9
FF2B
FF85
FF80
FF2E
FF50
000F
FF96
FF68
FFDC
FF8F
FF3E
FF5C
0063
FF1B
006A
004C
FFEB
FEEF
FF74
FFEC
0065
FFF8
0056
0079
0020
00AB
FFCF
001A
FF8C
FF58
00E6
FF7F
0027
0017
005C
FFD3
FF54
FFB9
0047
FFB8
FFFB
FFEB
0024
0020
FF45
FF14
0072
FFFC
FFBD
FFEF
001B
FFE5
0056
FFEB
0078
FFBA
FF84
FFAD
FFCD
FFFF
007C
009A
FF6F
FF29
005E
003E
FFA0
FFA3
FFA1
0050
FF3F
FF94
0025
FFE6
FFBA
009D
FF42
FF7B
0051
FF7F
0050
000F
002A
005E
FF70
FF66
FF76
001F
006D
FFDA
FFB1
0007
0033
FFC7
FF32
FFDF
FF61
FFF9
FFB1
007A
FFFF
FF74
FF52
FFDD
FFBD
FFD3
FF6D
FFF5
0041
003A
FF68
FF8C
FFE0
FFBD
0042
003A
006C
008A
FF93
FFDB
FFE7
FF83
FFEA
FFB1
0039
FF59
0032
0030
FF79
FF96
0009
00B1
000E
000C
FFE1
FFDF
FF21
FFF8
FFB9
002B
005E
FF71
FF33
FFA8
0014
0078
FFF9
FFAE
FF65
FFE1
FFFA
FF14
FF7E
FFC8
FFE6
FED4
FF92
FFE2
FF8C
FFD5
0056
FF91
FF4B
FFD2
FFE6
001A
FF8D
FF63
0038
002F
001D
FF46
0092
00A5
FFBA
FF8B
0021
FF6D
FFC5
FFF7
0100
001D
FFA0
FFCA
FFC6
FF62
FF76
0067
FFBC
FED2
FFD5
FF60
FF97
FFF4
004A
0023
004B
FF98
FF73
FF9A
FEFD
FF80
FF6A
FF85
0027
FFAF
FFEB
FFC9
007E
008F
FFE5
00A0
FFD8
FFEE
0041
FF97
FFFB
FFDE
0029
FFDC
FFBE
000C
FFA4
00FE
FFF8
0013
FF84
0035
0027
FFD7
0053
0023
FFEE
FFE9
FFFE
FFCD
0082
0092
FFF6
00B1
008D
FFAF
FF5D
000C
00B1
0033
0009
00D6
FFC3
FFC1
003B
0034
FFCA
0003
0097
006D
FF5A
FFD6
0093
FF9E
FFE4
0024
0033
0018
000C
00B6
0036
0020
FFC3
0032
005E
FFFA
FFD1
0055
FFDF
0015
006F
009D
008E
0031
FFFF
0037
0003
00AF
003D
0087
007B
FFE2
00A2
FF6D
FFD2
FF75
FFB5
FFEC
0092
00B8
00CF
007E
005A
FF83
FF99
FFCA
0058
0011
007E
FFC0
FF4F
0030
FFE5
FF30
006D
00C8
0056
FFA3
FFDA
FFD7
FF79
0017
0065
FFE4
FFBA
FFE7
000F
FF9F
0019
0051
0078
0000
006A
0028
0037
003C
004D
0078
004D
0066
0001
002E
0012
FF7F
FFEB
FFC1
0007
FF59
0017
00F7
00AF
0042
FFF1
0009
004A
FFDA
0014
0079
00FD
0008
FFE6
FF9E
0081
FFBB
0032
008D
FFAE
0009
FFDB
FFD7
001E
FFD7
FF9F
003E
001C
000B
003E
FF63
FF73
004A
0059
0067
FFFA
FFF8
FFAD
0061
FFCD
0030
003A
0080
0017
FFD4
0046
FFEE
FFD1
006E
0005
003B
0057
FFBF
FFB5
0073
009E
FF10
FFC8
000B
0085
0031
001C
0038
004E
FF97
005E
FFAA
0047
FFE4
FFE7
0062
FFC5
FFC3
0026
FFA5
FF3D
FF13
FFAD
001C
FF9B
FFF6
0099
FF43
FF33
FFB4
FFC5
0065
FF66
FF29
0054
0004
FF06
FFD4
FFC6
FFEA
FFF6
003B
001E
0014
FF7A
FF9A
FF76
FEF5
004C
0067
FFC9
FF2B
0011
FF72
FEED
0001
FFF6
FF1B
FFEC
FFEE
FF98
FF3D
008A
FFC5
FF9B
00DE
0020
0066
FFA5
0000
0050
FFBD
FFCA
FFE3
FFB0
FFA8
FF87
0083
0100
009D
FFAD
FFFF
00A0
00B0
005D
FFEC
0047
FFCF
0065
0096
001C
FFF3
FFF8
FFD9
FFE4
0049
FFE9
FFF3
FFFB
FF91
FF4B
FF35
00A5
FFF0
000A
00DE
008E
0089
FFDC
0029
FFEF
001E
0059
FFFE
002D
0062
FFE1
002A
0016
FFAE
0075
FFE7
0009
0094
0085
0074
FF3D
0033
0049
FFE0
FFBF
0018
FF6C
FF74
FF23
FFD7
006A
FF79
0058
FFE7
0090
004A
0045
0036
FF87
FF9F
FFCA
0036
004D
0021
0048
0023
FFAB
FFFB
FFC6
0028
FFDF
0069
003C
FFA6
FF8F
FF6B
004F
0030
0005
FFD8
FFD8
004A
FEBD
004F
FFED
FFA9
0051
FFAA
0083
FF9D
FF34
008A
FF03
FECC
FF46
0027
00E4
000B
0000
FF98
FF80
FFAC
FFA8
FFD9
0025
FFB2
FFDD
FFC7
FFF0
FF7A
006B
FFEC
FFED
000D
FF51
006E
FF93
FFF6
FF73
FF96
FFFC
FFE2
006F
0053
0041
0051
0033
004E
FFF7
0022
FFF0
FFD7
FFA7
005B
0012
001B
0035
0028
FFBC
004B
FF9F
FFF1
0096
000A
001C
000E
FFF5
FFA1
FFA6
FFCC
0040
0144
00FB
0027
0069
0052
000F
0036
00C1
007D
0043
00DE
0037
0076
FFE0
0053
0031
0041
0046
001D
FFD9
FFA2
FF57
FFC1
FF5D
FFC1
FFE1
FFD2
FFAC
FFFA
FF12
FFEE
001A
0007
FFC3
FF6E
0001
FEFC
FF69
0020
0045
FFEC
FF72
FF54
FFE3
FFAF
FF62
002D
FFD2
FFBF
FFC8
FF41
0014
FF50
002B
0091
0039
0046
000B
006D
FFF7
FFA6
FFFF
001F
FFF6
FFCB
00A6
0049
FF2D
0024
FFAD
FF91
FF31
FFBE
FFBE
FFE1
FF3E
FFCD
FFE0
FFDB
FFCE
FF7E
FFD4
FF49
FFD7
FFE7
FFEE
FF70
FF81
FFAD
FFEB
FFBB
0014
FEFE
00A8
0077
FFC2
0029
FFA4
006B
FFEC
FFBC
0041
FFC8
0044
FFC3
FF96
0010
FFA6
FFAD
0012
FFC5
002A
006A
0025
FF73
FF74
FF4B
0037
FFDB
FF55
0065
00A0
0035
002E
0020
FF8F
FF5E
FF32
007D
0023
0020
FFBA
005A
FFDC
FF40
FF76
FF9F
FFAF
FFA8
FFB4
FF5A
FEFB
FFA4
FF12
FFB5
FFEA
FFAD
FFE3
FFFF
FFAB
FF9F
FFD7
FFB5
FFB3
FFA0
FF9A
FFA8
FFE7
FF97
FFA3
FFA6
FF60
FFD8
FFE8
0012
FFC8
FF96
FFDB
00B3
009E
0013
FFA9
FF67
FFBC
FFA5
0048
0088
00A8
FFD8
FFEE
FFAE
FFDF
006D
000B
0028
006A
0072
003A
FF77
FF33
002D
FF73
000D
0069
FFC3
FFF5
0016
0056
001D
003F
FFF0
FFA2
FF40
FFD4
0072
FFDE
FF8A
0013
FFBD
FFCB
FFA5
0020
0021
007F
006A
007D
007F
FF9C
FFD0
FF7C
FF9E
FFFA
005C
FF47
FF79
FFBB
0066
002C
FFC6
0013
FFA6
0004
FF91
FF68
FFCB
FF2A
0014
0022
0033
FFA7
FFA3
FFDC
0043
FF6A
FFEA
001F
FF57
FF71
0070
002D
FFCF
FFC5
004D
001D
FFC1
FFD3
FFF5
FF86
FF8D
0071
00AC
FFD6
FFF0
FFDA
FFEB
FF8B
003F
FFDF
FEB3
FFC6
004B
0043
FFF8
002E
FFEB
FF12
0008
FF82
FFF3
FFCF
FF1B
FFD5
0002
0065
FFC9
FF5E
0058
FF97
FEC1
0057
FFD6
0074
FFB8
001A
0070
0040
FFE0
FF7A
FFAF
FFF9
FF0E
FF7D
0119
0044
0010
FFF7
FFA5
0010
FFA2
FFF9
FFFC
0057
0046
0093
FF1B
0056
FFB2
FF9E
FF95
0075
0031
FF72
FF5C
FF20
FF90
FFBF
0019
FFEC
0007
FFE3
FF62
FEE1
0010
FFD5
FFB0
FFBB
FF80
0043
FF83
0084
0002
000A
0038
FFA3
FFCC
009A
FFF5
0080
002D
0053
FF62
FFEE
FFE0
0082
003D
FFB3
00A2
FF31
FF05
FF7D
FFC1
FFEF
00BD
0021
0061
FFA0
FFA1
FF1F
FEEC
00A0
FFDC
FFAB
FF85
000D
0026
FF58
FE99
0018
FFE5
007E
00C0
FFD0
FF70
FF79
0057
FFA5
001B
002A
0034
002C
0015
FFB6
FFC9
FFCC
FFF8
0013
FF8B
0049
0099
0005
00AF
FFD7
FF70
0008
0006
FFA3
FF53
FFB9
FFD8
FFF9
FF05
FFAB
FFDB
0098
FF96
FEFB
FFE6
FFEF
FFE2
FF85
003D
FFE0
FFB7
FF4A
002C
0063
0023
000C
000C
000D
FFA1
FFD6
0095
FF9B
FF75
005E
FFB8
FEF4
0001
0009
0019
0047
FFE3
001D
001D
FF0A
FFD3
FFE9
004A
0028
FFAD
0022
003F
004D
005A
008A
005C
FF5A
FFE8
FF86
FFFB
0002
FFEC
001B
004D
FFCC
0015
FFD5
004B
0006
000C
0099
0022
FFBD
FF5B
FF8C
0032
FF9D
001F
FF98
FFC7
FF58
FFE8
0044
0044
0026
FFF9
FFD4
FF3A
FF79
FF8F
FF4A
0008
004F
004D
FFA5
002C
000F
FFB7
FF5F
0032
FFF1
0023
0001
FF30
FFFE
FF56
0032
FF84
FFAE
FF65
FF4D
FF9B
000D
0004
0043
0063
0048
003D
0005
FFC7
FFA0
00C3
0004
003C
FFAC
0006
FF90
FFF8
0075
FF56
0013
FFF4
FFA4
FFAE
002D
FF9B
FF7B
FFCB
FFA2
0064
FFEE
FFE0
FFD0
0016
FFE3
FF89
FFA3
FF4C
FFB8
0014
0010
0004
0054
FF75
FFC8
FFC4
002E
0036
FFF6
FFE9
0006
FFC5
FF96
FFC1
FF8F
0111
0063
FFC8
FF44
0012
FFE0
FFBD
FFDC
0063
0082
FFA8
FF9D
FF9A
FFD6
FFE5
0022
0043
000D
FFE7
FFE2
002C
FFAD
003D
005C
FFDC
0091
FF92
0067
FFF3
FFB2
