-0.02224460989236831665039062500000
-0.02091406844556331634521484375000
-0.00641346350312232971191406250000
-0.04854467511177062988281250000000
0.00030433665961027145385742187500
0.01822766847908496856689453125000
0.00019271497149020433425903320312
0.00699829775840044021606445312500
-0.01292091328650712966918945312500
-0.01002029236406087875366210937500
-0.00000141597593028564006090164185
0.02241128683090209960937500000000
0.02394773997366428375244140625000
-0.00754731381312012672424316406250
-0.01397545263171195983886718750000
0.01874739862978458404541015625000
0.01106281392276287078857421875000
-0.01973902247846126556396484375000
0.00785031355917453765869140625000
-0.03556314110755920410156250000000
0.00485216826200485229492187500000
-0.00724228518083691596984863281250
-0.02320062741637229919433593750000
-0.05580887198448181152343750000000
0.01577107980847358703613281250000
0.02832012996077537536621093750000
-0.01403271313756704330444335937500
-0.01135695818811655044555664062500
0.01683709770441055297851562500000
0.01330014038830995559692382812500
0.02612929604947566986083984375000
-0.00836745928972959518432617187500
