-0.01436097268015146255493164062500
0.01350845955312252044677734375000
0.02122564241290092468261718750000
-0.00688145216554403305053710937500
-0.03177346289157867431640625000000
-0.00007812070543877780437469482422
0.00142617477104067802429199218750
-0.00075341912452131509780883789062
0.00540341995656490325927734375000
0.01358542125672101974487304687500
-0.00271202065050601959228515625000
-0.01244993042200803756713867187500
-0.00270018773153424263000488281250
-0.00059804879128932952880859375000
0.00567297032102942466735839843750
0.00671061920002102851867675781250
0.00566720869392156600952148437500
0.00581771088764071464538574218750
0.00043215436744503676891326904297
-0.00715692853555083274841308593750
0.00491321925073862075805664062500
0.00684544304385781288146972656250
0.01660661213099956512451171875000
-0.00395333021879196166992187500000
0.00285626598633825778961181640625
0.01900740712881088256835937500000
-0.00134790106676518917083740234375
0.00287822308018803596496582031250
0.00185369804967194795608520507812
-0.01627718470990657806396484375000
0.00984904915094375610351562500000
0.01186016295105218887329101562500
