0.01594857126474380493164062500000
-0.00331900967285037040710449218750
0.02276155166327953338623046875000
-0.11412578821182250976562500000000
0.00623849220573902130126953125000
0.10964870452880859375000000000000
0.01670956984162330627441406250000
0.00182719877921044826507568359375
-0.01360289845615625381469726562500
-0.01186726801097393035888671875000
-0.04930737242102622985839843750000
-0.01204649265855550765991210937500
-0.02608997747302055358886718750000
0.01112151984125375747680664062500
-0.13410967588424682617187500000000
0.07497745752334594726562500000000
-0.02143547125160694122314453125000
0.01649207621812820434570312500000
-0.05051939561963081359863281250000
-0.04596481472253799438476562500000
0.01830154843628406524658203125000
0.06745453923940658569335937500000
-0.01581302471458911895751953125000
0.03861596062779426574707031250000
0.01469814311712980270385742187500
0.01105426624417304992675781250000
-0.03641904145479202270507812500000
-0.01828604564070701599121093750000
0.04057662934064865112304687500000
0.01555365324020385742187500000000
-0.02015265822410583496093750000000
0.00838935747742652893066406250000
