0.19528226554393768310546875000000
0.34167718887329101562500000000000
0.23817074298858642578125000000000
0.47012260556221008300781250000000
-0.28207850456237792968750000000000
0.20116151869297027587890625000000
0.31179684400558471679687500000000
-0.14777986705303192138671875000000
-0.10571453720331192016601562500000
-0.31819361448287963867187500000000
-0.28002843260765075683593750000000
0.21136191487312316894531250000000
-0.21717184782028198242187500000000
-0.15771906077861785888671875000000
0.39109843969345092773437500000000
-0.11624237895011901855468750000000
0.60310304164886474609375000000000
-0.05657010152935981750488281250000
0.28362518548965454101562500000000
0.27096995711326599121093750000000
0.99398708343505859375000000000000
0.15844362974166870117187500000000
0.48216322064399719238281250000000
0.42392465472221374511718750000000
0.02661725878715515136718750000000
0.16110475361347198486328125000000
-0.10417824238538742065429687500000
0.05952696874737739562988281250000
-0.96432507038116455078125000000000
0.02517946250736713409423828125000
0.47565320134162902832031250000000
0.17879527807235717773437500000000
-0.51421618461608886718750000000000
-0.21442903578281402587890625000000
-0.72878932952880859375000000000000
-0.09942083805799484252929687500000
0.48372289538383483886718750000000
0.03116609528660774230957031250000
0.50488489866256713867187500000000
-0.03827485814690589904785156250000
-0.00989666488021612167358398437500
0.44677039980888366699218750000000
-0.63766509294509887695312500000000
-0.36191976070404052734375000000000
0.22530084848403930664062500000000
-0.05360962450504302978515625000000
-0.55898088216781616210937500000000
0.05205605924129486083984375000000
-0.16222126781940460205078125000000
0.21624824404716491699218750000000
-0.71314936876296997070312500000000
-0.14821150898933410644531250000000
0.27526491880416870117187500000000
0.75033432245254516601562500000000
-0.35841557383537292480468750000000
0.16349080204963684082031250000000
0.00986013840883970260620117187500
0.31813392043113708496093750000000
0.33095529675483703613281250000000
0.57707911729812622070312500000000
-0.02529246732592582702636718750000
-0.09523965418338775634765625000000
0.05212217941880226135253906250000
0.14186258614063262939453125000000
0.08412304520606994628906250000000
0.39172282814979553222656250000000
0.13930967450141906738281250000000
0.51739037036895751953125000000000
0.08165974915027618408203125000000
0.34747949242591857910156250000000
0.15717197954654693603515625000000
-0.27039894461631774902343750000000
0.25950726866722106933593750000000
0.43891584873199462890625000000000
-0.06672420352697372436523437500000
0.12913568317890167236328125000000
-0.88553100824356079101562500000000
0.50564289093017578125000000000000
0.67247051000595092773437500000000
0.19056768715381622314453125000000
0.44423389434814453125000000000000
0.43749123811721801757812500000000
-0.28770375251770019531250000000000
0.42345768213272094726562500000000
0.14955827593803405761718750000000
0.07439585775136947631835937500000
0.10640218108892440795898437500000
0.83809852600097656250000000000000
0.15497119724750518798828125000000
0.53582447767257690429687500000000
0.21304386854171752929687500000000
0.16709382832050323486328125000000
0.51286906003952026367187500000000
0.50898075103759765625000000000000
0.44457471370697021484375000000000
0.03124273940920829772949218750000
-0.37862822413444519042968750000000
-0.44421580433845520019531250000000
0.52036678791046142578125000000000
-0.27652698755264282226562500000000
-0.63109463453292846679687500000000
0.14160065352916717529296875000000
-0.49229991436004638671875000000000
0.15954570472240447998046875000000
-0.76811635494232177734375000000000
0.08764281123876571655273437500000
-0.30360341072082519531250000000000
0.46142968535423278808593750000000
-0.12887437641620635986328125000000
0.32018828392028808593750000000000
-0.25054693222045898437500000000000
-0.37925687432289123535156250000000
-0.56227636337280273437500000000000
-0.02552880719304084777832031250000
-0.01427395083010196685791015625000
-0.40413776040077209472656250000000
0.35079455375671386718750000000000
-0.08861864358186721801757812500000
0.96510827541351318359375000000000
-0.12675879895687103271484375000000
0.25835591554641723632812500000000
0.25320968031883239746093750000000
0.02478455565869808197021484375000
0.54451906681060791015625000000000
-0.14955358207225799560546875000000
0.01771804317831993103027343750000
-0.16007553040981292724609375000000
-0.05641145631670951843261718750000
-0.29528102278709411621093750000000
0.20942373573780059814453125000000
0.22275234758853912353515625000000
0.23879899084568023681640625000000
-0.04744345694780349731445312500000
0.51381313800811767578125000000000
-0.27205166220664978027343750000000
0.03755512088537216186523437500000
-0.24801766872406005859375000000000
0.85642838478088378906250000000000
-0.25822925567626953125000000000000
-0.09454450756311416625976562500000
-1.00143766403198242187500000000000
0.05337486788630485534667968750000
0.94590622186660766601562500000000
-0.31861579418182373046875000000000
-0.19182713329792022705078125000000
0.61050736904144287109375000000000
-0.11816399544477462768554687500000
-0.17294348776340484619140625000000
0.63083904981613159179687500000000
0.00457427417859435081481933593750
0.63546359539031982421875000000000
0.11471718549728393554687500000000
0.43728756904602050781250000000000
0.23363353312015533447265625000000
-0.06367948651313781738281250000000
-0.06122701987624168395996093750000
0.13640968501567840576171875000000
0.20604723691940307617187500000000
-0.14911423623561859130859375000000
-0.46362987160682678222656250000000
-0.57621401548385620117187500000000
0.21890003979206085205078125000000
-0.27555468678474426269531250000000
-0.84920167922973632812500000000000
0.27904814481735229492187500000000
-0.46713909506797790527343750000000
0.66721290349960327148437500000000
-0.44530507922172546386718750000000
-0.29518267512321472167968750000000
0.13202819228172302246093750000000
-0.23071026802062988281250000000000
-0.68758106231689453125000000000000
-0.44906929135322570800781250000000
-0.00212012650445103645324707031250
-0.29584825038909912109375000000000
0.19892208278179168701171875000000
-0.36498436331748962402343750000000
0.62989526987075805664062500000000
-0.08829863369464874267578125000000
-0.54321610927581787109375000000000
-0.53522408008575439453125000000000
0.06970271468162536621093750000000
-0.49748095870018005371093750000000
0.29382142424583435058593750000000
-0.41826388239860534667968750000000
-0.02724345214664936065673828125000
0.15818527340888977050781250000000
-0.15991072356700897216796875000000
-0.38108396530151367187500000000000
-0.27858588099479675292968750000000
0.69303524494171142578125000000000
-0.18514597415924072265625000000000
0.12171290814876556396484375000000
0.27160814404487609863281250000000
-0.40226709842681884765625000000000
-0.11069949716329574584960937500000
0.11169898509979248046875000000000
0.55427980422973632812500000000000
0.75203776359558105468750000000000
0.19921903312206268310546875000000
-0.31093961000442504882812500000000
0.29449218511581420898437500000000
0.24066431820392608642578125000000
0.30880558490753173828125000000000
-0.34118458628654479980468750000000
0.49309974908828735351562500000000
0.37718409299850463867187500000000
0.17096933722496032714843750000000
-0.08793056011199951171875000000000
0.00199390319176018238067626953125
-0.16192291676998138427734375000000
-0.13810126483440399169921875000000
0.32973015308380126953125000000000
0.41592034697532653808593750000000
-0.46456781029701232910156250000000
0.27985528111457824707031250000000
0.09359968453645706176757812500000
-0.53888773918151855468750000000000
0.40315821766853332519531250000000
0.37664481997489929199218750000000
0.18417075276374816894531250000000
0.30642825365066528320312500000000
0.51322382688522338867187500000000
-0.04932566359639167785644531250000
0.29488119482994079589843750000000
0.40911185741424560546875000000000
0.33775219321250915527343750000000
0.59166944026947021484375000000000
0.04238601401448249816894531250000
0.28885406255722045898437500000000
0.02163627557456493377685546875000
-0.59228748083114624023437500000000
-0.20417498052120208740234375000000
0.30824559926986694335937500000000
0.15165412425994873046875000000000
0.02409139648079872131347656250000
-0.05659295991063117980957031250000
-0.26419651508331298828125000000000
0.68280315399169921875000000000000
-0.10915853083133697509765625000000
-0.30465477705001831054687500000000
0.16224090754985809326171875000000
-0.13751183450222015380859375000000
0.44651210308074951171875000000000
0.24482266604900360107421875000000
-0.04512476176023483276367187500000
0.33877247571945190429687500000000
0.06324156373739242553710937500000
0.15647190809249877929687500000000
0.10588296502828598022460937500000
-0.22792065143585205078125000000000
-0.62526857852935791015625000000000
0.14396528899669647216796875000000
0.12992416322231292724609375000000
-0.12839527428150177001953125000000
-0.80144876241683959960937500000000
0.22029587626457214355468750000000
0.27062949538230895996093750000000
0.22136631608009338378906250000000
0.36132496595382690429687500000000
-0.12799276411533355712890625000000
-0.09557087719440460205078125000000
-0.28875759243965148925781250000000
-0.33814641833305358886718750000000
0.11062771826982498168945312500000
0.19636115431785583496093750000000
0.13937816023826599121093750000000
0.45052799582481384277343750000000
-0.20385491847991943359375000000000
0.27499574422836303710937500000000
0.52825134992599487304687500000000
0.01413784548640251159667968750000
-0.30145058035850524902343750000000
-0.03265209123492240905761718750000
0.04810508713126182556152343750000
-0.02679591253399848937988281250000
0.06457126140594482421875000000000
0.08988026529550552368164062500000
-0.13318763673305511474609375000000
-0.56103539466857910156250000000000
0.02281232923269271850585937500000
-0.03654285892844200134277343750000
0.18432311713695526123046875000000
0.41486731171607971191406250000000
-0.18197488784790039062500000000000
0.12323223799467086791992187500000
0.42451271414756774902343750000000
0.19146220386028289794921875000000
0.46582654118537902832031250000000
-0.66851156949996948242187500000000
-0.08935052901506423950195312500000
-0.00522901304066181182861328125000
-0.54208499193191528320312500000000
-0.51401257514953613281250000000000
0.02884714305400848388671875000000
-0.09839224070310592651367187500000
0.14144313335418701171875000000000
-0.08818572759628295898437500000000
0.20398555696010589599609375000000
0.53546476364135742187500000000000
-0.59099644422531127929687500000000
0.31935578584671020507812500000000
0.09047568589448928833007812500000
0.02933737076818943023681640625000
0.22949570417404174804687500000000
-0.03097528591752052307128906250000
-0.13865798711776733398437500000000
-0.58937835693359375000000000000000
-0.05815025046467781066894531250000
0.62073707580566406250000000000000
-0.24011936783790588378906250000000
-0.26220020651817321777343750000000
0.08509705215692520141601562500000
-0.03320766985416412353515625000000
0.40388718247413635253906250000000
0.47240179777145385742187500000000
-0.05019404739141464233398437500000
0.03235895186662673950195312500000
-0.23047374188899993896484375000000
0.56136989593505859375000000000000
-0.15127710998058319091796875000000
0.22369487583637237548828125000000
-0.04178568720817565917968750000000
0.06254151463508605957031250000000
-0.28287363052368164062500000000000
-0.11743833869695663452148437500000
-0.38466849923133850097656250000000
0.70367687940597534179687500000000
0.05314171314239501953125000000000
0.16325852274894714355468750000000
0.45057100057601928710937500000000
-0.17311364412307739257812500000000
-0.81246286630630493164062500000000
-0.54869151115417480468750000000000
-0.22732473909854888916015625000000
-0.80565303564071655273437500000000
-0.21496313810348510742187500000000
0.84350425004959106445312500000000
-0.15391099452972412109375000000000
0.11249310523271560668945312500000
0.47804045677185058593750000000000
-0.44179019331932067871093750000000
-0.24135582149028778076171875000000
-0.30883345007896423339843750000000
0.21677875518798828125000000000000
0.36260020732879638671875000000000
0.27771082520484924316406250000000
0.33606183528900146484375000000000
-0.11725974082946777343750000000000
0.62327277660369873046875000000000
-0.25361663103103637695312500000000
-0.24830351769924163818359375000000
0.04059657827019691467285156250000
-0.14983348548412322998046875000000
-0.44176092743873596191406250000000
0.61177676916122436523437500000000
-0.85956573486328125000000000000000
-0.20856326818466186523437500000000
0.30453437566757202148437500000000
0.74946314096450805664062500000000
-0.19982379674911499023437500000000
-0.20657107234001159667968750000000
0.08912032842636108398437500000000
-0.11157388240098953247070312500000
-0.25624814629554748535156250000000
-1.15568470954895019531250000000000
0.19268816709518432617187500000000
-0.67067843675613403320312500000000
0.27342465519905090332031250000000
0.09766934812068939208984375000000
-0.23587901890277862548828125000000
0.03235706314444541931152343750000
0.42668226361274719238281250000000
0.63051271438598632812500000000000
-0.04379842057824134826660156250000
-0.11322344839572906494140625000000
-0.04921859130263328552246093750000
-0.21461661159992218017578125000000
0.21920602023601531982421875000000
0.31165152788162231445312500000000
-0.51611447334289550781250000000000
0.01891131699085235595703125000000
0.10321487486362457275390625000000
-0.35970035195350646972656250000000
-0.02065097726881504058837890625000
0.18917718529701232910156250000000
0.29167702794075012207031250000000
0.29643586277961730957031250000000
-0.72363710403442382812500000000000
0.05371274054050445556640625000000
0.62438440322875976562500000000000
0.18244867026805877685546875000000
-0.25193950533866882324218750000000
0.33120414614677429199218750000000
0.17669872939586639404296875000000
-0.17751234769821166992187500000000
-0.14139848947525024414062500000000
-0.12312962859869003295898437500000
0.64119476079940795898437500000000
-0.35616427659988403320312500000000
0.05586092546582221984863281250000
-0.59330219030380249023437500000000
-0.10158856213092803955078125000000
0.20302356779575347900390625000000
0.25638830661773681640625000000000
0.31573265790939331054687500000000
0.71493583917617797851562500000000
-0.04353754222393035888671875000000
-0.28968524932861328125000000000000
-0.51403188705444335937500000000000
-0.25262197852134704589843750000000
-0.42882245779037475585937500000000
0.42207908630371093750000000000000
-0.06221242249011993408203125000000
0.13818542659282684326171875000000
-0.22058947384357452392578125000000
-0.09923735260963439941406250000000
-0.00720954965800046920776367187500
1.25002276897430419921875000000000
-0.15468209981918334960937500000000
0.02716402523219585418701171875000
-0.01149755436927080154418945312500
0.52298635244369506835937500000000
-0.07598332315683364868164062500000
0.02884653955698013305664062500000
0.00441696541383862495422363281250
-0.13153141736984252929687500000000
-0.54143726825714111328125000000000
0.02469963766634464263916015625000
0.35215789079666137695312500000000
1.02455747127532958984375000000000
-0.41135230660438537597656250000000
-0.30949780344963073730468750000000
-0.33657789230346679687500000000000
-0.12066520750522613525390625000000
-0.08113987743854522705078125000000
-0.29654398560523986816406250000000
0.28086593747138977050781250000000
0.66870480775833129882812500000000
-0.21132382750511169433593750000000
-0.43247461318969726562500000000000
-0.17964814603328704833984375000000
0.13835094869136810302734375000000
-0.50127649307250976562500000000000
0.69307219982147216796875000000000
0.00134653772693127393722534179688
0.12493937462568283081054687500000
0.23384182155132293701171875000000
0.22839848697185516357421875000000
0.12087594717741012573242187500000
0.23351326584815979003906250000000
0.28997585177421569824218750000000
0.45735850930213928222656250000000
-0.09263496845960617065429687500000
-0.07627592235803604125976562500000
-0.05373547226190567016601562500000
0.12799490988254547119140625000000
-0.91851007938385009765625000000000
-0.42124524712562561035156250000000
-0.67041558027267456054687500000000
-0.11397007107734680175781250000000
-0.14901715517044067382812500000000
0.40427184104919433593750000000000
-0.02719368040561676025390625000000
-0.80155509710311889648437500000000
-0.17974826693534851074218750000000
-0.17967557907104492187500000000000
-0.02732611261308193206787109375000
-0.00880305841565132141113281250000
-0.03367573395371437072753906250000
0.34620514512062072753906250000000
0.30188697576522827148437500000000
-0.51590269804000854492187500000000
-0.19558008015155792236328125000000
0.24761882424354553222656250000000
-0.51073491573333740234375000000000
0.21983367204666137695312500000000
-0.18565085530281066894531250000000
0.22036561369895935058593750000000
-0.04608540982007980346679687500000
-0.16699971258640289306640625000000
0.33876657485961914062500000000000
-0.14408466219902038574218750000000
0.25490665435791015625000000000000
0.12068819254636764526367187500000
-0.45826050639152526855468750000000
-0.07165868580341339111328125000000
0.26517927646636962890625000000000
0.06064698472619056701660156250000
-0.11862837523221969604492187500000
0.26010164618492126464843750000000
0.03512957319617271423339843750000
-0.07640580087900161743164062500000
-0.17054852843284606933593750000000
-0.07278136163949966430664062500000
0.64346575736999511718750000000000
0.07619328051805496215820312500000
0.11313031613826751708984375000000
0.13732394576072692871093750000000
-0.88544851541519165039062500000000
0.37723937630653381347656250000000
-0.74157041311264038085937500000000
0.21989379823207855224609375000000
-0.43137770891189575195312500000000
-0.41799896955490112304687500000000
-0.17178644239902496337890625000000
-0.64800834655761718750000000000000
-0.07141870260238647460937500000000
-0.10314321517944335937500000000000
-0.22923766076564788818359375000000
0.09287007898092269897460937500000
0.11859174817800521850585937500000
0.81304299831390380859375000000000
-0.34389871358871459960937500000000
0.00235331035219132900238037109375
0.71978354454040527343750000000000
0.28512263298034667968750000000000
0.16711091995239257812500000000000
0.50189828872680664062500000000000
-0.18737262487411499023437500000000
-0.03734024241566658020019531250000
0.30825534462928771972656250000000
0.54381316900253295898437500000000
-0.20498734712600708007812500000000
0.14868018031120300292968750000000
-0.01121603604406118392944335937500
-0.53446257114410400390625000000000
0.17061610519886016845703125000000
0.42080107331275939941406250000000
0.19309835135936737060546875000000
1.21251368522644042968750000000000
-0.17925140261650085449218750000000
1.31887423992156982421875000000000
0.56912505626678466796875000000000
0.46837666630744934082031250000000
0.69509917497634887695312500000000
-0.38580062985420227050781250000000
0.30880689620971679687500000000000
0.64929342269897460937500000000000
0.51414597034454345703125000000000
-0.35496580600738525390625000000000
-0.56456190347671508789062500000000
0.85869449377059936523437500000000
0.37868139147758483886718750000000
-0.30129638314247131347656250000000
-0.23001508414745330810546875000000
-0.12851394712924957275390625000000
0.14201654493808746337890625000000
-0.39951205253601074218750000000000
0.41036573052406311035156250000000
-0.38079676032066345214843750000000
-0.22362242639064788818359375000000
0.59570503234863281250000000000000
-0.09411150217056274414062500000000
0.50319534540176391601562500000000
0.07017422467470169067382812500000
1.13493633270263671875000000000000
0.24373710155487060546875000000000
-0.33698469400405883789062500000000
-0.35264122486114501953125000000000
-0.17885936796665191650390625000000
-0.03617258742451667785644531250000
0.64942640066146850585937500000000
0.39174076914787292480468750000000
0.22551967203617095947265625000000
-0.28051519393920898437500000000000
0.04998523741960525512695312500000
0.23913091421127319335937500000000
0.01737714558839797973632812500000
0.71610128879547119140625000000000
0.38880720734596252441406250000000
0.51091349124908447265625000000000
-0.22261501848697662353515625000000
0.34182322025299072265625000000000
0.21517629921436309814453125000000
-0.01136274356395006179809570312500
0.07349328696727752685546875000000
0.11701982468366622924804687500000
-0.08915701508522033691406250000000
-0.12859857082366943359375000000000
-0.51523762941360473632812500000000
0.40522354841232299804687500000000
-0.19472940266132354736328125000000
-1.14089655876159667968750000000000
1.17847454547882080078125000000000
0.00933157186955213546752929687500
0.94764131307601928710937500000000
-0.10416007786989212036132812500000
0.91198998689651489257812500000000
-1.07521021366119384765625000000000
-0.19171945750713348388671875000000
-0.17383216321468353271484375000000
0.01476116292178630828857421875000
0.63581347465515136718750000000000
0.79355859756469726562500000000000
0.17892459034919738769531250000000
-0.29424598813056945800781250000000
-0.21094733476638793945312500000000
-0.11859239637851715087890625000000
0.10377827286720275878906250000000
0.16062967479228973388671875000000
0.32459437847137451171875000000000
0.19675174355506896972656250000000
0.69454097747802734375000000000000
-0.21484559774398803710937500000000
-0.06125586479902267456054687500000
0.11538894474506378173828125000000
-0.34317168593406677246093750000000
0.32357123494148254394531250000000
0.10266318917274475097656250000000
-0.09021534770727157592773437500000
-0.09772653132677078247070312500000
-0.67720472812652587890625000000000
0.16915072500705718994140625000000
0.42584607005119323730468750000000
-0.83912354707717895507812500000000
0.76966673135757446289062500000000
0.11171542853116989135742187500000
1.03354108333587646484375000000000
-0.16385751962661743164062500000000
0.21373723447322845458984375000000
-0.61031419038772583007812500000000
-0.58996921777725219726562500000000
-0.12910734117031097412109375000000
-0.04412782564759254455566406250000
-0.49801003932952880859375000000000
0.93089765310287475585937500000000
0.24140281975269317626953125000000
0.28733089566230773925781250000000
0.59473717212677001953125000000000
-0.13714355230331420898437500000000
-0.16187763214111328125000000000000
-0.04069739207625389099121093750000
-0.16763895750045776367187500000000
-0.22358652949333190917968750000000
0.07251455634832382202148437500000
0.26833751797676086425781250000000
-0.17870688438415527343750000000000
0.11926083266735076904296875000000
-0.10894071310758590698242187500000
0.19852282106876373291015625000000
0.28197962045669555664062500000000
0.27119469642639160156250000000000
0.45305424928665161132812500000000
0.03368265181779861450195312500000
-0.03736713901162147521972656250000
-0.05910314247012138366699218750000
0.01860437169671058654785156250000
0.17409463226795196533203125000000
-0.28734216094017028808593750000000
0.18618319928646087646484375000000
-0.16186942160129547119140625000000
-0.16183249652385711669921875000000
0.72048872709274291992187500000000
0.06233933568000793457031250000000
-0.49612259864807128906250000000000
0.10000979900360107421875000000000
-0.43398487567901611328125000000000
0.73901736736297607421875000000000
0.05744530260562896728515625000000
0.95122373104095458984375000000000
0.26802852749824523925781250000000
0.35102003812789916992187500000000
-0.27022621035575866699218750000000
-0.03259481862187385559082031250000
-0.34726127982139587402343750000000
-0.11630199849605560302734375000000
-0.33726683259010314941406250000000
0.55956321954727172851562500000000
0.24499937891960144042968750000000
0.09818721562623977661132812500000
0.15182200074195861816406250000000
0.05220292881131172180175781250000
0.40851211547851562500000000000000
0.77016705274581909179687500000000
0.35280847549438476562500000000000
0.69089215993881225585937500000000
-0.13191895186901092529296875000000
-0.57127600908279418945312500000000
0.22143168747425079345703125000000
-0.36682131886482238769531250000000
-0.43759432435035705566406250000000
0.45301541686058044433593750000000
0.18976882100105285644531250000000
-0.05691090226173400878906250000000
0.24734964966773986816406250000000
0.12708167731761932373046875000000
-0.02126430906355381011962890625000
0.32204782962799072265625000000000
-0.08645892888307571411132812500000
0.43738541007041931152343750000000
-0.10782811790704727172851562500000
0.53497523069381713867187500000000
-0.39094975590705871582031250000000
0.78709250688552856445312500000000
0.37404572963714599609375000000000
-0.06589311361312866210937500000000
-0.34536755084991455078125000000000
0.32571217417716979980468750000000
-0.24791005253791809082031250000000
-0.85459518432617187500000000000000
0.00201492896303534507751464843750
-0.10146093368530273437500000000000
0.00946373958140611648559570312500
0.23912267386913299560546875000000
0.77453988790512084960937500000000
1.46417760848999023437500000000000
0.56090998649597167968750000000000
0.50771659612655639648437500000000
-0.20142668485641479492187500000000
0.02593129873275756835937500000000
0.04912292957305908203125000000000
0.27226504683494567871093750000000
-0.29312765598297119140625000000000
-0.13640451431274414062500000000000
0.30116543173789978027343750000000
0.12829163670539855957031250000000
0.10015354305505752563476562500000
0.36351177096366882324218750000000
-0.12609216570854187011718750000000
-0.64827990531921386718750000000000
0.10025567561388015747070312500000
0.21749748289585113525390625000000
-0.11423075944185256958007812500000
-0.06609939783811569213867187500000
-0.62546849250793457031250000000000
0.58348810672760009765625000000000
0.74601054191589355468750000000000
-0.21712657809257507324218750000000
-0.11482379585504531860351562500000
0.33925697207450866699218750000000
-0.26963636279106140136718750000000
-1.44308960437774658203125000000000
-0.31171754002571105957031250000000
-0.02519062533974647521972656250000
-0.32923370599746704101562500000000
0.02435208857059478759765625000000
0.32485660910606384277343750000000
-0.25326141715049743652343750000000
-0.63881921768188476562500000000000
0.49166852235794067382812500000000
-0.27406850457191467285156250000000
0.72351336479187011718750000000000
-0.42946353554725646972656250000000
0.16701106727123260498046875000000
-0.44549241662025451660156250000000
-0.31878525018692016601562500000000
0.05669899284839630126953125000000
-0.20010317862033843994140625000000
0.08984705805778503417968750000000
0.36076375842094421386718750000000
-0.24906614422798156738281250000000
-0.18992917239665985107421875000000
-0.07726033031940460205078125000000
-0.33314719796180725097656250000000
-0.21530818939208984375000000000000
-0.55351120233535766601562500000000
0.31126147508621215820312500000000
-0.36962479352951049804687500000000
0.36977407336235046386718750000000
-0.77460128068923950195312500000000
-0.48646414279937744140625000000000
0.44390696287155151367187500000000
-0.76344650983810424804687500000000
-0.53578972816467285156250000000000
-0.37846994400024414062500000000000
0.25631347298622131347656250000000
-0.10475736111402511596679687500000
0.45007586479187011718750000000000
-0.20860259234905242919921875000000
-0.36818751692771911621093750000000
0.19768057763576507568359375000000
-0.07244772464036941528320312500000
0.12189573049545288085937500000000
-0.04540675505995750427246093750000
-0.00865704193711280822753906250000
-0.07110626250505447387695312500000
0.18534131348133087158203125000000
0.14017736911773681640625000000000
0.18264496326446533203125000000000
0.02426776476204395294189453125000
-0.16836631298065185546875000000000
0.20663534104824066162109375000000
-0.29303517937660217285156250000000
0.13575966656208038330078125000000
0.36779862642288208007812500000000
0.47092136740684509277343750000000
0.46987119317054748535156250000000
0.28073257207870483398437500000000
-0.09743246436119079589843750000000
0.02791830524802207946777343750000
0.32492044568061828613281250000000
0.20624354481697082519531250000000
0.31095132231712341308593750000000
-0.62494295835494995117187500000000
-0.41266578435897827148437500000000
0.21404415369033813476562500000000
-0.28702130913734436035156250000000
0.11054784059524536132812500000000
-0.59432727098464965820312500000000
-0.08231381326913833618164062500000
0.14469058811664581298828125000000
-0.21092389523983001708984375000000
-0.02948269993066787719726562500000
-0.54089558124542236328125000000000
-0.06728865206241607666015625000000
0.01503057684749364852905273437500
0.82592654228210449218750000000000
-0.52906841039657592773437500000000
0.18229158222675323486328125000000
-0.98864281177520751953125000000000
-0.03871090337634086608886718750000
-0.35164490342140197753906250000000
-0.39295956492424011230468750000000
-0.63504642248153686523437500000000
-0.05958508700132369995117187500000
0.36207491159439086914062500000000
0.08903200179338455200195312500000
0.00353051489219069480895996093750
0.19345125555992126464843750000000
-0.24582825601100921630859375000000
-0.64137285947799682617187500000000
0.12923407554626464843750000000000
-0.48260703682899475097656250000000
0.63689059019088745117187500000000
0.48867115378379821777343750000000
0.00363647891208529472351074218750
-0.02764828130602836608886718750000
0.32550120353698730468750000000000
0.23898018896579742431640625000000
-0.41750264167785644531250000000000
-0.19470269978046417236328125000000
-0.07739391177892684936523437500000
0.23790107667446136474609375000000
0.19184204936027526855468750000000
-0.25557342171669006347656250000000
-0.28584617376327514648437500000000
-0.86915707588195800781250000000000
0.15726950764656066894531250000000
0.56956988573074340820312500000000
-1.09069299697875976562500000000000
0.02488123625516891479492187500000
-0.89752209186553955078125000000000
-0.39059349894523620605468750000000
-0.45723423361778259277343750000000
-0.98483717441558837890625000000000
-0.54438084363937377929687500000000
0.09023115038871765136718750000000
-0.37826186418533325195312500000000
0.16498552262783050537109375000000
0.08573143184185028076171875000000
0.02213062532246112823486328125000
0.03737275302410125732421875000000
-0.02736657485365867614746093750000
0.46305099129676818847656250000000
-0.51238363981246948242187500000000
-0.03643671795725822448730468750000
-0.33558493852615356445312500000000
-0.04943421483039855957031250000000
-0.70933216810226440429687500000000
0.31063929200172424316406250000000
0.13426330685615539550781250000000
-0.31364437937736511230468750000000
-0.23461036384105682373046875000000
0.09446582943201065063476562500000
0.26003339886665344238281250000000
0.01556354947388172149658203125000
-0.06072522699832916259765625000000
-0.02250046096742153167724609375000
-1.04050993919372558593750000000000
0.40207937359809875488281250000000
0.33374622464179992675781250000000
-0.64564079046249389648437500000000
0.27110338211059570312500000000000
-0.29764747619628906250000000000000
-0.50801503658294677734375000000000
0.00482897274196147918701171875000
-0.23047351837158203125000000000000
-0.25042027235031127929687500000000
-0.69722056388854980468750000000000
-0.55195832252502441406250000000000
0.06654712557792663574218750000000
-0.30202895402908325195312500000000
-0.05126833170652389526367187500000
0.11447612196207046508789062500000
0.25275275111198425292968750000000
0.28782001137733459472656250000000
-0.27174833416938781738281250000000
-0.72170799970626831054687500000000
-0.88368499279022216796875000000000
0.28163951635360717773437500000000
-0.46020734310150146484375000000000
0.13048902153968811035156250000000
0.15168997645378112792968750000000
0.27734604477882385253906250000000
-0.11531083285808563232421875000000
0.69245302677154541015625000000000
-0.00693998066708445549011230468750
-0.50230515003204345703125000000000
0.68943160772323608398437500000000
-0.22271530330181121826171875000000
0.06496257334947586059570312500000
0.02759675495326519012451171875000
-0.13035739958286285400390625000000
0.29774111509323120117187500000000
-0.89608383178710937500000000000000
0.34061512351036071777343750000000
0.09900444000959396362304687500000
-0.12301225215196609497070312500000
0.34866547584533691406250000000000
-0.00052547821542248129844665527344
-0.14416368305683135986328125000000
0.15154121816158294677734375000000
0.20153102278709411621093750000000
0.24164962768554687500000000000000
-0.27541244029998779296875000000000
0.65252739191055297851562500000000
-0.42161500453948974609375000000000
-0.14167931675910949707031250000000
0.31491693854331970214843750000000
-0.63260215520858764648437500000000
-0.16370701789855957031250000000000
0.76700395345687866210937500000000
0.18005758523941040039062500000000
-0.06423578411340713500976562500000
0.09138135612010955810546875000000
-0.19946397840976715087890625000000
-0.11947968602180480957031250000000
0.13712102174758911132812500000000
-1.00470006465911865234375000000000
0.28532674908638000488281250000000
0.19953335821628570556640625000000
-0.22222697734832763671875000000000
0.06463128328323364257812500000000
-0.31565544009208679199218750000000
-0.06615083664655685424804687500000
0.15791362524032592773437500000000
-0.31728026270866394042968750000000
0.04359398782253265380859375000000
-0.12625148892402648925781250000000
-0.25400263071060180664062500000000
-0.00717045646160840988159179687500
-0.07380085438489913940429687500000
0.22805471718311309814453125000000
0.65177184343338012695312500000000
-0.28024789690971374511718750000000
0.06377791613340377807617187500000
-0.30751627683639526367187500000000
0.27016440033912658691406250000000
0.36023697257041931152343750000000
0.09980820864439010620117187500000
-0.00181198026984930038452148437500
-0.39828151464462280273437500000000
-0.09076062589883804321289062500000
0.70435774326324462890625000000000
0.41881209611892700195312500000000
0.36234548687934875488281250000000
-0.06160956993699073791503906250000
-0.26346054673194885253906250000000
0.10028254985809326171875000000000
-0.05587957799434661865234375000000
-1.37458610534667968750000000000000
0.69808483123779296875000000000000
0.60443979501724243164062500000000
0.32091167569160461425781250000000
-0.43265196681022644042968750000000
-0.92323857545852661132812500000000
0.05372171103954315185546875000000
-0.01204434875398874282836914062500
-0.96549141407012939453125000000000
-0.28133529424667358398437500000000
0.19313943386077880859375000000000
-0.05068816244602203369140625000000
0.28007438778877258300781250000000
0.50078928470611572265625000000000
0.54884040355682373046875000000000
-0.13248781859874725341796875000000
-0.22532194852828979492187500000000
-0.16218920052051544189453125000000
-0.34257465600967407226562500000000
0.14273796975612640380859375000000
-0.62756025791168212890625000000000
-0.10836599767208099365234375000000
0.02451416291296482086181640625000
-0.40663862228393554687500000000000
-0.10486175864934921264648437500000
0.14153578877449035644531250000000
0.11282074451446533203125000000000
0.26885551214218139648437500000000
-0.11010606586933135986328125000000
-0.58070915937423706054687500000000
0.79266697168350219726562500000000
0.04370687901973724365234375000000
0.08323966711759567260742187500000
-0.24284352362155914306640625000000
-0.26681700348854064941406250000000
0.58967310190200805664062500000000
0.39746910333633422851562500000000
-0.59457230567932128906250000000000
-0.27363154292106628417968750000000
-0.11265317350625991821289062500000
0.14343573153018951416015625000000
0.47286868095397949218750000000000
-0.37458193302154541015625000000000
-0.14199623465538024902343750000000
0.08804318308830261230468750000000
0.20414091646671295166015625000000
0.04062483087182044982910156250000
-0.05115598812699317932128906250000
0.56177842617034912109375000000000
0.28381791710853576660156250000000
-0.11572249233722686767578125000000
0.37491646409034729003906250000000
-0.43614044785499572753906250000000
-0.42501696944236755371093750000000
0.15252779424190521240234375000000
-0.33055812120437622070312500000000
0.17736047506332397460937500000000
-0.10344193130731582641601562500000
-0.57913792133331298828125000000000
0.28110978007316589355468750000000
0.32402187585830688476562500000000
-0.71297907829284667968750000000000
-0.27237239480018615722656250000000
0.22474490106105804443359375000000
0.04701687023043632507324218750000
0.29317501187324523925781250000000
0.13415020704269409179687500000000
0.13856224715709686279296875000000
0.43177631497383117675781250000000
-0.38408884406089782714843750000000
0.14402821660041809082031250000000
-0.13564664125442504882812500000000
0.49960479140281677246093750000000
0.14179207384586334228515625000000
-0.29744559526443481445312500000000
0.27137896418571472167968750000000
-0.02905341051518917083740234375000
0.22536586225032806396484375000000
0.75897359848022460937500000000000
0.02088629081845283508300781250000
0.61659610271453857421875000000000
-0.50834238529205322265625000000000
-0.11017640680074691772460937500000
0.27731922268867492675781250000000
-0.10594788938760757446289062500000
0.08832959085702896118164062500000
-0.25178331136703491210937500000000
-0.07149905711412429809570312500000
0.57767963409423828125000000000000
-1.05041062831878662109375000000000
0.31437194347381591796875000000000
0.08204732090234756469726562500000
-0.26770475506782531738281250000000
0.03360863402485847473144531250000
0.07247930020093917846679687500000
-0.20194999873638153076171875000000
-0.01757445372641086578369140625000
-0.00991092901676893234252929687500
0.22130192816257476806640625000000
-0.44501334428787231445312500000000
-0.63706529140472412109375000000000
0.20320877432823181152343750000000
0.21714386343955993652343750000000
-0.17688965797424316406250000000000
-0.06803309172391891479492187500000
-0.13102267682552337646484375000000
0.01915995590388774871826171875000
0.22748424112796783447265625000000
-0.68362343311309814453125000000000
0.57242214679718017578125000000000
0.29081723093986511230468750000000
0.05826316401362419128417968750000
-0.51489448547363281250000000000000
-0.31340116262435913085937500000000
0.68460077047348022460937500000000
0.45967623591423034667968750000000
-0.72538048028945922851562500000000
0.34985777735710144042968750000000
-0.52981168031692504882812500000000
0.37281513214111328125000000000000
0.25789457559585571289062500000000
-0.07791195809841156005859375000000
-0.15525677800178527832031250000000
0.05536917224526405334472656250000
0.27794590592384338378906250000000
-0.99357467889785766601562500000000
0.24970394372940063476562500000000
-0.13205696642398834228515625000000
0.34691926836967468261718750000000
-0.00071529654087498784065246582031
-0.03613965213298797607421875000000
0.01456548087298870086669921875000
-0.66130548715591430664062500000000
0.23725908994674682617187500000000
0.03153718262910842895507812500000
-0.10521739721298217773437500000000
-0.58066952228546142578125000000000
0.11147338896989822387695312500000
0.54706835746765136718750000000000
0.07045910507440567016601562500000
0.09006088972091674804687500000000
0.35159513354301452636718750000000
0.67157709598541259765625000000000
0.19483479857444763183593750000000
-0.13476848602294921875000000000000
-0.28064134716987609863281250000000
-0.83066493272781372070312500000000
0.14870986342430114746093750000000
0.16903844475746154785156250000000
0.11960858106613159179687500000000
-0.33718144893646240234375000000000
0.47290906310081481933593750000000
-0.83513808250427246093750000000000
-0.02826303616166114807128906250000
-0.43072327971458435058593750000000
0.24698458611965179443359375000000
0.43299680948257446289062500000000
-0.05449391528964042663574218750000
0.09450534731149673461914062500000
0.38595736026763916015625000000000
-0.11666834354400634765625000000000
-0.54698592424392700195312500000000
0.19346627593040466308593750000000
-0.07024384289979934692382812500000
-0.67454934120178222656250000000000
0.05197548866271972656250000000000
-0.64966332912445068359375000000000
0.39749902486801147460937500000000
0.18125542998313903808593750000000
0.13410864770412445068359375000000
-0.25294327735900878906250000000000
-0.34791597723960876464843750000000
0.01733807660639286041259765625000
0.19309395551681518554687500000000
0.06653476506471633911132812500000
0.19116455316543579101562500000000
-0.40546876192092895507812500000000
-0.31122490763664245605468750000000
-0.10215881466865539550781250000000
-0.16063937544822692871093750000000
0.86072456836700439453125000000000
-0.54318541288375854492187500000000
-0.24958150088787078857421875000000
-0.02626599185168743133544921875000
-0.73539048433303833007812500000000
0.36906456947326660156250000000000
0.09617570787668228149414062500000
-0.15898251533508300781250000000000
-0.13189470767974853515625000000000
0.42016050219535827636718750000000
0.62613004446029663085937500000000
0.47229686379432678222656250000000
0.16995050013065338134765625000000
0.05483739823102951049804687500000
0.34710204601287841796875000000000
-0.33506524562835693359375000000000
-0.22287267446517944335937500000000
-0.10971573740243911743164062500000
-0.05453348532319068908691406250000
0.18353420495986938476562500000000
-0.37983962893486022949218750000000
0.27121043205261230468750000000000
0.01406033802777528762817382812500
-0.23545666038990020751953125000000
-0.02768303640186786651611328125000
-0.08530782163143157958984375000000
-0.13468328118324279785156250000000
0.11676328629255294799804687500000
0.27584180235862731933593750000000
0.13522018492221832275390625000000
-0.21895702183246612548828125000000
-0.37426811456680297851562500000000
-0.01633605547249317169189453125000
-0.02277642861008644104003906250000
-0.02533134259283542633056640625000
-0.03981163352727890014648437500000
-0.10495773702859878540039062500000
-0.26513224840164184570312500000000
0.16699893772602081298828125000000
-0.09535484015941619873046875000000
0.15913873910903930664062500000000
0.13527040183544158935546875000000
0.05077292770147323608398437500000
-0.60284614562988281250000000000000
0.13794754445552825927734375000000
-0.02354102954268455505371093750000
0.08612243831157684326171875000000
-0.21539303660392761230468750000000
0.25826764106750488281250000000000
-0.38676619529724121093750000000000
0.19302907586097717285156250000000
0.26420053839683532714843750000000
0.05783133953809738159179687500000
0.00022153998725116252899169921875
-0.43710929155349731445312500000000
0.40701580047607421875000000000000
-0.32495653629302978515625000000000
-0.54904383420944213867187500000000
0.06865243613719940185546875000000
-0.19528757035732269287109375000000
0.26520070433616638183593750000000
-0.36340081691741943359375000000000
-0.44436830282211303710937500000000
-0.52851152420043945312500000000000
0.20878055691719055175781250000000
-0.57305002212524414062500000000000
-0.47118949890136718750000000000000
-0.45920044183731079101562500000000
0.10129525512456893920898437500000
-0.27278664708137512207031250000000
0.47746074199676513671875000000000
-0.25222635269165039062500000000000
-0.03938644006848335266113281250000
0.18055184185504913330078125000000
-0.75200653076171875000000000000000
-0.93757045269012451171875000000000
-0.12232157588005065917968750000000
-0.43390825390815734863281250000000
-0.05746599659323692321777343750000
-0.00529019907116889953613281250000
-0.42867213487625122070312500000000
-0.53858178853988647460937500000000
0.03716756403446197509765625000000
0.21840864419937133789062500000000
-0.20418907701969146728515625000000
-0.10041461139917373657226562500000
0.45856282114982604980468750000000
-0.12609626352787017822265625000000
-0.06116460636258125305175781250000
0.17046223580837249755859375000000
-0.55879557132720947265625000000000
-0.03168468922376632690429687500000
-0.06956980377435684204101562500000
-0.31409704685211181640625000000000
-0.41016229987144470214843750000000
-0.20153854787349700927734375000000
0.50590538978576660156250000000000
-0.69544714689254760742187500000000
-1.31046664714813232421875000000000
0.79787570238113403320312500000000
0.30221089720726013183593750000000
-0.08530453592538833618164062500000
-0.21911509335041046142578125000000
0.26024636626243591308593750000000
-0.21102614700794219970703125000000
-1.21156656742095947265625000000000
-0.60159349441528320312500000000000
0.51873153448104858398437500000000
-0.26231846213340759277343750000000
0.12740811705589294433593750000000
0.00731493672356009483337402343750
-0.35244655609130859375000000000000
0.68535286188125610351562500000000
-0.44663113355636596679687500000000
-0.35475605726242065429687500000000
0.51504063606262207031250000000000
0.15505951642990112304687500000000
0.28345197439193725585937500000000
-0.15117797255516052246093750000000
0.64160710573196411132812500000000
-0.10029538720846176147460937500000
0.28469535708427429199218750000000
-0.69013428688049316406250000000000
0.23340633511543273925781250000000
-0.08929143846035003662109375000000
-0.21429172158241271972656250000000
-0.02854293957352638244628906250000
0.00498006725683808326721191406250
0.10377483069896697998046875000000
-0.11574759334325790405273437500000
0.19926248490810394287109375000000
-0.05887030810117721557617187500000
0.15251605212688446044921875000000
-0.23500576615333557128906250000000
-0.00549442367628216743469238281250
0.01635011099278926849365234375000
0.55906748771667480468750000000000
-0.32002082467079162597656250000000
-0.49120619893074035644531250000000
0.03626687079668045043945312500000
-0.57484114170074462890625000000000
0.16092531383037567138671875000000
-0.30629673600196838378906250000000
-1.05570077896118164062500000000000
0.31291174888610839843750000000000
-0.21382710337638854980468750000000
0.58219474554061889648437500000000
0.07791722565889358520507812500000
0.02544520609080791473388671875000
0.01378458458930253982543945312500
0.37249022722244262695312500000000
-0.11739376187324523925781250000000
0.04332686215639114379882812500000
0.08119289577007293701171875000000
-0.12939895689487457275390625000000
-0.50921845436096191406250000000000
-0.53458797931671142578125000000000
0.24430346488952636718750000000000
-0.53704380989074707031250000000000
0.07377943396568298339843750000000
0.32870185375213623046875000000000
0.43794065713882446289062500000000
0.59424668550491333007812500000000
-0.09983500093221664428710937500000
0.12833473086357116699218750000000
0.06057086586952209472656250000000
0.54523152112960815429687500000000
-0.13604640960693359375000000000000
-0.07197447121143341064453125000000
0.37803262472152709960937500000000
0.05500866845250129699707031250000
0.25460958480834960937500000000000
-0.32233658432960510253906250000000
0.39506021142005920410156250000000
0.55830031633377075195312500000000
-0.21476919949054718017578125000000
0.14299488067626953125000000000000
0.71918761730194091796875000000000
-0.34932059049606323242187500000000
0.22164972126483917236328125000000
-0.10101404786109924316406250000000
-0.04287189617753028869628906250000
-0.11020293831825256347656250000000
0.20255139470100402832031250000000
-0.29373782873153686523437500000000
-0.18562681972980499267578125000000
0.09459301829338073730468750000000
0.30364128947257995605468750000000
-0.59788942337036132812500000000000
0.04707150161266326904296875000000
0.44312608242034912109375000000000
-0.09477105736732482910156250000000
-0.87955659627914428710937500000000
-0.12228423357009887695312500000000
0.05341637507081031799316406250000
-0.55181598663330078125000000000000
0.15896309912204742431640625000000
0.42029473185539245605468750000000
0.47306796908378601074218750000000
0.03326810151338577270507812500000
0.22375331819057464599609375000000
-0.58786219358444213867187500000000
0.17584851384162902832031250000000
0.38841921091079711914062500000000
-0.34941148757934570312500000000000
-0.03226773813366889953613281250000
-0.07317476719617843627929687500000
-0.11931259930133819580078125000000
-0.46532547473907470703125000000000
0.21442601084709167480468750000000
-0.06084650382399559020996093750000
0.29725313186645507812500000000000
-0.50385749340057373046875000000000
0.05662405863404273986816406250000
0.72931784391403198242187500000000
-0.14965210855007171630859375000000
0.20692001283168792724609375000000
0.62780117988586425781250000000000
0.31563976407051086425781250000000
0.60116952657699584960937500000000
-0.48968464136123657226562500000000
0.01010783016681671142578125000000
-1.00129425525665283203125000000000
-0.27164685726165771484375000000000
0.15965110063552856445312500000000
-0.10911865532398223876953125000000
-0.04452064633369445800781250000000
-0.12526655197143554687500000000000
-0.27092629671096801757812500000000
0.14999447762966156005859375000000
0.08006808161735534667968750000000
-0.24467551708221435546875000000000
-0.39320814609527587890625000000000
-0.04791561514139175415039062500000
0.15617996454238891601562500000000
0.59241265058517456054687500000000
-0.07463831454515457153320312500000
0.04972334951162338256835937500000
0.07393317669630050659179687500000
-0.24985533952713012695312500000000
-0.08605628460645675659179687500000
-0.09852100163698196411132812500000
-0.33758789300918579101562500000000
0.30127793550491333007812500000000
0.31408071517944335937500000000000
-0.15976484119892120361328125000000
0.00766448071226477622985839843750
-0.19267968833446502685546875000000
0.14025214314460754394531250000000
0.23158822953701019287109375000000
0.26184147596359252929687500000000
0.54072666168212890625000000000000
-0.28295284509658813476562500000000
-0.10406757146120071411132812500000
-0.47247833013534545898437500000000
-0.10487540811300277709960937500000
0.29094180464744567871093750000000
0.08300614356994628906250000000000
-0.17961229383945465087890625000000
-0.01231624744832515716552734375000
-0.06411349028348922729492187500000
0.42017188668251037597656250000000
0.27281019091606140136718750000000
-0.08228832483291625976562500000000
-0.49710103869438171386718750000000
0.12774477899074554443359375000000
0.45099291205406188964843750000000
0.14086961746215820312500000000000
0.15743803977966308593750000000000
-0.24973785877227783203125000000000
-0.13155107200145721435546875000000
0.01195420045405626296997070312500
-0.11166705191135406494140625000000
0.32290723919868469238281250000000
0.06900627911090850830078125000000
-0.20619404315948486328125000000000
0.06475502997636795043945312500000
-0.00260563241317868232727050781250
-0.15011940896511077880859375000000
0.27024143934249877929687500000000
-0.38923934102058410644531250000000
-0.82318890094757080078125000000000
0.04414674639701843261718750000000
-0.10645621269941329956054687500000
0.31430569291114807128906250000000
0.38820201158523559570312500000000
0.03176805004477500915527343750000
-0.10830043256282806396484375000000
0.08159929513931274414062500000000
0.08548596501350402832031250000000
-0.06892103701829910278320312500000
-0.23238699138164520263671875000000
0.06407909095287322998046875000000
0.16300484538078308105468750000000
-0.43470558524131774902343750000000
0.00367613323032855987548828125000
0.08354371786117553710937500000000
0.20989453792572021484375000000000
-0.17690351605415344238281250000000
-0.26495563983917236328125000000000
0.33473905920982360839843750000000
-0.15436933934688568115234375000000
-0.43818512558937072753906250000000
-0.04134736210107803344726562500000
0.03489422053098678588867187500000
-0.10812328010797500610351562500000
0.16407667100429534912109375000000
-0.18465103209018707275390625000000
0.55721497535705566406250000000000
-0.18717643618583679199218750000000
-0.08135161548852920532226562500000
0.26619577407836914062500000000000
-0.02574690245091915130615234375000
-0.20916435122489929199218750000000
-0.49595230817794799804687500000000
0.09074915200471878051757812500000
0.30438697338104248046875000000000
0.12049215286970138549804687500000
-0.18969108164310455322265625000000
0.14769375324249267578125000000000
0.59619706869125366210937500000000
-0.04908839985728263854980468750000
-0.44783201813697814941406250000000
0.11373735219240188598632812500000
-0.22516107559204101562500000000000
0.22718474268913269042968750000000
0.43484485149383544921875000000000
-0.03161890059709548950195312500000
0.08479441702365875244140625000000
-0.30423155426979064941406250000000
-1.00658440589904785156250000000000
0.28864768147468566894531250000000
0.08697617053985595703125000000000
-0.24500566720962524414062500000000
-0.40491098165512084960937500000000
-0.02094463817775249481201171875000
0.16840478777885437011718750000000
-0.55199563503265380859375000000000
0.07005464285612106323242187500000
-0.11819311976432800292968750000000
-0.03087937086820602416992187500000
-0.32579767704010009765625000000000
0.28582087159156799316406250000000
0.05933701619505882263183593750000
-0.19522069394588470458984375000000
-0.30406421422958374023437500000000
-0.34119293093681335449218750000000
0.08596757799386978149414062500000
-0.01941826753318309783935546875000
0.21821281313896179199218750000000
0.39636912941932678222656250000000
0.09421006590127944946289062500000
0.07298284769058227539062500000000
0.30470585823059082031250000000000
-0.43098521232604980468750000000000
0.73893839120864868164062500000000
-0.37624987959861755371093750000000
-0.28905275464057922363281250000000
-0.26072955131530761718750000000000
0.05861453711986541748046875000000
0.18150740861892700195312500000000
-0.55027627944946289062500000000000
-0.41708832979202270507812500000000
0.13674615323543548583984375000000
-0.05000881105661392211914062500000
-0.41872161626815795898437500000000
-0.27008882164955139160156250000000
0.21028549969196319580078125000000
0.37554594874382019042968750000000
-0.15920755267143249511718750000000
-0.59014600515365600585937500000000
0.55274444818496704101562500000000
0.41299280524253845214843750000000
-0.06018850579857826232910156250000
-0.62236493825912475585937500000000
-0.56695646047592163085937500000000
-0.09500338137149810791015625000000
0.23820361495018005371093750000000
0.39215230941772460937500000000000
0.32240062952041625976562500000000
0.59154969453811645507812500000000
-0.36125585436820983886718750000000
0.42410176992416381835937500000000
-0.34137162566184997558593750000000
-0.26155579090118408203125000000000
-0.25160342454910278320312500000000
-0.30291268229484558105468750000000
-0.10619070380926132202148437500000
0.08640088886022567749023437500000
-0.41776236891746520996093750000000
0.27756458520889282226562500000000
-0.15318405628204345703125000000000
0.82837319374084472656250000000000
-0.60333555936813354492187500000000
0.15086613595485687255859375000000
-0.54986369609832763671875000000000
-0.46793207526206970214843750000000
0.31310591101646423339843750000000
-0.56502282619476318359375000000000
-0.44278723001480102539062500000000
-0.10101846605539321899414062500000
0.29985263943672180175781250000000
0.23628337681293487548828125000000
-0.33902350068092346191406250000000
-0.11059634387493133544921875000000
-0.46183243393898010253906250000000
0.28454226255416870117187500000000
0.49635198712348937988281250000000
-0.11376598477363586425781250000000
-0.17875172197818756103515625000000
-0.44654029607772827148437500000000
-0.70256710052490234375000000000000
-0.08839664608240127563476562500000
-0.23236829042434692382812500000000
-0.23937320709228515625000000000000
-0.42330878973007202148437500000000
0.15267567336559295654296875000000
0.02627576887607574462890625000000
-0.52772015333175659179687500000000
0.45123168826103210449218750000000
-0.33597195148468017578125000000000
0.05753727257251739501953125000000
0.39824515581130981445312500000000
0.26330435276031494140625000000000
0.11854562163352966308593750000000
-0.59339857101440429687500000000000
0.15801447629928588867187500000000
0.32822403311729431152343750000000
-0.17603038251399993896484375000000
0.25895965099334716796875000000000
0.12209454923868179321289062500000
0.01000210549682378768920898437500
0.22591114044189453125000000000000
0.36567330360412597656250000000000
-0.15359011292457580566406250000000
-0.14665979146957397460937500000000
0.05731870234012603759765625000000
0.19551610946655273437500000000000
0.01968004927039146423339843750000
0.35875368118286132812500000000000
0.07524535059928894042968750000000
0.01434862241148948669433593750000
-0.04800185561180114746093750000000
0.19642543792724609375000000000000
0.03280078992247581481933593750000
0.44105237722396850585937500000000
0.31417164206504821777343750000000
-0.34841078519821166992187500000000
-0.26116889715194702148437500000000
0.04267163574695587158203125000000
0.10785198211669921875000000000000
0.11387760937213897705078125000000
0.09139043092727661132812500000000
-0.09806576371192932128906250000000
0.03490506857633590698242187500000
0.04460427910089492797851562500000
0.01019904389977455139160156250000
-0.08057611435651779174804687500000
0.16748121380805969238281250000000
0.45581027865409851074218750000000
-0.21262682974338531494140625000000
0.21566830575466156005859375000000
0.14779391884803771972656250000000
0.23275296390056610107421875000000
-0.22748050093650817871093750000000
0.28895869851112365722656250000000
0.20300622284412384033203125000000
-0.00415111053735017776489257812500
-0.11394392699003219604492187500000
0.12767381966114044189453125000000
-0.12912188470363616943359375000000
0.14895163476467132568359375000000
0.20744977891445159912109375000000
0.14834025502204895019531250000000
-0.17279684543609619140625000000000
0.17801386117935180664062500000000
-0.52800148725509643554687500000000
0.17491747438907623291015625000000
0.09104493260383605957031250000000
-0.14560891687870025634765625000000
0.01225168071687221527099609375000
0.22092220187187194824218750000000
0.04422710463404655456542968750000
-0.32305413484573364257812500000000
0.16420781612396240234375000000000
-0.13308767974376678466796875000000
-0.09294034540653228759765625000000
-0.22979539632797241210937500000000
-0.92552459239959716796875000000000
-0.20903888344764709472656250000000
0.21446755528450012207031250000000
0.25298255681991577148437500000000
-0.07508991658687591552734375000000
0.15626798570156097412109375000000
0.21033291518688201904296875000000
0.49455454945564270019531250000000
-0.32205072045326232910156250000000
0.04909028485417366027832031250000
0.33111611008644104003906250000000
0.10711544007062911987304687500000
0.06969051808118820190429687500000
0.18845717608928680419921875000000
-1.03707563877105712890625000000000
0.16491265594959259033203125000000
-0.17530980706214904785156250000000
0.01251385454088449478149414062500
-0.02596370689570903778076171875000
0.25038903951644897460937500000000
-0.21798054873943328857421875000000
0.12150309979915618896484375000000
-0.29728072881698608398437500000000
-0.21107524633407592773437500000000
-0.30175435543060302734375000000000
0.13098746538162231445312500000000
-0.02380832284688949584960937500000
-0.20826008915901184082031250000000
0.23300975561141967773437500000000
-0.03502129763364791870117187500000
-0.15138533711433410644531250000000
0.18399265408515930175781250000000
-1.40325963497161865234375000000000
-0.22792203724384307861328125000000
-0.16541032493114471435546875000000
0.29178279638290405273437500000000
0.06667234003543853759765625000000
0.15345588326454162597656250000000
0.09736688435077667236328125000000
0.24960795044898986816406250000000
-0.15698738396167755126953125000000
-0.12144332379102706909179687500000
0.14007797837257385253906250000000
0.32134252786636352539062500000000
0.38802289962768554687500000000000
0.11105851083993911743164062500000
-0.63733518123626708984375000000000
0.15643483400344848632812500000000
-0.08304526656866073608398437500000
0.04371265321969985961914062500000
-0.01943505741655826568603515625000
0.15635456144809722900390625000000
-0.09883416444063186645507812500000
0.10171426832675933837890625000000
-0.18759919703006744384765625000000
-0.04154488444328308105468750000000
-0.00844275951385498046875000000000
0.07174658775329589843750000000000
-0.23505003750324249267578125000000
-0.01570448651909828186035156250000
0.32536220550537109375000000000000
-0.19504103064537048339843750000000
0.01133302785456180572509765625000
0.08233804255723953247070312500000
-0.57636368274688720703125000000000
-0.23219323158264160156250000000000
-0.57705283164978027343750000000000
0.43593633174896240234375000000000
0.31978851556777954101562500000000
0.36383882164955139160156250000000
0.25898858904838562011718750000000
0.11329026520252227783203125000000
0.66459518671035766601562500000000
0.13488219678401947021484375000000
0.18636260926723480224609375000000
0.15339954197406768798828125000000
0.48524931073188781738281250000000
-0.05363808572292327880859375000000
0.05682447180151939392089843750000
0.22964286804199218750000000000000
0.21975524723529815673828125000000
-0.49489694833755493164062500000000
-0.17158505320549011230468750000000
0.09181578457355499267578125000000
0.32379204034805297851562500000000
0.35515353083610534667968750000000
0.30576053261756896972656250000000
-0.01288659777492284774780273437500
0.12978455424308776855468750000000
0.32192590832710266113281250000000
0.13980761170387268066406250000000
0.58643776178359985351562500000000
0.04851774498820304870605468750000
-0.15463703870773315429687500000000
-0.31472927331924438476562500000000
0.25164908170700073242187500000000
0.30028250813484191894531250000000
-0.00135285174474120140075683593750
-0.15437580645084381103515625000000
0.26348292827606201171875000000000
0.00958593469113111495971679687500
0.11430325359106063842773437500000
0.06547057628631591796875000000000
0.31582233309745788574218750000000
0.60183149576187133789062500000000
-0.28538793325424194335937500000000
-0.31797513365745544433593750000000
-0.23211756348609924316406250000000
0.40249809622764587402343750000000
-0.15702717006206512451171875000000
0.02038069628179073333740234375000
-0.61866027116775512695312500000000
0.15347777307033538818359375000000
-0.15621955692768096923828125000000
0.06813442707061767578125000000000
-0.00772633822634816169738769531250
0.21824878454208374023437500000000
-0.08483901619911193847656250000000
0.47558653354644775390625000000000
-0.03936006873846054077148437500000
0.55529987812042236328125000000000
0.15622037649154663085937500000000
-0.09744832664728164672851562500000
0.39825028181076049804687500000000
0.11574886739253997802734375000000
-0.05880102142691612243652343750000
0.41299590468406677246093750000000
0.32796597480773925781250000000000
0.65611594915390014648437500000000
-0.61549878120422363281250000000000
-0.21020911633968353271484375000000
0.74573636054992675781250000000000
-0.02998565696179866790771484375000
0.13637673854827880859375000000000
1.04678809642791748046875000000000
0.15300072729587554931640625000000
0.37786009907722473144531250000000
-0.58548671007156372070312500000000
0.10532537102699279785156250000000
-0.27211153507232666015625000000000
0.65766561031341552734375000000000
0.31880301237106323242187500000000
0.16054287552833557128906250000000
-0.41036644577980041503906250000000
0.43883013725280761718750000000000
0.14406350255012512207031250000000
-0.14324690401554107666015625000000
0.13633957505226135253906250000000
0.22449524700641632080078125000000
0.56298130750656127929687500000000
0.38335135579109191894531250000000
0.13362570106983184814453125000000
-0.23048502206802368164062500000000
0.59849828481674194335937500000000
0.62140715122222900390625000000000
-0.14030531048774719238281250000000
0.50931608676910400390625000000000
-0.11782770603895187377929687500000
0.37511965632438659667968750000000
-0.54306989908218383789062500000000
0.06322974711656570434570312500000
0.17279723286628723144531250000000
-0.36376768350601196289062500000000
-0.91236811876296997070312500000000
-0.42868807911872863769531250000000
-0.19022876024246215820312500000000
-0.85565984249114990234375000000000
-0.25674352049827575683593750000000
0.00221409928053617477416992187500
0.34192821383476257324218750000000
-0.42840749025344848632812500000000
-0.71625483036041259765625000000000
0.12123550474643707275390625000000
-0.38407513499259948730468750000000
-0.62922203540802001953125000000000
0.20068991184234619140625000000000
-0.13702797889709472656250000000000
-0.78998923301696777343750000000000
0.17158296704292297363281250000000
-0.85288357734680175781250000000000
0.58567059040069580078125000000000
-0.55880969762802124023437500000000
-0.36629563570022583007812500000000
-0.49435549974441528320312500000000
0.51866614818572998046875000000000
-0.32069686055183410644531250000000
0.13913999497890472412109375000000
-0.43437084555625915527343750000000
-0.40614223480224609375000000000000
0.63068217039108276367187500000000
0.65280854701995849609375000000000
-0.46889230608940124511718750000000
0.24457721412181854248046875000000
-0.07229330390691757202148437500000
0.40369406342506408691406250000000
0.47373417019844055175781250000000
-0.89139372110366821289062500000000
-0.57593607902526855468750000000000
-0.39500668644905090332031250000000
-0.53363001346588134765625000000000
0.42202746868133544921875000000000
0.19830501079559326171875000000000
0.77763855457305908203125000000000
0.38966247439384460449218750000000
-0.02959756180644035339355468750000
-0.06424075365066528320312500000000
-0.58841097354888916015625000000000
-0.38518649339675903320312500000000
-0.73541063070297241210937500000000
-0.38130342960357666015625000000000
0.21413180232048034667968750000000
1.45582389831542968750000000000000
0.48903566598892211914062500000000
0.06200431287288665771484375000000
-0.14709194004535675048828125000000
0.25875923037528991699218750000000
-0.14791341125965118408203125000000
-0.10465797781944274902343750000000
0.47258752584457397460937500000000
-0.07478193193674087524414062500000
0.71684670448303222656250000000000
-0.69829446077346801757812500000000
0.37074923515319824218750000000000
-0.51244843006134033203125000000000
0.42016142606735229492187500000000
-0.11297743022441864013671875000000
-0.10801014304161071777343750000000
0.34170380234718322753906250000000
-0.36843439936637878417968750000000
0.26343008875846862792968750000000
0.32516515254974365234375000000000
0.26354816555976867675781250000000
0.18549147248268127441406250000000
0.12485213577747344970703125000000
-0.26970750093460083007812500000000
0.41875171661376953125000000000000
0.21418757736682891845703125000000
0.41369295120239257812500000000000
-0.06620917469263076782226562500000
-0.01835696958005428314208984375000
-0.15887352824211120605468750000000
0.28474983572959899902343750000000
-0.04737437143921852111816406250000
0.12310378998517990112304687500000
0.27736106514930725097656250000000
0.38264435529708862304687500000000
0.55422806739807128906250000000000
-0.52992278337478637695312500000000
-0.48723682761192321777343750000000
0.11925791203975677490234375000000
-0.05058655142784118652343750000000
0.09192241728305816650390625000000
0.56978046894073486328125000000000
-0.66005498170852661132812500000000
0.06650689244270324707031250000000
-0.41584563255310058593750000000000
0.79489427804946899414062500000000
0.07658855617046356201171875000000
-0.45812085270881652832031250000000
0.63029015064239501953125000000000
-0.42285194993019104003906250000000
0.00882163271307945251464843750000
0.61986023187637329101562500000000
0.58055359125137329101562500000000
-0.33902513980865478515625000000000
-0.03924535959959030151367187500000
-0.36557886004447937011718750000000
0.04818616062402725219726562500000
0.12124837189912796020507812500000
0.32260963320732116699218750000000
-0.03352590277791023254394531250000
0.42243537306785583496093750000000
0.24831148982048034667968750000000
-0.03091828152537345886230468750000
0.02256055362522602081298828125000
-0.05168208852410316467285156250000
0.20335404574871063232421875000000
0.62044870853424072265625000000000
0.23429824411869049072265625000000
-0.11633738130331039428710937500000
-0.21469315886497497558593750000000
-0.02158429846167564392089843750000
-0.09010234475135803222656250000000
-0.42598912119865417480468750000000
0.50095200538635253906250000000000
-0.86608505249023437500000000000000
-0.05162194743752479553222656250000
-0.59731805324554443359375000000000
0.57410091161727905273437500000000
0.03769776225090026855468750000000
-0.09680272638797760009765625000000
-0.42669886350631713867187500000000
-0.54689186811447143554687500000000
0.25000205636024475097656250000000
0.44577008485794067382812500000000
0.28859671950340270996093750000000
0.05630523711442947387695312500000
-0.40370705723762512207031250000000
-0.07671613246202468872070312500000
-0.11293940991163253784179687500000
0.06156598776578903198242187500000
-0.22756572067737579345703125000000
0.00705117173492908477783203125000
0.28879070281982421875000000000000
0.32522088289260864257812500000000
-0.26141226291656494140625000000000
0.45151263475418090820312500000000
0.16976131498813629150390625000000
-0.16174905002117156982421875000000
0.19704562425613403320312500000000
-0.11999241262674331665039062500000
0.07935058325529098510742187500000
-0.44596627354621887207031250000000
0.40518242120742797851562500000000
0.14349704980850219726562500000000
-0.09640648961067199707031250000000
0.24005505442619323730468750000000
-0.70256680250167846679687500000000
-0.49456045031547546386718750000000
-0.12078203260898590087890625000000
0.20952972769737243652343750000000
-0.03540685400366783142089843750000
0.37506684660911560058593750000000
-0.18125616014003753662109375000000
-0.15095782279968261718750000000000
0.37486466765403747558593750000000
0.29301941394805908203125000000000
-0.13565912842750549316406250000000
0.01868922822177410125732421875000
-0.47441110014915466308593750000000
0.11424731463193893432617187500000
-0.43451294302940368652343750000000
0.04655474424362182617187500000000
0.21042929589748382568359375000000
0.30306607484817504882812500000000
-0.64691388607025146484375000000000
0.27960678935050964355468750000000
0.31034168601036071777343750000000
0.98730856180191040039062500000000
-0.35280108451843261718750000000000
-0.52777630090713500976562500000000
0.07110609859228134155273437500000
-0.20307771861553192138671875000000
0.24698805809020996093750000000000
0.33427947759628295898437500000000
0.07114724814891815185546875000000
-0.54581272602081298828125000000000
-0.17487880587577819824218750000000
0.28898373246192932128906250000000
-0.44704341888427734375000000000000
0.34100279211997985839843750000000
0.34821975231170654296875000000000
-0.19792436063289642333984375000000
-0.06792262941598892211914062500000
0.44182732701301574707031250000000
0.03334810584783554077148437500000
0.13387721776962280273437500000000
0.36977124214172363281250000000000
-0.17337951064109802246093750000000
0.14603511989116668701171875000000
-0.01397209055721759796142578125000
-0.33852475881576538085937500000000
0.06276132166385650634765625000000
0.04252891987562179565429687500000
-0.00496039958670735359191894531250
0.32352513074874877929687500000000
0.41125923395156860351562500000000
0.01216440740972757339477539062500
0.09955637156963348388671875000000
-0.15729935467243194580078125000000
0.22596900165081024169921875000000
0.11544846743345260620117187500000
-0.03592241555452346801757812500000
0.12339750677347183227539062500000
0.23570190370082855224609375000000
-0.00577873457223176956176757812500
-0.04238796979188919067382812500000
0.25139185786247253417968750000000
-0.37333813309669494628906250000000
0.29648047685623168945312500000000
-0.15109682083129882812500000000000
-0.15570536255836486816406250000000
-0.39766752719879150390625000000000
0.51901131868362426757812500000000
-0.11210964620113372802734375000000
-0.00603180192410945892333984375000
0.26998433470726013183593750000000
-0.68521767854690551757812500000000
0.19868429005146026611328125000000
0.01653811335563659667968750000000
-1.18023490905761718750000000000000
0.02617754042148590087890625000000
-0.49030706286430358886718750000000
0.34516277909278869628906250000000
0.11458715796470642089843750000000
-0.03581355139613151550292968750000
-0.45814579725265502929687500000000
-0.45930045843124389648437500000000
-0.64043700695037841796875000000000
-0.50604766607284545898437500000000
-0.09627921879291534423828125000000
0.74330258369445800781250000000000
-0.31743884086608886718750000000000
0.21084220707416534423828125000000
0.84344816207885742187500000000000
-0.72452723979949951171875000000000
-0.66603893041610717773437500000000
-0.25118666887283325195312500000000
0.37968525290489196777343750000000
-0.45551130175590515136718750000000
0.27031487226486206054687500000000
-1.07825613021850585937500000000000
-0.39742502570152282714843750000000
0.62055885791778564453125000000000
0.27467569708824157714843750000000
-0.40156632661819458007812500000000
0.25758510828018188476562500000000
0.42296901345252990722656250000000
-0.74259048700332641601562500000000
