-0.18251588940620422363281250000000
-0.48388874530792236328125000000000
0.11716222763061523437500000000000
0.33069694042205810546875000000000
-0.31810775399208068847656250000000
0.07408361881971359252929687500000
-0.13594861328601837158203125000000
-0.38832697272300720214843750000000
0.32719793915748596191406250000000
-0.17288795113563537597656250000000
-0.32011991739273071289062500000000
-0.15865324437618255615234375000000
-0.08445630222558975219726562500000
0.67450052499771118164062500000000
-0.23584584891796112060546875000000
-0.20419365167617797851562500000000
-0.00793759897351264953613281250000
-0.62221580743789672851562500000000
-0.34502720832824707031250000000000
0.15397088229656219482421875000000
0.12572696805000305175781250000000
-0.04436761885881423950195312500000
0.04068415611982345581054687500000
0.01046563871204853057861328125000
-0.21033819019794464111328125000000
-0.39007294178009033203125000000000
0.41439637541770935058593750000000
-0.32019546627998352050781250000000
-0.63173079490661621093750000000000
-0.03328091651201248168945312500000
-0.20974108576774597167968750000000
-0.45685112476348876953125000000000
-0.48263800144195556640625000000000
-0.55577164888381958007812500000000
0.23358768224716186523437500000000
-0.00655267341062426567077636718750
0.02417637221515178680419921875000
0.00944549962878227233886718750000
0.46410831809043884277343750000000
-0.04803048074245452880859375000000
0.17894485592842102050781250000000
0.24756149947643280029296875000000
0.34134572744369506835937500000000
0.29218193888664245605468750000000
0.14938530325889587402343750000000
0.38177725672721862792968750000000
-0.12695251405239105224609375000000
0.15995198488235473632812500000000
-0.15967577695846557617187500000000
-0.18535251915454864501953125000000
0.37202143669128417968750000000000
-0.71324449777603149414062500000000
-0.10210137069225311279296875000000
0.14362925291061401367187500000000
-0.23433753848075866699218750000000
0.02250657044351100921630859375000
0.16492693126201629638671875000000
-0.16290137171745300292968750000000
0.09063159674406051635742187500000
-0.24355132877826690673828125000000
0.47290620207786560058593750000000
-0.43752536177635192871093750000000
-0.82151538133621215820312500000000
-0.25687515735626220703125000000000
-0.91480767726898193359375000000000
-0.51354855298995971679687500000000
0.60064214468002319335937500000000
0.22601430118083953857421875000000
0.05014118179678916931152343750000
0.33710670471191406250000000000000
0.11718192696571350097656250000000
0.08663032203912734985351562500000
-0.34470584988594055175781250000000
-0.13114625215530395507812500000000
0.04683225601911544799804687500000
0.71465623378753662109375000000000
-0.16131998598575592041015625000000
0.04226998239755630493164062500000
0.05517782643437385559082031250000
0.11444392800331115722656250000000
-0.71937441825866699218750000000000
-0.67228102684020996093750000000000
-0.64590471982955932617187500000000
0.56031095981597900390625000000000
-0.24819207191467285156250000000000
0.29537010192871093750000000000000
-0.13717971742153167724609375000000
-0.42795115709304809570312500000000
0.73272478580474853515625000000000
-0.33222147822380065917968750000000
0.11873972415924072265625000000000
-0.14982189238071441650390625000000
0.82107514142990112304687500000000
-0.84280526638031005859375000000000
-0.65810811519622802734375000000000
-0.45296719670295715332031250000000
-0.02715762518346309661865234375000
-0.45960143208503723144531250000000
0.32536593079566955566406250000000
0.16047233343124389648437500000000
-0.18842491507530212402343750000000
-0.20770417153835296630859375000000
0.69358527660369873046875000000000
-0.08156011253595352172851562500000
-0.35062700510025024414062500000000
-0.12532587349414825439453125000000
-0.86093664169311523437500000000000
0.83773738145828247070312500000000
-0.00907132588326930999755859375000
0.26773560047149658203125000000000
-0.35449185967445373535156250000000
-0.19451718032360076904296875000000
-0.72626900672912597656250000000000
-0.95650327205657958984375000000000
-0.54026281833648681640625000000000
0.30019608139991760253906250000000
-0.41819441318511962890625000000000
0.28073278069496154785156250000000
0.87340241670608520507812500000000
0.04084912315011024475097656250000
-0.21262685954570770263671875000000
-0.05841620266437530517578125000000
-0.09032098203897476196289062500000
0.40774080157279968261718750000000
-0.45742359757423400878906250000000
-0.20820449292659759521484375000000
-0.10280634462833404541015625000000
-0.11047464609146118164062500000000
-0.54849624633789062500000000000000
-0.33323958516120910644531250000000
0.46938243508338928222656250000000
-0.24299649894237518310546875000000
0.39412486553192138671875000000000
0.50769680738449096679687500000000
-0.41975197196006774902343750000000
-0.15809871256351470947265625000000
0.53218203783035278320312500000000
0.52415680885314941406250000000000
0.24744199216365814208984375000000
-0.74017697572708129882812500000000
0.10410922765731811523437500000000
0.14613741636276245117187500000000
-0.28630265593528747558593750000000
-0.18757343292236328125000000000000
0.41571980714797973632812500000000
0.42881563305854797363281250000000
0.53887599706649780273437500000000
-0.90729779005050659179687500000000
-1.02658081054687500000000000000000
0.01600548066198825836181640625000
-0.38587173819541931152343750000000
0.13400225341320037841796875000000
-0.31521308422088623046875000000000
0.32548171281814575195312500000000
0.64782619476318359375000000000000
0.25591143965721130371093750000000
-0.68147009611129760742187500000000
0.67305457592010498046875000000000
0.85716968774795532226562500000000
-0.21061685681343078613281250000000
-0.19560024142265319824218750000000
-0.38117954134941101074218750000000
0.30562290549278259277343750000000
0.14204756915569305419921875000000
0.11192236840724945068359375000000
0.32435515522956848144531250000000
0.26976138353347778320312500000000
-0.47244125604629516601562500000000
0.64563238620758056640625000000000
0.20065040886402130126953125000000
0.24445240199565887451171875000000
0.01947883330285549163818359375000
0.12857623398303985595703125000000
0.61515438556671142578125000000000
-0.72197872400283813476562500000000
-0.06181313097476959228515625000000
-0.26539674401283264160156250000000
-0.26983216404914855957031250000000
0.72324711084365844726562500000000
0.14541280269622802734375000000000
-0.41966944932937622070312500000000
0.13733811676502227783203125000000
-0.21114760637283325195312500000000
-0.18871526420116424560546875000000
0.36024165153503417968750000000000
0.09507610648870468139648437500000
-0.09505032747983932495117187500000
-0.90204215049743652343750000000000
0.20481526851654052734375000000000
0.30918386578559875488281250000000
0.04042745009064674377441406250000
-0.41630145907402038574218750000000
-0.36042594909667968750000000000000
-0.73544919490814208984375000000000
0.51314896345138549804687500000000
-0.08170983195304870605468750000000
0.55179882049560546875000000000000
0.68632280826568603515625000000000
-0.10904782265424728393554687500000
0.13005784153938293457031250000000
-0.12964555621147155761718750000000
0.30668228864669799804687500000000
0.02465564385056495666503906250000
0.05794258788228034973144531250000
-0.13341331481933593750000000000000
0.75128281116485595703125000000000
-0.46235582232475280761718750000000
0.07939551770687103271484375000000
0.36606708168983459472656250000000
-0.02169517241418361663818359375000
0.54215157032012939453125000000000
0.14002409577369689941406250000000
-1.02059924602508544921875000000000
0.06637483835220336914062500000000
0.32648792862892150878906250000000
-0.04592425748705863952636718750000
0.01341565325856208801269531250000
0.25123348832130432128906250000000
-0.20401586592197418212890625000000
-0.33995690941810607910156250000000
0.27279049158096313476562500000000
0.31163984537124633789062500000000
0.03863975405693054199218750000000
-0.65877211093902587890625000000000
0.54263281822204589843750000000000
0.24388645589351654052734375000000
0.50734317302703857421875000000000
0.20628872513771057128906250000000
0.25857517123222351074218750000000
0.14424951374530792236328125000000
-0.30513659119606018066406250000000
0.24421715736389160156250000000000
0.13919591903686523437500000000000
0.94343322515487670898437500000000
-0.53370553255081176757812500000000
0.32543405890464782714843750000000
0.14342029392719268798828125000000
-0.49086710810661315917968750000000
-0.62653082609176635742187500000000
0.00624589202925562858581542968750
-0.13934649527072906494140625000000
-0.36738923192024230957031250000000
-0.55529463291168212890625000000000
0.16251175105571746826171875000000
-0.51385360956192016601562500000000
0.67960149049758911132812500000000
0.45101162791252136230468750000000
-0.58155161142349243164062500000000
-0.18985375761985778808593750000000
1.12019932270050048828125000000000
-0.66525578498840332031250000000000
0.34824657440185546875000000000000
0.06095157936215400695800781250000
-0.13449287414550781250000000000000
-0.32094258069992065429687500000000
-0.40720963478088378906250000000000
0.04087474197149276733398437500000
-0.38485381007194519042968750000000
0.56343275308609008789062500000000
-0.11305838823318481445312500000000
0.90884989500045776367187500000000
0.07975266873836517333984375000000
-0.31975823640823364257812500000000
0.45372945070266723632812500000000
-0.11700082570314407348632812500000
-0.25978511571884155273437500000000
-0.54700517654418945312500000000000
-0.09302479773759841918945312500000
-0.32642903923988342285156250000000
0.05190118774771690368652343750000
-0.47964993119239807128906250000000
0.40537664294242858886718750000000
-0.75124251842498779296875000000000
-0.48550990223884582519531250000000
-0.43257403373718261718750000000000
-0.05516428127884864807128906250000
0.33984449505805969238281250000000
-0.88048303127288818359375000000000
-0.97150021791458129882812500000000
0.67159587144851684570312500000000
1.72538995742797851562500000000000
-0.65698319673538208007812500000000
0.33700200915336608886718750000000
-0.32201039791107177734375000000000
-0.37792685627937316894531250000000
-0.20136919617652893066406250000000
-0.27846309542655944824218750000000
1.06813359260559082031250000000000
0.26504147052764892578125000000000
-0.40857458114624023437500000000000
0.79004001617431640625000000000000
0.54906672239303588867187500000000
-0.15226918458938598632812500000000
1.13447952270507812500000000000000
-0.76499539613723754882812500000000
0.79467147588729858398437500000000
-0.57736331224441528320312500000000
0.49416369199752807617187500000000
0.71883404254913330078125000000000
-0.07856563478708267211914062500000
-0.21272024512290954589843750000000
0.05839827284216880798339843750000
-0.07835578918457031250000000000000
0.57980954647064208984375000000000
-0.04811772704124450683593750000000
-0.16910928487777709960937500000000
-0.12970258295536041259765625000000
-0.29057705402374267578125000000000
-0.21080543100833892822265625000000
0.26976260542869567871093750000000
-0.30826443433761596679687500000000
0.70295357704162597656250000000000
-0.02942358702421188354492187500000
-0.11527393013238906860351562500000
0.27885559201240539550781250000000
0.11658164858818054199218750000000
0.13683691620826721191406250000000
-0.21785807609558105468750000000000
-0.44401782751083374023437500000000
-0.00052738381782546639442443847656
-0.71959567070007324218750000000000
-0.28105047345161437988281250000000
-0.54239386320114135742187500000000
-1.31976962089538574218750000000000
0.89997404813766479492187500000000
-0.44738554954528808593750000000000
0.79688686132431030273437500000000
0.09265338629484176635742187500000
-0.04850809648633003234863281250000
0.43890449404716491699218750000000
-0.02348783239722251892089843750000
-0.42283323407173156738281250000000
1.06762564182281494140625000000000
0.43200311064720153808593750000000
-0.57117444276809692382812500000000
-1.04188156127929687500000000000000
-0.41519191861152648925781250000000
-0.40646675229072570800781250000000
0.27027347683906555175781250000000
0.14472171664237976074218750000000
0.40110886096954345703125000000000
-0.06510648131370544433593750000000
0.25145792961120605468750000000000
0.46608826518058776855468750000000
0.05538062751293182373046875000000
-0.62024945020675659179687500000000
0.04098187014460563659667968750000
0.20150995254516601562500000000000
-0.29109779000282287597656250000000
-0.05999758094549179077148437500000
0.06062342971563339233398437500000
-0.06139917671680450439453125000000
-0.27113035321235656738281250000000
-0.29871979355812072753906250000000
0.47224047780036926269531250000000
0.16092692315578460693359375000000
0.03899648785591125488281250000000
0.28611096739768981933593750000000
-0.01061757281422615051269531250000
-0.32062602043151855468750000000000
0.06664240360260009765625000000000
-0.02773312292993068695068359375000
0.00932038016617298126220703125000
-0.09359938651323318481445312500000
-0.10187109559774398803710937500000
0.29573431611061096191406250000000
0.06202990189194679260253906250000
-0.01473795063793659210205078125000
0.52837586402893066406250000000000
0.25624617934226989746093750000000
0.02126540802419185638427734375000
-0.04970087483525276184082031250000
0.38863149285316467285156250000000
-0.00953270401805639266967773437500
-0.93057417869567871093750000000000
-0.00613201502710580825805664062500
0.51900500059127807617187500000000
-0.64913237094879150390625000000000
-0.19899658858776092529296875000000
-0.19617255032062530517578125000000
-0.18673622608184814453125000000000
0.30857467651367187500000000000000
0.58972090482711791992187500000000
-0.42909124493598937988281250000000
-0.12080689519643783569335937500000
-0.38039317727088928222656250000000
0.49010801315307617187500000000000
-0.55855554342269897460937500000000
0.23447132110595703125000000000000
-0.72620540857315063476562500000000
-0.10947634279727935791015625000000
-0.70830088853836059570312500000000
0.51677745580673217773437500000000
0.64794862270355224609375000000000
-0.94561219215393066406250000000000
-0.11146929115056991577148437500000
-0.42174229025840759277343750000000
0.00457025598734617233276367187500
-0.74523371458053588867187500000000
0.61237752437591552734375000000000
-0.09484314918518066406250000000000
0.34236147999763488769531250000000
0.42109876871109008789062500000000
-0.46293845772743225097656250000000
-0.22240601480007171630859375000000
-0.20135715603828430175781250000000
-0.39894688129425048828125000000000
-0.67660582065582275390625000000000
-0.64666193723678588867187500000000
0.40093487501144409179687500000000
-0.97645485401153564453125000000000
0.79968768358230590820312500000000
-0.25459942221641540527343750000000
-0.20795014500617980957031250000000
0.00313635519705712795257568359375
-0.42950224876403808593750000000000
-0.29750674962997436523437500000000
-0.44028225541114807128906250000000
0.04043597728013992309570312500000
0.35762068629264831542968750000000
-0.20018154382705688476562500000000
0.24443331360816955566406250000000
-0.61788403987884521484375000000000
1.26988267898559570312500000000000
-0.92373698949813842773437500000000
0.32253822684288024902343750000000
-0.29574626684188842773437500000000
-0.06733442842960357666015625000000
-0.17373165488243103027343750000000
-0.11439131945371627807617187500000
-0.22700180113315582275390625000000
0.36203467845916748046875000000000
0.36847826838493347167968750000000
0.00455221114680171012878417968750
-0.61666572093963623046875000000000
-0.40463247895240783691406250000000
-0.16767810285091400146484375000000
0.36937102675437927246093750000000
0.07193114608526229858398437500000
0.66635990142822265625000000000000
0.21324296295642852783203125000000
-0.25050410628318786621093750000000
0.13315753638744354248046875000000
0.65884983539581298828125000000000
-0.16505792737007141113281250000000
-0.44895839691162109375000000000000
0.34583324193954467773437500000000
-0.38599997758865356445312500000000
-0.33015877008438110351562500000000
-0.65021657943725585937500000000000
0.55384963750839233398437500000000
-0.81637996435165405273437500000000
0.21146425604820251464843750000000
-0.06703682243824005126953125000000
0.08242557197809219360351562500000
0.40790566802024841308593750000000
0.03028535656630992889404296875000
-0.68444275856018066406250000000000
-0.51975351572036743164062500000000
-0.17210836708545684814453125000000
-0.82243978977203369140625000000000
0.15735575556755065917968750000000
-0.65477597713470458984375000000000
0.41740256547927856445312500000000
-0.70693981647491455078125000000000
-0.45958361029624938964843750000000
-0.31666016578674316406250000000000
-0.20767723023891448974609375000000
0.29725950956344604492187500000000
-1.31559526920318603515625000000000
0.29667645692825317382812500000000
0.10474006831645965576171875000000
0.37920269370079040527343750000000
-0.04344647377729415893554687500000
-0.86801511049270629882812500000000
-0.81918132305145263671875000000000
-0.66994315385818481445312500000000
-0.40128439664840698242187500000000
-0.15976320207118988037109375000000
0.53425252437591552734375000000000
-0.20710083842277526855468750000000
-0.28630316257476806640625000000000
0.47667172551155090332031250000000
0.01496840827167034149169921875000
0.08168447762727737426757812500000
0.48782727122306823730468750000000
-0.30633589625358581542968750000000
0.22013010084629058837890625000000
-0.09214845299720764160156250000000
0.58305525779724121093750000000000
0.38856843113899230957031250000000
0.83255636692047119140625000000000
0.56956118345260620117187500000000
0.38749641180038452148437500000000
-0.34344464540481567382812500000000
-0.56766456365585327148437500000000
0.21258160471916198730468750000000
-0.81878256797790527343750000000000
0.03474155813455581665039062500000
0.98587816953659057617187500000000
-0.22362467646598815917968750000000
0.21476653218269348144531250000000
-0.01400456856936216354370117187500
0.12642675638198852539062500000000
0.39430969953536987304687500000000
-0.39893990755081176757812500000000
0.90369933843612670898437500000000
0.03034657426178455352783203125000
0.22674827277660369873046875000000
0.42801558971405029296875000000000
-0.57252168655395507812500000000000
0.01812339201569557189941406250000
