FF1B
FFEF
002D
FFF6
FFEF
FFE7
FF16
005A
005B
FFC7
FF99
0048
FFBA
0024
009B
00BE
001E
0011
FF68
FFAC
FFC5
FFC2
FF98
FFFD
007C
000B
004E
004B
FFFD
FFC0
0030
FFBF
FF45
FF5B
0046
FF7D
0064
FF51
0067
FF6E
FF0C
0057
FF88
0125
0092
FF76
0025
FFC3
000B
FFBD
0038
FFD5
006C
0025
FFF2
0029
0014
FFCD
00A0
FFF2
0034
FF40
0016
0029
00B0
FFF9
FFF3
FFA8
00D0
FF48
0079
007C
FFE5
FF8A
0089
0051
00E2
FFC0
FF71
FF56
FFC3
FFBD
0037
0009
0077
003D
FFD5
006C
0012
0069
FF25
00B4
000A
FFEB
00AD
00DD
FFD3
FFA5
0006
FF9C
FF98
FFE3
004A
006C
009A
0005
FF8F
0049
0025
0043
FFA5
0006
008B
FFA7
0007
FF45
0004
0023
FFAA
004B
0066
FF7C
FFE1
0017
003C
FFC6
FFEC
001E
009F
FF7C
FFC4
FF80
0028
FFC2
0039
0039
002E
FF4F
005E
0027
003B
FFD1
FFEB
001E
FFDC
FF51
009D
00AE
0092
FED2
FF97
FF2E
0013
008E
0023
0029
0125
FFAA
0050
FFDF
002C
FF86
FFDB
FFB2
005E
0027
FFEF
0001
0074
FFAF
0074
0005
FFEF
FF8E
0038
FFFC
FFFC
FED9
001E
FF82
0055
FEBB
FFFB
FF2D
FFE0
0054
FFB2
0123
00C8
FF46
002B
0042
0046
0063
0086
0056
0064
0026
0026
FFCF
0014
FFEC
FFE3
FF95
006B
FF8F
0002
000D
000E
FFDF
0065
0004
008A
0020
0060
002A
FF8C
0008
FFD0
FFE1
0051
FFD5
FF9E
009F
005B
FFAD
007D
0047
FFCC
0051
0014
0073
0086
006D
FF61
FFF5
00AD
FF26
00ED
0072
FFEF
0014
00C7
0074
00BF
0017
FFD2
FFA9
FFF1
000C
0042
0004
0037
FFB6
0097
FFEC
FFEC
FF66
0092
000C
FFAF
0061
FFEF
0087
0041
FF99
FFE8
003B
0070
FF83
004F
002B
FF95
004E
FFF3
006C
0020
FFF8
FEC5
0084
009A
FFEA
FFC4
0040
FFB3
FFBC
00DC
0022
002D
FFA6
0011
FFA9
FF64
FFAD
FFB1
0050
004B
FF69
FFC9
002C
0040
0069
FFE3
005B
001E
FFA4
FF86
FF7C
0028
FFE2
FFF0
0078
FFBF
FFF9
0006
00AC
002E
0030
00DA
009A
0039
FFAC
FFAF
FF86
003A
0048
004E
0050
005C
FF93
0011
0025
0067
FFD7
0027
0069
0068
FF98
0041
FFC8
0070
0057
0053
002A
004F
FF8D
003C
0004
0059
FF8E
005C
0005
FF8C
FF8F
FF78
FFDF
009B
00C9
005D
003A
0098
0099
FFC4
00BA
0029
001B
0066
008E
0012
005C
FFAF
FFFA
0065
FFBB
0037
009F
0038
FF57
0066
FFCB
00AA
0005
FFA5
001B
0029
0005
000F
FFEC
00B0
0013
005A
0057
0066
FF6D
0067
0016
0067
FFAB
FFCB
000B
FF4B
0085
FFF4
009A
0005
001E
FFBA
FF93
FFFA
006D
0000
FFEA
FFCD
0007
FFF0
0022
FFCA
FFC6
FFEA
FFC9
FF99
FFAC
FF69
0043
0078
FFB8
FFD9
FFF5
004D
008E
0029
006E
0037
FFF1
000A
FFF3
0031
0047
FFBE
FFCC
0071
001C
0029
FFC1
0046
FF61
0062
004F
0016
FFE5
FF3F
FFAD
0025
FFCA
FFB5
FFDC
0073
0002
005F
0044
000B
FFA1
0025
0029
007B
FF56
0093
FFBA
0088
FFA8
FF60
006B
000D
00AF
FF1F
00C2
003A
0051
007B
004E
FF41
003E
0018
FFE1
FFFD
0012
FFEE
FFE7
0018
00BA
FF93
FFE9
FFA7
003C
0081
00A0
000F
FFB4
004A
FFD0
0097
009C
001B
0028
FFDB
0016
0047
009F
0048
FF7F
000C
003B
