00E8
00A8
FFB1
0089
009C
009C
0004
010C
006A
007D
008B
FF74
00EC
00A0
0058
002B
00B7
0079
FF4B
007B
0023
FF59
0052
FFBF
FFD5
003C
0090
FFAB
FF60
0063
009D
006F
004B
FFF9
0001
009D
0139
FFCF
011B
00A0
0080
0016
FFA0
007A
00FE
0095
00AF
FF7E
00BE
0033
FFE2
009C
0163
FF84
000F
0044
0015
0001
009A
FF67
0027
008E
0084
0061
0097
005D
00CB
009F
FF87
0086
FFD1
0036
007F
0011
004A
FFE9
003B
FFC1
FFF0
000A
0061
FFF8
0000
FFF2
0045
000E
0090
005A
00C0
0096
FFF7
005B
FFCD
0022
FFF4
003A
0000
0004
0000
FFF7
FF8D
FFD2
FF7F
0024
001D
004C
004E
0021
FF8C
0010
FFEB
0089
FFBE
0068
FFDC
FF81
004D
008A
0039
0010
0035
FFDA
FF8F
005E
FFE1
0076
FFDD
FFF7
00A2
007F
FFAF
0077
FF64
005F
FF18
000C
FFFC
0000
FFF7
FFA8
0001
FFFF
FFDF
0014
000E
001A
00D9
FFFF
0081
FFF6
002D
FFFB
FF62
FF88
FF5E
FF79
001B
0092
FF52
FFC9
0079
009B
FF98
FFEE
FF31
FFAD
FFC8
002D
FFB4
0023
001F
FF81
002B
FF4E
FF93
0120
0087
004C
FFB1
007A
FFF0
0036
0023
0001
FF92
FF77
0024
FFDE
0076
FF26
0019
FF25
FF8B
FFD8
FFB6
003A
FFBB
FFA2
0011
FFCB
003D
004D
0050
001E
FFE5
FFF7
0060
0033
FFAD
0014
009E
FFEA
000D
001E
FFE3
FFA3
FFD8
FFA0
FFF7
003A
002F
FF9D
0027
FF9E
000F
008B
FFCE
0042
FF88
FFF5
FFCF
0062
0035
001E
FFA8
FFF4
0005
FFC4
0066
FFCF
0002
0021
0010
FFF3
002A
0077
001F
003D
FFA2
FF6B
0065
0080
00AC
FFA0
0065
FFD5
FFEE
007C
000A
0042
001E
0024
FF1A
FFF9
FFCA
0025
005F
0017
FFAA
FFC0
FF8B
0027
FFA0
0078
004E
0016
0042
FF76
FFF6
FFB7
00CA
006E
FF66
006A
FFB5
0006
FFB0
FF99
0017
001D
FF90
0034
FFBF
FF58
FFAA
0095
FF8A
0047
FFA7
FFA9
FFE4
FFD1
FFA1
0068
FFD6
002E
FFDC
FF8C
0031
0058
FFDB
0054
0032
FFBE
FFDF
0057
FFF8
FF84
0008
FFFF
000C
003B
FFB7
0000
FFD9
FFFA
FF81
00DD
0022
FFAB
FFD6
0083
0026
001F
FF40
0023
FF6E
00C5
FF63
0092
0095
FF3A
0013
FFC8
FFC8
FFB4
FF5B
FFFC
FF37
FF75
FFD8
0058
FFC9
0005
FFD3
FF42
FF8B
FF33
000B
0078
002A
FF62
FFB9
FFDB
004D
FFD0
FF72
0032
FF8F
0079
FFD1
0021
FFD8
0012
00A8
FFBC
0005
FF9A
FFB5
0082
0000
FEEE
004F
FFDB
FFF7
FFC8
FF7E
FF49
FFEB
FFC0
0038
FFE1
0051
FFBB
FFC4
FFAD
000D
003F
001A
0030
0032
FFD1
0041
FFE3
FF5D
002F
0069
0012
FF9C
FFA9
FFD2
0001
FFD0
FF91
FFC9
FF82
0061
FFFD
FFE1
FFE7
FFFA
FF85
0039
FF6E
0015
FFF8
001C
FFF1
005E
00CC
0031
0026
0090
FF90
0017
FFED
FF45
FFDF
FFE2
0010
FFAF
FFB9
0006
FFA3
0013
0056
0021
0049
009D
0007
FFC3
0045
FFE2
FFD4
0009
FF6D
005A
0029
0010
0014
002F
0108
0033
0019
002C
FF53
0015
FFED
FFE4
0022
003C
FFE0
FF55
FF5D
001B
FF51
0081
004B
006C
003C
0053
004E
FFD5
002D
006C
005A
0032
FFE9
00C5
0052
0081
0015
000C
007B
0026
FFB1
00B7
FFEA
0006
008A
0075
FFB6
005B
FFEB
FF99
FFF7
003A
FF64
0029
FFEB
0102
FFAE
004D
FF54
0012
FFDE
004F
FFD2
0030
FFCA
FFCB
000E
0033
0041
0023
FFD2
FFE2
FF74
0029
0013
FFC8
003C
0087
0028
FFE5
FFA2
001D
0017
0006
FFB5
0011
FFF5
0001
005C
FF61
FFC5
FFD6
001A
FF9C
FFAA
FFAD
FF68
0069
FFC7
004D
FFA3
0013
FFCB
FF9E
0008
FFF9
0033
0015
0005
FFCF
FF92
FF95
FF89
0059
0055
004D
0054
002F
FFBF
FFDA
0006
FFEC
000D
FF60
000B
FF89
FF4C
0080
FF52
FFD9
FF3F
0108
003B
0042
002F
FF64
006D
0012
00C1
00BB
0023
FFA8
0002
FF41
FF70
FFE5
FF0E
0066
FFCD
FFF6
FF28
003F
FFFA
FF9F
002C
FFDC
0043
FF61
FF43
006F
FFD8
FFA9
FFC7
0074
FFD7
0015
FFFA
001C
0065
FFE5
0098
0052
FFE4
FFFE
00C6
FEF6
009E
FFCD
FF65
005F
004D
001B
FF40
0063
FFA0
FFA8
005F
0026
FFE5
0001
0003
FFF8
003F
FF97
0054
FFB8
FFD2
FF9D
FFAE
005F
003C
FF79
0050
FFBC
FFE4
0058
0074
FFCB
0041
FFC7
0047
0023
0065
0018
0072
FFD5
0039
0059
0078
004F
FF27
FFE2
0061
FF9B
004E
0012
0033
FFF4
0022
FFCA
FEF5
006B
0030
00E6
FFDE
FF73
FFD7
FFCD
005B
FFE8
FFAA
FF9E
0000
005B
0015
0049
002B
FFAF
0006
0049
0081
0018
00D1
0024
001F
FFFE
FF99
0040
FFDA
0021
0026
0015
FE4E
0026
FFC8
0069
FFB6
FFC1
FFB2
000E
0092
FFE3
0014
0027
0099
0012
FF98
001A
FF9D
FFE2
0033
004B
003D
FEC8
0054
00B0
009B
00A8
0008
003F
FF6D
FF58
0004
00D1
FF89
009B
FF3C
FF2C
FF5B
FFE1
FFE5
FFC9
003C
007F
0004
FF07
FFE6
005B
FF1D
00B0
000D
009E
005C
004F
FFD4
0028
FFCC
0019
FFD1
0041
0025
FF86
002A
FFDE
FFC6
008C
0052
FFC1
0070
0093
FFC2
FFBD
005E
FF68
0029
0009
FFF8
0065
0057
FFC5
0051
0018
0042
FFAF
000A
FF6B
0019
FFFB
FFF6
FFD8
FF5A
002D
FFF0
FFF2
FF4E
FFE8
FFC8
000D
FFDB
0055
0034
FFC2
0011
0025
FF8C
FFF2
FFFB
FFC2
FFA0
003A
FFF8
00C0
0095
FFB8
000C
FFBA
0007
002B
0021
FF39
0030
0099
FFF3
00C0
FFFA
FF87
FF2A
FF19
002D
FFDF
0033
008B
0036
0002
FF34
00B8
0038
0051
0011
FF94
FEFD
FF6E
FF9F
0058
FFC7
FFC0
0003
0066
007E
0009
FFF3
FF9C
0034
FFC2
FFF4
00DB
FF88
FFAD
0016
FF96
FF7B
0026
FFC2
009D
0050
FF93
FF50
010B
0010
0059
00A9
FFFE
0041
FF25
FED3
0119
FF89
0011
FFF9
005B
0037
0050
FF60
FFCF
FFBD
FFE3
0009
005E
FFFB
FFA6
002B
0018
0059
00B2
001A
0014
002C
FFB4
005F
0045
FFDA
FFFC
FFFB
000D
0050
FFF3
0019
006C
FFE2
0011
0076
FFFF
FFBD
009B
FEEF
001A
FFE3
FFFE
FF93
FF9F
006C
FF86
008E
FFEA
005A
FFC0
0007
FFBB
FFFB
006F
FFED
FFAE
0007
001D
0040
FFCF
FFD5
FFEB
FFFA
FFDC
0024
FFEE
FFF9
0044
FF3D
008A
FE87
0004
0004
0043
FFD1
003C
0078
001E
007B
0067
006D
FF04
003D
0046
003A
00A8
FFEC
FFF8
FFAE
0074
006C
0022
0044
0030
FFA6
0013
00A0
001E
0049
FFDC
FF74
0049
0030
000B
0079
0093
005D
FF84
0031
0064
004A
0033
001F
FFD9
0017
0097
FFE6
0009
FFF3
000C
FFD6
00D1
0043
FFED
0077
FF99
FFE4
0032
FF3E
003B
000B
0012
0059
FFD4
0037
005C
001D
0029
0015
000B
FF9C
FFB8
FFD9
000C
FF41
0070
FFD9
FFDF
0030
000E
007F
001D
0055
FFF3
FFE3
FF88
FF73
0027
003B
FFB7
002A
FF6F
FFE0
FFC9
0012
00AA
FFC4
008A
FFA2
0014
FFA2
0032
009E
004F
FF6E
FFF4
004F
003D
FFD5
0014
FF59
000B
FFCA
0051
FF86
0072
FFC3
004B
0056
005D
FFCC
004F
0021
FF49
008E
FEF4
006A
00EE
FFB5
001E
FFD0
006B
0061
0065
0058
0052
FF4E
FFEE
006E
FFCE
0007
0097
FF1D
001B
FFD0
00C9
FFE8
FFE1
FF6C
00D4
0053
FFAE
0049
0003
0005
FFD4
0012
FFF3
005C
0079
0039
FFBB
000E
0028
0041
0033
FFD3
0088
005C
00F3
0005
FFF2
FFF5
001D
FF3A
002A
007E
FFE4
0010
0029
0010
009C
FFE5
FFB5
0026
004C
FFEE
00B8
FFAE
00A7
00D9
0041
FFEE
FF93
0047
FFC6
0054
0052
FFD6
004D
0018
001C
0057
000D
FFF0
FFB2
FFDB
0038
0020
FFC2
002B
0055
FFC0
0026
0057
0004
FFD7
FFDB
FFAB
008F
0039
0016
FF64
FFB9
001A
003F
00C1
FFA9
0003
FF8E
0012
003A
FFA8
000B
FF41
FFD3
0016
FFDD
FFEA
00A0
0059
FFC9
FFED
FFD0
FFFE
0063
FFAB
FFE5
FFC2
0045
FF61
00A4
FFCD
0016
FFCB
FFE7
FFDE
FFB9
00AC
0023
0027
FFBD
0000
009D
FF3A
0095
00AA
FF26
0020
005F
0040
FFDF
00AA
0067
006F
0005
FFA8
0052
FF98
0001
FFBA
0059
FFCD
00AC
008D
FFF3
FF0C
FF68
FFF4
FFDB
0020
FFCA
0040
FFFD
FFAF
FF96
FFB4
FFA5
003D
000B
FFF4
FFF5
004D
FFDB
FFA7
0024
FFC7
FFED
FFEC
FFFB
FFE1
FFEC
FFF2
0024
0021
0015
0003
003D
FFC0
0031
FFF2
005F
FFCC
FFA9
FFF9
FFB8
FF9D
FFDA
005C
FFAE
FF8F
004C
FFDB
FFAD
007E
FF6E
FFCC
0002
008D
FFF0
FFED
002F
002F
0051
001F
FFD5
00C2
0012
FFB6
001B
FFAC
0007
FFF9
FFFC
00A1
FFF5
0083
FFEA
0027
0031
FF8E
00BD
FFF9
0012
0034
FFAD
FF8E
008F
FFF1
FFFA
FFC2
FFB9
FFF8
00AE
0022
0049
FFB3
FFB3
0003
FF45
FFF2
FF35
001F
FFEA
FFC0
FFF9
003D
0031
0068
004A
00C8
00B7
FFB6
00B6
00B3
FFC2
FFEE
FFB0
FF51
0025
002B
FFB6
FFAF
0050
000C
0025
006E
FFB0
0017
FFD3
FFDF
0027
FFEA
FFBD
0003
FFE3
0006
FF52
0039
0014
0039
FFF5
006C
00A5
0000
0071
0039
FFAE
FFFC
FFA8
000C
FFD8
003C
FFB3
FFCE
001B
FFD6
FFBE
001D
0065
006F
FF77
FFBB
0070
FF93
0079
FFE2
FFD9
0056
FF75
0045
FFA1
FFEC
002B
FFED
FFE7
FFFF
FFE5
FFEB
003B
0013
0047
FFD8
FFEC
0028
FFB4
FFD0
0017
FFCD
FFD6
0036
FFBF
FFCB
005E
FFD5
000E
004A
0045
FFF1
FF48
0057
FF68
FFC9
0052
003A
FFE1
FFB1
0037
FFE6
FFB7
FF33
0086
0005
005E
0019
0012
FFCF
FFF3
00BA
006E
FFD0
FFE5
FFCF
FFCB
0023
0047
FFCC
0042
FFEB
FFE1
FFEC
FF6C
0042
FFC8
FFB4
008F
FFEE
FFCA
FFDF
FFD9
FF4B
FF75
FFD8
0003
0063
0042
006D
0038
FF91
FF73
0117
0066
FF9D
FFC0
FF6D
FFF3
0097
FFBC
FFAA
FFCA
0033
FFDC
FFB7
0030
FFA7
001D
007C
0017
002C
0004
0037
0030
FFEB
001F
0001
0004
003C
FF9C
FF9A
0077
0086
FF9A
002F
FFBF
FF9D
0081
FF96
00A4
0025
FF7C
00AF
FF9F
0057
FFBB
FFE7
FFBC
FFB7
FFCB
0006
FFFD
FF8A
0038
FFC3
FFDA
FFE1
FF81
FF77
0021
FFB8
0005
0084
FF92
FFC1
FF99
0024
FFDB
FFAE
FF7E
FF76
FF82
FFE7
FFAF
0002
FFC4
0007
FF8C
0015
FFC3
0003
002B
0022
FFD7
0023
FFC7
FFED
0023
0004
00C4
FFD3
FFD0
FFE3
0049
FFDD
0045
0037
FFB6
FF81
0008
001C
FFEF
FFE7
0031
FFD2
0030
007B
FF88
0025
FF8A
0008
FF98
FFE7
0012
FFFA
000B
0024
0033
FFE6
FFDC
FFA8
FFEA
001B
FFC9
FFCF
005C
FFED
0008
000A
0007
FF84
0018
00BB
0037
0013
FF50
FFC4
0041
0043
FFD6
0047
FFFF
007D
FFB8
001F
FF34
007C
0017
FFA0
005C
0009
FF94
FFFB
000B
0007
000E
FFD2
0087
FFFC
FFF4
002E
FFE8
FFDA
FFC6
0080
007C
0024
FF98
0009
0027
FFED
005C
FFE9
0064
FFE5
0024
FFF1
FFCF
0024
004D
FF2E
007B
0024
FF40
000C
0059
FFC5
0043
FFE2
0004
003D
FFC5
0030
FFD5
006F
FF5C
001D
004E
FFD5
FFFB
000D
0027
0016
006D
FFC9
0049
FFDE
003F
000E
003C
FF77
00BF
FF6A
FFE4
0001
FF67
FFEE
0094
FF51
004C
FFFE
0007
0033
FF91
FF7F
FF9D
0147
FF6F
FFD0
FFD9
FFA7
001C
0058
0038
0072
FFCC
001F
000B
FFF2
FFD7
000A
008A
000C
0017
FF5B
FFD6
0004
FFB1
FF73
FFBC
0024
FFCB
0020
0098
0070
0016
0033
FF7C
0003
FFA6
0020
0037
FF9D
FFD4
0018
0075
0038
0033
0121
FF63
0065
0017
0020
0043
0027
FF9A
FFE5
0004
0023
0007
FFE9
0047
0003
FF5C
00A9
FFAF
FFA7
0079
FF94
FFF2
FF72
0008
0035
FFB3
0055
FFC7
0021
FF75
00A1
FFE3
FFB6
FFC6
FF6C
FFF7
007D
0040
FFF9
0082
002A
006D
002C
FFD7
FFC5
0014
003D
007F
000C
00F6
004B
FF9F
FFF4
FF7E
0058
FF81
0067
FFC3
FFF7
FFE1
FF79
00CD
FF8C
FFC6
0051
004F
0048
FF79
FFF6
FFB0
FFF5
FFDA
FFEB
0030
001A
0021
FFE6
FFBA
FF6B
0071
FFDD
FF6F
0039
0036
FFD3
0048
000C
0052
FFFD
0014
FFEF
0004
FFF2
FFDD
0045
FFE9
FFBF
0077
FF56
0029
FFB7
FFB7
005B
FFCB
FFF2
FF9F
0042
000A
FFD0
0011
FEE0
00B1
005E
FF85
0069
004C
000D
FFC6
006E
FFAE
FF0D
0014
FEEB
FFE5
0006
FFE2
FFF4
FEF4
FFD2
0046
FF96
001B
FF84
FFC6
FFC7
FFE0
0061
0018
FFF9
0001
FFE8
FFB3
FEB8
0062
FFDB
FFBE
00C3
FFF0
FFB5
FFCE
0036
FFD7
FF5C
0035
FE8E
FFBC
0041
FFCD
FFD4
FED4
FFE6
FFC3
FF80
FFCF
FFDE
0001
FFBE
001E
006C
FFC2
FFFF
00B2
003D
FFCE
FF06
FFD9
FFCE
FFE2
007B
002E
FFA3
000F
FFCD
0017
FF9B
FFDF
FF26
FF8F
0056
FF76
FF61
FE90
0022
FFDA
0016
0018
0016
006D
0029
FF7B
0008
FFAB
0012
006C
0010
001B
0012
FF31
FFCB
FFF7
0020
FFB7
FFA2
002F
FF79
00B2
00CD
FFFA
FFF7
000C
0009
0021
0020
005A
0009
FFA6
0076
0056
001A
FFBC
003A
0008
FFFC
FFBC
0062
FFAE
003C
0000
FFC3
FFA4
0014
FFCB
0033
FFF1
FF62
0051
FFA6
0014
0016
FFFC
0013
FFD6
0078
FF95
000F
FFB3
FFB8
0012
FFB5
FFC2
000D
001C
FF6A
FFA1
FFFB
FFA1
FFE3
FF76
FFEE
FFCA
FFC9
FFB8
FFED
FFFE
0054
FF96
FFF7
FFAE
FF84
000D
0029
FF85
FFC9
FFCA
0012
FFFE
FFF7
FFFC
0046
FFA5
0026
