000E
FFED
FFF3
0011
000D
FFFC
0004
001A
000F
0005
0008
0003
0009
0000
FFEB
0000
FFFE
0013
FFF6
FFEB
FFF7
FFF0
FFFE
FFF2
FFFF
0013
0006
FFFD
0008
FFF7
FFFF
0013
FFFF
FFFD
0009
0014
000D
0003
FFFF
0010
FFF7
FFEB
0001
FFED
0017
FFF6
FFFD
FFF6
FFEF
0001
FFF7
FFFA
0011
FFFE
000D
FFF9
FFF8
FFFC
0005
FFFD
000B
FFF6
FFF4
FFF0
FFF9
000D
FFFF
FFFE
FFF2
0008
0005
FFFB
FFEA
FFF3
0001
FFF5
0001
0005
0008
FFF4
0003
FFFE
0010
0011
0007
FFF8
0004
FFFF
FFFA
FFF7
FFF7
FFFE
FFF1
FFF5
000E
0017
FFF9
FFFF
FFF7
0010
0003
0001
0006
FFFD
FFFD
FFF6
000C
FFFD
000B
FFF9
0009
FFEC
0007
FFFF
FFF2
FFFB
FFF5
0004
FFF9
0008
0008
0009
FFFE
0010
FFFD
FFFE
000D
0003
0004
0008
0002
0002
FFF4
FFFC
0005
FFFA
FFF7
0009
0005
000B
FFFE
0001
FFEE
FFFE
FFEC
FFFF
FFF5
FFFE
0010
0005
FFFE
000D
0013
FFF2
0001
FFEA
000B
0010
FFF9
000D
0004
000C
FFF5
FFEE
0001
0012
FFFF
FFFB
0004
000B
FFE9
FFFC
FFFF
FFFD
000D
FFF6
0004
FFFC
0014
FFFD
FFF8
0000
FFFC
000B
FFF6
0005
0003
FFF8
000D
FFFE
000E
FFEE
FFF5
0019
0003
FFED
000B
FFFC
0002
0001
FFFA
0000
001A
000B
FFFB
FFF8
FFF8
0011
000B
0001
FFF7
FFF1
0019
000C
FFFE
FFE7
FFFE
FFFF
0007
FFF9
FFF0
0000
FFF0
0004
FFF9
000A
0008
0000
0003
FFEA
FFF7
0001
FFF9
0001
FFF9
0011
0002
0007
FFF2
0003
FFF8
0005
FFFB
FFED
000B
FFF6
0005
0005
0007
0003
0009
0001
0001
FFF9
FFFF
0007
FFEA
0006
0006
0012
0006
0003
000B
FFED
FFFB
0012
FFF8
FFFE
0002
0000
FFFE
FFF5
FFF5
FFF9
000B
0004
0005
FFF1
FFF7
FFFD
0011
FFFF
0013
0002
FFF6
FFF7
FFFF
0002
0006
FFFA
FFFB
0006
0007
FFFB
0000
FFF5
0008
0005
0001
0009
FFF9
0000
0004
0003
FFFB
0003
FFFD
0008
0005
0001
FFF2
0000
FFF4
FFF6
FFFA
FFF2
FFFF
000D
0017
FFF2
000E
000B
000F
FFF9
FFF6
0005
0000
000C
0005
000B
0002
FFED
000F
0003
0005
FFF5
FFEF
FFFC
FFFE
FFF5
0001
0008
FFFD
FFFC
0008
0007
FFFF
0007
0004
FFF7
FFF3
0007
FFF9
FFF4
0008
000B
0003
FFFA
0000
FFFC
FFFD
FFFB
000E
FFEF
000B
FFF4
0011
FFFF
000B
FFF1
0000
FFFB
0007
FFFF
000A
0014
FFF5
0001
FFF4
FFF6
FFF6
FFFD
FFFC
0018
FFFE
0006
FFEF
FFF1
0001
FFF2
FFEC
FFF7
FFFE
FFFC
FFED
FFFF
FFFE
0000
FFFB
0005
FFFE
FFFF
0013
FFF7
0000
FFE9
0004
FFFE
FFF7
0006
0002
FFE9
0005
FFF0
FFFD
0008
FFF4
FFEA
FFF6
FFF3
FFF2
000E
FFF7
FFF0
FFFB
0001
0017
0006
0004
FFF5
0001
000E
0001
0002
000B
FFF5
0007
0000
0017
FFEC
0002
FFFA
FFFE
FFEC
0009
FFEC
FFF5
FFF6
0006
FFFC
FFFA
FFF9
FFEA
FFFB
FFF8
FFFE
FFFD
FFF7
0015
000E
FFFB
FFFF
FFF9
FFFC
0006
FFFA
FFF2
000E
0009
0001
FFFB
000A
FFE7
0013
FFEC
FFF7
0009
0000
000D
0008
FFF4
000F
FFF7
FFFF
0004
FFF6
FFFA
FFFD
0005
FFF2
000B
0016
FFF2
000A
0007
FFFD
0002
0007
FFF6
FFF7
FFED
FFFD
FFFE
FFF2
0015
FFFD
0009
FFFE
FFEC
FFFF
000A
0002
FFFE
0009
0001
0008
0010
000F
FFF4
FFF8
0009
0006
0010
FFF6
FFF0
0012
0006
000F
FFEB
0002
0009
FFFB
0007
FFFA
FFF4
FFFA
FFF2
FFF3
0000
0001
FFFA
0013
0002
0006
0004
FFEF
0007
FFFC
FFFF
FFFA
0005
0008
0005
FFFF
0002
FFE7
FFE9
FFFE
FFF9
FFFE
FFED
FFF3
0010
FFFD
FFFC
0001
0006
FFF6
0014
FFFF
0001
FFFD
FFEE
FFE8
FFF1
0011
0010
FFE9
0013
FFEC
FFF9
0003
FFEB
000E
000D
000A
0004
0004
0010
0000
0005
0006
FFEC
FFF1
0000
FFF7
000E
FFF8
FFFF
0002
0005
FFF1
0009
FFFD
0009
0008
0006
000B
FFF9
FFFD
0012
0019
FFEF
0004
FFF3
FFF6
0009
FFEF
0018
FFFA
FFFD
FFEE
0000
0003
0002
0008
FFF9
0009
FFFA
FFFF
0011
FFFE
FFFF
0001
FFF8
0000
0009
0012
000E
0011
FFFF
FFFF
FFF7
0007
FFFE
000C
FFFD
0012
0005
FFFC
0003
FFFA
000B
0006
FFEB
0002
FFEF
FFFB
0011
0005
0004
001A
0004
000B
0012
0001
000B
FFFB
FFFE
0014
FFF0
0009
000C
FFFC
FFED
FFF9
0013
FFF9
0005
0000
FFF2
FFFD
0001
0018
FFEC
FFF5
0006
0006
0000
0007
FFF6
0004
0009
0005
FFF6
0013
FFFF
0004
FFFF
FFF7
000A
0005
FFFA
0004
FFF5
000A
0015
FFFF
0010
FFF9
0008
0000
FFED
FFF0
FFFD
000B
0019
0011
0010
0008
FFF7
FFFA
0003
FFF2
FFF5
000B
000A
000A
0004
FFFE
FFF9
FFF3
0011
0003
0000
FFFD
FFF2
FFF8
0004
0004
0005
000B
0008
FFFF
FFFC
FFF9
0007
000E
0000
0019
FFEE
000E
0001
0005
0004
0009
0006
0011
0006
FFF8
FFE9
FFED
000E
FFF2
0004
FFFF
FFF6
FFF6
0007
0004
0002
FFF2
FFF3
000A
FFEE
FFF2
FFFF
0006
FFE8
0003
FFF2
FFF4
0002
0004
000C
0003
FFF5
0007
0005
FFF5
0002
FFF7
0014
0001
FFFF
0018
0003
0004
0007
000B
FFFE
000B
FFFE
0017
FFF4
FFFA
0003
0006
0012
FFFA
0005
0005
0002
FFFF
0017
FFFD
0007
FFF1
000C
0002
FFF3
000C
0007
FFFA
0012
0006
FFF0
FFFE
FFEC
0000
FFF7
0007
FFF4
0016
0000
FFF0
0004
0017
0008
FFF1
0011
000A
FFFC
FFFC
FFF0
0000
FFF9
FFF5
FFFF
FFF5
FFF6
FFEC
0010
000A
FFFE
FFFA
FFFF
0003
0014
FFF5
FFF8
0005
FFFA
0009
FFFB
0007
0002
0001
FFF1
0007
000A
FFF5
000F
0000
FFF3
FFFC
000B
0000
0010
FFFD
FFFB
0001
0008
FFFC
0002
FFFC
0000
0004
0004
FFF5
0009
0010
0009
0007
FFFC
FFF3
0002
FFF0
0001
000A
FFFD
0006
FFFC
FFF4
0000
FFFB
FFE9
FFF2
FFFC
FFFA
FFF6
0001
FFFD
FFF7
0003
FFFF
000E
0009
0008
FFFF
FFFC
0002
FFFA
FFEA
FFF8
FFF3
FFFA
FFF0
0004
000F
0018
FFFF
FFF7
0005
FFFD
0003
0006
FFF4
0014
FFF9
FFED
0004
FFFB
FFF2
FFF5
0012
FFF4
000C
FFFF
0004
0001
0018
0009
000B
FFFE
FFEE
FFEC
0001
000C
0003
0007
000C
FFF7
0001
0014
0008
FFFB
0005
FFF9
0004
FFF4
0005
000A
0006
FFF5
FFEE
0001
000A
0014
0019
FFF9
FFFD
FFEA
FFF3
0003
000A
0007
000E
FFFF
0006
0001
FFEB
FFF0
0008
FFF9
0007
FFF0
FFF3
0003
FFF4
FFF6
000A
FFFF
FFF0
FFE6
000B
FFFD
000D
FFF6
FFF6
0008
0005
FFF5
000E
0001
FFF4
FFEA
000B
000A
FFFD
0019
0006
FFF4
0000
FFFD
FFFA
0003
0008
000B
FFFF
0008
FFFC
FFF1
0000
0000
FFEF
0010
0003
FFFB
0009
0011
FFF8
0000
0016
000F
FFF6
FFF6
FFF9
FFFF
FFE9
0004
0009
0004
0008
FFFF
0007
0001
0002
0017
FFFB
0001
FFEF
FFFC
0007
0014
FFFF
FFFD
0001
FFF6
FFFE
0012
FFFE
FFEF
0000
0012
FFFE
0005
FFFB
000D
000B
0006
FFF5
0015
FFF2
FFFF
0003
0005
FFF4
0003
FFEF
FFFA
FFF7
0000
FFF2
0000
FFFC
FFF8
0009
FFFA
0009
0000
FFFE
000D
000A
0005
000E
FFF3
000A
000A
0011
0011
FFFB
0010
FFF0
FFEA
0008
FFFF
FFFF
FFFA
0013
0002
0006
FFF7
FFF4
0017
FFFD
FFF6
0016
FFFC
0009
000C
FFEF
FFF3
FFFE
FFFD
FFF9
FFF2
0005
0012
FFFC
0011
0001
FFF2
000B
0001
000C
FFF7
000C
FFED
0008
FFFB
0008
FFF8
FFF5
FFF4
000E
FFF5
0014
0004
000B
FFF7
FFFD
000C
FFEE
0009
FFF6
0009
0011
0001
FFFA
FFF7
FFF6
0004
FFF7
0002
0011
0004
0011
FFFD
FFFB
0002
FFF0
0002
FFF4
0012
FFF0
0011
FFFB
FFF1
FFFA
FFFF
0003
FFEF
FFFF
FFF9
0000
FFF9
0001
0000
000B
FFFC
000C
FFEF
000D
FFF6
FFFF
FFF7
FFFE
FFF0
FFFC
000D
FFFC
0006
FFF5
FFFF
FFF9
FFED
0007
FFFF
FFEC
0012
FFEE
000C
0004
FFED
FFEF
FFFC
0015
FFF2
0002
FFF1
FFFF
000F
0004
0017
0006
0002
FFFD
FFF3
0007
0004
FFEB
0007
FFF6
000F
0002
FFF9
0001
0012
0001
FFF0
0012
FFFA
000F
FFF9
000C
FFFC
0011
0000
0000
0003
000D
0002
FFF6
FFF9
000A
0001
FFFC
0009
0009
0010
0001
FFE7
FFF2
FFFC
FFFB
0003
FFF7
0000
FFF1
0009
0002
0014
0001
FFF2
FFF5
0006
000B
FFFD
FFFA
FFF8
FFE9
0009
FFEE
0006
0011
FFFE
FFF4
FFFA
FFFA
0006
FFF0
FFF7
0008
000D
FFE7
0011
000B
FFF3
0007
0017
FFF5
FFFA
FFE9
0003
FFEE
000A
0009
000C
0015
0002
FFF6
FFF5
0010
FFFB
0000
0005
0016
0006
FFFC
0008
FFFE
000A
000D
0003
0007
FFF5
0009
0001
0004
FFF7
FFF7
0005
FFF3
FFFE
FFF4
FFF1
000C
0009
FFE9
FFFE
FFF7
0012
000C
FFFF
0010
FFEA
FFFB
0002
0004
FFFE
FFF3
0001
0005
000B
0003
FFF7
000B
0001
0004
000F
FFED
FFEE
0008
0000
0004
0001
FFFA
0005
FFF6
FFF5
0001
0009
FFFB
FFF4
FFFC
000F
FFF5
0012
FFFE
FFFA
FFF1
000F
0005
0006
0015
FFF9
0006
0013
FFF4
000A
000E
000E
FFFE
FFEE
0003
0005
0009
0011
FFF1
0007
000E
0015
FFFD
FFF2
0012
000A
0006
0012
FFEC
FFF5
0006
FFFB
FFF7
0001
FFFB
000E
FFFE
FFF3
FFF4
000B
0011
FFFF
0017
0004
000E
FFF9
0002
0001
FFFA
0005
0002
FFFE
0005
FFF2
000B
FFF5
FFF9
0001
0002
FFF4
FFF3
0004
000C
0002
0004
FFFC
FFF0
0002
000D
FFF2
0004
FFF7
FFF7
FFFB
000E
0004
0003
FFFE
FFF5
FFFA
FFFE
0003
FFFC
FFFF
000A
0002
000D
0014
FFEA
FFFB
0004
FFFA
000C
FFE9
FFED
FFF6
FFFC
FFEC
0001
0008
000D
0005
0001
0016
FFF5
FFEC
0010
0002
FFF7
0007
000B
FFFC
000B
FFFA
FFE9
0002
0013
FFEA
FFEB
FFFC
FFF4
FFFD
000D
FFFE
0002
0000
0006
FFF5
0016
FFFE
000B
FFF6
FFF6
FFFB
FFE9
FFEE
FFF4
FFED
0008
000C
0002
0000
FFFA
0016
FFF5
000B
0016
000E
FFFE
FFFF
FFF8
FFF7
FFFE
FFF2
0008
FFF3
0002
FFFE
0009
FFEE
0013
0002
FFFE
0002
0018
FFEB
0009
FFE6
0012
0002
0008
0001
000D
000B
FFE9
FFF7
0010
000A
FFF1
0005
0009
000D
FFEF
0004
0008
0007
0014
FFF5
0002
FFF2
0009
FFFD
FFFA
0007
0002
0014
FFFA
FFFE
0004
0001
0014
0007
0003
FFF0
0006
0013
0003
FFFE
FFFC
FFF8
FFEF
FFF5
000E
000D
FFF4
0017
000F
FFF8
FFF6
0007
FFFE
0000
FFFA
0012
FFFF
0009
FFF5
FFFD
000A
000B
FFFE
000B
0007
FFEE
0009
FFFF
FFFC
FFEE
0014
0002
0001
0018
0007
FFFF
000E
FFFB
FFF9
0006
FFED
FFFF
FFFA
000C
FFF8
FFFA
FFFC
0012
0016
0000
0003
0002
0004
000A
0004
FFF6
FFEC
0008
0002
0003
0014
000B
0011
0001
0002
FFEF
0004
FFF8
FFFA
0004
FFF3
0006
0004
FFFC
0002
0003
FFFE
0004
FFF2
000C
0008
FFFA
000E
0010
000A
FFF5
FFFD
FFFB
FFF7
0008
FFF0
0011
000B
FFFB
FFF9
000A
0004
0014
0006
000A
0003
0000
FFF9
FFEA
FFF3
FFFD
FFF9
FFF3
FFFE
FFF3
0003
000A
0015
FFFC
FFF4
FFEC
FFFC
0000
FFFA
FFEE
000E
FFEB
FFFE
0007
FFF8
FFF7
0004
000F
FFF5
0015
0011
0013
FFFD
FFF9
FFF0
0013
0007
FFF9
000C
000C
FFFB
FFF1
0006
000E
FFFE
0010
0013
0000
0001
FFFB
0005
0017
0001
000A
0018
0000
FFFB
FFF4
FFFB
FFF6
0000
0002
FFFD
FFF2
0009
FFFF
0001
FFF2
0011
0011
000F
000D
0000
0005
FFF0
FFF3
0013
000C
0006
000C
FFED
000D
0017
FFF3
FFFF
FFF0
FFFF
0005
000F
FFFE
FFF7
0009
FFF8
000C
FFED
0001
000D
000D
FFF9
FFEF
0004
FFFC
FFFD
FFFD
FFF5
FFF2
0003
FFFA
000B
FFE9
0001
0005
000A
0005
FFF1
FFF9
FFF7
0009
FFF8
FFFF
FFF8
000D
0001
FFFC
FFEA
FFED
FFF5
0004
0013
0003
FFF6
FFEE
FFF7
FFFB
0006
000F
FFE7
FFF4
000E
000A
FFED
FFF2
FFF6
0007
FFFF
0005
FFFC
0003
000D
0003
FFF8
FFED
0008
001A
000D
0004
0005
0014
0005
0016
000F
FFF5
FFF1
000E
FFFD
FFFA
0010
0002
FFFD
0009
FFEB
FFF0
000C
0014
FFF4
0014
0011
FFE6
FFF6
FFF3
FFFE
FFEA
0003
FFF2
FFED
0007
0006
000B
FFE8
0007
000E
000D
0003
FFF9
0006
FFFA
0007
000C
FFF9
FFF5
FFFD
0007
FFEA
FFFB
0007
FFF6
FFFA
0006
000B
FFFD
FFF8
0003
FFF9
000D
FFF1
0000
0000
FFF1
000E
FFFC
0008
0010
000B
FFEA
0008
FFEB
FFF9
0013
0014
FFFC
FFF5
0012
000A
0010
FFF4
0003
0001
0005
0004
FFED
0001
FFF2
FFFA
0001
FFF9
FFFC
FFEF
FFF6
FFFD
0012
FFF1
0004
FFF3
0008
0004
0018
0013
000A
FFFB
0004
0008
0018
000F
0017
FFFA
FFFE
0011
FFF4
0002
0005
0011
FFF7
000E
FFE9
FFFB
0001
0012
0015
000B
FFFE
FFF4
FFFC
000D
FFE8
FFF2
0008
0002
FFFE
0016
FFFF
FFFE
0002
0017
FFF5
FFFA
FFFC
0013
0007
FFFB
0007
FFFA
FFF5
0005
FFFC
000A
FFF9
FFED
0007
0005
000C
FFE6
FFFC
FFEC
000C
FFFE
0002
0010
0002
FFF1
000D
0002
FFF3
FFEC
000A
0006
FFFE
0005
0004
000C
0002
0011
0003
FFFD
FFEB
FFF9
FFEB
FFFF
0007
FFFF
0014
0019
FFFB
0012
FFFD
FFF9
FFFE
FFF1
0003
FFFC
FFFB
0008
FFFA
FFFB
0009
FFF4
FFF4
0019
FFF0
FFFC
FFFC
FFEC
000B
FFF6
0013
FFF7
0010
FFFF
000B
FFF0
FFED
0008
0005
FFFD
0008
FFFD
0007
0002
FFF0
0009
000A
FFF6
FFF8
000A
0010
0011
0002
0010
0013
FFF9
000A
FFFC
FFE9
0007
0002
0010
0008
FFFB
FFF7
0000
0003
0001
FFF5
0011
0012
0001
FFFC
0011
0005
FFFD
0008
0004
0007
000D
FFF4
000A
FFFA
000E
FFFF
FFFC
0002
FFFE
FFF6
0002
FFF3
0012
FFEE
0012
FFF8
FFFF
0008
000E
FFF9
FFE9
000B
FFEF
FFF5
FFF9
0009
000A
FFF1
0004
FFE9
000F
0007
FFF2
0010
000A
0003
0014
FFF5
000D
0006
FFF7
FFFD
000A
0006
FFF1
0002
0014
0008
FFF8
0006
0001
FFF0
0005
FFEC
0000
FFF1
000A
FFFE
FFF0
0015
000C
0007
FFEC
0004
000A
FFFF
000B
0006
0007
FFF0
0005
FFEB
000D
0015
FFED
FFF7
0000
000E
0003
FFFD
0000
0007
FFFC
FFF7
FFF3
FFFE
FFFA
FFF9
0002
0003
FFEA
FFF6
FFF6
0014
000F
0005
FFF5
FFFA
0008
FFEB
FFF3
FFEE
000B
FFF8
0006
FFF7
0006
000F
0010
FFF6
FFFF
FFF8
000B
0002
0002
FFF2
FFFC
FFF1
FFFC
FFF1
0015
0016
FFEE
FFFE
000E
FFF7
FFFE
FFED
000C
0009
0019
FFFA
FFFC
FFEF
FFF7
0000
FFF8
FFEF
0009
FFF7
0011
FFFB
0000
000E
0009
FFEC
0011
FFE9
0000
0017
000E
FFFA
0002
000C
FFFE
0005
FFF6
0003
0000
FFF2
FFF3
FFF8
FFF6
FFF6
0001
FFFB
000E
FFF7
0007
0012
0010
FFFB
000A
000F
FFFF
000D
0012
FFFA
FFFA
000B
0005
000A
0006
FFF7
000F
FFF7
FFEF
FFE8
FFF2
0009
FFF6
000B
FFEB
0015
000A
0003
0011
0015
0007
FFF1
FFF5
FFFF
0015
0011
000C
0008
0016
000E
0009
FFFD
FFED
0006
0006
FFEB
FFFA
FFFE
FFF6
FFFB
FFF7
FFF7
000C
FFFA
0009
FFF8
FFE9
FFFF
FFF7
0004
0004
FFF3
000C
FFFA
FFF1
FFED
0000
0012
FFF9
FFED
0004
0002
FFE7
FFFE
000D
0008
FFF9
0007
FFF8
0000
0008
0007
0007
FFEB
0008
FFFA
0003
FFFC
FFF6
FFF2
0003
FFEC
0015
FFFD
FFF4
FFFC
FFF8
000D
FFF0
0000
FFF8
0015
FFF6
0005
0007
0000
FFF9
FFF7
000B
0012
FFEF
FFF8
000C
0004
0008
0002
FFFD
0013
000A
0004
FFF4
FFF6
0008
0003
FFFD
0000
FFF8
0001
FFFB
000A
FFEB
FFF8
0019
0017
FFFD
0001
0002
0004
FFEF
0007
FFFD
FFF2
FFEF
FFF7
0017
000A
0007
FFFB
0007
FFFC
FFEC
FFF8
FFF4
000D
FFF1
0005
0002
FFF5
FFF4
FFF1
0011
0008
FFFD
0004
FFF5
0016
0000
FFF7
FFF9
FFF1
FFF8
000F
FFFA
0001
FFE7
0003
0010
0003
000D
0001
FFF4
FFF8
0009
0019
FFFD
FFFD
FFF4
000B
FFF5
FFFC
0004
0002
0002
FFFA
0007
FFFC
FFFF
0006
0012
FFEF
FFFF
0017
000A
FFFA
000B
0001
FFFD
FFFC
FFF2
FFF8
FFEF
000F
FFF7
FFFD
FFEE
FFF7
FFEB
FFF8
000F
000B
FFFE
0012
FFF8
0001
0008
000C
0005
0002
0009
FFF3
FFF0
FFF1
000B
0004
000A
0009
FFF5
000D
0007
0000
000D
FFFF
FFED
0004
0004
000D
FFF8
0004
FFFF
FFFC
0001
FFF5
0000
FFF3
FFFA
FFEC
000F
0000
0001
0003
000A
0002
0004
0007
FFFB
0002
0004
FFEE
FFFE
FFF8
FFFE
FFFB
FFF6
FFFC
0011
FFFE
FFF7
FFFD
0014
0017
FFF4
0008
0019
FFFA
FFFF
FFFB
0007
0010
0004
0000
FFFD
0003
0005
FFF4
0005
FFF8
FFFD
FFF4
0004
0007
FFED
FFF3
0008
0000
0016
0003
0010
FFE9
0007
FFF3
0006
FFFB
FFEC
FFF7
FFF1
0000
0005
FFF4
FFFA
000E
FFFB
0017
FFFD
FFF8
000A
FFF7
FFEA
FFFE
FFF5
FFF8
0010
FFFD
FFF4
0004
0007
FFFE
000F
FFF7
FFFE
0008
FFFE
FFF2
0013
0000
FFF7
FFFF
0009
FFF3
000B
FFFA
0008
FFFA
FFF9
000C
000C
FFF4
0004
FFF5
FFFA
0011
0005
0003
FFFA
0012
FFFD
0003
FFFF
0003
FFE9
0001
0011
FFF2
FFF5
FFFE
FFFA
0004
0004
FFFA
000D
0014
FFF3
000A
000C
000A
FFEF
FFFF
0006
FFFD
0009
0002
0004
FFF2
0006
000C
FFEC
FFFB
FFEA
FFFF
FFEE
FFED
FFF2
FFF0
0004
0012
0010
FFF7
0007
0007
FFFE
FFEE
FFFD
FFFE
000D
0009
FFF5
FFED
FFF1
FFFC
0012
FFFA
0002
FFFF
FFF6
FFF5
0001
FFEE
FFFA
000C
0010
FFFB
FFF5
FFF6
0002
FFEF
FFF6
0009
0004
0019
0003
FFFB
000C
0007
FFF5
0006
FFFF
FFFC
FFE9
0000
FFED
0005
0001
FFEA
FFED
000D
0006
0006
FFE7
000C
FFFD
0006
0005
FFFE
0013
0005
FFFE
0003
0000
0017
FFFC
FFF9
FFF3
0019
FFFF
0005
FFFB
0009
FFEE
0001
0003
0006
0003
FFF7
0015
0004
0007
000A
FFFE
FFFC
000D
0017
FFFD
FFFB
FFFA
0005
0004
000A
FFFE
0013
000F
FFF7
0005
FFFC
0014
0007
FFFE
0001
FFF9
0005
FFF0
FFF0
000D
0006
0001
0003
000A
FFFB
FFEE
FFFD
0009
000C
0006
0003
FFF7
000C
FFF4
FFFF
FFFA
FFFD
FFFC
0010
000E
0016
FFF8
FFF7
0017
0012
FFFF
0000
FFF8
FFE7
0006
0009
FFF6
0007
000E
0000
FFE9
FFFF
000E
FFFC
FFF7
FFF8
0002
0000
0005
000B
FFEE
FFF4
000A
FFF3
FFFB
000B
0005
FFEF
0007
FFEC
FFFC
0005
FFF9
0006
000C
0011
0002
000C
FFF7
FFFC
FFFF
FFF4
FFFA
0003
0015
FFFE
0007
000F
0001
0006
000D
FFFA
FFF8
0002
0000
FFFD
0002
0003
FFF7
FFFC
FFF2
0005
0001
000A
FFFA
0001
0010
0010
FFF7
FFF9
FFF1
FFFF
0000
FFFE
FFFD
000A
FFF5
000D
FFF7
FFFE
0012
FFFC
000A
FFFA
000B
FFFA
0000
FFFF
000A
0004
FFFE
FFFE
0003
0004
FFF3
FFEC
FFF3
0008
0002
FFFC
FFF0
FFE6
FFFB
0012
0008
FFFF
0008
0003
FFFC
FFFB
FFFE
FFFF
0004
0001
FFF3
FFF3
0009
000B
0003
FFF3
0002
FFED
0011
0000
FFFC
FFED
FFEC
FFF5
FFF3
0002
0007
FFFE
0008
0000
FFF0
FFF8
0009
0002
000E
FFF4
FFF6
FFFF
FFED
000C
0000
0000
FFF0
FFFF
0001
0002
000B
0009
0004
FFEA
FFFA
FFFB
FFF9
FFE9
FFF5
000B
0019
000A
FFEB
0011
0005
FFF0
FFEC
FFFA
FFED
0000
FFF9
0009
000C
0008
FFF9
FFF3
FFF7
0002
0010
FFFB
FFFA
0001
0019
FFFF
FFF0
FFFB
0008
000F
0010
0008
FFF3
0015
FFFD
0013
FFEF
0000
FFF7
000B
0003
000B
0005
0002
0010
FFF9
FFF3
0011
000D
0003
FFEB
FFFF
0008
0003
0017
0018
000C
FFF9
000C
000D
FFFA
FFF9
FFE9
FFFC
0007
FFED
0001
0006
0002
0000
0007
FFFB
FFFB
FFFF
0002
0009
FFFA
0002
0007
000D
FFEB
FFF9
0014
FFF0
000E
FFF7
FFF2
0001
0005
FFFB
0010
0001
0000
0007
FFF8
FFFC
FFEA
0012
0005
FFED
FFFC
0002
FFF4
0002
000E
FFEF
0008
0015
FFF5
FFED
0006
FFE8
0014
0003
FFE6
FFF7
FFFE
0001
FFF6
0000
0002
0009
FFFC
FFFD
000A
0000
0009
000A
0009
0008
0001
FFF5
0004
FFF3
FFFF
0004
000C
FFF2
0001
0012
FFEE
000A
0001
0012
FFF4
FFF9
000C
FFF5
FFF3
FFFD
0008
FFF3
FFF0
FFFD
FFED
FFF4
0006
0003
FFEA
FFF8
0014
0003
0015
FFF4
FFFC
FFF9
000D
FFFC
FFF3
0004
FFEE
0012
0002
FFF6
FFFB
0017
0006
0009
FFFF
FFEF
000A
FFF5
000A
FFEB
FFFA
000C
000D
FFFA
FFFE
0013
000F
0001
FFF2
0005
0009
0005
0015
0011
FFF6
0001
0007
FFF0
FFFD
FFEE
FFFD
FFF9
0000
0000
0002
0014
FFF3
FFF0
000D
0008
0016
FFFC
000F
FFEF
FFEC
0014
0004
0008
FFFA
0003
FFFA
0008
FFE9
FFF2
FFF0
000E
0007
0007
0005
0001
0004
000E
0001
0003
0009
0000
FFFC
0005
FFF9
FFEE
FFF3
FFF9
FFF1
000D
000A
000C
0009
FFEF
FFF6
0007
FFFB
FFFB
FFEF
0012
0003
000B
FFEB
0001
FFF1
0010
0006
0002
FFF0
0002
0012
FFFC
0000
0011
000A
000E
0011
000B
FFF4
FFFE
0017
0000
FFFA
FFFC
0009
0012
0000
000B
FFF8
000D
FFF3
FFF4
FFFC
0017
FFF9
0007
FFF5
0011
FFF5
FFE7
FFFA
FFFB
FFF0
FFFE
0007
000C
FFF3
0016
0000
FFFC
0018
0016
FFF6
0000
FFFC
FFFE
0010
FFF2
0010
0000
FFE6
0000
000A
000D
0003
0002
FFF5
0007
0017
0002
FFFC
000A
FFFF
FFFB
FFFE
FFE9
000B
0003
0003
FFF4
FFF2
FFFA
0003
FFF3
0003
0007
0007
FFF0
0012
FFF3
FFEF
FFF9
0008
0005
0000
FFF9
0002
000D
FFFC
FFF9
FFFA
0018
FFF6
FFF9
0004
FFFC
FFF8
FFF9
0000
FFFB
FFF5
000A
0002
FFF9
0011
0000
000F
000C
FFF8
FFF3
FFF8
0004
FFFD
0003
0015
0011
FFFC
0000
FFEF
0006
FFFB
FFFE
0002
0007
0008
FFFF
0003
FFFA
FFF6
FFFB
FFF4
000F
FFF6
0011
FFF1
0002
FFFD
0006
FFEC
0011
0001
0010
FFFF
000F
FFF7
FFF3
000A
FFF7
FFFD
0007
FFF8
FFFA
FFFA
0007
0013
0001
0013
0007
FFF1
FFF7
0005
0007
FFEB
0007
0009
0001
0004
FFF7
FFF7
0008
FFF4
FFFB
FFED
0002
FFF4
0005
FFF5
0005
FFF8
000E
0004
0007
FFFB
0008
FFFD
FFEA
0005
0005
000A
000C
FFF6
0003
0003
0001
FFF9
0008
FFF4
0000
FFF5
FFF4
FFEC
0001
000C
0015
0011
0003
FFF5
0001
FFE8
FFF7
0008
FFFC
FFF7
FFF2
FFFA
0008
FFF2
FFFD
0013
0000
0006
0008
FFEE
FFFF
000D
FFFC
FFEC
000A
0009
FFFC
0003
0004
0006
0003
FFF4
FFEA
FFFE
FFFD
FFEC
FFF8
FFF8
FFF4
000B
0004
FFEB
FFF0
0001
FFF6
0008
0011
0003
FFFC
FFFF
0007
0005
FFF1
0009
0019
0013
0011
0008
0016
000F
FFEA
000B
FFFC
000A
0013
FFFA
0011
FFEF
000B
0002
000E
0000
0006
FFFF
FFFC
FFF5
FFEF
0002
0005
0001
FFF5
FFFF
0017
FFFD
FFFD
FFF2
0001
0007
FFEB
FFFE
0007
0007
FFFF
0003
0004
0015
000C
0012
FFFA
000D
0008
0002
FFF0
FFFC
0001
0010
FFF9
0004
FFFE
0016
000E
0016
0017
000E
0001
0003
0006
0003
FFEF
0009
000C
0010
FFFC
000B
FFF6
0004
FFF0
0017
FFF6
FFFD
FFFE
0007
FFF9
0013
0002
FFEE
0003
FFF6
FFFD
FFF4
0005
0004
0010
0006
0006
FFFE
FFF6
FFFC
000E
000F
FFFE
FFF2
FFFB
FFFC
FFFB
0002
FFF1
FFF8
FFF8
0019
FFEF
0001
000C
000C
0002
0000
0016
FFF9
000C
FFFC
000E
FFFE
000E
FFEB
0002
FFEC
FFF5
FFEF
FFEB
FFFF
FFFB
FFFC
0008
0002
000C
FFFA
FFF0
0003
FFE9
FFFB
FFF3
0005
0007
FFF3
000B
000E
0005
0006
0005
FFFB
0010
FFFA
FFFD
0008
0009
0002
FFF1
FFF9
000D
FFF3
FFE7
FFFD
FFFD
0005
FFEF
0005
FFF5
FFFE
FFFC
FFFA
0003
000D
FFF8
0009
0005
0014
0000
0008
0004
0011
FFF9
0006
000F
FFF8
FFF2
FFF9
FFFF
FFF5
FFFC
000A
FFF1
FFF1
FFFA
0000
0002
0007
FFF0
FFF8
FFFD
0019
FFF0
FFFD
FFF0
FFFD
FFFF
0007
000B
0003
FFFE
FFEC
FFFE
FFF5
0004
0003
0004
0004
0002
0009
FFEB
FFF9
FFEB
000B
0012
FFF9
0004
0015
0017
0007
0002
FFF6
FFFD
0004
0001
FFE7
0002
FFEF
0013
FFF3
0008
0001
0001
0000
0017
FFF9
FFF7
0002
FFF6
0006
0005
000E
FFE6
0005
FFF4
000B
000B
0012
0009
FFF7
0002
0005
0005
0005
0004
0011
0012
0003
FFFB
FFF9
FFFC
000C
000A
FFF6
FFF1
0000
FFF9
FFF0
0017
FFFD
FFF3
000E
0004
000A
0007
000A
0008
000A
0016
FFFD
0008
FFEC
0004
FFF2
FFF7
FFE9
0001
FFFC
0000
FFFB
0007
0000
0003
0002
0004
0019
FFFD
FFF7
0004
FFF4
0011
0005
0007
000E
FFF1
FFE7
0000
FFFF
FFEA
FFFC
000B
0003
000D
0016
FFFE
FFF7
FFF6
FFFD
0012
0000
0008
0004
0001
FFEE
FFF7
FFE7
0002
FFF3
000A
FFFD
0002
0008
0002
000C
0010
000E
0004
0007
FFFE
FFF7
0013
0002
0002
0005
0008
FFE8
FFFC
FFFC
FFFA
0003
FFF3
FFFC
0004
FFF6
FFFB
000B
0004
0005
0001
000B
000B
FFE7
0016
0010
FFF8
FFF0
000E
FFF6
000E
0018
FFFD
000D
0008
FFFF
0001
FFEF
FFF7
FFFB
FFF0
0007
0000
000F
FFFB
000D
0004
FFF2
FFED
FFF5
FFF4
FFFA
FFF9
FFF9
0018
FFF8
0008
FFF9
0001
0006
0011
FFF6
FFFF
FFFE
FFFF
0005
FFF3
0000
FFF5
0000
FFF6
0012
0006
FFF6
FFF9
FFF5
FFFA
0014
FFF5
0006
FFE9
FFFE
0011
FFF0
000C
FFEE
0000
FFFD
FFF2
000B
FFFF
0002
0006
0005
FFE7
000B
0006
FFFF
0009
0012
FFFF
0005
FFFD
FFF4
FFF0
0002
0006
0014
0003
0003
FFEF
FFEE
FFF4
FFFB
0003
0016
FFF7
000B
0011
0009
FFFA
0002
FFFC
FFFE
FFF7
000C
FFF9
000B
0001
0007
FFED
000E
0019
FFFC
FFF6
FFFC
0008
FFF6
000E
FFF5
FFF3
0001
0005
FFEF
000E
FFFA
FFFE
FFFC
FFEC
0006
FFEC
FFF5
000F
000A
FFF0
FFF7
FFED
FFF5
FFF2
FFEF
0009
FFEC
0002
FFFC
0000
FFEC
0000
0008
FFFA
FFEC
FFF5
0008
0000
0004
FFFC
FFF1
0012
0002
0002
000A
FFFC
0018
FFF8
0012
FFF9
FFF7
FFF6
0007
0007
FFF6
0000
FFF9
FFFB
0007
0001
FFF9
0005
FFEB
FFED
0007
FFFC
000D
0008
FFEE
000A
0006
0007
0001
FFF1
FFEA
0003
FFF8
FFF4
0008
0001
0006
FFF2
0008
FFEF
0002
FFEF
0012
0013
0005
FFFC
FFEF
FFF5
0010
0015
FFF0
0003
FFFB
FFEB
0001
FFEE
FFF4
FFFD
0018
FFE7
000C
0006
0006
FFE7
0001
FFFA
FFEE
FFFA
FFFD
0001
000D
0003
0000
0010
0000
FFFB
0015
000D
FFEE
0001
000B
0006
0007
FFFF
0009
0005
FFF2
FFFD
FFF6
0004
0001
0008
000A
FFFC
FFFF
FFFD
000D
000A
0008
FFFC
000C
000D
FFFA
0007
FFEF
FFFB
000C
0005
0008
FFFD
000A
0015
FFF8
FFEF
FFFE
FFED
FFFE
FFFD
FFF6
FFFC
0017
FFF5
0000
FFE9
FFF2
000E
FFFF
FFE8
FFFE
FFF0
0000
FFFC
000A
0010
FFF8
0010
FFFA
FFF7
FFFB
FFF6
FFF5
FFF2
FFF5
FFF7
FFFB
FFFC
0004
FFEF
FFFB
FFFD
0014
000C
0011
FFF4
FFFF
000E
0008
000E
0001
0001
FFFD
000E
000A
0000
000A
FFFC
FFF2
FFF7
0015
000C
0014
FFF3
0011
0016
FFFA
0008
0007
000E
FFFA
FFFF
FFF8
0004
0009
FFE9
0006
FFFD
0013
FFF2
001A
0002
000B
FFF8
FFF1
FFFC
FFEB
FFFF
0000
0000
FFE7
FFF8
FFFC
0011
FFF3
0010
FFFC
FFF8
FFFA
FFEF
FFF9
0003
FFFD
FFF1
0017
000C
FFF0
0004
FFED
FFF7
000F
000C
0006
000E
FFFC
0009
000D
FFFB
000A
0012
FFF8
0002
FFE7
FFF4
FFFD
0002
000B
FFF0
FFFC
FFFD
FFF8
0012
0004
0003
FFF2
FFFC
FFF5
0001
FFFC
FFF0
0007
FFFB
FFFE
FFF2
000B
FFF4
000D
0003
0007
0010
0000
FFF7
0001
0007
0004
FFF9
0006
0000
0010
FFEE
FFFC
000B
0002
FFFE
0009
000C
0000
FFF6
FFF9
FFF1
0004
FFF0
0003
FFEB
FFF6
FFFD
0004
FFFE
0008
0003
0009
FFF3
FFFD
FFFE
FFF9
FFFF
0013
FFF5
FFF4
FFEF
FFED
000D
FFFE
FFFC
FFF7
0005
0007
0005
0000
FFFC
0018
000F
0004
0018
000C
FFEC
0007
0008
FFF9
FFF8
0003
FFFC
0001
0016
FFF2
0007
0003
000C
0005
FFFF
0000
FFF8
000A
FFF5
000B
0007
0007
000E
FFFE
FFF7
0005
FFFB
FFFB
FFE9
FFFB
0004
0004
0016
0018
0008
FFFB
000D
FFF9
0009
FFF5
000B
0005
000A
FFF2
0007
0002
0016
FFFB
FFFD
000A
FFF1
0002
FFEA
FFFA
0004
FFFA
FFF3
0000
FFFD
0009
FFFA
FFF4
FFEE
FFFB
0003
0015
FFF8
000F
FFEC
0000
0019
000C
0011
000D
0007
FFF9
0001
0002
FFFA
FFF1
0011
FFF0
0009
FFFD
0019
0001
FFEB
000A
FFF7
0012
FFF7
FFF6
FFF5
0000
FFF5
000B
0014
FFFE
0010
FFF5
FFFA
FFF4
0000
0006
FFF0
FFFC
FFFE
FFF9
0001
FFF4
FFFA
FFF2
000C
0015
0000
FFF4
FFF1
FFF8
FFF7
FFFA
FFEB
FFF4
0005
0002
FFF2
FFF0
0017
FFFF
0010
0004
000C
0001
FFFD
FFFF
FFFD
001A
0006
FFF8
0003
0007
000E
000E
0002
000A
FFF1
0019
000A
FFF7
FFF3
0003
0005
FFEC
FFF3
FFF3
FFF6
0000
000F
0005
FFF8
000C
FFFE
0010
FFFC
000A
0009
FFFA
0014
FFFE
0008
FFF7
FFFD
0010
000A
000B
0003
0015
0007
0004
0012
FFF9
0009
000A
FFF8
0002
FFFB
0005
FFFB
FFF7
FFF7
0000
0002
0006
FFFF
0009
0013
0008
0005
0002
0009
FFF6
000B
0002
0003
FFFC
FFF0
0003
0004
FFFE
0007
FFF5
FFFA
0000
0018
0001
000C
FFFC
0003
FFF5
0007
FFFC
0008
FFFB
0005
0003
0000
0000
FFEB
0012
0002
FFF2
0008
000E
FFF4
0002
FFFD
FFED
FFFD
FFFD
FFEC
FFFE
FFFF
FFEC
000A
000C
0002
0004
0013
FFEB
FFF0
0011
000E
FFEF
FFFF
0002
FFF8
FFFE
FFF0
0007
0007
FFFB
000C
000D
0011
0004
FFFA
FFF0
FFFB
0018
FFE7
0005
FFFB
FFF8
FFFF
FFF1
0001
000D
0001
0003
FFEC
FFFD
FFEE
FFF4
FFFA
0006
0000
0002
0002
FFF5
FFF2
000D
FFFB
FFE7
FFF4
FFF9
0005
FFEA
000F
0015
000A
000A
000E
0007
FFFB
FFF8
0003
000F
0007
FFFC
0002
0000
FFEC
FFF9
0009
FFFE
0014
FFF7
0006
0009
0002
FFF6
0002
000D
FFFB
0006
FFE7
FFF0
0008
0001
0019
0005
000B
FFFB
FFFE
FFFA
FFE7
FFFA
FFFF
0001
FFF0
FFFB
000E
0013
0005
0000
FFFA
FFFF
0001
0012
0005
FFF7
FFF3
0005
0014
FFF4
000B
FFFB
0017
FFFE
0005
FFE9
FFFC
FFF1
000D
FFFB
FFFB
FFFA
FFEA
FFFD
FFEA
FFFB
0003
0001
0014
000B
FFFA
000F
FFFC
FFED
FFF0
0007
FFFB
FFF9
0001
0008
FFF5
FFFB
000C
0017
FFF9
0001
0010
FFFA
0004
FFEE
0006
0016
FFF1
0000
0000
0000
0003
0012
FFF6
FFE9
000B
0003
FFF3
FFFA
0005
FFFF
0009
0004
FFF6
FFFC
FFFE
0010
0014
FFFD
FFF7
FFFC
000A
0016
0000
FFF3
FFFE
0003
FFF4
000B
0019
0009
FFEB
FFF9
0007
FFF9
FFF6
000A
000D
0005
FFFE
0009
FFFB
0008
0009
FFFB
FFED
FFF6
FFF7
FFF0
000E
FFF6
FFF1
000E
FFF4
FFF4
FFF2
FFEF
0009
FFEE
FFFE
FFF6
0010
FFFE
FFF2
0009
FFF8
FFF7
0003
0009
FFE7
0006
0001
FFF0
FFF8
0006
FFFA
000E
FFF0
0018
FFEA
0006
FFE7
0000
FFF1
FFEE
FFFC
0008
FFF5
0012
FFFF
FFEB
FFFA
FFFF
FFFA
FFF4
FFF4
FFF6
000E
0000
FFFE
FFFD
0003
FFFD
FFFB
0009
0018
0013
000B
FFFE
0000
FFF7
FFED
0002
000D
0002
FFFC
FFF2
FFF7
0006
FFF9
FFF7
000B
FFF4
FFFA
FFE8
0006
0000
0018
0006
0000
0013
0001
FFEB
FFE9
FFF9
FFFE
FFF0
FFF3
0012
000D
000F
FFF5
FFE7
FFF5
FFFF
0000
0016
FFF5
FFEB
FFFE
000C
0007
0005
FFEB
0009
FFFD
FFEE
FFF3
FFEE
0007
FFF8
FFF6
FFF6
FFF7
0002
FFEC
0009
0009
0000
FFFC
FFF5
000E
0016
0014
FFFF
000F
0010
0006
000E
0002
FFFB
FFFC
FFF9
0011
FFFC
FFFF
0014
000D
FFE8
0006
000E
FFFD
FFFC
FFFE
0015
FFF6
000C
0019
0016
0000
FFFB
FFF7
0008
FFF3
FFEE
0001
0009
0003
FFF7
0004
001A
FFFA
FFF9
000D
FFFA
0002
0016
000E
0012
0012
FFFC
0006
0010
000C
FFFC
0012
0002
0007
0010
0014
FFE8
FFFD
FFF9
0004
0003
FFEE
0005
0005
0008
FFFF
FFFA
0019
FFFE
FFFC
0009
0000
FFFF
0000
FFEF
FFFC
FFF8
0008
FFFF
FFF5
000F
FFEE
0004
000B
FFFB
FFFD
FFF8
000A
FFF7
0014
FFFA
FFF6
000F
0007
0001
FFFF
FFFD
0001
000F
0007
000D
000E
FFF5
000D
0015
0000
0001
FFF5
FFF8
0005
0011
0008
FFFC
0001
FFF3
0005
FFF6
000B
000C
000B
000D
FFF6
FFFB
FFF7
0004
FFFD
FFE6
0000
000A
0004
FFEF
0008
FFFF
0005
FFFB
FFFA
0000
FFF7
0006
000B
000E
0013
0004
FFF8
0007
0004
FFF1
0006
0003
0002
0002
FFEB
0010
0005
FFF6
FFFF
FFFE
000E
0006
0016
FFF9
FFF9
0009
FFF3
FFFA
000D
FFFC
FFF4
0017
000A
FFF3
FFEF
0004
0006
FFED
0005
0005
000B
0007
0009
FFFA
FFEB
0000
000C
FFFE
0013
FFEE
000B
FFF2
0011
FFEA
0002
0008
0011
0004
000F
0007
0004
0005
FFFD
FFFE
FFFA
FFF8
000D
FFEC
0004
FFF4
FFF7
0016
FFEE
0016
0009
FFF2
0011
0004
000B
000E
0019
FFE7
FFEE
FFF7
FFF5
000D
0014
FFF5
0006
FFF8
000A
FFF2
000C
000E
FFF7
FFF5
000B
0007
0011
FFFF
FFF5
FFFA
FFFC
FFF8
FFF2
0006
0016
FFF9
FFF6
0015
000A
FFED
000A
0014
0008
0002
0013
FFFC
000C
0004
FFF9
0005
FFFF
FFF5
FFEF
FFFB
0008
0008
FFF2
FFF4
FFF5
FFFF
0000
FFFD
FFE7
000C
0005
FFF5
0008
FFF9
FFEE
000B
FFF0
FFFB
FFFD
0007
0002
0003
0008
0011
0011
FFF6
FFF0
FFF7
FFF5
FFF6
0003
FFF8
FFF9
FFFF
0006
FFFF
FFF2
FFF3
0002
FFF4
FFEA
0009
FFFF
0006
0000
FFFD
0012
FFF9
FFFC
0011
FFFF
0010
FFED
FFF3
000F
FFFC
000E
FFF3
FFEA
FFEF
0000
0005
FFF1
FFFA
0000
0010
FFF3
0004
FFF7
0011
FFE7
0008
FFFD
0005
FFFC
0005
FFF7
FFFE
000C
0006
0017
FFFF
0005
FFFE
0012
0007
FFF0
0013
0006
FFFD
0010
FFF7
FFFE
FFEE
FFFA
FFFB
FFFC
FFF2
0005
0012
0006
0019
FFF9
FFFF
FFFC
FFF9
FFF5
000E
FFFA
0014
0015
FFFA
FFEC
0001
0000
0010
FFF2
0006
0012
FFE7
0000
FFF4
0013
0006
000E
0009
0004
0002
FFFC
FFFD
FFF6
0000
FFF3
FFFE
000A
FFF3
000A
0016
FFFB
FFFD
FFF0
0005
0005
0005
000A
FFFC
000E
000D
FFFE
000B
FFFA
FFEF
FFEE
0005
0004
0009
0007
000C
FFF1
000C
FFF3
0002
FFFD
0002
0003
000A
0004
0006
FFFD
000F
0018
0011
FFE8
FFF8
000C
000F
0006
0004
000B
0006
FFF4
000F
FFFD
0001
000F
0016
000B
000B
0011
0001
0000
FFFE
FFE8
000C
FFEE
0008
FFF7
0008
FFFB
0002
0000
0010
0007
000C
0002
0010
FFFA
FFFE
0009
FFF7
000F
0008
FFF4
0017
FFFB
0005
FFF4
FFFE
0013
FFFF
0004
000A
FFF2
FFF5
0007
000E
FFFF
0001
0005
0011
0011
0019
000E
FFEB
FFFF
0002
FFF6
000C
000C
FFEB
FFEF
FFF2
FFFF
FFED
FFF9
FFF7
000D
FFFA
FFF2
0003
FFED
FFF1
FFFB
0004
0015
000B
0007
0008
FFFE
FFF4
FFFB
FFF6
0005
FFF6
FFEC
0005
FFFD
0012
FFF4
FFF7
0004
FFFF
000E
0005
FFF2
0018
0007
0003
FFFC
FFFB
0011
FFF5
FFF5
FFFD
0000
0000
FFEF
0008
FFFE
FFFA
FFF9
FFF4
0000
FFFA
000E
0002
0005
FFF7
000C
0019
0003
FFEA
0010
0006
0009
FFF1
0012
0014
FFE9
FFFE
000B
FFF8
000C
0001
0006
FFF8
FFF6
FFEF
FFFF
0006
FFFA
000E
FFF7
FFFC
FFF8
FFF3
FFEC
FFF8
000E
FFFA
FFFF
000A
0002
FFFA
0010
FFFC
FFED
0005
000F
0013
0014
0010
FFF7
FFFD
0003
FFFD
0000
0005
FFF7
FFF7
0007
0002
FFFF
FFF2
0012
FFE7
0007
0013
0005
0001
000A
FFEA
FFFB
FFFB
FFF7
0005
0004
FFFB
FFF6
0009
FFF1
0017
000F
FFF9
0010
FFFD
0000
0013
FFE8
0003
FFF8
0006
FFFB
0010
0008
FFFF
0008
0005
0006
0019
0013
0010
0012
FFF2
0009
000C
0010
0006
FFF3
FFF5
0003
FFF0
FFF8
0006
000D
FFF7
FFFC
FFFC
FFFD
FFF6
FFEE
0017
0000
FFF4
FFF5
FFFB
0002
FFFA
000B
0007
0004
001A
FFEE
000D
0011
0004
FFF6
0007
0001
FFFB
FFFB
0005
FFFD
0000
FFFF
0008
0008
0013
FFF4
FFF0
FFFE
000A
000B
0005
0007
0003
FFF1
FFFA
FFF3
0008
FFE7
FFF8
FFF1
0014
FFFD
0008
0007
FFFD
0008
0009
0003
0004
0000
FFEE
FFF8
0009
0006
0000
0004
FFFF
0011
000B
0009
0009
FFE7
0011
0012
0003
FFF7
0000
FFF2
FFFE
000A
FFFB
FFE9
0004
0002
FFF5
FFFB
FFEB
0010
0006
FFFB
FFF0
0001
0005
0010
0006
FFFC
0007
FFF6
0012
FFFC
FFF2
000C
0005
FFF0
0000
000D
FFF6
0006
0013
000E
0010
0000
000E
FFF2
FFF4
000C
FFFB
0016
000F
FFF6
0002
FFF8
FFF5
FFEC
000A
000D
000A
0009
FFFF
FFF4
0019
000F
000D
0018
0005
FFFC
0003
FFF2
FFF1
0014
FFF2
0002
FFF9
000E
FFEC
FFF3
FFFD
0007
FFFB
0011
FFFA
FFF0
FFE7
FFF8
FFF9
FFFD
0006
FFED
FFEC
FFEF
FFF5
FFF0
0014
0019
FFF6
0002
FFFC
FFFA
FFFE
FFF7
0013
0008
FFF0
000A
0002
0007
0005
FFFC
FFEA
FFEE
000C
0011
FFED
000C
0002
0008
FFEE
000A
0001
FFFE
FFFC
0018
FFF7
FFF0
0008
FFFB
FFF9
000B
FFE8
000A
0009
0001
0004
FFF8
0005
000A
FFFE
0001
000B
FFEF
FFF1
FFEE
000C
FFF9
0001
0006
0014
0010
0000
FFF1
FFFE
FFFA
000F
FFF5
FFFF
FFF3
FFF2
0002
FFFB
000A
FFF4
FFFE
FFFC
FFF9
0015
0004
0000
000A
001A
0008
0000
0007
0004
FFFC
FFF8
000D
000A
FFEC
0012
FFEF
FFF1
000A
FFFE
FFF9
FFFC
FFF0
FFFD
FFFA
0001
000E
0001
FFF1
0005
0015
FFED
000F
0006
0000
0000
FFF8
000B
0003
0011
FFFE
FFEE
0002
0002
0011
0015
FFF5
FFFE
FFF8
000B
FFFB
FFEE
FFEA
0008
0005
0014
0000
FFFF
FFF5
000C
FFF3
000B
000C
0005
FFFE
FFF2
0009
0007
0001
FFF1
FFED
0002
0002
0006
0010
FFF2
0005
0001
000C
0000
0003
FFFA
FFF5
0008
FFF0
0005
FFFE
FFEC
0000
0003
0003
FFEC
0003
0004
FFFA
0008
000D
000C
FFE9
FFFF
FFF0
FFFF
0004
FFF3
FFF6
0011
000F
FFFB
0018
FFF4
0009
FFF1
0007
FFFC
FFEF
FFF4
0005
FFF9
FFEA
000D
FFF6
FFFC
0004
0009
0007
0000
FFFE
FFFC
0010
FFF5
0008
0002
0009
0001
FFFD
0002
FFF8
FFFE
000F
0013
0004
0019
0004
FFF1
FFF0
000B
0016
0008
0002
0007
0005
FFF0
FFFF
0017
0002
FFE8
FFF5
000D
000A
FFF6
FFFE
FFFD
000F
000C
FFF9
000B
FFFF
FFFD
0002
FFFD
0010
0008
000C
000B
0006
FFF5
FFEE
FFF5
FFF2
FFFF
0002
FFF8
FFF4
0005
000E
0003
FFF6
FFF2
0009
FFFA
FFF6
000A
0010
000C
0008
0008
FFF1
FFF7
000C
0017
0007
FFF7
000A
0003
FFEE
FFF8
0003
0006
0005
0003
FFFF
FFFC
0003
FFFF
0012
FFFD
000A
000B
0000
0009
0005
FFFE
0002
FFEF
0008
FFF6
FFF7
FFFE
0012
FFFE
FFEF
FFFB
0001
0001
FFFC
0009
0000
FFEE
0004
0016
FFEF
FFF9
FFF4
FFF8
FFFE
0004
0001
001A
0006
0007
000D
FFE7
FFFC
FFF0
FFFC
FFF6
FFEB
0015
0003
FFEF
000B
000F
FFF1
0000
000E
000A
FFF7
FFF7
FFFD
0002
0000
0013
FFFA
FFEB
FFF5
0008
FFFB
0016
0001
000B
0008
0004
0008
0006
FFF7
0001
FFFE
FFE7
FFFE
0005
FFFB
FFF2
0008
FFFF
000A
FFFE
FFFF
FFFA
FFEB
000A
FFF9
FFF3
FFF0
FFFE
FFF9
FFF8
FFF0
0013
000B
FFF4
FFFB
FFF4
0001
FFFF
FFEF
000B
0001
000E
FFFA
0010
000F
000E
FFEA
0001
0009
0002
FFFB
0000
FFEF
0000
000B
0002
FFEF
FFFD
0009
FFFD
FFFB
0000
0006
FFF3
FFFB
FFF7
0006
FFEF
FFFF
0002
000F
0002
FFF6
FFF9
0016
0006
FFFA
0008
0000
0002
FFF5
0004
0002
FFF6
FFEF
FFE9
FFF6
FFE7
0010
0005
FFF2
0001
0009
FFF8
FFFC
FFFD
0007
0016
FFF7
000A
FFEB
0005
0007
0000
000A
FFF5
000F
FFFE
000F
0004
0018
FFF9
0003
000D
0018
000A
FFFF
FFFA
0007
FFF5
0004
000B
FFF7
FFF7
0001
0005
FFF2
0014
0007
000B
000A
FFFB
FFF7
FFF6
FFEF
000D
0009
FFFE
0007
FFFE
FFFB
000F
0005
FFF5
000F
FFF8
FFFB
0009
000C
000D
FFED
0001
FFFF
0003
FFF0
0003
FFF4
FFFE
FFF7
000D
FFFC
FFE9
FFEE
0014
000E
FFFF
000E
FFFA
0002
FFF5
FFFD
0016
FFF8
FFE8
FFFD
0004
0003
FFEB
0006
FFED
FFF3
FFFC
FFF7
0009
FFFC
0006
FFED
FFF8
FFFD
0019
FFF5
000C
0008
0001
0010
000C
FFFC
FFFA
FFF9
000E
FFFE
FFEC
0003
FFF8
000C
0005
FFFA
000A
FFF9
000E
FFF8
FFFF
FFF9
FFEB
0006
0007
0009
FFFA
0002
FFFD
0011
000E
FFF9
0014
FFEB
0006
0013
0003
FFE8
000C
FFFA
0003
0003
FFFB
000D
FFF0
0000
FFFF
0009
0010
FFF9
0008
0002
0004
FFF8
FFFC
000F
0005
FFFD
FFFE
FFF9
FFFD
0003
0009
0011
0014
0006
000A
FFFE
0008
FFFB
FFF8
000C
000B
0018
FFFD
FFE8
FFF2
FFEE
FFEF
FFFC
000B
0000
0003
FFFF
FFFE
0001
FFF5
FFF7
0006
000A
000D
0001
FFF1
000B
FFFE
FFFF
FFF9
FFFB
FFEF
FFFE
FFFE
FFF1
FFF6
000D
0005
0009
000B
0011
000B
0016
0003
FFFE
0006
FFF4
0009
FFFF
0018
0000
0016
0005
FFF9
FFF4
000F
0000
000A
000B
FFEC
0016
0006
FFE8
FFEB
0013
FFF1
0004
0002
0003
FFF9
FFF7
0012
000A
FFFE
0004
FFFF
0007
FFF2
0003
000F
FFEF
FFFF
FFFD
FFFE
0005
0014
FFFF
FFFD
0014
FFFD
0014
0007
0004
FFF0
FFF0
0005
0007
0014
FFFD
FFF5
FFE7
000C
FFFB
FFF3
FFEE
FFFC
0004
0012
0002
0015
000B
0012
0005
FFFE
0006
FFF4
FFFF
0001
000D
000E
0019
FFFD
0013
FFFA
FFFE
0008
FFF7
FFFA
FFFD
0002
0005
FFFD
000D
0010
FFEF
0000
0004
FFF8
FFF7
FFF8
FFFF
FFF5
FFF1
FFF8
000E
FFFB
0005
0001
0006
0011
0004
0003
FFFD
0005
0016
0008
000A
0001
0008
0012
000E
FFE6
0008
000C
0006
0009
0006
0013
0008
0005
0010
FFF9
FFFD
FFEF
0001
FFFF
FFFB
0002
0009
FFFE
FFF2
FFF2
FFEF
FFEF
FFF7
FFF5
0011
000F
000C
FFFF
000B
FFED
FFF6
0009
FFFA
0006
0014
0003
FFF2
0004
FFF6
000C
FFF2
FFF6
FFFD
0003
FFFD
FFFD
FFFF
0004
FFF6
FFFE
0009
FFF6
000E
0003
FFF9
FFF5
FFF6
0006
0001
0006
FFF8
0007
000E
0006
0011
FFF1
FFF2
000C
0013
FFEB
FFF2
FFF8
000C
0000
0014
0003
0007
FFF2
0010
0017
0003
0004
FFF5
FFF1
0001
0000
0000
FFFB
FFFC
000B
FFEB
0010
FFF0
000A
FFF9
FFFA
0002
0010
0013
0015
0009
FFF4
FFEA
FFFB
FFF3
0007
000D
FFFC
000A
000D
FFED
0013
FFF0
0005
FFF1
0012
FFE9
FFFB
FFFA
000D
0001
0006
FFEA
FFF8
FFF0
FFF8
FFF8
FFF7
FFE9
0002
0012
FFF1
0005
0005
000F
FFF7
000B
0001
000C
000E
FFF6
FFEA
0008
FFEA
FFFD
FFFC
0017
FFF0
0005
0014
FFF9
FFEB
0008
0008
000A
FFFE
FFFE
FFF6
000B
0007
FFF7
FFF5
0003
0008
0004
0007
FFF2
FFF2
FFFE
0002
FFF2
0007
FFF7
FFFE
0005
0004
0006
FFF5
0006
0003
FFF8
FFF4
0018
0010
FFF5
FFED
0005
0016
FFF6
0010
FFF4
FFF1
0006
0002
FFED
FFF8
0004
0005
000D
0004
FFFB
000A
FFF4
FFFF
0006
000E
FFEF
FFFD
FFF8
FFF2
0005
FFF7
0000
0008
FFF8
0004
000B
0001
FFF3
0001
0003
0008
FFF5
FFFC
0010
000A
FFEF
0012
FFFF
FFFA
0018
FFFE
FFF5
000B
0012
FFF8
0007
0002
0000
000F
FFF8
000C
FFF9
FFFC
000C
0002
000A
000E
FFF2
FFF5
FFFE
0000
0006
0014
FFF4
FFF9
000D
FFF7
FFF7
000B
FFF2
0005
0009
0014
FFF4
FFFF
FFFD
000E
FFF8
FFF6
0007
000A
0004
0000
0001
0010
0003
FFE9
0006
0009
FFEF
FFE8
FFEE
FFF9
000C
0017
0009
FFFB
0004
000B
FFFA
FFF8
FFF0
000C
FFFC
0002
0015
FFFC
FFFF
000C
FFF8
FFFE
FFF8
FFFF
0018
FFFD
FFF9
0000
FFE7
FFFB
0015
FFE9
0010
FFFC
0006
000C
000C
0002
0003
0013
000E
FFFD
FFF4
000E
0012
0001
FFF2
FFFB
FFFC
0000
FFF0
0008
FFFD
FFEE
000F
FFEA
0000
0004
FFF2
0011
0013
FFF4
0014
FFE8
FFF4
FFF5
0008
0017
0016
0004
FFE9
FFFB
FFFE
FFFE
FFFB
0005
0014
000D
000C
0006
FFF7
0006
FFF8
0002
0000
0005
FFF4
FFF9
FFF5
0003
FFF8
0009
0016
0000
0002
0001
0006
0003
0009
FFFC
FFFB
0017
0008
0008
0006
0001
0019
FFF7
FFED
FFF7
FFFF
FFF4
000C
FFFC
FFF3
FFFA
0004
0011
FFED
0001
0000
0018
0012
0001
0013
FFFB
000C
000D
FFF9
FFF6
FFF3
0006
0001
FFFC
FFFA
FFF9
FFF9
000E
FFF9
FFF8
0010
0016
0006
0012
000B
0002
0000
FFFC
FFFC
FFF3
0002
000C
FFF7
0013
0006
FFF8
0012
0015
0014
0007
FFEF
FFE8
000C
000D
FFF0
0007
FFF3
0001
FFF5
0009
FFEF
0006
FFFB
0002
0002
FFFA
FFFF
FFFA
FFFC
FFFC
FFFB
FFFD
0008
FFFE
0012
0002
0007
000A
0003
FFF7
0009
0005
0009
FFF7
000A
0004
0007
000E
FFF4
FFFE
0009
FFF8
000F
000C
FFF0
FFF0
000A
FFFE
FFF8
0014
0012
0003
FFFD
FFFD
FFF4
0000
0010
000C
FFEF
FFF4
FFFA
FFFD
FFFA
0013
0000
0003
FFE8
FFF2
0010
0011
FFF8
0004
000B
0007
0002
FFF8
0002
0008
0003
FFF8
FFFE
0003
000A
0010
0005
FFFF
FFF2
0008
0005
000B
FFFD
0008
000E
0018
FFF6
FFFB
0010
FFF2
FFF4
FFF4
0004
FFF0
0005
FFFD
0001
0008
0007
0004
FFF6
FFF7
FFF4
FFEF
0001
0006
0007
FFF0
000C
000C
FFFC
FFFE
0005
0005
0010
0006
0001
FFF8
FFF8
FFFA
0005
0002
0003
0001
FFF2
FFF8
0004
FFFF
0004
0000
0000
FFF7
000C
0000
0000
FFF9
0006
FFF1
FFE9
0002
FFF0
0015
000E
FFF8
FFFE
0005
FFF4
0003
0011
FFFD
FFFA
0006
0000
FFFB
FFF5
FFFB
FFF9
0005
0016
FFFB
0004
FFF5
0001
0009
0007
0006
FFF4
000F
0001
FFF0
FFE8
0001
0007
0000
0003
0003
0008
0006
FFEF
FFF8
0011
FFF0
FFFA
0009
000F
FFE7
000C
000F
0004
0006
FFF8
FFFE
FFEB
FFF3
FFF5
0013
0002
FFED
FFF7
FFF7
FFFE
FFF0
FFF7
0007
FFFA
FFFC
FFF5
000F
FFFF
0002
0001
0006
FFFB
FFF2
FFF6
FFFD
FFF8
FFFF
0005
FFE7
0017
FFFB
FFFB
FFFD
FFFF
0002
FFFC
FFF8
0000
0005
FFFD
FFFF
0003
FFF4
FFF9
0010
0004
0006
0011
FFEE
FFFC
FFEE
FFFF
FFFB
000C
FFFC
FFE8
FFEE
FFF9
0003
FFFF
000F
0003
FFF4
FFFB
0003
FFF7
FFEA
0004
FFFA
FFF9
FFFF
0008
000E
FFF7
FFEF
FFEC
FFFB
0019
0001
FFF2
0009
FFF4
0000
0002
0005
000B
FFFF
FFF9
FFFF
FFF1
FFFD
FFFC
FFF6
FFFF
0010
0004
FFFA
0008
0003
FFFA
FFF9
FFF7
000C
0013
000A
0004
000D
FFFF
0006
0008
000D
FFFA
000C
0011
0003
FFEC
000A
000E
FFFC
000F
FFFA
000B
FFFD
0003
0002
000A
000D
0001
000A
FFF3
0004
0007
0005
000A
FFF8
0000
FFFE
0014
FFF0
0001
0005
FFED
FFF8
0000
FFF5
FFFF
FFF7
000B
0007
FFF6
000D
0001
FFF1
FFF6
0000
0000
FFF9
FFFA
FFF3
FFF3
000E
FFF5
FFFB
FFF8
FFE7
FFFF
000E
FFEA
FFEB
0000
0004
FFF8
0000
000C
0011
0001
0001
FFFB
FFF4
0004
FFF3
FFF8
0006
0008
0018
FFF1
FFFF
0011
0001
FFF9
0001
FFFF
0002
FFF6
FFEC
0004
FFF9
0009
0001
0014
0004
FFF8
FFFF
000E
000D
FFF3
0009
FFFA
000D
FFFB
FFFE
FFF4
0002
FFF3
000A
0000
0001
FFF9
0007
FFF7
FFF7
0007
0001
FFF2
000C
FFF7
000F
0001
0011
0002
0010
FFEB
FFED
000E
FFFB
FFFC
0002
0000
FFE9
FFFB
FFF9
0004
FFEF
0004
FFF3
0014
FFFF
FFEF
0005
000D
FFF8
FFFB
0012
0017
FFFF
FFEE
FFEE
FFE8
FFF6
FFF1
FFF8
0009
000A
0016
0001
FFF3
FFFB
0003
FFFF
0004
0005
FFF8
0009
FFF5
FFF5
FFFC
FFFC
0000
0004
000F
0019
FFF1
0005
FFFB
0007
FFFC
FFF4
0008
FFF6
FFF7
0009
0004
0002
0001
0009
FFFC
FFEF
FFFD
FFEF
FFF7
000C
000E
FFFD
0003
FFFF
FFF2
FFF6
FFFF
0012
FFF3
FFF4
FFFE
FFF7
0015
FFF8
0003
0014
000B
FFF3
FFFE
0000
FFF3
FFEF
000D
0009
FFF9
0009
0008
0003
FFF7
FFF4
0011
FFFF
FFE7
0019
FFF9
000B
FFF5
FFF8
FFFD
FFF2
FFEB
FFFA
0006
FFFE
0004
0008
0004
FFFD
0005
FFF1
FFF7
0002
000B
000E
0015
FFFE
0008
FFFA
FFEB
000D
0011
FFF9
000B
0000
FFF6
0017
FFF0
0004
FFF6
0004
0000
0002
FFF8
FFFC
FFED
0008
0008
FFFA
000A
FFED
FFFC
FFF8
FFF6
FFFB
FFF4
FFFB
0002
FFF6
0003
0012
FFF4
FFFA
0010
FFEC
FFE7
FFFE
0004
FFF6
0001
FFFD
000C
FFEE
0008
FFEB
0015
0006
0005
0002
FFF9
FFFA
000D
0001
0000
0010
FFEE
FFF8
0005
FFFA
FFF2
FFF7
FFF8
000F
FFFE
FFF3
0005
FFEF
FFFC
000C
FFFF
FFEF
0012
FFFE
0009
0000
000C
000D
0008
FFF8
0007
0018
0000
FFEE
FFFD
0008
0004
FFFB
0001
FFF8
0016
FFF1
000F
FFFC
0019
0004
0005
FFFB
0007
0013
FFFE
0003
0005
FFF1
0010
0003
0012
000A
FFF6
0011
0003
FFFD
FFFC
FFF2
FFF5
FFFB
FFEE
0005
000B
000C
0005
000B
FFF2
FFFD
000F
0012
FFEA
0003
0009
FFF5
0009
0013
FFF4
0012
FFF8
0002
0005
FFF2
FFE8
FFF5
FFF6
0015
0009
FFFE
FFF4
FFFC
FFF5
FFFE
0004
FFF9
0004
FFF5
0009
0000
0012
0004
0008
000A
FFE9
000D
0000
0001
FFEE
000B
FFF6
FFFD
0001
FFEB
0002
0001
0002
0005
000B
FFFD
FFFE
0011
FFF9
FFFB
FFF3
0002
0019
0009
0000
FFEA
000E
0010
FFF2
000D
000D
0006
000C
FFF9
0008
0017
FFFE
0008
0017
0001
0002
FFF7
FFFE
0007
0014
0014
FFFA
0015
FFFC
FFFD
FFF5
FFFD
FFFF
0012
0000
0001
FFFA
FFE9
FFF7
FFEA
FFF0
0001
0001
FFFF
0007
FFF1
FFFA
FFE9
0018
0003
0016
FFF3
0006
0013
000E
000D
FFF2
FFEC
000E
0000
0001
FFFF
FFFF
FFFD
0002
FFF2
0005
FFF8
FFFD
FFEC
000C
FFF9
FFED
0003
FFFD
FFF9
0001
FFFC
FFFB
FFF9
0008
FFF8
0012
0015
000D
000F
FFFC
FFF3
FFFA
0002
FFFE
FFF8
FFFB
000C
FFEE
0004
FFF6
000B
FFF2
000B
FFF1
000E
0001
FFFA
FFF1
FFFD
0003
0001
000E
0008
0008
0000
0008
0009
0011
FFF6
FFFF
FFFB
000B
0014
FFE8
FFFD
FFF2
FFFB
FFF1
000B
0011
FFFA
000D
FFF7
FFFD
0005
FFF6
0002
FFFF
FFF7
FFF4
0002
FFEF
000B
FFE7
000B
0014
FFF8
FFEE
0005
000C
0001
FFF5
FFF2
0003
000D
FFF4
0013
000F
FFF4
0011
0005
000B
FFFC
0008
FFFD
0002
000C
0002
000F
000E
FFFF
0000
0013
FFFE
FFF6
FFF4
0000
0001
000B
FFFC
FFFB
0004
FFFA
FFF9
FFED
FFFE
0005
FFF5
FFF2
0006
0007
0007
0007
0006
0016
0005
FFFF
FFFF
0014
0009
FFEF
000D
FFF9
0008
0008
0012
0009
0009
FFE9
0008
0013
0006
0003
0004
000F
0003
FFF9
000E
FFF9
FFFA
000B
FFF8
0007
FFFA
FFE7
0008
0010
FFFD
FFF9
FFF3
FFF9
000B
FFF7
FFF9
FFFF
0006
FFF5
FFF3
000E
000D
FFFA
FFF4
FFFA
000E
0002
000B
0001
FFFE
FFF6
0006
0006
FFF5
FFFE
0007
000C
0003
000B
FFEE
FFE9
FFFA
FFEF
0009
FFFC
0000
0008
000F
0000
FFFA
0003
0010
000C
FFFB
0008
0009
FFFF
000A
000B
0003
0003
0007
000F
0004
FFEB
FFEE
000B
000E
FFFE
0003
FFE9
000B
FFFF
0000
FFEF
0005
0001
0010
000B
FFF6
0001
0017
FFEF
FFF2
FFF8
0010
0015
FFE8
0000
FFFA
FFF1
FFF2
0004
000F
FFEA
0008
0001
FFF5
FFF9
FFFA
FFF7
0018
FFF1
FFF0
FFFB
000A
000B
000E
FFFF
FFE6
FFEB
FFFA
0007
FFF8
0001
0012
0008
0003
0012
FFED
FFFF
FFED
FFEC
FFFF
0005
0012
FFFD
0010
FFEB
FFF2
0008
000D
0001
0007
0011
0003
FFF4
FFF6
0001
0000
FFFE
0001
0005
FFF0
FFFD
0010
FFFF
FFE9
FFF1
FFF5
FFEB
FFFF
FFFF
FFEF
FFF8
0006
FFFD
FFFA
FFF3
0001
FFFB
FFEF
0003
0007
FFF8
FFFA
FFEF
FFF4
0008
FFF6
FFF9
0007
0012
FFF9
0002
0009
000A
FFF6
FFF8
000F
FFF5
0005
0004
0005
000C
FFF4
0015
0004
0006
000E
FFF6
000B
FFFE
000C
FFFF
FFF0
0004
FFFF
0007
FFF6
FFEC
0013
0017
FFF0
0001
0003
0014
FFFA
FFF5
FFED
FFFD
0001
FFFD
FFFB
000D
000C
0000
0009
000D
000D
0011
0003
0005
000E
0007
000B
FFF9
FFF9
0006
0000
0007
FFFA
FFF9
FFF6
FFFB
0008
FFF5
FFFC
FFFF
FFF9
0000
000A
FFF6
0006
0005
FFF8
FFFC
0013
FFFB
FFF8
0012
0006
FFFE
FFF5
000E
FFFF
FFFC
0004
0002
000F
000C
0008
FFFD
0009
0000
FFFD
000C
FFFF
FFF6
000C
FFF8
000B
0003
0012
0002
FFFA
0003
000F
0001
0002
0006
000C
0002
FFF8
FFF8
0009
0000
0012
FFF4
000D
FFF0
FFEC
0000
0005
000B
FFF8
FFF0
FFF0
0009
FFFB
FFF4
0009
FFEB
0004
FFF8
0003
0002
FFF1
0016
FFF7
000B
FFED
FFFB
0006
FFEC
FFFC
0004
FFE9
000A
FFF7
FFE8
0008
FFFE
FFF4
FFF2
0004
0010
FFEF
FFFC
FFF8
FFFD
FFFB
FFF3
000C
FFF5
000C
0005
FFFB
0001
FFED
FFFA
FFF6
FFFE
0002
000D
000A
0006
FFEB
FFFE
FFFA
000E
FFF0
FFFD
FFEE
000E
FFF7
FFFF
0005
FFFF
000C
FFF7
000B
FFF0
FFFB
FFF3
0010
0007
000A
0003
FFFE
0014
000C
FFF3
0000
000D
FFFF
0008
FFF2
0008
000B
000E
0018
FFF7
000F
000F
0012
0014
0009
FFF4
000B
0011
000D
0013
0009
0015
FFF5
FFE9
FFF4
0004
FFF0
FFEE
FFED
0005
FFFD
0002
FFF9
0002
FFFD
0004
FFF1
000D
FFFD
0015
FFFB
FFEF
FFF7
0018
000B
0014
0000
FFEA
FFF6
FFFF
000A
000F
000E
FFFA
000A
0011
0006
FFF7
FFF8
FFFF
FFFC
FFF1
FFFD
0003
FFF7
000B
0002
0011
FFF7
0010
FFF9
000F
FFFD
FFEE
0008
000E
FFFA
0011
FFF5
000E
000A
0019
0006
FFFE
0002
FFF7
000E
FFFB
FFFC
0009
0007
FFF4
FFF2
FFFF
0007
FFF8
0002
FFF5
FFFE
FFEE
FFFC
000D
0007
0000
FFFF
000D
0017
0009
0004
0009
FFEE
0005
0005
FFFA
0019
0015
0000
0011
0006
FFF9
000F
FFFE
0000
000C
FFF6
FFFA
FFF6
0005
000A
0001
FFFD
FFEE
FFFD
FFFC
FFF2
0001
0005
FFFE
FFF9
FFFA
000C
FFF1
0013
FFFD
FFF5
FFFD
FFFB
FFFD
FFFE
FFFF
0018
0006
0006
0000
0004
0001
0012
FFF3
0003
FFFE
0008
FFF1
FFFF
0000
0009
FFF8
FFFD
0002
000F
0010
0000
FFFC
000E
000B
000A
FFE9
FFF3
FFFE
FFFA
FFF1
0009
000A
000E
0019
FFEB
0006
FFF4
0005
FFF6
000C
0009
0009
FFF7
FFF7
FFFD
FFF3
FFFB
0005
FFF1
FFF2
0000
FFF2
FFF4
0003
0019
FFF8
FFFB
FFF7
FFFF
000D
FFE7
0006
FFF6
0007
FFFF
0001
0002
FFF9
FFF0
0004
FFEA
0012
FFE9
0001
FFF2
000E
0010
0002
FFF8
FFEE
0001
FFF9
0009
0002
FFFD
0010
FFF6
0003
000F
0006
FFF2
FFF2
FFFB
FFF8
FFEB
FFE9
0004
0002
FFFE
FFF9
0006
FFFC
000A
FFFD
FFFD
FFE8
FFF0
FFF3
FFFF
FFED
FFEF
0014
FFFC
0009
0001
000A
000A
FFFD
000C
FFF9
0008
0005
FFFB
000D
FFED
0010
000C
0003
0004
FFF7
000C
0007
000D
FFE9
0006
FFFB
FFFE
000C
0002
0011
0006
0002
000B
0008
0004
000B
0001
FFFE
FFED
FFFB
0000
FFFB
FFF7
0007
0001
0017
0000
FFFF
0004
0008
0004
FFFE
0019
FFF9
0010
0007
0006
FFF3
000B
FFF8
0005
FFFB
FFF0
0000
FFF9
FFF7
FFFB
FFFD
FFEF
000A
FFFB
000F
FFFE
0000
0014
0002
FFFE
FFF4
0011
FFFB
0000
0005
0011
0007
0005
0010
0000
FFFD
0001
FFF9
0009
000C
0002
000E
FFF9
FFFB
FFEA
FFEF
FFFF
0007
0019
0000
0000
FFFC
FFF5
FFFD
FFF3
0005
0013
0000
FFF9
0005
0002
000D
FFFB
000D
0009
000E
0007
0003
FFFD
0006
FFF8
0009
FFE8
000B
FFF9
FFFC
FFF6
0005
000F
000C
0005
0004
FFF0
FFE9
0009
0004
FFFD
FFEE
FFFD
0004
FFF4
FFEC
000A
FFFB
0004
0001
0000
FFE8
FFEE
000B
FFEC
000A
0008
0005
0005
FFF7
0008
FFFE
0002
FFF4
0008
000F
FFEC
000E
FFFB
FFFE
FFF3
0011
0009
0000
FFFA
000A
0001
0015
FFF1
0009
0015
FFFC
FFEB
0014
0003
FFF9
0004
FFF3
FFEA
FFF7
000A
FFFC
FFFC
0008
FFF9
FFFE
0013
FFFC
FFF0
FFFB
0005
0018
0000
0000
FFF9
FFFA
FFF8
FFF1
FFF0
FFEC
0005
FFFF
FFFE
FFEA
FFFC
0013
FFEF
0016
000B
0014
0006
000E
FFFB
0000
0001
0006
FFFC
0000
0000
FFEB
0007
0010
FFFA
FFFA
FFFE
0001
FFF8
0002
0005
FFF8
0003
FFF8
0003
000A
FFF4
0004
0001
0007
FFF4
FFEB
0008
FFF2
000F
FFFB
FFF7
FFE7
0007
0004
FFF7
FFFC
0006
000A
0003
FFFC
000B
FFEF
FFFA
FFFB
000F
FFF6
0013
0013
0006
0000
FFEE
FFF6
0001
FFF9
0003
0002
FFF8
FFF4
FFF4
FFEF
FFF1
FFF8
0019
FFFC
FFF5
FFF3
FFEA
FFF5
000C
0005
FFF3
FFF5
000E
FFFA
FFFF
FFE8
0010
0018
FFF6
000C
FFEB
FFF7
0001
FFFE
0017
0007
FFFB
FFF7
FFF7
FFF4
FFFD
0007
FFFE
FFFA
FFF9
FFFD
FFFF
FFF8
000F
FFF9
0008
0019
FFF9
FFF9
FFEA
FFF6
000B
000B
0016
0014
000E
FFFF
0001
0004
FFFF
FFFF
FFEF
0000
0000
FFFE
FFFE
FFFD
FFF5
FFF3
0010
0009
FFF8
0006
0013
FFF8
FFEB
FFF7
FFF3
FFF8
0010
000A
FFF9
FFF5
0002
FFF1
0005
000A
FFF2
FFED
FFF5
0000
FFF7
FFFA
0004
FFF8
FFFB
FFFF
0019
000B
000B
0008
FFED
FFFD
0003
0019
FFFE
FFF7
FFEC
000C
0008
FFFC
0006
FFFD
FFFE
FFF5
000A
FFF4
0009
0005
FFF8
0019
FFFC
0019
FFF9
0000
0001
FFFA
FFEA
FFF9
000A
FFF4
FFF6
FFFF
FFF6
FFEC
FFFE
0001
FFF3
FFFC
FFFC
FFF0
FFFA
FFFE
FFEB
0001
0001
0008
FFFF
0007
0003
FFF1
FFEB
FFF0
FFF0
0008
0008
0005
FFFB
FFF7
0002
FFFA
FFF9
FFE8
000C
0004
FFF2
0005
FFEF
0006
FFF9
FFE9
FFF8
000B
FFE9
0010
FFF9
0004
000F
FFFB
FFE7
FFF0
FFFE
0002
FFEA
0017
0002
0010
FFF4
FFF8
0010
FFFA
FFF7
0002
FFF8
000D
FFFD
FFF5
FFFE
FFF9
0011
FFE7
FFFD
0009
FFF4
0002
0009
FFFE
0005
0004
FFF6
0003
FFFD
FFFA
FFFC
0009
0005
0013
FFE8
FFF9
0001
FFF3
FFFA
0008
FFF7
0009
0008
0003
0002
000B
0000
000A
FFF7
000F
FFFC
000C
FFFE
FFFD
0004
FFFA
FFF8
0004
FFFC
000C
0008
0002
FFFB
0007
FFF3
FFF4
0000
FFF6
0003
FFF8
FFFB
0011
0000
0018
000A
0006
0019
0009
FFF5
FFFE
0010
0002
FFF1
FFFA
0006
0005
FFF1
FFF3
FFF6
FFE9
FFED
FFFC
0008
0007
FFF8
0003
FFF8
000F
FFEE
FFF6
FFF8
FFF9
0007
FFF2
000F
FFFE
FFE7
FFFC
0006
FFFD
0009
FFE7
FFF8
FFFF
FFFA
0002
000D
0004
FFFD
FFFB
0007
FFF2
FFF1
0008
000F
FFF4
0006
FFFE
000B
0009
FFFA
FFFA
FFF7
0002
001A
FFF8
0009
FFF8
0011
FFF4
0002
FFFB
0005
0018
FFFC
000C
FFF6
FFFD
0004
0000
FFEF
FFFB
FFFB
0007
FFF0
0005
FFEB
FFE8
0003
0016
FFF8
FFFA
FFF2
FFFE
FFF7
0013
0009
FFFF
FFE7
000F
FFEF
0008
FFFE
0008
000B
FFF5
FFFE
FFFF
FFFA
0001
FFFE
0005
000E
FFEF
FFF2
0001
0011
0005
FFF4
FFF9
FFFB
0019
0005
FFF8
FFF2
000F
0018
0011
FFFF
0007
0002
FFF2
0015
FFF8
000B
FFF4
0000
000B
FFFE
FFFD
0009
FFFE
0002
0003
000A
FFFD
FFF7
FFFB
000C
0002
FFF8
FFFB
FFFC
000B
FFF2
FFEC
FFF2
0006
0015
0000
FFF1
0012
FFEF
0000
FFEE
FFF3
0009
0009
FFF0
0017
0007
FFF2
FFF2
FFFE
0008
000A
FFF7
FFFE
FFF7
0000
0017
0007
0001
0001
FFF5
0012
FFFE
000A
FFFC
FFEF
0006
0002
0006
FFF4
FFEA
0005
FFFE
0003
FFF7
FFFA
FFEF
FFF2
000B
FFF9
FFFA
000C
FFF6
0002
FFF4
FFF4
0001
000D
FFFC
FFF8
0013
0013
FFF4
FFF5
FFEF
0015
0003
FFFA
FFFA
FFFD
0002
000E
000C
0001
0003
FFF9
0008
0003
0015
0009
0019
FFF2
FFFD
FFFD
FFF6
0008
0012
0016
0004
FFFC
FFF9
0015
0019
0004
FFF9
0012
FFF8
0017
0002
FFFD
0019
000B
FFF5
000B
0002
FFF4
0007
0002
0001
FFF4
0014
0004
0010
FFFC
0007
FFF7
0018
FFF7
0000
0003
0001
FFF6
000B
FFF2
FFFA
0018
0002
FFF3
0000
FFFD
000E
000E
0005
0015
0009
FFED
FFEB
FFFE
0010
0006
FFF9
FFF6
FFEB
0005
FFF7
FFF7
0005
FFF8
0001
000B
000C
FFFD
0003
0006
FFF2
0008
FFFC
0000
0002
0000
FFF9
0007
FFFB
0007
0007
FFFD
0005
001A
0005
FFF3
FFFF
0015
0003
0012
0014
FFF8
FFFD
0005
000E
0002
0007
FFF7
0004
FFF6
FFEE
FFF9
0006
0007
FFF5
0005
0006
FFFB
0013
0005
FFFD
FFFE
FFFC
000B
FFFA
000B
0010
0014
0003
0011
FFEE
FFFF
FFF8
FFE9
FFFD
FFED
000F
0016
FFFA
0018
FFF3
0016
FFFD
FFFD
FFE7
FFFA
0002
0000
000C
FFFC
FFFC
FFFF
0009
FFFB
FFED
FFFE
0010
FFF0
000B
FFEC
FFFE
FFFC
0004
FFF0
0017
FFFA
0007
0006
000B
FFE8
0016
0005
FFFF
0005
FFF8
FFE7
000F
FFFA
FFF3
000E
FFFF
FFFD
FFF2
FFF1
000C
FFF9
FFFC
FFF9
FFFE
FFF8
FFF3
FFF5
FFF4
0000
0000
000D
0015
FFF7
FFFB
000D
FFFD
0008
0011
0003
0015
0008
0001
FFF4
0002
FFF4
FFF2
0008
0001
0000
0000
000C
FFF8
FFF8
FFF7
FFF9
0002
0008
0001
FFFF
FFFF
0006
FFEE
FFEC
FFFA
0009
FFFE
000B
0005
FFED
000D
000F
FFFE
000F
0010
0001
0007
000C
0005
0006
000A
FFF7
0007
FFF2
0001
FFF2
FFFE
FFEA
FFFB
FFF4
FFFC
FFFC
FFFC
FFF2
0013
0004
FFE7
FFFB
FFFD
FFFD
0009
000A
0009
FFE9
0007
FFF3
FFF1
FFFC
0005
000F
000D
FFFB
0003
FFF5
FFF2
0006
0002
FFFA
0017
0003
FFF4
000E
FFF8
0009
FFEA
0007
000A
000A
0004
0000
0008
000E
FFF3
0005
FFED
FFF8
0000
0002
FFED
0000
FFFD
000F
FFEE
FFF8
0006
FFF8
000F
0011
FFF8
0002
0006
FFF7
0019
FFF7
FFFC
000F
FFF3
000F
000F
FFF7
0006
FFFB
0006
0000
0000
FFF2
FFEF
0000
0003
0003
FFF5
FFF4
FFF9
000A
0007
0005
FFF6
FFEF
0017
FFFF
FFF5
FFF8
FFFD
0003
0004
0007
000D
FFF0
FFF8
FFF2
FFF1
0008
0001
FFF4
0005
FFF5
FFFA
0002
000E
FFFC
000C
0002
FFF5
0010
0000
000D
0013
000E
0002
FFED
0000
0001
0015
0006
FFEC
FFF2
FFF1
000E
FFF0
FFEE
0008
000A
0001
0000
0000
0000
0001
0008
0010
0010
FFFA
FFF2
0008
000C
FFFE
FFF2
FFFF
0001
FFF6
FFF1
FFF8
0005
FFFF
000A
0004
FFEC
0002
FFF8
0007
000B
0004
FFF4
FFFE
000C
FFFF
FFF1
0004
0008
0000
FFF1
FFFD
0011
0006
000C
0013
000E
FFF3
0007
0002
FFFD
FFF6
0008
0011
FFFB
0009
0000
0011
FFF4
000E
0006
FFFD
0003
FFFB
FFF8
FFFD
0008
FFFE
0004
0000
FFFB
FFEA
0008
FFEC
000D
0002
FFE9
000F
FFF9
000A
FFFB
FFF6
000E
0005
FFFA
FFEF
0009
000C
0000
0010
0008
0016
FFF0
0005
0002
0013
0000
FFF5
0003
FFF6
0008
000D
0009
FFEC
0005
0011
0005
0003
FFFA
0005
000C
0009
FFF9
FFF3
FFFF
0007
000C
FFFC
FFFB
FFFE
FFFF
FFFC
0005
FFF6
FFEB
FFF1
000D
FFFB
0001
FFF4
FFF4
0007
FFF4
FFFB
000E
0008
FFF5
0003
0004
FFF5
FFF0
0004
0002
000F
FFF0
FFF9
0006
FFEF
000A
0007
FFEE
0000
0006
FFF7
0013
0005
FFFF
FFFF
0004
FFFB
FFFF
0006
FFEB
FFFB
FFF4
0005
FFF7
0001
FFFA
0010
FFF3
0008
0003
FFF1
FFFB
FFFC
0003
FFFB
0002
FFFE
0001
FFF5
FFF5
FFF7
000E
0001
FFFD
0007
FFF6
0003
0003
FFF3
FFF9
0003
FFE7
FFF9
0001
FFF1
0008
FFF6
FFF4
0010
000F
0019
0004
0000
0012
FFFD
0007
FFF0
0010
0003
FFF6
FFFB
FFF7
000F
FFF9
0018
FFFD
0001
0004
000B
FFF6
FFF3
0005
0002
0000
FFFB
0008
FFF8
000F
0011
0004
0000
FFF1
FFFD
0002
000B
0009
FFFA
FFF3
FFE8
FFEB
FFF7
0019
0001
FFF0
FFFC
FFF2
000B
0000
FFFD
0017
FFF2
FFFB
0008
FFF9
000F
000A
FFFD
FFF4
FFFC
0005
000D
FFED
0015
FFEF
000D
0001
0000
FFFF
FFFE
0006
FFF0
FFF1
0013
FFF4
FFF5
0011
FFF6
FFF3
FFF3
000B
0013
000B
0000
FFFB
0004
FFFD
FFFE
0014
FFEE
0009
FFFD
FFFE
0003
FFFE
FFEF
FFFE
0003
000B
FFF5
0000
FFF1
FFF0
0014
0000
FFFA
000B
FFFA
0019
FFF8
0004
0015
0006
0009
FFED
0004
FFFB
0019
000A
0006
000C
0001
FFF0
0003
0007
FFE6
FFED
FFFF
0017
FFFA
FFE8
FFED
FFFA
FFFC
FFFA
FFEF
FFFE
0002
FFF2
000D
FFF8
0002
0011
0002
0010
0009
FFFC
FFFB
000F
FFED
0012
FFF4
0005
FFF7
000A
FFF0
000B
FFF1
0008
0013
0002
000E
0010
FFF2
0005
0018
FFFC
FFFE
FFFC
FFFD
FFFF
FFEE
0007
FFF0
FFF7
0007
0004
0007
0003
0018
0003
FFF8
0008
FFFA
FFFA
0006
FFFD
000C
FFF8
0014
FFF6
FFF9
FFFA
0005
FFFF
000C
FFF7
0008
FFE7
0009
0011
FFFE
FFF2
0008
0010
0002
000E
0007
0003
FFFC
0009
000F
0006
FFFD
FFFE
FFF4
0006
000C
FFEF
FFF5
000E
FFFE
FFFB
FFFE
000D
0012
FFEC
0004
FFF9
0007
FFF9
0011
FFFE
FFE8
000B
FFFC
FFF5
FFF4
FFFF
FFF1
0013
FFF2
0006
FFFD
FFF4
000A
000A
FFF5
FFF6
FFFA
FFFE
FFEC
000E
FFF1
FFF2
FFFE
0005
FFF8
000A
FFFA
FFFE
FFFD
FFF1
0019
0013
FFF1
0007
FFFD
FFF8
0006
000D
0001
FFF1
FFF5
000A
FFF4
FFFF
000D
FFF3
0012
0010
FFF5
0013
0010
0000
FFF9
FFF4
0004
FFFB
FFF6
0003
0009
000B
0009
FFF3
FFFB
000D
0002
FFF5
0002
0007
0000
0005
0007
FFFE
FFFA
FFFC
FFF3
0002
0012
000F
0016
0000
0013
0004
FFF4
FFFF
000A
0005
FFEE
0002
FFF0
0001
0000
FFF4
0003
0006
0003
FFFC
FFFA
0008
FFFB
FFF9
000E
FFFE
0008
FFEB
0016
000B
0002
0012
FFF8
0003
0006
FFF6
FFFA
FFFD
FFFF
FFFF
0001
FFFE
FFEC
FFFD
FFFE
0003
FFFC
0003
FFFB
0008
000A
000D
FFFF
FFF3
FFFA
0001
FFF9
FFF3
FFEB
FFFA
FFFF
FFFF
FFFC
FFF7
0005
FFFD
FFFC
FFF4
FFF9
000E
FFFF
FFFF
0003
FFFC
FFFE
FFFB
FFF3
FFF3
FFF8
0011
FFF9
FFF5
0013
FFF8
FFFD
FFF9
0003
FFF5
0004
0006
FFF2
FFF7
0000
FFFA
FFFA
FFF5
0009
000E
FFED
0002
FFF4
0001
FFFE
0019
FFFD
0018
0009
0008
000F
FFFF
000A
0015
FFFC
0005
0007
0010
FFFE
FFEE
FFF9
FFF2
FFFC
FFFE
0013
0019
0010
FFF7
FFFF
0006
0009
FFFC
000E
0003
FFFC
000B
000D
0006
0005
FFEB
0009
0002
000F
FFFB
FFF6
FFF5
0011
FFF3
0008
FFFB
FFF4
000F
FFF6
0000
FFF3
FFF9
FFF9
0004
FFFF
0000
0006
0003
0005
000F
FFFD
0000
0009
FFFC
000F
0005
0002
FFFC
FFFA
FFFD
FFFD
0004
000E
FFF8
FFF5
FFF8
FFF0
FFFE
0004
FFEA
0004
FFF8
FFFB
0004
0004
0011
FFE8
0013
0000
FFFA
FFFC
FFEF
FFED
000C
FFFA
0001
FFE8
0008
FFEF
FFFE
0001
FFFE
FFF4
FFF9
0013
000D
0016
FFFE
0007
000E
FFFD
FFF5
0010
0007
0004
FFFB
FFF7
FFFA
0011
FFF5
FFFE
0000
000C
0016
0005
FFFD
0008
FFF5
000B
0007
0008
000E
0014
000D
0001
0014
0012
000A
0018
FFF6
FFF1
FFFA
FFFC
0010
000D
0006
0003
FFFF
FFF3
0010
FFEE
0018
FFFA
FFF4
000B
FFF6
FFFD
FFF9
0002
FFFD
0014
FFE7
0007
FFFD
FFFC
FFF7
0000
0001
FFF4
000A
0003
FFFE
FFEB
000C
0007
FFF9
0007
0004
0012
FFF4
FFF8
FFF4
000D
0007
FFF9
FFF7
0013
0004
0011
0008
FFFE
0005
0008
FFEC
FFF9
FFFB
0008
FFEE
0008
0019
000D
FFED
FFF3
FFEF
0003
FFFE
FFF9
0004
000E
FFFA
FFEE
FFEE
FFFC
FFF7
0009
FFFE
FFEB
0002
0003
0017
FFFE
FFF0
FFF7
FFF9
0012
FFFC
0001
0005
FFF6
FFF4
000C
FFFC
0003
0006
0013
0009
FFFC
0005
FFF9
0003
0001
0002
0002
0001
0001
000B
000D
0005
FFF7
FFF3
0007
FFF5
FFFE
0009
000A
FFF8
0003
FFFC
0005
0008
FFF7
001A
FFF6
FFF5
0000
0005
000B
FFF5
FFFE
000C
FFF7
FFF7
0001
0011
FFFD
FFFF
0007
FFF3
FFFC
0007
FFE7
FFFA
0004
FFF6
000D
FFF8
000B
FFEB
FFFD
FFF5
0008
FFFA
FFFE
FFFF
0003
FFF4
000B
0019
0003
FFF0
FFE7
FFFF
FFF5
0010
FFF9
FFF3
FFEF
FFFB
0000
0002
FFF7
000A
000A
FFF9
FFFB
FFF8
FFFB
0007
000B
FFEF
FFF7
000C
FFF2
000C
FFF3
FFFC
0013
FFF5
FFFF
FFFF
0004
FFF2
000C
000B
FFFC
000B
FFF9
0000
000D
FFF5
0009
FFF4
FFFD
0000
0009
FFF6
FFFE
FFEC
0006
FFFA
000C
0009
0004
FFF7
0018
FFFF
0003
FFFA
FFFB
FFFE
0002
0003
0003
FFFB
FFFF
FFFF
000A
0002
0007
FFFC
FFFA
0006
FFEC
FFFE
000A
0009
0016
0008
000D
0010
0012
0000
FFFD
0002
FFFC
FFFB
0015
0005
0003
0013
FFFF
0007
FFEE
0000
0010
FFF8
FFFD
FFFD
FFFF
FFF1
0004
0004
000B
FFEF
0002
FFE8
0003
FFFD
FFFC
0005
0001
0002
0011
0003
000B
0012
FFF6
FFF1
0001
FFF5
0003
FFF5
FFF8
0007
0004
FFE9
0000
0003
FFF3
FFFF
FFF6
0011
FFF6
FFFF
0006
000B
000E
0004
FFF9
0012
FFFE
FFFD
FFF0
FFEC
FFFD
FFFF
FFF6
FFED
FFF6
0005
FFF1
FFFA
0014
0004
000D
0000
FFEF
FFF6
FFF0
0013
FFF3
0007
0015
FFEC
000D
FFFE
0000
FFFD
FFF5
FFE9
FFED
0002
FFF9
0004
FFFF
000A
0012
FFFB
FFFD
FFF4
000A
FFF3
000E
0011
0004
FFEC
FFF6
000A
FFF2
FFFF
FFFE
0006
FFF2
000A
FFFC
FFFE
FFE7
0003
FFFB
FFFF
0013
FFF0
0004
FFE9
0005
FFFB
0001
0000
FFFE
0009
FFF7
001A
0004
0004
0002
0004
0004
0019
0006
FFF5
FFE7
FFEE
FFF7
0000
0002
000E
FFF7
0002
FFF2
0014
FFFE
0003
FFFB
FFFB
0002
FFF8
FFEC
0001
000D
000A
000E
FFFE
FFEA
FFE7
0009
0003
0007
FFF4
FFF9
FFFC
FFF0
FFF6
FFFB
FFFB
000C
FFFE
0003
000A
FFEC
000A
0002
000A
0000
0004
FFF5
0009
FFFE
FFF4
FFFF
FFF0
000C
000B
000A
000D
000B
0009
0000
0009
FFF9
0017
000A
FFF7
000D
0010
0001
0001
0001
FFF0
FFE7
FFFF
0000
FFEB
FFF9
FFFA
000B
FFF5
0004
0008
FFEE
0004
FFEA
FFFE
FFF3
0009
FFFC
000A
000C
000F
FFF7
FFF8
0008
FFF1
FFEF
FFFA
FFE9
FFFC
FFEA
0006
0007
FFFB
FFF1
FFF4
0010
0003
FFF2
0008
0000
0012
FFEE
0014
0012
FFFA
FFF2
0001
0004
0003
0007
FFFD
FFFB
0012
FFFE
FFFD
0015
FFF1
FFEB
0008
0008
000D
FFF8
FFF1
FFFA
FFF1
0006
FFFD
FFEC
FFEB
FFF0
FFF0
FFF6
FFFF
0006
000B
FFF3
FFFC
FFFF
0013
0013
0003
000C
000E
000F
FFF8
FFF4
0000
0017
FFF6
FFF3
0000
FFF8
0007
0009
000D
0007
FFF6
FFEE
FFF9
FFF7
FFF3
0000
FFEA
0002
FFFA
FFFE
0004
FFF0
000D
0008
FFF0
0001
0011
000F
FFFE
FFF9
FFF2
0006
FFE9
0005
0009
FFFC
0008
FFFE
FFFF
000E
FFE9
FFF9
FFEB
FFF1
0010
0013
FFF9
0003
000A
FFFB
FFEF
000F
0003
0009
FFF8
FFFA
0009
FFF3
FFFD
0002
0015
FFFE
FFFE
FFFA
FFFD
0003
0003
FFF2
0017
0002
0016
0006
0001
FFF4
0010
FFEC
FFE8
FFF4
FFF5
FFEF
FFFD
FFEA
FFF5
0000
FFFE
FFF8
FFF7
0001
FFFB
0002
FFFC
FFEB
0002
0006
0018
FFF1
FFEE
0002
FFEE
0000
FFF9
0007
0008
0009
0001
FFEC
000D
0013
0010
0004
FFF2
0008
FFFF
0017
000C
0011
FFF6
0018
FFF8
FFFB
FFEC
0009
FFF9
000D
0006
FFF9
0004
0005
0010
000D
FFF2
FFE8
0000
FFF5
0005
0001
0006
0009
FFFE
000B
FFF9
FFF6
FFF0
000E
0000
0010
FFFB
0009
000B
FFFB
FFF2
0017
FFF3
FFF4
0015
FFEC
FFE9
000E
0008
000F
FFFF
FFF2
FFF9
0008
FFEE
000C
0014
0001
000B
0007
000B
FFFD
0005
000C
FFE7
0005
0006
000F
FFF3
000A
0004
0008
000A
0013
FFF7
FFFD
0012
0008
FFF8
0006
0014
FFF1
FFFD
0004
FFF1
FFF9
FFFC
FFED
0004
0008
FFFE
FFED
0007
FFF9
FFF5
FFF7
0009
0009
FFF5
0005
000E
000A
0006
FFFE
0004
000A
FFFE
0014
FFF9
FFF8
000D
FFEE
0013
0013
FFFA
0000
FFF9
000F
FFF3
0011
0000
0006
FFFC
0007
FFF7
FFF2
000B
0001
0008
000A
000B
0017
FFE9
FFFF
FFF0
FFE7
000D
FFF6
FFFA
0017
0004
FFF9
000F
FFF2
FFF0
FFF8
0008
000A
000C
FFFD
0013
000B
FFFC
FFF4
0002
FFF3
FFE9
0008
0005
0010
000B
0014
0001
FFFB
FFFC
FFFD
FFFD
FFF9
0007
0008
FFFA
FFFF
000A
FFFC
0007
0012
0001
0014
FFFA
FFFE
0002
FFEF
0004
0000
FFEF
0000
0010
0004
FFFF
FFFA
FFEE
FFF5
FFFE
FFF6
FFFE
0004
FFFF
0007
0005
0001
FFF8
FFFA
FFF6
FFF7
0000
001A
FFEE
0008
0007
FFF9
FFF5
000D
000B
FFF8
000A
0013
0002
FFFD
FFF7
0011
0001
0002
0000
FFF9
FFFF
FFE7
000D
FFEA
FFFE
0005
0001
0005
0017
0009
0010
FFED
0006
FFF5
0006
0001
0008
0010
0001
FFF7
0012
FFF1
FFFF
FFF7
0001
0001
FFEC
0000
FFFC
FFEE
0004
FFF3
FFFE
0017
0005
000D
001A
FFFE
FFFB
FFF0
FFF1
FFF6
0003
0002
0011
FFF2
0003
FFFD
FFFE
000A
0005
0007
0007
FFFE
FFF2
FFE9
000A
FFF7
FFFC
FFF3
0009
000A
FFF1
000B
0000
0017
0003
0002
FFE7
000F
0000
000B
0000
FFF7
FFF2
000B
0019
FFF0
FFFE
0008
0002
FFFF
FFF3
FFFD
000F
FFF0
FFFC
FFF3
FFFB
FFFF
000E
0003
FFF5
FFF2
0010
0015
FFFF
FFFF
FFF0
0006
0014
FFFD
0001
FFEF
000E
0009
FFFE
FFF9
000C
0000
FFF3
000E
FFFE
FFFB
FFFB
FFF9
0006
FFF8
FFFB
0007
0007
0004
0006
0015
0012
0005
0007
FFF5
FFF0
0002
0012
0005
0002
FFF2
0010
000D
0005
0000
0012
0006
FFFE
FFFF
0002
0006
FFF1
FFFA
0014
0005
000E
000D
0012
0001
FFF8
0012
FFE9
FFF6
FFF9
0000
FFEF
FFF6
0001
0006
0016
0010
0000
FFF7
0008
FFF7
0005
000E
0006
0007
0003
FFEF
FFF1
FFFF
FFFB
FFF6
FFED
FFF7
FFFE
FFEE
0001
FFF9
FFEB
FFF7
000C
FFF5
FFF9
0005
0012
0015
0001
FFF4
FFFB
FFFA
0000
FFFC
0000
FFFC
0007
FFF9
FFFD
FFFA
FFEB
0004
FFF3
0013
FFEC
FFFA
FFFC
0009
000B
0011
FFFB
0015
0001
0009
0011
FFE7
FFFF
FFFD
FFFE
0004
000E
0007
0000
0006
000B
FFF3
000F
0003
0005
0007
FFFC
FFEE
0001
FFFC
0005
FFFD
000C
FFF6
FFFD
000E
0004
FFFA
FFF9
FFFC
0009
0002
FFFC
FFFE
0009
FFFA
FFEE
000D
FFF3
0001
FFFA
0001
FFF9
0010
000A
000C
FFFB
FFF4
FFFB
FFFF
FFFF
FFE7
0002
0001
0000
FFFE
0000
0011
FFF9
FFF8
FFF2
0002
FFF2
FFF6
0002
FFF7
0000
FFF7
0002
FFF0
FFFE
FFE8
000C
FFFE
FFFB
FFF2
0000
FFF0
0003
FFFD
FFF0
FFEB
0005
FFEE
0002
0006
0000
0009
FFF4
FFEC
0010
0016
0008
0004
0004
FFF5
0011
0002
FFFA
000B
FFF1
000C
FFF9
FFFE
FFF7
0003
0012
FFF1
FFED
FFF8
0009
FFF4
FFF3
FFF5
FFF9
0004
000B
0005
FFF8
0018
FFF5
0004
000D
FFFD
FFF9
0002
0008
000C
000A
000B
FFF1
000E
0019
FFEF
0002
FFFB
FFFD
0003
000E
FFFC
0011
0004
FFF7
FFFF
0004
FFF3
FFF8
FFF7
FFFD
0010
000D
0003
FFEC
0012
FFEE
FFFF
0003
FFFC
FFF4
FFEF
FFFB
0005
0008
FFFE
0001
FFFF
0017
FFF0
0011
FFF7
FFEC
FFFD
FFFA
FFF4
FFFC
FFEC
FFEF
FFF0
FFF7
000C
FFFC
0008
0006
FFFA
000B
0007
FFFC
FFF1
FFED
0004
FFF9
0002
FFF7
FFFA
0002
FFFB
FFF7
0004
0002
0017
0000
FFF6
FFFA
0012
0004
FFFA
0000
FFFC
FFFA
FFEC
0016
FFFB
0012
FFFE
FFFE
FFEA
000B
0005
0018
0005
FFFA
0002
000E
FFFF
FFF6
FFFF
0003
FFEF
0017
FFED
0006
FFF8
FFF9
0002
FFF8
0012
000A
FFFE
FFF4
FFFF
FFFB
0002
000C
0005
0001
000A
0015
FFF5
FFF8
FFF4
FFFC
0004
0008
FFF7
FFFA
FFFE
FFF0
0003
FFF2
FFF9
FFFF
FFF6
FFF4
0001
FFF4
FFFE
0001
FFE7
FFFD
FFF8
FFF7
FFFA
000D
0013
0005
0003
0001
000E
FFED
FFFB
FFF3
FFFD
FFF8
FFEC
FFF4
0017
0008
0001
FFF8
FFFE
FFF2
000B
0003
0015
FFF2
FFEF
0004
FFFA
0007
FFF1
0005
0005
0005
0010
FFFB
0000
000E
0010
FFED
FFFC
FFFA
FFFC
FFF4
FFF6
0005
FFEB
0000
FFFD
FFEB
0005
0003
0014
0000
0002
FFF2
0002
FFE9
0019
0002
0006
0003
FFF0
FFF9
FFFE
FFF1
FFFC
0004
FFF0
FFF8
000E
FFEF
0007
FFFE
FFFE
000D
000F
0005
FFFB
0004
FFF6
0004
FFFF
FFF9
FFFA
0008
0009
000C
FFF8
0019
FFF8
FFF9
0000
FFF6
FFFA
FFFA
000F
000A
FFEC
0004
000F
FFFB
000F
FFFA
FFF8
0010
FFF7
FFF7
FFFA
0007
0002
0007
FFF6
0003
FFF9
FFF1
0011
000E
0006
FFF7
0012
0011
FFFC
FFEB
FFEF
0012
000A
FFF7
FFEB
0014
FFF9
FFFA
FFF9
0009
000C
0009
0002
0009
FFF5
FFEE
FFF9
0005
000A
000F
FFF0
0001
0004
0005
FFF6
0011
0018
FFFB
0013
0000
FFF6
0003
FFF7
FFFD
FFF4
FFEB
FFF6
FFF9
FFFA
0007
FFEF
FFEF
FFF4
0003
FFF3
FFFF
0003
FFF8
000A
000E
0006
FFF4
0006
FFF1
FFFC
FFE7
0004
FFEB
0003
FFF3
0008
000F
FFFE
0009
0008
FFEF
FFFA
0001
000C
FFF2
FFFC
0007
FFFE
0000
FFE7
FFF4
FFFF
000D
FFEC
FFFA
FFFA
FFF0
000E
0014
0003
0018
0013
FFEE
FFFE
0009
0007
FFE9
0004
FFFD
FFF4
000B
FFF7
FFF2
FFF3
FFF2
000C
FFF5
0004
000F
0000
FFE7
000A
FFF9
FFF8
FFF5
000D
FFFE
0003
FFED
0007
FFEC
FFFD
FFFF
FFEB
FFFA
FFF9
0000
0018
FFFD
FFE9
FFFA
0000
0001
0010
FFF7
000C
FFF7
000D
0008
FFF1
000E
0004
0000
0006
0007
FFF5
000F
0016
000D
FFF2
FFFD
FFFC
0017
0005
0002
FFF7
FFE9
FFFF
0002
0013
000D
FFFC
0005
FFF6
0004
FFFB
FFE9
FFFB
0009
FFFB
FFFA
FFF7
FFEE
FFFC
0002
FFF9
FFFF
FFF1
0000
FFFD
0014
FFF1
000A
FFFA
FFEA
0007
FFF3
0004
0006
0011
FFFF
0006
FFF9
FFFC
FFF8
0008
0003
FFFE
0011
FFF7
FFF2
FFF9
0006
0008
FFF6
FFF8
0004
000E
FFED
FFEC
FFE8
FFF0
0018
0007
0008
0010
FFFB
FFF9
0002
FFEE
0005
0001
FFF0
FFF5
0000
0005
000F
0016
FFF4
FFF4
FFF3
FFF9
0002
FFFD
0000
000C
0018
FFF2
0003
000C
0000
FFF4
0012
FFF5
FFEC
FFF9
0004
FFE8
FFF7
0014
0003
0001
0004
0007
0000
FFE8
FFEF
0002
0002
FFFC
FFF8
FFF6
FFFB
FFFE
FFFA
0002
0000
FFFF
0005
FFFE
0005
0000
FFFC
FFEC
FFEA
0003
0008
000C
FFFA
0002
0007
FFFE
000A
0004
0005
FFF2
0005
FFF2
0002
FFF1
0002
FFF9
000E
0010
0013
FFFA
FFF6
FFF7
0005
FFFE
0009
FFF5
0002
FFF8
0002
000D
FFF7
FFFA
0001
0008
0000
FFED
000A
FFF7
FFF4
0008
FFEE
FFF6
FFF0
000A
FFF8
000B
FFF7
FFF6
FFFA
FFF9
0005
0000
0010
FFEE
0007
0015
FFFD
FFF4
FFEA
0003
FFF6
FFF0
FFFF
FFEE
0000
FFFD
000F
FFFB
0003
FFF8
0003
000D
0010
FFEF
FFFE
FFF2
FFFA
0008
FFF7
0008
0018
FFFD
0004
FFFC
0001
FFFF
FFFF
FFED
0011
000A
FFFC
FFF7
000E
0005
000A
000A
0005
000F
FFF6
FFEA
0010
FFF8
FFFE
0006
FFFE
0010
000C
FFF9
0008
FFF9
FFFC
FFF1
0002
0000
0001
FFFB
FFFC
0009
FFF4
FFFB
0004
FFFD
FFED
0004
FFF9
FFFE
FFFA
FFEF
FFFF
0007
FFFE
000E
FFF0
FFFE
0004
FFFE
FFF5
FFEC
FFE8
0003
FFEE
0002
0009
FFFD
FFF4
000C
0009
FFEB
000A
000A
000A
FFF0
FFF7
FFFD
FFE7
FFFC
0001
FFFD
FFE7
0001
0000
000C
FFE9
FFFC
FFFE
000D
FFFC
0000
FFF6
0002
0004
000B
0003
FFFF
FFFC
FFFC
0000
0002
0006
0016
FFFD
FFE8
000A
FFFE
FFF5
0005
0011
0000
0005
0005
000B
FFF4
0006
FFE7
FFEB
0016
FFF9
FFF2
FFFE
FFEF
FFF8
0002
0004
FFFF
FFF3
0007
FFF5
0009
0004
FFFB
FFF4
000C
FFFC
0013
0004
FFF7
FFF3
FFE8
FFFB
0002
FFF9
FFF9
0005
FFFC
FFF2
FFF0
FFFE
FFFF
0010
0005
FFFE
0010
FFF0
0000
FFE8
FFED
000E
FFFC
FFF9
FFFC
0016
FFF1
FFFE
FFEF
FFF5
0002
0005
FFFC
000D
000D
FFFF
0009
FFF6
FFFD
000A
0004
000B
FFEA
0005
FFF6
FFF3
FFED
0008
0004
FFF1
FFF6
FFE9
FFF9
FFF5
000B
FFFA
000D
0007
0001
FFED
FFF9
FFF7
0001
0007
FFF4
0003
000E
FFEA
FFFB
FFFF
FFFF
0016
FFF2
0003
FFEE
FFEC
FFF6
FFF2
FFF2
FFFC
FFF6
0000
000C
0004
0016
FFE9
000C
0004
0013
FFFF
FFEF
0003
000F
FFFB
000C
FFED
FFFB
0012
FFF1
FFF7
FFF2
0010
FFFF
FFF0
FFFD
FFE7
FFF9
FFFC
0005
FFFE
0004
FFF9
FFF5
FFFC
FFF3
FFEC
FFF0
FFF3
0003
0004
0002
0006
FFFB
FFEF
FFF5
0003
0007
FFF6
FFFD
000C
0008
0006
0008
0009
FFF8
FFFB
0006
0003
FFED
0005
0012
0007
0007
FFF2
FFF9
0000
FFFD
FFFB
000F
FFF8
000D
0007
0006
0006
FFF0
FFFF
000B
0012
FFFF
FFFC
000F
FFF6
FFEC
FFF8
FFF8
0018
0015
0008
FFE8
FFF1
FFFF
0001
000D
000E
FFF0
0003
0006
FFFA
0008
0002
0000
0002
0003
FFFC
FFEE
FFED
0015
FFF5
0001
0008
FFEE
0002
FFFA
FFFD
FFF7
000A
FFEA
FFFC
000A
0005
FFF3
FFFF
FFFB
FFFD
FFF7
FFFC
0006
0006
FFF9
FFF4
0000
0003
0005
0010
FFF1
FFEC
FFFF
FFF9
0016
FFF3
0005
000A
FFF9
FFF9
FFFA
FFED
0017
000D
FFEF
0002
0008
FFFF
0011
000E
000E
0010
FFFF
FFEF
000C
FFF4
FFEE
FFF9
FFFF
0004
0008
0002
000B
FFFF
0007
0009
FFF6
FFFA
FFFF
000D
0004
FFFC
FFEE
FFF0
FFF7
0007
FFFC
FFFD
FFFE
FFEE
0011
0005
FFF5
FFFE
000C
FFF2
0009
FFFA
0008
FFF8
FFF9
FFEF
000D
FFF7
FFEF
000E
000D
FFF9
0005
FFFC
FFFF
FFF9
0014
FFF7
FFF4
FFF7
0001
0001
FFFD
FFFD
0014
FFF2
FFFC
FFF0
FFF8
0006
FFFD
FFF2
FFFB
0005
FFF5
FFF5
FFF5
FFF1
FFF3
000A
0007
000E
000B
FFF0
FFFF
0001
0010
0013
FFFD
FFF1
FFF4
FFED
FFFF
0001
FFF9
FFFB
FFFA
FFEF
FFFD
0000
000A
0004
FFEC
FFF6
FFF5
FFF5
0017
0007
0006
0007
FFF6
0011
FFFC
0002
000A
FFFF
FFFD
0005
0007
FFEF
FFFB
FFFF
000F
0005
FFF3
FFEB
000E
FFF6
000B
000B
FFFC
FFEE
0006
FFFE
FFF8
0007
0009
0010
0003
000F
FFFB
FFFE
FFFB
FFF2
FFF8
0000
000D
FFE9
FFFE
000F
0006
FFF0
0005
FFF8
FFF8
FFF6
FFFF
000A
0003
FFFD
0003
0000
FFE8
0005
FFF6
FFF3
0011
FFFA
000B
0000
FFED
000E
0001
0000
FFFC
FFFE
FFFF
FFFE
000F
000A
0015
0005
FFF8
000D
FFFB
000E
FFF1
FFFF
0007
FFFE
0010
000A
000D
0002
0010
001A
000E
FFFD
000B
FFFE
0002
0001
0001
000C
0012
000A
FFF3
0005
000D
0007
FFF8
FFF2
FFEE
FFFE
FFF8
FFF3
0001
000B
FFF9
FFFE
FFFE
0004
000C
FFF0
0008
0003
0003
FFF6
FFFC
000B
0004
000F
000C
FFFF
FFF4
FFF5
FFE7
000C
FFFF
0006
0004
FFF0
FFFE
FFF6
0002
FFFC
0009
000D
0004
0002
0010
FFF3
0010
0000
FFE9
0001
0005
FFF2
0013
0007
0012
FFFF
0011
FFFC
0004
FFEF
FFFF
FFFD
0004
FFF9
0016
0007
000E
FFF6
FFF2
FFEE
0015
FFF0
FFFF
0003
000C
FFF8
0013
FFF9
FFF9
0005
0004
FFE8
FFF1
FFF7
000A
0005
FFFE
FFFE
0008
FFEF
000A
0009
FFFA
0002
0007
FFF3
000E
FFFF
000A
0003
FFF7
FFF4
000C
0005
0003
0009
FFFC
FFFA
FFF7
0006
000A
FFFA
0011
FFF8
FFFC
FFF3
0014
FFFF
0014
FFF2
FFFB
0019
000E
FFF4
0006
FFF8
0005
FFFC
000D
0014
0000
000B
0004
FFF5
FFF0
0011
FFEA
FFFA
FFFE
000C
FFF3
0015
0006
000B
FFF8
FFF2
FFF9
0012
0003
0002
000F
0009
0013
000D
0003
000F
FFFE
FFF8
FFEF
FFF3
0003
FFF8
FFFC
0006
0011
FFFE
FFFF
000F
0000
000B
000E
000A
0002
000D
0008
FFEA
000F
0005
FFF4
000B
FFF3
0007
0006
000B
0005
0003
FFFA
FFED
FFFE
FFF8
0011
0018
FFFB
000D
000D
FFFF
0000
0009
FFEE
0018
FFFC
FFF5
FFFD
0012
0011
0000
FFF9
FFF7
000E
FFF9
0004
0016
FFFE
FFFD
0007
000F
0009
0008
0000
0005
0017
FFEA
0007
FFF2
FFFD
000A
FFEB
0007
FFEA
FFF2
0000
0001
FFFB
0003
FFF9
0000
0006
FFFE
FFFF
0001
000A
0001
0001
FFF2
0002
0017
FFF8
000C
FFFF
000D
FFF3
0006
000B
FFFB
0001
FFF2
0004
0002
0018
FFFF
000E
000A
FFF3
0000
FFF0
0008
0001
0001
0004
FFF0
0002
0001
FFFD
FFFE
FFFF
FFF8
0008
0008
0002
FFEF
0006
FFFF
0008
0008
FFFF
FFFE
FFF9
FFF6
FFF8
0015
FFFB
FFEC
FFF8
FFFD
0012
FFE7
FFEE
0004
0007
0015
FFFA
FFF1
FFF4
000D
FFFB
0002
0009
0001
FFFB
000A
0014
0004
FFF0
FFFC
FFF7
FFF3
FFF4
FFFE
0009
FFFA
FFFD
000B
0018
0006
FFFD
FFF0
FFFF
FFFE
FFF1
FFFB
0006
FFF2
FFFC
FFFA
FFF4
0007
0002
0006
FFFC
0013
FFED
FFF9
0008
FFF9
0008
FFF5
0008
FFF9
FFFC
FFFD
FFE7
FFF5
000E
0003
FFFE
FFFB
FFFE
0004
FFE8
FFFD
FFF4
FFE7
0007
FFF7
0001
0012
FFE8
FFF7
0000
0012
000A
FFEB
0009
0013
000B
FFFF
000C
001A
0007
0002
FFFF
0003
000A
0000
0007
0001
0004
0004
0001
FFFE
0007
0004
0016
0007
0010
0000
FFFD
0006
000A
0000
FFFB
000F
FFF2
0007
0002
0013
0003
0006
FFFD
0012
0007
FFF8
0001
FFEF
0007
0004
0007
0005
FFFB
FFEF
0009
0007
0001
FFED
FFE7
FFF1
FFFE
0012
FFF0
FFF7
0008
0013
0010
000F
0010
FFF4
FFF5
FFF0
FFFE
000B
FFF4
FFE9
0009
FFF3
0005
000A
0000
000C
FFF2
0001
FFF9
0018
0012
FFFE
0006
0009
FFF2
000B
000B
FFF2
FFFD
FFFF
000A
0013
000F
FFF1
FFF8
0003
000A
FFF9
FFF8
FFED
000B
0000
FFF9
0013
FFEF
FFF6
000A
0000
FFF7
0000
0015
FFFC
0007
FFF6
FFED
0007
0003
0004
0017
0006
000B
FFFD
000C
0000
FFF9
FFFD
0000
0000
0009
FFEE
FFFA
0009
0003
000F
FFF9
FFFE
FFEF
0009
FFEB
0002
FFFC
FFFA
0012
FFFE
FFFD
FFF9
000B
000D
FFFC
0001
FFFA
0005
0009
0007
FFED
FFF5
0009
FFE7
0006
FFFF
FFF0
0007
FFF5
0000
0009
FFFD
0003
0002
FFFB
FFF7
000F
000E
FFF2
FFFE
0014
000D
0003
0008
0001
0003
FFFA
0011
FFFB
0000
000A
FFF8
0002
0009
0003
0006
0001
0017
0009
0011
0001
0001
FFF9
FFFB
FFFE
0006
FFFF
FFF0
0000
0010
0001
FFFB
0009
0003
0014
FFFA
0005
0001
0014
FFF9
0001
FFFC
0008
0002
FFFC
0004
FFFF
0008
FFED
0004
0004
FFFB
FFFA
FFF5
0005
0008
0010
0008
000B
FFF1
FFFD
FFFF
000E
0007
FFFA
FFF7
0004
FFF6
0019
FFF6
000B
FFF3
FFFD
FFF1
FFFE
FFF8
0005
FFF6
0006
0003
FFF1
FFEF
0013
FFF2
0003
0006
FFF8
FFE9
FFFB
FFF9
0004
000C
0008
0009
0002
0000
0002
0008
FFFB
FFEA
000A
FFF9
FFEF
000F
000A
0009
000A
0007
0007
FFEB
000B
0008
FFFB
FFFF
FFF7
FFFE
0017
000F
000B
000F
0015
0000
0005
FFF0
FFFB
000A
0009
FFFE
FFFF
0012
FFE7
0011
0001
0016
0002
0001
FFF3
FFF0
FFF7
0015
FFFD
000C
0004
000C
0013
FFFC
FFE8
0007
0011
FFFB
FFFD
FFF2
FFE9
0000
FFF7
FFFE
FFF3
0002
FFFF
FFF1
0006
0015
0003
0007
FFF4
FFF6
0004
000F
FFEB
FFFD
0010
000A
0003
FFFB
FFF4
0004
000B
FFFF
FFF4
0002
FFF4
FFFD
FFFF
0001
FFFC
000F
FFF6
0001
0001
FFF8
0008
FFF9
FFF7
0016
FFF6
0008
FFFD
FFFD
FFFF
0001
FFFE
FFEE
0014
FFF7
0004
0004
FFFF
0007
0009
FFFA
FFFA
000B
FFFA
FFF2
0016
0001
FFF9
FFEA
FFF1
FFFC
000D
0000
0015
0018
0004
000F
0002
0008
FFE8
0015
000A
0003
FFF6
000E
FFFD
0007
FFF0
FFF8
0005
000D
FFF8
FFF7
FFF9
0004
FFFB
FFF9
FFFB
FFF6
0002
FFFF
000D
FFF9
0015
0017
000A
0007
FFFD
FFE7
0010
FFF8
FFFC
0008
000B
0006
0006
FFF2
0013
FFFF
FFF8
0003
FFEB
0006
0001
0009
0000
0009
FFEE
0004
000E
FFF7
FFF3
FFF7
0005
0002
FFFE
0005
0006
000D
FFFE
FFF5
000F
0011
FFEA
FFF7
000F
FFF8
0003
0004
0010
FFFA
0006
0017
0003
FFEB
0016
FFF8
FFFD
000E
FFEE
000F
0001
FFF3
0005
0002
000B
0001
0006
FFF4
0002
FFF9
000D
FFED
FFF1
0005
FFF6
FFF7
000B
0008
FFFC
FFF2
000A
000E
FFF9
0015
0002
0003
000B
0005
000B
FFF4
0001
0001
0000
FFFF
FFF7
0002
FFFA
FFF9
FFF6
FFEE
FFFD
FFFF
FFF9
0007
0002
0016
FFF8
000C
FFFF
FFF8
0000
FFF8
000B
0002
0008
000B
FFF5
0019
0006
0008
0002
FFEC
FFFC
FFFF
FFFB
0003
000D
000D
FFEB
0004
0007
0003
0000
0005
000E
FFF6
000F
000E
0012
FFF2
FFF0
0006
FFFD
FFFC
FFF9
0011
FFF8
0006
0015
FFF6
0005
0007
0018
FFFE
FFFE
FFF4
FFFB
FFF4
FFF0
000C
FFF8
FFFE
FFFD
0012
FFF2
0005
0002
FFF8
0002
FFF2
FFFA
0015
0004
FFF5
FFFA
FFFA
0010
FFFB
000E
000A
FFF3
000B
0017
0007
FFF4
FFE8
FFFE
FFE9
0005
000B
FFF1
0010
FFED
0006
FFF0
FFFC
FFF2
0004
FFFA
000E
FFFD
FFFD
FFFF
0007
FFF5
000A
FFFF
0009
0005
000C
0014
0001
FFF1
FFF0
FFF5
0004
FFF1
0011
0012
FFF7
000B
FFF1
0011
0019
0000
0007
000D
FFF0
FFF5
000B
FFF7
FFFC
FFFC
FFF6
000B
FFF1
0012
FFFE
0013
FFFE
0010
FFF9
0009
000C
FFFB
000D
000C
FFF3
FFFD
FFFE
0000
000C
0004
FFF6
FFFA
0003
FFFD
FFF1
FFFD
FFFC
000B
FFFD
FFFD
FFF6
FFF0
0006
FFEC
0004
0005
FFFC
0003
000A
000D
000D
000A
0003
FFED
0000
FFF7
0015
FFE8
FFFB
0016
0015
0003
000B
FFFE
FFFF
FFF6
FFFF
0007
0006
FFEE
FFF9
FFF8
FFF4
FFF2
0011
FFE7
0007
0010
0017
000A
FFF2
0006
FFFA
0002
FFF7
FFF8
FFFA
000D
0000
FFF0
FFFE
FFEA
FFEE
FFF8
000A
0008
FFE7
0008
000E
FFF9
FFEA
0002
FFEB
FFF6
0011
0016
FFF5
FFF5
FFF7
0000
0013
FFF5
FFFF
0006
FFFB
FFFA
FFF9
0002
0007
0008
0006
0008
0001
000A
FFF8
000D
FFF5
0016
FFFA
FFF8
FFE8
FFF3
0004
0003
000B
0004
0002
000C
0001
000B
0007
0009
0011
FFF7
FFEC
FFFF
0002
0017
FFF0
0003
0007
FFF0
FFFC
FFF6
FFFE
FFF6
FFED
FFF9
0003
0007
0007
0004
FFF6
0006
FFFF
FFF2
0003
0008
0010
FFFD
0001
0000
FFEF
0019
FFF3
0005
0008
0002
FFFA
000E
FFFA
000D
0003
FFE8
FFED
FFF2
0013
FFFC
0005
0009
000C
FFFC
000C
0010
0004
FFF5
FFF7
0002
0015
FFFE
0003
0002
FFF8
0012
FFF0
FFFA
0006
0004
0018
000E
0010
0006
000E
0009
FFFE
0001
0002
FFFB
0017
0018
0016
0008
FFFA
FFE7
FFF6
0002
0001
0001
FFF8
0009
FFFA
FFF3
0007
FFED
0019
FFF5
FFF5
0005
0001
0007
FFF1
FFF9
FFFF
000E
FFF5
FFEC
FFF6
0016
0005
FFF8
0005
FFF8
FFFD
FFF9
0008
FFFA
FFF0
FFF9
0018
000A
FFFB
000A
0003
0009
FFFF
FFFE
FFFC
000D
FFF9
FFFB
FFFD
0017
FFFC
FFF4
FFF4
FFF6
0013
0000
0007
0012
0007
000B
FFFC
000A
0000
000A
FFED
FFFE
FFFD
FFFA
FFF3
0009
FFF0
FFE8
FFF6
0003
FFF5
0006
FFF5
FFEA
000B
FFFB
FFEF
000B
000B
FFF4
0004
0008
FFFD
0005
FFFA
FFFD
FFF9
FFF9
0008
000D
FFFA
000C
0005
FFF9
0005
0003
000B
0005
0001
000D
FFE7
0005
0003
0002
FFFD
0000
0006
FFFA
FFF7
FFFB
FFF2
0017
0001
0014
0001
FFEA
FFF3
0000
0009
000E
0017
0000
0003
0000
0009
FFF4
0006
FFF4
FFEB
FFFE
0005
FFF1
FFF9
000E
0007
0012
FFFE
FFF4
FFFD
0005
FFFF
FFFD
FFFE
0007
FFFB
0007
FFED
FFFC
0003
000C
FFFD
FFF7
0013
FFFF
0007
FFF0
0006
0009
FFFF
0003
000E
0005
0007
000F
000E
FFFE
FFF3
FFFB
0002
FFFD
FFE8
FFF6
0009
0003
FFEE
FFFB
000C
0007
0014
FFFB
0013
FFF8
0008
000A
FFF4
0005
000A
0000
FFF5
000D
FFF9
FFF8
FFF9
FFF9
000A
000F
0005
FFFA
000F
0016
FFFF
0002
0013
FFFB
0006
FFFE
0011
FFF2
FFFE
000F
0006
0006
0001
0009
0014
0015
FFFD
FFF0
000A
0000
FFEC
000B
000F
FFFC
FFEA
FFFC
0004
FFF8
0004
FFF9
FFF4
FFF6
FFFA
FFF4
0000
0006
FFF6
0002
0014
0015
FFFF
0009
FFF8
000A
FFF9
000B
FFF7
FFFD
FFEF
0012
FFF5
FFED
0000
0005
0003
0007
0000
FFFE
0013
0016
FFFA
0018
0005
FFF2
0009
0016
0013
FFF9
FFEE
FFF5
000D
0017
0004
0008
0003
FFF0
FFFE
0004
FFFE
000E
FFFF
FFEE
0005
FFF1
FFFF
FFFD
0006
FFFA
000F
0011
FFF7
000B
FFFA
000E
0002
0010
FFFE
0001
FFFB
0004
000C
0004
FFF8
FFFA
0006
0002
000B
FFEF
0004
0000
FFFD
0005
0010
0005
0006
FFF5
000A
FFF0
0014
FFF0
FFFA
FFFB
000B
FFE7
000D
FFF3
FFFA
FFEE
0001
FFF7
0002
0009
FFFB
0012
FFEE
000A
FFF4
0017
FFFC
FFF6
000A
FFF5
0001
FFFC
000C
0006
FFF9
000B
FFF4
FFFE
0004
FFF9
FFFD
FFF1
FFF7
FFF5
FFFB
0002
FFE7
FFF0
0010
FFEF
FFFF
FFF0
FFF6
0006
000B
0003
FFED
FFF8
FFE8
0004
000D
000B
FFF8
0005
FFF4
FFFA
FFFE
FFFA
FFFE
FFFE
0008
FFFE
FFEA
FFEC
0002
0007
0008
FFF1
FFF6
FFF5
FFF6
FFF5
000F
000E
0013
0006
0018
FFF8
0006
FFF8
FFF4
FFED
FFF2
0006
000C
FFF3
000B
FFF3
FFEA
FFFC
000A
0001
FFF6
FFF9
0004
FFEF
0009
0005
FFF6
000D
FFFF
FFFF
FFFA
0001
FFFF
0007
FFF2
FFEC
FFEC
0005
FFF6
FFEB
FFE9
FFFE
0006
FFF5
FFF4
FFFC
0001
0001
0004
000F
0003
FFFC
FFF4
FFF9
FFFD
0009
000B
FFFA
FFFA
FFFF
0002
0002
0007
0000
0014
FFEB
FFF0
FFF5
FFFE
000C
0003
0003
FFFF
FFF9
0006
0004
FFF0
000D
FFF0
0001
000A
FFF7
FFF8
0009
FFF4
0003
0000
FFFC
0016
FFF9
0004
FFF9
000A
000C
0000
0000
0005
FFFB
FFF4
0004
FFFE
FFFD
000E
FFF4
FFEE
0001
0005
0004
FFFB
0005
0002
FFFD
0009
000E
0010
FFF8
0000
0011
0011
000B
0005
FFEC
FFF0
0000
0003
000C
FFFE
0007
000E
0001
0008
000C
0019
0002
FFF5
0001
0000
FFFD
FFF7
FFF0
0009
000A
0002
FFEC
0015
FFE7
000E
0000
0013
0001
FFF4
FFF2
0013
000A
0016
0004
000A
FFF3
FFF2
FFF1
0007
FFEE
0003
0007
FFFD
FFF1
0006
FFFF
FFF8
FFF5
FFEF
0001
FFEF
FFEB
FFEB
FFF1
FFED
0001
FFF1
0012
FFF7
0010
000B
0003
FFF7
000E
FFE7
FFF0
000B
FFF7
0014
FFFF
000F
FFF1
0013
0001
FFFC
0006
FFFC
FFF8
000D
FFF6
000B
0000
000B
0000
FFFE
FFFF
000B
0009
FFF3
FFF9
FFFA
FFEA
000D
FFFA
0007
0001
FFFC
FFF8
0001
0008
FFF5
FFFC
000E
000B
0007
0008
0002
FFF6
0016
FFFA
0012
FFFB
0013
FFF7
FFF1
0000
FFF9
000B
0011
0002
0010
FFF9
0011
FFED
FFFD
FFFB
FFFD
FFF6
FFF7
000E
0004
0006
000F
0002
0012
0003
FFF8
FFEE
0006
FFFD
FFF9
FFFC
0009
FFFD
000D
FFF9
FFFC
FFE7
FFF2
000E
0009
FFF5
FFFA
FFFB
0004
FFFC
0002
0003
FFFB
FFFE
000A
FFEE
FFFD
000E
0005
FFF5
0001
FFF2
FFEE
FFF5
000C
000A
0006
FFF7
0008
0009
FFFF
0002
0003
0007
FFFB
0011
FFF9
FFFB
FFFE
0009
FFEB
0004
FFFD
FFEE
0000
FFFE
FFFB
000A
FFFD
0006
FFFD
000D
FFEF
FFEC
0015
0009
0001
FFFF
FFFC
FFE8
0002
FFF7
FFF2
FFF8
FFFC
FFF3
0019
FFEC
FFF3
FFE8
FFFF
0002
FFFD
000D
0003
0017
FFF7
000D
0018
FFEE
0007
000D
0008
0007
FFF9
FFF9
FFF5
000D
FFF4
FFFB
000D
000B
FFFB
000D
FFFB
0002
FFF4
0009
FFFB
FFFF
000B
FFF6
000A
FFFC
0003
FFF8
FFE8
FFF5
0015
0005
0002
0011
000A
FFF3
FFF6
FFF3
FFF1
FFFF
FFF9
0005
0004
0001
FFF0
FFFD
0019
FFF3
0005
FFF2
FFFC
FFFD
0006
0004
0010
FFFF
FFF4
0007
FFFC
0000
0007
FFFA
000A
0000
0004
0000
0001
0002
FFF5
FFFA
FFFD
FFF1
000C
FFF6
FFF8
FFF8
0013
FFF1
FFF1
0006
FFF2
FFF9
0008
0002
0013
000B
FFF2
0010
FFFF
0015
FFE7
0004
FFEE
0004
FFF4
FFF6
0000
FFF0
FFF1
000C
FFFB
FFFA
0000
0010
0013
FFEC
FFF1
FFF9
000E
FFF7
000C
000D
FFEC
FFFA
0009
0006
FFF5
0003
FFFF
0010
FFFB
FFF7
FFFB
FFF7
0006
FFE7
000D
FFFF
FFFC
FFF4
000F
0013
FFF6
FFF1
000E
FFE8
FFF5
FFFF
0017
0013
0001
0002
0006
0002
FFFE
0000
0017
000A
0003
0002
0009
0006
0013
000C
FFFB
FFF8
0002
0008
FFF2
0000
0010
FFFD
0019
0007
FFFD
0000
FFFE
0001
0002
FFF0
FFF5
FFF5
FFF3
FFFB
0002
0008
FFFA
000D
000F
000B
FFFA
0008
0017
FFF6
0009
FFF6
FFFB
0002
000E
0008
0000
FFF4
0006
FFF9
FFE8
FFFD
FFFC
000A
0007
FFF4
000B
FFF4
000F
0009
FFFF
FFF6
FFF7
FFFB
0000
FFFA
0010
FFF0
0004
0001
FFEE
FFFD
0009
000B
FFF5
000C
0010
FFFC
FFF6
FFF5
FFFF
FFF6
0012
0003
FFF2
FFE9
0012
0000
0007
FFFF
FFFF
0000
FFEC
0007
FFF9
0014
000C
FFFF
0000
FFE9
FFEF
000E
0015
FFF7
0002
FFFE
0005
0001
0009
FFFE
FFF2
0002
0003
FFFF
FFFA
FFFB
0006
FFF3
FFFA
0001
0001
0005
FFE9
0017
FFE6
000A
FFFA
FFF9
FFEC
0000
FFF2
0000
FFF8
0016
FFEC
0016
FFF1
0000
FFFB
FFF9
000E
FFFC
0016
0008
0004
000E
0008
FFF6
001A
0002
000D
FFF6
0016
FFF9
0013
0000
000F
0009
FFE8
FFFA
0002
FFEC
FFFD
0000
0013
0003
0003
FFE9
FFFD
0016
0007
0006
0006
0009
FFF3
FFFB
0008
FFEE
FFEB
FFF5
0001
FFF3
FFFE
FFFF
FFE8
FFF1
FFFD
000E
FFF8
0001
FFF9
FFF7
000F
FFF5
FFF4
0007
0002
FFE9
000D
FFF5
0015
000F
0002
FFFE
0002
FFF6
FFE9
000D
FFEE
FFF4
0000
FFFB
FFFF
000D
FFFF
FFF3
FFFE
FFE7
0008
FFF2
FFF6
0003
0005
FFF5
FFF9
FFFB
FFFE
FFF4
0008
FFED
FFFE
FFFF
000B
0003
FFFF
0007
0002
FFFF
0011
FFEA
0010
FFF4
0016
FFFD
0007
FFF7
0007
FFF0
FFFD
000F
0000
FFEF
0014
0002
FFE9
0007
0000
000A
0009
0003
FFF0
FFF6
0011
FFFF
000D
0005
0002
FFE8
FFFE
0006
FFFB
0003
0008
0009
FFF9
0002
FFFC
FFFF
FFFE
FFF0
0003
000C
0011
FFE7
0006
0004
FFF3
0014
FFFE
FFFE
FFEC
FFFE
FFFF
FFF6
FFEE
0003
FFFD
0008
FFEB
000B
000D
FFFB
000A
FFF7
FFFA
FFF6
FFED
000B
0006
0005
000B
0013
FFFD
000C
0012
FFFC
FFEB
0004
000A
FFFF
FFFF
0005
FFFC
FFF8
0016
FFFF
FFF9
0006
FFEA
000A
0004
0016
000A
FFFC
0002
FFF6
000A
0003
0004
FFF4
FFFB
FFF6
000A
0010
0003
FFF4
0007
FFF8
0005
0000
000B
FFFE
FFFC
0001
0016
0015
000E
FFFD
000C
000E
FFF9
000B
FFF9
FFEC
0008
FFE9
FFFD
0006
FFF2
0008
FFF1
0005
000E
FFFE
FFF6
FFFC
FFFC
FFE9
FFEC
0007
0003
0012
FFFF
0012
000F
FFF2
FFF5
FFFE
FFFC
FFE9
0006
0002
FFF6
FFFE
FFFD
0009
FFF6
0008
0004
0004
FFF3
FFED
FFE6
0008
FFFC
FFEF
FFF4
FFF2
0001
FFFE
FFF7
FFF7
0000
FFFB
FFFC
0006
FFFD
FFF3
000D
000C
FFF6
FFF9
FFF7
0006
000E
0016
0008
FFFE
000A
0016
FFF1
000E
0003
FFFB
FFFA
0006
FFF5
FFF0
0004
0002
0000
FFF6
FFF2
0004
FFFA
FFF2
FFF7
000C
FFF2
FFFF
0003
FFF7
0011
FFF5
FFF7
000B
0012
FFFE
0006
FFF5
FFF3
FFFA
FFF9
0006
0011
0016
0003
FFFF
FFFE
0001
0004
FFFE
0006
FFFE
FFED
FFF6
FFF5
FFF5
FFF3
0010
FFFA
FFFA
000B
FFFA
0007
FFEC
0008
0001
FFF3
FFF3
0002
FFE9
FFF0
0009
FFFF
FFFB
FFF8
FFF8
000F
0008
0001
0008
FFFB
FFFF
FFEE
0004
FFE7
0002
0007
FFFD
0014
FFF8
FFF4
FFFD
0002
FFF9
FFFF
FFF9
0011
0001
FFF7
FFF5
0002
FFFD
0003
0009
FFEB
0014
0007
000A
FFED
FFFD
FFFA
FFF2
FFE8
0005
0001
000D
0019
0008
FFEA
0001
0002
FFFC
0007
FFFE
0000
0002
FFF9
0002
0001
000B
FFFD
001A
FFFD
FFF2
0006
000B
FFFE
0005
0006
0001
FFFF
FFF7
FFF8
FFF4
0012
FFF8
0004
0008
0004
FFFA
0014
0011
FFF1
0004
FFEE
FFF1
FFE9
0006
0005
0006
FFFB
FFF2
FFF9
0005
FFFC
FFF9
0006
0007
0008
FFFD
FFFD
FFF5
FFED
FFEC
000F
FFF1
0003
FFF9
FFFC
FFF9
FFEE
0001
0010
FFF3
0005
FFFD
FFFC
0005
FFF8
0000
FFFE
FFFB
FFFB
000B
0017
FFF2
0013
FFEE
FFF7
FFF7
000D
FFFE
FFF2
0006
FFF7
FFFA
0006
FFF4
FFFA
0001
0004
0016
FFFD
000C
0010
0001
000C
FFF9
FFFC
0010
0005
FFF0
FFE9
000B
000D
0007
0003
0009
0013
FFF0
FFF0
FFFD
FFFF
FFFE
FFF9
000A
0000
0004
0018
FFF6
FFFD
0004
FFFF
FFED
000B
FFF5
0001
0003
FFF2
FFFD
0004
0005
0008
FFFA
FFFF
0005
0001
000A
FFF9
FFEB
FFF4
0001
FFEA
000E
0001
0002
FFFD
FFF4
FFF5
000F
0000
000F
FFFA
FFEC
0013
FFEE
0002
000F
0003
FFEA
0001
000F
000F
FFEF
FFEF
0004
FFEC
0001
FFFE
FFFB
FFFA
000F
FFFB
000F
000D
FFFB
FFFC
FFEA
FFFE
FFFC
FFFA
0001
FFFE
FFF7
FFFF
0011
0009
FFEF
0011
000A
0004
0012
FFED
FFF1
000B
FFE9
FFF2
FFEF
FFFD
FFEA
FFF9
0013
0001
FFFA
FFE8
0004
FFFB
0003
FFFA
0000
000A
000E
FFF1
000D
0003
0006
000D
0004
0011
0008
0004
FFF6
FFF3
FFEF
0003
0007
FFF2
0008
FFF2
0008
0006
0001
FFF7
0000
FFE9
0014
000A
0019
FFFD
FFF5
FFF5
FFFF
0005
FFED
FFFD
FFF4
FFF4
0000
000D
0001
000B
FFEF
FFEF
0016
FFF9
0011
FFFC
0004
000C
FFE8
0002
FFF8
0006
0016
FFF7
FFF6
0004
FFFF
FFED
000B
FFFF
0006
000C
0000
FFF3
0000
000A
0002
FFE8
0015
FFF6
0018
FFFC
0006
FFFE
FFF8
000A
FFF9
0008
0009
FFEB
0016
FFEF
FFF0
FFFE
FFF7
FFFD
FFFE
0010
FFF8
FFE8
0005
000E
000A
FFF9
FFFD
0003
0010
FFF7
FFFB
0003
0004
0000
0019
FFF1
FFF4
FFF0
FFF1
0002
0018
0003
FFEF
FFFE
FFF9
FFF7
FFF2
FFF2
FFFC
FFFE
0005
FFEE
FFED
0000
FFFF
000F
0009
FFFE
FFF3
0002
FFF5
0005
0003
FFFA
0002
FFFF
FFF6
0002
FFFC
0002
FFFB
000A
FFEC
0015
FFFE
FFF6
FFF5
FFFD
FFFC
FFED
FFF4
0000
0002
0003
FFFA
FFFB
0008
0006
0008
FFF7
0003
FFFE
FFEB
000D
0018
000C
FFFE
FFF4
000D
0009
0002
0002
0011
0001
000D
0008
0000
000E
0004
FFED
FFFD
FFEC
FFF1
FFFE
000D
0002
FFF9
0006
0000
0013
FFF7
FFFB
0008
FFF3
FFF0
FFEF
000F
FFFF
FFF5
FFF0
000D
001A
0009
0013
FFFF
000D
FFFB
0009
000B
000D
FFF3
FFFC
FFF4
0000
FFEE
000C
FFE7
0010
FFFE
0005
000B
0003
000A
FFF8
FFFC
FFF9
0009
0009
FFF3
0015
0008
FFF7
0006
FFEE
0011
FFEB
0007
FFFC
0001
FFFA
0019
FFF2
FFFF
0007
0019
0012
FFF8
FFF6
0002
0011
0002
0015
0008
FFFC
FFEB
FFF1
0014
0003
FFF4
FFF3
0010
FFFF
000D
0005
0006
FFEA
FFFB
0004
FFFD
FFF6
FFF6
FFE9
FFFD
FFFD
0006
FFEE
FFEE
001A
0002
0019
FFFA
FFEE
0019
FFFB
000F
FFF6
FFF1
0010
FFF1
FFED
FFF9
0007
0006
FFEF
0001
FFFB
FFF3
0002
FFF2
FFFC
0017
0001
FFED
FFFA
000A
FFF5
FFF2
000D
FFFE
FFEA
FFFA
000D
000D
FFF5
FFFF
FFF7
0009
FFF9
0006
0016
FFF5
0003
FFFD
FFF7
0005
000A
0002
0006
0002
FFFD
FFFC
000C
FFFC
000A
FFEF
0018
0002
FFF5
FFFC
FFF7
0002
FFF9
FFFE
FFF8
FFFE
FFFF
0005
FFF8
FFFE
0016
FFFE
0009
0012
FFFC
FFEC
FFF1
FFF9
FFF0
0009
0007
FFF2
000A
FFF4
000B
000F
0005
FFFF
FFFA
FFFB
0004
000B
FFF4
0011
0004
000C
FFFC
0011
FFFD
0009
0011
FFFD
000B
000B
000E
0003
FFF5
FFF6
FFF7
0011
0004
0000
FFEB
FFF0
FFF8
0006
FFFD
0004
0003
FFFA
FFF9
0000
000A
0004
000F
FFFF
FFF2
0007
0001
000D
0001
FFFC
FFFE
FFF8
0010
FFFE
0004
FFFD
0000
FFFA
FFF9
0002
0008
FFF6
FFF9
FFFF
000C
FFEE
FFFF
0007
000F
0000
000B
FFF8
FFFF
FFF6
FFF6
0005
FFF7
FFEB
0007
0000
0010
0013
FFFD
0002
0008
0017
0001
FFED
0003
FFED
0003
FFF5
FFF7
0014
FFFF
000B
FFF2
FFEC
0011
FFFC
FFF5
000F
FFFD
FFFA
FFED
000B
FFF7
FFFD
0009
0002
0004
0006
0000
0009
FFFA
000A
0002
FFFD
FFFD
0003
FFFA
0008
FFFD
0007
0007
FFFF
FFF8
FFF9
000E
FFF7
FFFB
FFE8
FFFD
FFF4
FFF6
0002
0001
FFFD
000C
0009
0007
FFF9
000C
FFFC
FFE7
0004
0003
0003
FFFE
FFF5
0016
0004
000E
FFFC
FFF3
FFF5
0012
001A
000F
FFFB
0006
FFFD
0006
0007
FFF9
0004
0000
FFFD
0013
FFF6
000B
0000
FFEE
FFFA
0004
FFF6
FFF3
000B
FFF9
FFFC
FFF6
0006
0016
0000
000C
FFF5
FFF1
0013
FFF6
FFFF
FFF4
0001
FFFB
0010
FFEE
0012
0002
000E
000C
0005
0002
000F
0007
0007
FFF8
0005
000B
0010
0003
FFF4
000A
0008
FFF0
0003
FFF0
FFFE
0003
0001
FFFC
0000
FFF3
0009
FFF9
FFFE
0018
0003
FFF1
FFFE
FFEF
0002
FFF8
FFE8
FFFB
FFF8
FFFE
0001
FFF6
FFEC
0008
FFFF
FFF3
FFF4
0001
000D
FFFD
0017
0003
FFF7
0001
FFFC
0012
FFF4
FFEF
0000
000A
0004
000F
FFF4
FFF8
0002
000A
0005
0012
FFFC
FFFE
0001
0019
FFFB
0007
FFF7
FFF7
0009
FFEF
0001
0004
0004
FFFD
0010
0003
0009
FFF0
FFF9
FFF8
0007
FFEE
FFF9
FFEE
0002
FFFC
FFFD
FFF0
FFFE
0008
FFF5
FFFF
0000
0003
0007
0003
000F
0008
0006
0003
FFF5
0004
000A
FFF9
FFF4
0000
FFED
0005
0014
FFF0
FFFB
FFF1
0000
FFFB
0006
FFF3
FFFF
0017
FFF7
FFF7
000E
FFFF
FFEF
0003
FFF5
0000
0005
0017
0000
FFFF
0000
0011
FFFD
0005
0001
FFF5
000E
000F
0003
FFF8
FFFD
FFEB
FFFF
FFF6
000D
FFEB
000A
FFF5
FFF7
FFFF
FFF5
0005
FFFB
FFFD
FFF2
FFF3
0012
0009
FFF2
FFF5
0003
FFF4
000C
FFED
FFF5
FFFC
0006
0004
FFF0
FFFC
0003
000D
FFF4
FFFA
0002
0004
FFF1
0015
FFEC
FFF5
0004
0005
000E
0000
FFFC
FFFE
0009
0008
FFFB
FFFC
FFFE
000E
0008
FFFB
0002
0009
FFFD
FFEC
FFF8
000A
FFEC
0008
0002
0002
0002
0006
FFF4
FFF9
FFEC
0001
0002
0010
000E
FFF5
0006
FFFE
FFFE
FFF9
0008
FFEA
FFF9
FFFD
0000
0014
FFF5
FFF9
FFF4
0005
0006
0007
000F
0002
0002
FFFB
FFFB
FFFF
0007
0007
0000
000C
FFED
FFFE
0008
FFF0
FFF4
0000
FFF1
FFFC
FFFC
FFF4
FFF8
FFFF
FFF6
FFF3
FFFD
0003
0000
0009
0008
FFFF
FFF2
0003
FFFD
0006
FFF9
FFF6
0016
FFFC
FFFE
FFF9
0010
0002
FFF0
0004
FFEE
000D
FFFC
FFF3
000B
000D
FFF1
0011
0000
FFFE
FFEE
FFFE
0014
000D
0000
FFF3
FFEC
0009
FFEE
0012
FFFD
FFED
FFF0
FFF7
000B
0005
FFFF
0016
FFFE
0004
FFFB
0008
0004
0009
0008
0007
0013
0003
0002
000D
0007
000A
0016
0002
FFFE
000B
000B
FFFD
000E
FFF2
FFF9
0000
FFE8
000D
0001
0000
FFEE
0006
FFF7
FFF8
0009
0006
FFF2
FFFF
000F
000A
FFF3
FFEF
0010
0001
0003
0006
FFF5
FFFB
000E
FFFF
FFF7
FFF7
FFF6
0007
FFFE
FFF2
FFF7
FFE7
0007
0005
FFFE
0001
FFF0
0014
FFFF
FFFA
FFFC
FFF2
FFF9
FFFE
0002
0002
000E
0006
FFE7
FFFF
FFF6
FFF8
000E
FFFA
FFF9
0009
FFFC
FFF7
FFF2
0011
0007
0004
0002
0009
FFFF
FFF9
FFFA
0003
FFF7
0010
FFF9
0006
000A
0009
0016
000A
0005
FFEC
000D
FFFC
FFF1
0008
FFF5
0008
FFF5
FFF6
0005
FFF5
FFF2
FFFE
0007
0005
0003
FFFE
0017
0009
FFF9
FFF8
FFFA
FFF4
0011
0004
0001
0004
FFFA
FFFF
0000
FFF0
0017
FFF5
0015
FFF2
FFF5
000C
0006
0006
0005
FFFF
0001
0009
0000
0008
0007
FFF7
FFFF
FFF5
0001
FFFB
FFEE
0002
FFF5
FFF7
FFE7
FFF1
000C
0005
FFF2
0003
FFF0
000B
0001
FFF6
FFEF
0003
0006
FFF3
FFEE
0003
0008
0018
FFFC
0004
0007
000C
FFFE
FFF9
FFEF
000C
000E
FFEF
FFF6
FFF6
000B
FFF2
FFEB
0001
0008
FFF1
FFEE
0002
FFFD
FFF5
0007
FFF5
FFEA
FFF0
0005
FFEA
0018
0000
FFEC
FFF9
0005
FFF6
0017
0005
0016
FFFB
FFFC
0009
000A
FFFE
0004
0007
0007
FFF1
001A
FFFE
0001
FFF9
000A
FFF2
0002
0007
0015
0000
0005
000B
FFF1
0008
FFF3
0005
0010
000C
0002
000E
FFF3
0012
FFEA
0004
0009
0012
0003
0009
000C
0002
0004
FFF3
0011
FFFC
0004
0001
0006
FFEC
FFFF
0001
0001
0010
0008
FFFB
0007
0012
FFF0
0006
000E
000E
0000
0002
0006
0009
FFF7
FFFB
FFF5
FFFA
000F
FFF4
0007
FFFA
0001
000F
0007
000A
000B
0015
0011
0008
0004
0004
000A
0003
000F
0011
0004
0001
FFF3
0000
FFF9
FFFF
FFFA
FFF7
0008
FFFE
FFF8
0004
0002
0001
000F
FFF9
0008
FFF9
001A
FFED
0014
FFF8
000C
FFFD
000C
FFF4
FFFA
FFF0
FFFD
FFF9
000F
FFF1
0003
0004
000E
0007
FFFA
0007
0006
FFF4
000E
FFF7
0002
0008
FFFF
FFF7
FFFF
FFF1
0005
0003
0007
0003
0010
000A
0000
FFEE
0010
FFFA
FFFC
0005
0007
0017
000A
FFFF
0001
FFFF
0002
FFEA
000E
0000
0001
FFF2
000B
000D
FFE8
FFFB
0015
000C
FFFE
FFEF
0016
FFE8
FFF5
000C
0001
FFFB
0002
FFE7
0003
FFF3
0001
FFFC
0002
FFFE
FFF7
FFF5
0000
0016
0000
0011
FFF4
FFEB
0008
0005
0016
0004
0000
000B
FFE8
0003
FFF3
0004
0004
FFFF
FFF1
FFF2
0001
FFF0
0000
FFF5
FFFE
0003
0007
0004
0005
0007
0005
0004
0003
000C
0009
FFF0
0004
FFF2
FFFD
FFFD
000F
FFFA
0005
0010
000B
FFF7
0010
0005
0014
0004
0004
FFFC
000F
0012
FFF2
FFF7
0016
FFFF
0002
FFFF
0001
FFF3
FFFF
0002
000B
0005
FFF3
000D
FFE9
0011
FFFB
FFFA
FFF4
FFF6
0019
FFFF
FFFE
0001
0002
FFFE
FFFE
0011
0016
FFF0
FFFD
0004
FFF4
000E
FFF7
0010
FFF4
000F
0012
0015
0006
FFF9
0007
0001
0003
FFEF
FFF5
000D
FFEE
FFFC
0003
0002
FFFC
000C
FFF6
FFFD
0008
0002
FFF4
0009
0002
0016
0000
0004
0004
0002
FFEB
FFFF
0005
0004
FFFE
FFFC
FFF9
FFFA
FFF9
FFF7
000B
FFFD
FFF1
000F
0019
000F
FFFE
FFE7
FFF9
0011
FFEC
FFFD
FFED
FFFD
FFFC
FFF7
0002
FFF1
FFF9
FFF4
FFE9
000A
000C
FFF7
000B
FFFC
0006
0005
FFF6
FFEE
0000
FFF9
000B
000C
000F
FFF1
000C
0001
0001
0002
FFF1
FFF0
0004
0010
FFF9
0003
FFF3
000B
0007
0008
0015
0011
FFF9
0012
FFFC
0006
FFE9
0010
0002
0001
FFF2
000A
FFF5
0004
FFF9
FFF2
FFF5
FFF8
FFEE
0002
FFEF
FFF6
0006
FFF8
0007
FFF6
0004
FFF6
0003
000B
FFE9
0002
FFEE
0008
FFF5
FFF9
FFF3
0019
FFFC
FFEE
0002
0000
000A
0011
0001
0011
FFFE
FFFD
0007
0001
0011
FFE8
FFFD
0002
0004
FFFF
FFF8
0007
0013
FFF8
0000
FFFD
000A
000D
0001
FFF2
0004
FFF9
000C
0018
0006
0016
FFF6
0006
0011
0010
0007
FFF8
0016
000B
000B
FFFD
0004
FFF0
FFFF
0001
FFF4
0016
0016
0008
000D
FFEE
FFEE
0004
FFF0
0003
FFF6
FFF6
0003
0005
0013
0011
FFFD
000B
0007
0008
0004
0013
0003
0006
0012
0005
FFE9
0018
FFF1
FFFA
0019
0007
FFEA
0009
FFFF
FFFE
0001
FFFB
0003
0004
FFFB
000C
0002
0007
FFFE
000A
0003
FFFB
FFFF
0019
FFF9
0007
000C
000D
FFFE
0002
0001
0007
FFFD
FFFB
0004
FFFB
FFFE
0009
FFFB
FFFA
0004
000B
0001
000D
FFFF
FFFF
FFFB
000E
0000
FFF1
0014
FFFD
FFFD
FFFF
FFFE
FFF4
000C
0010
FFFB
0001
0002
000A
FFFE
0008
FFF0
0018
000D
000C
0003
FFF6
FFF6
0001
0009
0010
0008
FFFC
FFFE
0002
FFF2
0007
000F
FFFB
FFE6
0008
FFF3
FFF2
FFF8
000A
FFF0
0017
0004
0010
000C
0000
FFF8
FFF6
FFFD
000F
0007
0009
0001
0005
0010
0007
FFF6
0005
0009
000F
FFF0
0004
0009
FFFD
0005
FFF2
FFFB
0001
FFEE
FFF0
0004
000A
FFF2
FFFF
FFFF
FFFB
0008
000C
FFEF
FFFA
000F
0007
0016
FFFB
FFF1
FFF7
FFEA
FFFF
FFEA
FFFF
FFF7
FFF8
000A
000D
0004
FFEF
FFF9
0000
FFEF
0000
FFF5
0018
0015
0012
0002
FFFA
FFFA
FFFC
FFF8
FFF3
0012
0003
001A
FFEF
0002
FFFC
FFFD
FFFF
0003
0001
FFF1
0006
FFF8
0006
FFFB
FFFA
FFFD
0008
0003
FFF5
FFFA
000D
FFFE
0001
0002
FFFD
FFE6
FFE9
000A
000E
FFF7
0004
000E
FFED
0009
FFFA
FFF9
FFFB
0007
0003
000C
FFF4
FFF2
0002
0005
FFF1
FFFB
FFE7
0010
FFE8
0008
0005
0005
0006
0001
0001
FFFA
FFF2
FFF5
0008
FFF7
FFFD
0003
FFEE
000A
FFF6
000A
000A
0005
0007
FFF1
0007
FFFE
000B
0001
0004
FFF7
0010
0001
0005
000D
0001
FFFD
FFEA
0002
FFF2
FFFE
FFF7
FFFF
000B
000A
FFED
FFF5
0009
FFEC
0008
FFF9
FFF4
0002
0011
0003
FFF3
FFEF
FFF4
0009
FFF5
000A
0007
FFEE
FFFC
0006
0003
0004
0006
0008
0016
0000
0004
0004
FFFB
FFFC
0011
FFF2
FFFC
0002
FFFB
000B
FFEA
FFFA
FFFE
FFF4
FFFF
0001
FFFD
FFE8
0018
0000
0006
FFF8
0005
FFF4
000F
0001
0000
FFF7
0011
0012
0008
0003
FFF6
FFF7
0004
FFF5
FFFC
FFFC
000B
0012
0015
FFF5
0009
FFF4
0006
0002
FFFE
FFF3
0006
000C
0001
0001
FFF0
0005
FFF9
FFFA
FFF7
000E
FFFF
0009
FFF2
FFF7
FFF6
FFF4
0016
0002
0007
0005
0012
0001
0015
FFE8
FFF0
0013
0004
FFFE
FFFB
FFF8
FFF0
000A
FFFD
FFFC
FFFF
FFF4
000F
0001
FFF5
0002
FFF7
001A
FFF9
0006
FFF6
FFFA
0007
000B
0003
0006
000F
FFEF
FFFF
FFFB
0009
FFFD
FFF0
000E
000E
FFFD
FFFC
FFFD
0004
0007
FFF8
0004
0003
0001
0014
FFF8
0013
0004
FFFD
FFF7
FFE7
0008
000E
FFFD
0012
000A
FFED
0007
FFFE
0006
FFF9
FFF8
FFFA
FFF3
FFF0
000E
FFF4
FFFC
0009
0006
FFFD
FFFE
0010
0007
0011
0005
0005
0004
0002
FFFF
FFF8
FFFD
FFF9
FFFB
0001
FFEF
FFF8
0011
0008
0006
0002
0006
0008
000B
FFED
FFF7
000F
0002
0004
0002
FFF4
FFFA
0018
0006
0002
FFF4
FFFC
0005
0004
FFF4
000D
000C
0012
000E
0011
FFF9
0006
FFF0
FFF7
FFFC
FFF6
FFF9
0004
FFFE
0003
0002
FFF3
0004
FFFC
FFF4
FFFE
0009
0001
FFFB
0001
0009
0017
0009
FFF9
FFE6
0000
0007
0003
0002
FFFB
FFFD
000C
FFFC
0004
0001
0008
0018
0000
000A
FFE9
FFFF
FFE9
0005
0003
0000
0001
FFFE
0002
FFFA
0008
FFFD
FFE9
000D
0012
FFF7
0006
FFF3
0011
0005
FFFF
FFF4
000A
0008
0009
FFF9
FFF7
FFF9
FFFE
FFF9
0010
000F
FFF4
0005
0008
FFF3
FFF9
FFFA
0005
000B
000A
FFFC
FFFE
0014
0000
0000
FFF6
0004
0000
FFEE
FFF9
0009
000F
FFFE
000A
0005
FFF3
000C
000F
000B
0000
0007
0003
0010
FFF4
000B
FFF7
0006
0008
0011
000F
FFF2
FFFC
0003
0006
FFFF
FFF6
000D
FFEB
000E
FFFB
FFFA
FFEC
FFFF
0002
000E
FFF8
FFF8
0008
0000
FFEC
000C
0001
000B
0011
0017
FFEA
0010
FFEA
0002
FFFE
FFFE
FFF3
FFFD
000B
000D
FFF8
FFF7
FFFB
FFF9
0007
FFF6
000D
FFF9
FFE7
0009
FFFF
FFF4
FFFD
FFFD
FFFA
FFFB
FFF2
000A
FFFD
000D
0006
0007
FFF5
FFF0
0006
FFFD
0002
FFF4
0007
0009
000C
000D
000B
000F
0018
000D
FFEE
FFF6
0002
FFEE
0016
FFE8
0015
FFF3
FFFC
0005
FFEF
FFFF
FFEC
FFF7
0009
FFFF
0014
FFF8
FFEF
0013
0007
FFFF
0007
FFFA
0006
FFF1
0002
FFFF
0013
0003
0008
FFFB
FFFB
0007
FFF1
0005
FFFC
FFF0
FFF6
FFF4
FFF6
FFFE
0001
FFFB
FFFD
0006
0008
FFF4
0006
FFF5
0006
000B
000C
FFFE
0017
0004
0002
0003
0015
FFF9
FFF4
0016
0007
FFEE
FFF2
0005
FFF0
0007
0007
0002
0007
0008
FFEF
0008
0008
000B
0010
FFFF
FFF8
FFF6
FFEF
0004
000A
FFF9
000B
FFF3
0009
0005
0003
0001
FFF8
FFF4
FFFE
FFF8
FFFE
FFE9
FFEA
000C
000E
0006
0006
0006
0006
0006
FFF3
FFF5
FFF5
FFF8
000E
FFF8
FFFC
0001
0009
FFF8
FFF7
FFEC
000C
000E
FFF3
000C
0007
FFF3
0003
FFF4
FFFF
0004
FFFC
FFED
0011
FFFA
FFEF
FFFF
000E
FFEE
FFEE
0002
FFF9
FFE7
0009
0010
FFFC
0016
0006
FFF6
FFFE
0015
0009
0010
0005
FFF6
FFF7
0001
0004
FFFB
000D
FFF6
0008
000D
FFEA
0018
FFFA
000D
FFFC
0012
0012
000A
0005
FFF5
0004
0018
FFF7
FFF9
FFF9
FFF5
FFFC
FFFE
FFFB
FFF5
000C
FFF9
FFE9
0006
FFFB
FFF9
FFFD
000C
FFFB
000B
FFF4
FFFC
FFFD
0007
0012
000D
000F
FFF1
000D
FFFC
FFFC
FFFD
FFF5
FFF8
000A
FFFA
FFEB
FFFB
0007
0005
0010
FFFF
FFFC
0004
FFF4
000B
FFFF
000F
0003
FFF3
FFFB
FFFB
FFFD
FFFC
FFF6
FFF6
0018
0001
FFFC
000E
FFF9
000C
0010
FFFD
0006
FFF2
0008
FFFE
0005
0008
000B
0017
FFF6
000D
0004
0018
FFF9
0003
0011
000D
FFF4
0002
FFFE
0003
0019
FFFA
0004
0010
000B
0000
0009
FFEF
000F
0000
0006
FFF3
FFFA
FFF4
0005
0003
0004
0002
FFF7
0002
FFFA
FFFC
FFFC
FFFC
FFF2
FFF5
0000
0007
000A
FFF4
0002
FFEA
0018
FFE9
FFF5
000A
0009
FFF0
FFFD
FFEB
FFFA
FFEB
FFF5
000C
FFFD
FFEF
0011
FFED
0004
FFF7
0011
000A
0013
000D
FFFF
FFEE
0012
0004
0005
0009
FFF8
0003
0005
000C
0014
FFFA
FFFD
FFE9
FFF9
0002
FFF8
FFFE
FFF9
000A
FFFE
000F
0015
FFFB
FFF8
FFED
FFFF
0003
FFFA
FFEC
FFFB
FFF7
0004
FFED
FFF9
FFF9
FFFB
0009
FFF6
000A
0002
FFF5
FFFB
0008
0005
FFF6
FFF4
FFE8
0009
0013
FFEC
0002
0000
0008
FFF7
FFF3
FFFB
FFF7
FFF9
FFF4
FFF5
FFF3
FFFD
0014
FFF8
FFFC
0003
FFF5
FFFC
FFEE
FFFC
0001
0009
FFFE
000A
0004
0001
FFFD
0018
FFF8
000C
0004
0001
FFF4
FFFC
FFFF
000F
FFFF
FFF4
FFF4
0002
FFF8
FFEC
FFF4
0005
FFF3
0014
FFFC
0003
FFFE
FFFB
FFFB
FFFF
FFF6
0007
0008
FFEC
0001
FFE8
0015
FFFB
FFFE
FFFF
000F
0004
0007
FFF1
FFF8
FFF7
0003
FFF9
FFF4
0001
FFFE
0005
FFF5
0018
000E
FFFA
FFF4
000E
FFF9
FFF8
0005
0004
FFEF
000B
0004
0011
0001
FFE7
FFFA
0000
0004
FFEC
FFFB
0005
FFFA
FFF0
FFF5
FFFF
000E
FFED
0004
FFF8
0006
0016
0012
FFF5
000B
0003
0001
0017
FFFC
FFEF
FFF2
0005
FFFA
000A
0009
FFEB
0003
000D
FFF6
0017
0000
FFFF
0006
FFFB
0004
0012
FFFB
FFFB
FFFC
FFF8
FFF2
FFFF
000A
0006
000B
0005
FFFD
0012
000B
FFF2
0000
FFEB
000E
0008
0002
0003
FFF1
0011
0002
FFFA
FFF8
0002
000E
000B
FFF1
0010
0010
FFFF
FFF4
000B
FFFE
0017
FFF8
0009
FFF5
FFFD
FFF8
0015
FFFE
FFF5
FFFE
0015
FFED
0010
0009
FFF0
FFF2
FFFA
0009
FFF9
0004
000D
FFF1
0018
FFFF
FFF7
FFFD
FFED
FFF0
000E
0008
FFF9
FFFB
FFFA
FFF7
FFF4
FFEE
FFF8
0000
0002
0006
0009
FFF2
0006
0008
FFFF
FFFE
FFF6
0002
FFF3
000C
000B
0006
FFFF
0005
0008
0018
0002
0013
000C
FFF0
FFF2
FFFA
FFEB
FFF9
000C
0018
FFFD
FFFC
FFEF
0004
FFFE
0000
000F
FFFA
0010
0009
000B
FFF9
FFFF
FFFF
0009
FFF1
FFF5
0005
0007
000B
FFFE
FFF1
000E
0005
0016
0008
0000
FFF9
FFEF
0004
000C
0000
0008
FFFD
FFED
0001
FFF0
FFF8
FFFE
FFED
000B
0003
0007
0012
FFEA
FFEB
0003
FFF9
FFED
FFE9
0001
0013
FFF5
0004
FFF6
0006
FFF1
FFF8
FFFF
0009
FFFE
0007
0002
0000
0006
0004
0007
FFF4
FFFD
0000
000F
FFEA
0009
0011
0002
FFFC
FFFB
000B
FFFF
0006
0003
0009
000F
FFF5
000C
0006
FFEC
FFFC
000A
FFF6
0011
000A
0008
FFED
0002
FFED
FFF8
0002
000E
0001
0006
0011
FFF3
FFFC
FFED
FFF1
FFFE
0004
FFFC
FFFC
0006
FFF9
000D
0001
FFF2
FFEB
000F
FFE7
0006
FFF7
FFF6
FFF0
0005
FFFE
FFEF
FFF6
0000
0003
0009
FFF0
000C
0003
0000
0012
FFFF
0004
FFF2
000B
FFF8
0007
FFEF
0004
000F
FFFF
FFEF
FFF4
FFFF
FFFF
0007
FFFB
FFFF
000C
FFF4
0012
0007
FFF5
000D
FFEA
0013
FFFD
FFEA
0000
FFF5
FFE8
0004
FFE8
000A
FFF7
000B
0000
0004
000F
0000
FFED
0014
0006
0008
0001
0011
FFED
0005
0015
000B
FFF3
FFF7
0001
000F
FFF7
FFFF
FFFE
000A
0006
FFFD
0012
FFF0
0000
FFFD
FFF9
0003
000E
0003
FFF1
0002
FFFC
0008
FFF9
FFED
0004
0013
000E
FFFD
0004
0012
FFED
0002
0008
0010
FFEB
0006
FFFF
000C
0001
FFF8
FFFE
FFFF
FFFD
0002
FFF1
FFF7
000C
0015
FFFE
FFF8
FFF6
FFF2
0001
0006
FFEE
0003
FFFA
FFF9
0000
FFF9
0005
0006
0012
0012
FFF8
FFFA
FFF6
FFEF
0003
000D
FFF9
FFF1
FFFF
0002
000B
000B
FFF7
FFFA
0013
FFFD
FFF6
FFFC
FFEE
0001
FFF9
0009
FFF2
0011
0000
FFF8
0001
000F
FFF7
000B
0014
FFFD
0018
FFF7
0002
0015
FFFF
FFEB
FFF4
000D
FFFE
FFFB
FFF7
FFFA
FFFD
000C
0006
FFF8
FFF0
0004
0007
0008
FFFE
FFFD
FFFC
0004
0006
0001
FFEB
FFE7
FFFC
0007
0009
FFF8
FFFF
0002
0001
0006
000A
0002
0005
FFFF
FFF6
0004
000D
FFEE
FFFC
000A
FFF0
FFFE
0006
0013
0002
0006
FFEC
0016
FFF3
0004
FFFA
FFF8
0004
FFF1
FFFB
0013
FFFD
FFF2
0011
0014
FFFF
0000
FFF5
0007
000E
000A
FFF3
FFFF
FFF7
0008
0008
0002
0007
FFFF
FFF7
FFF8
FFF1
FFFF
0015
0006
FFF6
FFEF
0007
FFF1
0003
000B
FFFE
FFEF
0002
000D
000C
FFEC
FFF4
000E
0008
0005
FFF0
FFF0
0002
FFFB
FFEE
FFF6
0008
0009
0003
0002
0008
FFEE
0002
FFEF
FFF9
000A
0000
FFF4
0006
0001
0019
FFE7
FFE7
FFF2
0006
000B
000C
FFFD
FFF5
FFFE
FFFF
FFFC
000E
FFFE
FFF1
FFF6
FFF0
000F
FFFA
0009
0003
000D
0007
000D
0008
0014
0008
0004
0003
0005
0001
FFF9
FFF8
0001
0002
0000
0003
FFF4
FFFC
0015
FFF3
000D
0002
FFF5
0004
FFF8
0018
FFFA
0012
FFFA
0017
FFFB
0012
0008
0015
FFFE
0005
000E
FFEE
FFF7
0007
0014
0008
000F
FFFA
FFF5
0003
FFF5
FFF4
FFF6
FFFE
000D
000E
FFF7
0010
FFFF
FFF6
FFFC
FFFA
0001
FFFB
0005
0009
0011
FFF1
0001
0005
FFF2
0008
0007
FFF7
0001
FFFD
FFF9
000E
000D
FFF9
FFFF
0003
000A
0008
FFF6
FFF6
FFFE
FFF2
000F
0002
FFFB
0007
0010
0013
FFFC
FFF7
FFF2
FFF0
0004
FFF6
FFF3
000B
000A
000E
0001
FFF9
FFF7
FFFA
000D
FFF8
FFEF
000C
FFF1
0009
0005
0004
0006
000C
000C
FFF9
FFF6
FFF4
0005
0005
0002
000A
0017
FFFF
0000
FFF4
FFEC
0000
001A
FFFC
0003
0006
0006
0007
FFF6
FFF4
0001
FFFE
0014
0010
FFF5
0015
FFF9
000E
FFF4
FFF0
0015
FFF5
FFFD
FFFA
FFEE
FFF4
FFFA
0006
FFF8
FFED
0000
0004
0003
0006
FFFC
0008
0002
FFF1
0003
0007
0003
FFF0
FFFE
0002
0009
0006
FFFF
FFF8
0003
FFF1
000E
FFEE
0003
0014
FFEA
FFFB
FFFC
0006
FFFF
FFFD
000F
FFEB
0000
FFF4
0009
0003
000B
000B
FFFA
0006
0015
0006
0004
000A
FFF8
0009
FFFB
FFF2
FFE8
000C
0008
FFF2
000B
FFF2
0000
FFF8
FFF7
0006
FFF6
0008
000B
FFF6
FFEF
0006
0019
FFFE
0001
0010
FFFA
FFEB
FFE7
FFFF
000B
0001
0015
FFF5
FFF8
0011
000B
FFFB
0001
FFF1
FFFB
000A
FFFD
0004
000B
FFFD
FFF7
0007
FFEF
0002
FFF5
000A
0008
FFF4
FFEB
FFFD
0004
FFFE
0000
FFF3
0006
FFFA
FFFF
000B
FFF9
FFFE
FFF3
0000
FFFF
FFFC
000E
FFF7
0006
0004
000E
FFF4
0013
0013
FFFD
FFFC
FFFA
FFEF
0001
FFF2
0009
000B
FFF6
000A
0004
0001
0006
000D
FFFE
FFED
000E
0008
0006
0013
0000
FFFB
0004
0008
FFF3
0005
000D
FFFF
FFF9
0005
FFFB
0012
0006
FFFB
FFEF
0008
FFF1
FFF3
0009
FFFD
FFF5
FFFE
FFF6
FFFD
FFF1
000B
FFF1
0008
0007
FFFD
FFF6
FFEF
0001
FFF3
0012
FFEC
FFF9
0015
0000
000A
0002
FFFB
000B
0016
0000
000E
FFF8
0003
FFFC
0001
FFF9
FFF5
0010
0001
0008
FFFB
0003
0000
FFE9
0001
0001
0004
FFF9
FFEC
000E
0008
0012
0014
000F
0008
000F
000D
0009
FFFE
000A
FFF0
FFF9
000E
000D
FFF6
FFF5
FFEC
0013
0008
FFFF
0006
FFEE
000A
0003
FFF0
0001
FFF0
FFF1
FFFC
0013
0009
0009
0012
FFF6
0005
000F
0003
FFF5
000D
FFED
FFFC
0004
000E
FFFC
000C
FFF1
0008
FFEB
FFF6
FFF6
FFF7
000C
0002
0000
FFF7
0005
0013
000C
FFFF
000D
0001
FFFF
0004
0017
0003
0012
FFFD
000C
0003
000E
FFEB
0001
000A
0013
FFF9
0008
FFEE
FFE9
0012
FFFF
FFE8
FFFD
0008
FFF6
000B
FFFE
FFFD
FFF0
FFFE
FFFC
000A
FFF8
FFFA
0013
FFF9
0002
0011
FFF5
FFF8
0011
0005
FFE6
0008
0003
FFF4
0001
0009
FFF0
0002
FFF9
FFFA
FFFF
FFFB
FFF2
0002
FFF0
FFEE
0006
0007
FFE9
0001
FFEF
0007
FFF0
000A
000D
000A
0012
FFFB
FFF8
FFF6
000F
0007
FFF9
0004
0002
FFFA
FFF7
0008
000D
000F
0007
0011
FFF8
FFFC
0008
FFF5
0012
0014
FFFD
FFFD
0012
0019
0004
0005
000B
FFFC
FFFB
FFEE
0007
FFF3
0004
0009
0010
000E
FFEF
0004
0001
FFF4
FFF7
FFFB
FFFE
FFF0
FFFF
FFF2
0005
0016
000E
FFFF
0000
FFEC
FFF3
FFF0
FFF6
0003
0004
FFF9
000A
FFF8
FFFF
0017
FFF6
000A
0003
0006
FFF4
FFF6
FFFD
0000
0005
000D
0007
FFE8
0006
0003
0014
FFFB
FFFD
0002
0009
FFFD
000D
0019
FFF2
000C
0005
FFFC
FFF1
0011
FFEC
FFFB
0012
FFEF
000A
FFF0
FFF6
FFF7
0012
FFFC
FFF5
FFF1
0001
0009
000A
0006
FFFA
0002
FFFA
0009
FFFA
FFFA
0013
0015
0002
FFF1
FFFC
0016
FFFB
0007
FFF0
FFFA
0002
000C
FFFA
FFFA
000D
000E
0009
FFFF
0005
FFFE
FFFB
0000
0009
000C
FFF8
FFE8
000C
FFF4
FFE8
FFFA
FFFF
FFFD
FFF4
0009
0000
FFF6
0005
0000
FFF6
FFF0
0002
000C
0000
0002
FFF7
FFFE
FFE7
0002
000C
FFF7
0003
FFFB
FFEE
0004
0009
FFF5
0012
FFF9
0001
0003
0011
0005
FFF5
0004
0002
FFFF
FFFF
FFF6
FFFB
FFFE
000E
FFFE
0002
FFFF
000F
FFEC
0001
0008
0011
FFEC
0015
0013
FFEF
FFFA
FFF9
FFEB
FFF5
000E
0010
FFF9
000B
FFEE
000E
0002
FFFC
FFF0
FFFB
FFF8
0000
FFFB
0000
FFF2
0016
0009
0009
FFF6
0003
FFEE
0008
FFEE
FFED
0002
0009
0006
0001
FFFD
FFFC
0013
FFF7
000B
FFFC
0009
0010
FFFB
0002
FFFB
0003
FFFE
FFF5
FFF9
0009
FFF5
FFF0
FFF4
FFFD
FFFA
FFF5
0017
0001
0008
0000
FFF2
FFF1
000B
FFFA
0002
FFF0
FFED
000A
000D
0003
FFFC
FFEC
0006
0010
FFED
FFFE
0018
0007
0010
FFFB
FFEB
FFFC
FFFB
0011
FFFD
0000
0018
0009
FFFD
FFFC
0004
0002
0016
0004
0008
0013
FFFD
FFFE
0001
0002
0017
FFFE
FFFA
FFFD
0003
0002
000E
0006
0011
0008
FFF3
FFFB
0004
0015
0001
0007
FFFF
FFE8
000F
FFF9
FFEF
0002
FFFB
FFFE
0014
FFFC
0013
FFF8
0017
FFF6
000E
0006
FFF0
0009
0000
FFF7
0007
0014
0002
FFFD
000F
0012
000E
FFEF
0008
0000
000A
000F
FFF6
0000
FFFF
0005
FFF2
0006
0018
0009
000E
FFEA
000D
FFF6
FFF1
0001
0014
FFE9
0017
000A
FFF0
0002
0007
0007
FFFA
FFF1
FFF1
FFFE
0018
FFFB
FFFC
FFFA
0002
FFFC
FFF0
FFF7
FFFD
0005
0001
0002
000E
0014
0002
FFFF
FFFA
FFF5
000B
FFF6
0006
FFF5
0006
FFF7
FFF9
0005
FFF9
0001
FFFC
0009
FFF2
0008
0005
FFF7
000D
0005
FFFB
000A
FFFB
0002
FFF6
FFF7
0009
FFEF
FFFA
0006
000B
0008
FFF8
FFF5
000F
0006
0012
0000
000D
0004
0001
FFFE
0008
FFEF
0002
FFEE
FFFD
0001
FFEF
FFF8
FFF7
FFF0
FFFA
FFF5
FFF7
FFFA
0013
0012
FFFC
0009
FFFB
0005
FFF9
000A
000A
000A
000D
0013
FFF3
0001
FFF3
0010
FFF0
0004
0011
0016
0013
000B
FFED
0012
0000
FFF3
0005
0013
FFFD
000E
0000
FFF9
000D
0001
FFF2
FFFE
0013
0008
0002
FFFD
0002
FFEF
0011
0017
000A
0008
0014
FFFA
FFEF
0007
0004
FFEF
FFF6
0009
FFFC
0003
FFFD
0000
FFFD
FFEB
0012
0003
FFEC
0005
0003
FFED
000A
FFFE
0014
FFFD
FFFA
0000
000A
FFED
FFFE
FFFA
FFED
000C
FFF6
0006
FFF8
FFFE
FFFB
FFF0
0009
0010
000D
000A
0000
FFFA
FFF6
0002
0008
FFFA
FFF1
0005
FFF0
000D
FFF1
FFEE
0000
0007
0008
FFFB
FFF0
0004
000D
000B
FFF2
0009
FFEE
FFFC
0008
FFFB
FFFB
0011
FFF6
0001
FFFE
FFFE
0007
FFEB
0002
FFFC
FFFE
0001
FFFD
0000
0003
FFFE
FFFA
0008
0006
000E
0011
0005
FFF4
000F
FFFB
0001
FFED
0000
0003
FFFD
FFFE
0008
0014
0010
FFFF
0003
0004
0000
FFFA
0002
000C
0001
FFF6
FFF2
FFFA
FFF2
FFFA
FFF3
000B
FFFD
0003
FFF7
0004
0011
0016
0003
