FFF2
FFFC
FFEB
FFF3
FFFA
0003
0000
0002
FFEB
FFF4
FFEE
000C
FFFC
0000
0004
FFF9
0001
FFF5
FFF5
FFF5
FFF1
FFFB
FFEF
FFFF
FFFE
FFFE
FFFC
FFF0
000D
000F
0002
0001
FFF8
FFF2
FFF8
0004
FFFB
000B
0005
0006
FFFE
FFFC
000D
0000
0001
0003
0000
FFFE
FFF5
FFF5
0014
FFF6
FFFB
FFF3
FFFD
FFF9
0000
FFF8
0005
FFFB
0005
FFF2
FFFE
FFFD
000B
000B
0002
0007
000C
0006
000D
FFF8
FFF7
000D
FFF8
FFFC
0012
0002
FFEF
000C
000D
FFF7
FFF4
FFFC
0009
0004
FFF4
FFEA
FFF7
000B
FFF7
FFF6
FFF3
FFF5
FFFD
FFF6
000B
FFEE
0003
FFF1
FFF3
0008
FFEF
FFEF
0017
000A
0000
0001
0005
FFF6
000F
FFF7
0005
0006
0005
FFF7
0008
0001
FFF3
0008
FFF6
FFF2
000D
FFEF
FFF0
FFFE
FFF6
0000
FFF6
FFFA
FFF4
000B
FFEF
0003
FFF9
0008
000E
0009
0001
0003
0014
FFE6
000D
0007
FFEE
000B
000F
0016
FFF7
FFFB
0005
FFE9
000C
0009
FFF8
FFFF
FFEC
0004
0001
FFFA
FFF8
0018
000D
FFF1
FFFA
FFF8
0017
0010
FFF8
0000
FFFE
FFF3
FFFB
FFF9
0007
000C
0009
FFEE
0009
0011
FFFB
0005
0002
0015
FFFF
FFFB
FFF4
FFFB
FFF9
000E
FFF9
0011
FFF4
FFF7
0013
0003
0010
FFEF
0000
0004
FFF0
0008
FFF7
0008
0006
0018
0005
FFFB
0019
FFFE
FFFA
0004
FFF0
0016
0016
FFFF
0006
0006
000A
FFF8
FFF6
0003
0003
FFE9
FFEE
0012
0006
0005
0007
0004
FFF6
FFF1
FFFF
000D
000B
000C
FFEC
FFF1
FFF7
FFF7
000A
FFF8
0000
FFEE
FFFC
0012
FFFE
FFFD
0001
FFFA
FFF9
0007
FFF9
FFF5
FFFB
0007
FFFB
0006
FFF7
0005
0006
0007
FFFF
FFFC
0003
0005
000F
0005
FFF2
0006
FFE7
FFFD
0016
0001
FFFC
FFF5
FFE7
FFFE
FFFC
0003
FFF7
0001
000F
0003
000B
FFFB
000B
FFFC
0008
FFFB
FFF7
000C
FFFC
FFFD
FFFE
FFFA
FFF8
FFF6
000A
FFE7
0000
000C
0010
FFF1
FFF1
FFF9
000C
FFFB
FFF8
000F
FFF8
FFFB
0000
0003
FFFC
0004
000E
FFEA
FFE9
0006
0005
FFF1
0009
000B
0006
FFF8
FFFC
0001
000F
0008
000E
0003
FFFD
0001
FFFF
0013
FFF7
FFFE
FFEF
FFEF
FFFF
FFF2
0001
0007
0004
FFFD
000B
000D
0018
0003
0004
FFFB
000A
FFFE
0006
0009
FFFF
FFFC
0003
0005
FFEE
000C
FFF8
FFF2
FFF8
FFF0
000A
FFF4
FFF2
0008
0004
0010
0004
000D
FFF6
0003
FFF7
0004
0005
FFF9
FFF4
FFFC
0010
0018
FFF1
0007
000A
FFEB
FFF2
FFF6
0005
0007
000B
0000
FFFF
FFF7
000F
FFF3
0002
FFFC
FFFC
0012
0005
FFF8
FFF9
FFEC
FFF0
0006
FFFC
FFF4
000E
FFEA
FFF8
FFF8
0005
000B
0005
FFEE
0004
0000
0013
FFF2
FFF0
FFF5
FFFC
000A
FFF5
0018
0009
FFFB
0009
FFF2
0003
FFF6
FFE9
0000
FFEF
FFF5
FFFC
0015
0014
0003
FFE8
0006
FFF8
000B
FFF9
FFFA
FFE9
FFF7
0014
FFFF
FFFE
FFF0
FFF8
000D
0002
0010
FFFD
FFFD
FFEE
FFFB
FFF6
0003
FFFD
FFFC
FFF1
0019
000E
0004
FFFE
0014
FFFF
0002
FFFE
0013
0006
0001
0000
0008
0018
FFFB
0005
FFF9
0000
FFF4
000C
0004
FFFB
0008
0007
FFF1
FFF0
FFEC
000F
FFFC
FFFB
0005
0003
FFEE
FFFC
FFF3
FFEF
FFF5
0008
FFF8
000A
0000
FFF9
FFF1
0004
0005
FFFF
FFFE
000C
FFF9
0018
0001
0000
0002
000C
FFFE
FFF2
0010
FFEA
FFFC
FFF8
FFFA
0008
0006
001A
0012
0004
FFF6
0000
FFEF
0003
FFED
FFEC
FFF8
FFEC
FFF8
FFF6
FFF2
0002
0001
000E
000A
0005
0001
FFEC
FFF9
FFF4
FFFC
FFF8
0019
FFF2
FFF2
FFFA
0005
0015
FFED
FFFB
000C
0003
FFFB
0009
FFF9
FFFB
FFFD
0001
0000
FFFF
FFEF
0006
FFFA
FFFB
FFF9
000E
0008
0016
0003
FFF0
0000
0001
0008
FFF4
000B
0004
FFFA
FFFA
000C
0005
000B
0006
0008
0017
0012
FFEA
0006
000B
0006
FFF9
FFEF
0010
000A
FFFE
0007
0008
000A
0016
0018
FFEE
0000
FFF7
0003
0002
0000
0007
0002
FFF1
0012
FFFD
FFF9
FFFE
0007
000A
FFF5
0006
FFFF
FFF1
FFFB
000C
FFF9
0004
FFEF
FFF5
FFF8
FFFA
000D
FFFD
FFFF
FFFF
FFFA
0000
0001
FFFA
FFFE
000A
0008
FFF9
0007
0007
FFFC
000C
0006
FFF9
0015
000A
FFF6
FFFE
0005
000F
FFF8
0001
FFF7
FFF7
FFF2
FFF2
FFFA
FFF6
0002
FFFF
0004
0003
000B
FFEC
0014
0006
0009
FFFA
FFE9
0018
FFFE
000A
FFFC
0002
FFFC
FFFC
0008
0013
0007
FFF8
FFF3
0017
000D
FFFE
000D
0002
0005
001A
0004
000B
FFF2
0006
FFF0
0015
0006
000F
FFF2
FFEB
000B
FFF6
0014
FFF7
FFFD
000A
0004
FFFE
FFEF
FFFB
FFFB
000F
FFFE
0000
FFF3
FFEF
000C
0003
FFF2
FFF1
FFF7
0001
FFF9
0007
FFFD
0001
0007
000D
FFF3
FFF4
0001
FFFC
FFF9
FFEF
000C
0003
0002
FFE8
FFF5
0002
FFFB
0006
000A
FFF5
000A
FFF7
0007
FFF3
0002
FFF6
0015
000E
0017
0007
000F
FFFD
0001
0018
0001
000A
0001
FFF7
000A
FFFC
0003
0003
0005
FFFD
000C
FFF9
FFED
0016
FFFF
FFF3
FFF3
FFFD
FFF8
FFF4
FFFE
000D
FFF7
0009
0001
0012
FFF7
0004
0001
0007
FFFA
FFF3
FFF3
000B
0005
FFEB
0007
FFF9
FFFF
FFFC
FFF9
FFF7
0001
FFFC
FFEF
FFF7
000B
0005
FFFF
000D
0009
0006
0015
FFEC
FFF8
FFE9
FFF1
FFFC
FFFD
000C
0000
FFF8
FFFD
0015
FFFA
0015
FFED
FFF2
FFFF
FFF4
FFF0
0008
FFF1
000B
0003
FFFF
FFF8
FFF0
FFE9
000D
FFF9
FFF5
FFF7
FFF4
FFF4
FFED
FFED
0004
FFFC
000A
FFF8
0007
FFE8
FFF5
FFF6
FFF8
FFED
0001
FFFA
0010
000E
FFF8
0012
FFF2
0009
FFF0
FFEA
0000
000F
FFFC
FFFE
000D
FFFF
0006
FFFD
FFEE
0002
FFFD
0002
FFFC
000D
0004
FFF9
000A
FFEC
0003
FFFF
FFEC
0002
0002
FFFF
FFF9
0007
FFF8
0006
0002
FFFF
0009
0010
0001
000E
0007
0011
0004
FFFB
000A
FFF7
0001
FFF9
FFFD
FFF4
FFFB
0007
FFF0
FFFF
0008
FFE9
000E
0002
FFEE
0013
FFFD
FFFB
FFF3
000B
000A
0007
FFFA
FFF7
0010
FFED
FFF3
FFF1
000D
FFF6
0011
FFFF
FFFB
0000
000E
0005
FFF4
FFFD
FFF7
000B
FFEA
0006
FFFD
000B
FFF1
0001
FFFB
0006
0006
FFF5
000F
FFF8
0004
0002
0001
FFFB
FFFC
FFEF
0009
FFFE
FFEA
0010
FFFD
0005
FFFD
FFEB
0005
000C
FFF4
0005
0008
FFF5
0004
FFFC
0001
FFE9
0004
0017
0003
0008
FFF3
0008
FFEE
0001
000F
0008
0007
0009
FFFB
FFEA
0007
FFEF
FFFF
FFF9
0006
FFFF
0003
FFF2
000C
0007
FFF0
000B
FFF5
0010
0001
FFEF
FFF0
FFFB
FFFC
FFEC
0007
FFF1
0001
0003
FFF4
0006
FFF4
0005
FFE8
0004
FFEA
0000
000B
0008
0000
FFF0
FFEB
000A
0005
0001
FFF6
0009
FFF8
0003
FFFF
FFF6
FFFE
FFF4
FFF0
0004
FFF4
0006
FFF9
0019
FFF0
000E
0013
0004
FFFF
FFF8
0006
FFEA
0018
0000
FFF5
0006
0008
0018
0013
FFFB
0014
FFFE
FFF0
FFFD
FFFF
FFFB
FFF7
FFFB
FFFE
000B
0005
FFF3
FFF7
FFFA
FFE9
FFF3
FFF4
0014
0015
0015
FFFA
FFF3
0005
FFF9
FFF6
0015
FFFE
0000
000C
FFF0
FFF4
0001
FFEC
FFFD
000B
0000
FFF6
000B
FFEA
0008
FFF2
0005
0012
0005
FFFF
0008
FFEF
FFF9
FFEC
FFFD
FFFC
000A
FFEC
0007
0003
000C
FFF0
FFF7
000C
FFF9
FFF0
0003
0005
0002
FFF5
FFFF
FFF8
FFED
0005
0009
FFEA
0000
000A
0009
FFE8
0014
0004
0002
0004
FFF1
0007
FFFA
FFFF
FFF7
FFF6
FFF9
0004
FFF6
0009
FFEB
FFEA
FFE6
0006
0009
0012
FFEC
FFF6
FFFE
FFFC
0001
0001
000A
0007
FFF7
FFF7
0000
0019
FFF9
FFFB
FFF5
000E
FFF8
000C
FFF9
000C
FFFF
0010
0002
000E
000D
FFF7
0010
FFFB
0006
000C
0011
FFE8
FFFA
000D
0001
FFFD
FFF9
FFFF
000D
000F
FFE7
0006
000C
FFF7
0006
0010
FFFA
FFFC
000B
FFFD
FFFA
0003
FFF8
0007
FFFB
FFF1
FFF2
FFFC
000A
0007
FFE7
FFFD
FFFA
FFF8
FFFA
000A
FFFD
000E
0001
000F
FFFC
0004
0009
0008
FFF1
0010
FFF0
0006
FFF5
FFF2
FFF1
0004
FFFD
000B
0001
000D
0006
0005
000F
000A
000E
FFFD
0006
000B
0005
FFFF
0000
FFF9
FFFA
FFFC
0001
0010
0008
0011
0010
FFFE
0003
FFF5
FFFE
FFFF
FFF9
000B
FFF9
FFF8
0011
000C
0012
0000
0004
0007
FFFC
FFFE
0008
0013
0003
FFF3
FFF9
0012
FFF5
000B
FFFB
FFEC
FFF7
0003
FFFB
0007
FFEE
FFFA
FFFF
0005
FFF6
FFFC
FFF9
FFF5
0006
FFFB
0016
FFF7
0001
FFED
000C
0006
FFFE
FFF1
0001
0001
FFFD
0013
FFF8
FFFF
000C
FFFD
FFFF
0004
FFFD
FFF2
FFF1
0003
0011
0015
0012
FFF0
0001
000E
0003
0015
FFFE
0006
0003
FFF1
0013
FFF5
FFFC
FFF8
000C
0002
FFF9
FFFF
000D
FFFE
FFF6
FFF5
FFFC
000B
FFFC
0007
0002
0015
FFFC
000B
0014
000B
FFF9
FFFA
000C
FFEA
0001
FFFB
0000
0001
0005
FFFC
0007
0006
0004
0006
FFEA
FFFA
FFEF
FFE9
000B
FFED
FFFB
FFF6
0006
0009
FFF0
FFE9
0002
0006
FFF5
FFF8
FFF1
FFF6
FFFC
0002
FFF4
0016
FFFE
FFF7
FFF0
FFF9
FFE8
0006
FFFF
0005
FFF8
FFEB
FFFB
000F
FFFF
0005
000A
000C
FFF9
FFFC
0016
FFFB
FFF8
000A
FFFD
0012
FFEB
FFFF
FFF6
000B
FFF0
000A
FFF2
000C
0006
0005
0000
FFF1
FFFC
FFF3
FFF7
000E
0003
FFFF
0008
FFF5
0010
FFF4
FFF4
0005
FFFC
FFFE
000D
0002
0001
0008
FFFF
FFFC
FFF8
FFFA
0004
000E
FFF8
0016
0007
0013
FFFB
FFF9
FFF7
000F
FFE9
FFFD
0002
0004
0014
0003
FFFA
000F
FFF9
FFFC
0007
0009
000A
FFF7
0002
FFF3
0000
000A
000F
0000
FFF2
0012
000C
0001
0016
FFFB
FFF3
FFFB
FFF7
000A
FFE7
FFFB
0011
0000
0000
0001
FFF9
0001
FFFF
FFFF
0003
0009
FFF9
0003
0001
FFF2
FFFE
0002
FFEC
FFED
0008
FFF9
0000
000E
FFFA
0000
000D
0008
0013
FFF7
0000
0013
FFF8
FFF7
0013
FFFF
FFF7
FFF1
000D
FFFD
000D
0004
0009
FFF4
0008
FFF4
0002
000E
0000
FFF7
0001
FFF4
000B
FFF9
0004
000C
FFF7
000A
0001
0006
FFFB
0001
0000
0009
FFEF
FFF2
0001
FFFE
0002
000D
0002
FFF4
FFEF
0007
000B
000B
0009
0009
0016
0010
0009
FFF3
FFF5
0007
0014
FFFC
0005
000D
FFFA
0004
0004
FFFF
FFFF
FFFB
FFFE
000E
000B
FFEF
FFEA
0001
0005
FFF7
0010
0004
0007
0015
0011
FFFF
0007
FFF3
0014
FFF4
FFFD
FFF8
FFFB
FFFF
0010
FFFF
FFF1
0004
FFF2
FFFE
FFF9
000B
FFFA
0013
FFFB
FFF0
0005
000C
0001
0007
000B
FFFA
FFEA
FFF3
FFFB
FFF6
FFED
FFEC
FFFE
FFF3
0001
000F
FFFB
0003
0004
FFED
FFFD
0002
FFFE
FFFD
0000
FFF9
0004
000D
FFF0
FFF9
000E
0007
000B
0013
FFFC
FFF9
0000
FFF2
0007
000E
0017
0004
000F
0017
0005
0010
FFED
FFF5
0003
000F
FFFA
0014
FFFD
0000
0008
0018
0001
FFFC
FFEB
000C
FFEE
0019
0001
0007
FFF6
FFF3
0009
FFF4
FFF1
FFF3
0014
FFF9
FFEF
000B
0010
FFEB
FFF6
0007
FFF9
000E
FFFA
FFEA
FFF4
0013
0005
FFFD
0008
0000
0002
FFFB
0011
0002
FFFC
FFF9
0002
FFF5
FFFC
0010
0000
000E
FFF7
0006
0007
FFFF
0009
FFED
FFEC
FFFA
FFEF
FFED
FFF7
FFF0
0018
FFF1
000A
0000
FFF7
000F
FFF9
000D
FFF6
FFED
FFF1
FFFE
FFF8
0005
FFEF
0004
0004
FFFB
0001
0017
0017
0006
FFF6
000F
0005
0011
FFFA
000A
0015
FFF4
FFFF
FFFD
000C
000A
FFF7
FFF2
0003
FFF6
FFFC
0008
FFF5
FFFD
FFF4
0012
0004
0003
0001
FFFA
0013
FFFD
0001
0006
0003
0009
000A
FFF5
0003
0012
0004
FFF7
0004
FFEB
FFFB
000C
0001
0002
0018
FFF9
000D
FFFF
000F
FFFA
FFEF
FFF4
000D
FFF0
FFEF
FFFB
FFF6
0001
0006
FFFB
FFF1
FFFA
FFF0
0008
FFF0
FFFC
0000
0000
FFF6
FFF4
FFF7
0010
FFFD
FFEF
000B
0008
0001
FFFE
0001
FFFA
000D
0006
0002
0001
000D
0003
0006
0009
0016
FFF8
0007
FFFE
FFF7
FFFD
FFF7
FFFA
0003
000D
0010
0002
0006
FFEA
FFF2
0010
0001
FFFE
000E
FFFC
FFFF
0011
000F
0016
FFFC
FFFD
FFEF
FFFF
FFFB
FFF7
FFFA
FFFC
0012
0003
FFFF
0001
FFF8
000C
0007
000F
0004
FFF3
FFEE
0001
FFF9
000D
0003
0003
FFFF
FFFB
FFFD
0012
FFF1
FFED
FFF9
0001
0004
FFF8
000B
FFF1
0001
FFFE
0009
0006
0001
0009
FFFD
FFF7
FFFC
FFEF
0013
0000
0010
FFFD
FFEE
FFFC
000D
FFFD
0014
FFFB
FFFE
FFF9
FFF6
000E
FFF0
0019
FFFC
FFF0
0007
FFF9
FFF9
FFF3
0002
FFF0
FFFD
FFEC
000E
FFFA
000C
0005
0012
0008
FFFF
FFFC
0003
0001
000F
0003
FFF6
FFF3
000B
FFF3
000A
000D
0001
FFED
FFFD
000E
0014
0008
FFFA
FFFD
000D
0006
0012
0008
FFFE
FFEA
FFFE
0011
000E
FFFB
0001
0002
FFEA
FFEE
FFF0
0009
FFF6
000A
0008
0008
0003
0009
FFFF
FFEB
000A
FFFC
FFFA
000E
FFFD
FFFF
FFFF
FFF3
000A
0001
FFF4
FFF3
0002
000C
000A
0008
FFF0
FFFA
0002
0001
FFFF
FFF9
FFE9
0001
0017
FFFE
FFFC
FFF7
FFF6
0012
0000
FFF5
FFFE
000C
000F
0010
FFF5
0008
FFEE
0005
0001
FFF4
FFED
FFFC
0001
000B
FFFD
0003
FFFB
0006
FFFB
FFF1
FFFA
0010
0005
0003
FFEF
000F
0006
FFFB
0006
0001
FFF9
0007
000C
FFF8
0009
0005
000A
000A
0014
FFF3
FFFF
FFFB
0002
FFFF
0012
0008
FFFE
0015
0006
000C
FFFB
000D
FFF9
000A
0008
FFE8
0009
FFFF
0007
000B
000D
FFFA
FFF9
0007
0000
FFFE
FFF6
0004
FFFA
FFF0
FFFA
000A
0003
0016
0008
FFFD
0008
FFF6
000B
0009
FFF6
FFF4
FFF6
FFF6
FFF7
000B
0001
0004
FFFA
FFF6
0006
FFFD
0000
FFEE
FFEE
FFF4
0011
0016
000C
FFF6
FFFF
0003
FFF9
FFEA
FFEA
FFFD
FFFF
0007
0008
FFFE
0002
0001
0007
000E
0010
FFE9
0002
0006
FFF2
0006
FFF9
0012
FFFC
0001
0004
FFE7
FFF1
0005
0006
FFFA
FFFA
FFF5
0003
0001
FFFB
FFFE
FFFE
0005
0006
0001
0009
FFF7
FFFC
0000
000C
000C
FFFE
000B
FFFC
0007
0001
0014
FFED
FFF5
0016
0014
0000
000A
0000
0000
FFFE
0013
0012
0014
0016
0013
0008
0005
FFF6
FFF8
FFFF
FFEC
0004
FFFB
0005
0000
0003
FFEC
0006
FFEC
FFFC
FFFB
000E
FFFC
FFFA
FFE7
000A
FFFA
FFFB
FFF4
0001
FFF0
000A
000C
FFFD
FFFF
FFFA
000E
FFF4
FFF5
000A
FFF8
0012
FFFC
0019
000B
FFF6
0012
0004
FFFA
0009
0018
0000
FFF7
000C
0019
0006
0016
0004
0005
0017
0001
0000
FFEE
FFF4
FFF8
000B
0005
000B
0007
0006
0000
FFF3
000F
000A
FFFB
0008
0005
FFF8
0008
0015
000A
000B
000F
0011
0007
FFFF
FFF4
0013
0000
0005
FFFF
0004
0002
0011
0007
0009
FFFA
0013
0005
FFF9
FFEF
0000
000C
0008
0002
0015
0013
FFF0
0009
0008
0003
0011
0008
FFF7
0000
FFEA
0010
FFFA
FFFB
FFEB
0016
0003
FFF8
FFEA
FFE9
FFFB
FFF8
FFF2
FFF2
FFF3
FFF1
FFEC
FFFC
0002
0006
FFE9
0004
FFFE
0007
0001
000A
000D
FFFF
0004
0005
FFFA
FFFE
FFFB
0002
0013
FFF9
0004
0017
FFFC
FFF5
000B
FFF8
FFF8
0013
FFF8
0003
FFF7
FFFB
FFF1
FFF8
0004
0010
0004
0002
FFFF
FFF9
0005
0012
FFF0
0004
0006
FFFF
FFFD
FFFD
FFF5
FFF1
FFF5
FFF4
FFE9
0008
0004
000B
0005
000A
FFFA
000B
0002
0003
0001
000C
FFFB
0010
FFF8
0000
FFFF
000A
FFF1
FFF5
FFFD
000F
FFF0
FFF5
FFF5
FFF0
0000
FFFC
0008
0001
FFF4
0004
FFFB
FFF3
0010
FFF2
FFF5
000B
000E
FFF6
000F
0005
0004
0010
FFF1
FFFF
0004
FFF6
0008
000D
000B
000F
FFEC
0009
000C
FFFF
FFF0
0009
FFFF
0001
FFF4
FFF9
0001
FFFA
0009
0006
0012
000A
0002
000C
000A
FFFA
FFFB
0013
0003
FFFD
0008
0005
0004
FFF9
0001
000D
FFEE
0006
FFF5
000D
000C
000C
FFF3
FFFD
000D
0005
0007
FFF1
FFEC
FFF0
0013
FFEF
FFF0
0014
0006
FFF3
000C
FFFD
0004
0004
FFF5
0003
FFFE
FFF4
0003
FFF2
0015
FFFA
000F
FFF1
000C
FFFF
FFF5
0005
FFF7
FFFA
FFF6
0013
FFFC
FFFF
0009
FFFB
000A
0009
0000
0010
0005
0000
0007
FFF8
000E
FFF8
000C
FFE9
FFE8
FFFF
FFF5
0000
FFED
FFEC
FFFE
000B
0015
0003
FFE7
0009
000C
000C
FFF9
0002
0000
FFFF
FFF6
0002
0000
0018
0010
000C
FFF5
0017
FFFE
FFED
FFF7
0000
0012
000F
FFFF
0008
FFFE
0002
FFEA
FFF5
000C
000A
000A
FFF2
FFF5
0007
FFE7
FFF5
000E
FFFF
0000
0007
FFF5
0003
0010
0005
FFFD
0001
0007
0004
FFEE
0001
000F
0004
FFF3
FFF9
FFFF
FFFE
FFF8
FFF3
0003
FFF9
FFF5
FFEE
FFFD
FFF2
0006
FFFB
0009
0008
000E
0006
FFFD
FFFB
FFF9
FFF2
0008
0000
0001
0004
000B
FFF6
FFFA
FFF8
0015
000B
FFFF
FFF7
FFF4
0006
000B
0007
0009
000E
FFEF
0004
FFEF
0006
FFEB
0003
0001
0014
000C
0012
FFF1
0009
FFFA
FFF6
FFF3
0011
FFFC
FFFC
FFF3
FFF8
FFFE
FFF8
FFFF
FFFC
0002
0008
FFF0
000A
FFF3
FFFD
FFFF
0019
0001
FFEF
0001
FFFC
0000
FFFB
0010
FFF6
FFFC
0013
FFEF
0003
0007
FFFC
000A
FFFB
0017
FFF0
FFEB
0009
FFFD
FFEB
0002
FFF3
FFFA
FFF4
000E
FFFD
FFF8
FFFC
FFFE
000E
0013
0007
0000
FFFC
000E
FFEE
FFFE
000D
FFEF
0002
FFF6
FFFB
0017
0002
FFF6
000E
FFFF
0012
0000
0003
FFF8
FFEE
0003
0007
0004
000E
0000
0001
FFF4
FFF6
000B
0007
FFEE
0010
FFFB
000E
0001
FFFA
FFFF
0009
0000
0008
000A
0017
000D
0006
FFFE
0016
FFF9
0004
FFFC
FFF9
FFF8
0001
FFFD
FFE8
000D
000C
0013
FFF9
0009
0008
FFF9
FFF0
0001
000B
FFFE
FFFC
FFE9
000F
000A
0015
000C
000D
FFFC
0004
0001
000B
FFF9
FFFD
FFFC
FFF7
0000
0015
FFFC
0011
0001
000A
FFFE
FFF2
000E
FFF4
0009
FFF5
0017
FFFF
FFE9
FFF4
FFFB
FFF2
0002
FFF0
FFFC
0001
FFE7
FFFC
FFFE
FFE7
FFF4
FFFD
0003
FFF6
000F
FFFE
000D
FFF3
FFF8
0000
0003
0001
FFF7
0014
FFFF
0007
FFEB
0006
FFFB
FFFC
0004
FFFE
FFF6
0001
FFFB
000A
000E
0003
000D
FFFF
0007
000E
0006
FFFA
000F
0003
0000
FFF6
FFFC
FFFE
0006
0003
0006
0001
0015
FFF3
0001
000D
FFF0
0000
000D
0000
0004
FFEC
FFE9
000F
0019
000A
0005
0019
FFFF
FFFA
0001
000A
FFF7
FFFA
FFF5
0004
0015
0003
FFFF
FFF4
FFFD
0009
FFFD
FFF5
000C
FFF4
FFEC
000C
0007
0003
FFFE
000E
0016
000C
0001
FFF0
FFE8
FFF0
0008
0009
FFF0
000B
FFFE
FFFD
0001
000E
FFF1
0000
FFF5
0008
FFFC
0010
000C
FFF0
0003
000A
0012
FFE9
0007
0018
FFF9
FFF5
FFFE
000E
FFFD
FFF2
FFFD
0000
FFF8
0000
0006
FFFA
FFFA
FFFA
FFFC
0009
0005
FFED
0006
FFF5
000B
0004
FFFA
FFF5
FFF4
FFF1
0001
0003
FFEF
0003
FFF2
FFFC
0018
0004
0003
0006
FFF3
0002
FFFD
000D
FFF2
FFED
0009
0003
0015
0013
FFF3
0003
0002
FFFD
FFE7
FFFD
FFF8
FFFF
FFFC
0004
0008
FFFC
FFF2
0001
FFF7
FFFF
FFFC
0003
0005
FFF8
0008
FFFF
FFFF
0004
0007
FFFA
0001
FFEF
FFF9
0003
FFF3
0009
FFFF
0005
000A
0008
FFF7
0012
0015
FFF7
0000
0011
FFEA
FFE9
FFFA
FFF5
0009
0011
000E
0000
FFED
FFF0
FFFD
FFFA
FFFE
0013
0006
FFEF
FFFA
0013
FFF0
FFFE
0018
0009
FFFC
FFFD
FFFF
0007
FFFF
0000
FFFC
0000
FFF1
FFE8
0004
0009
000C
0001
0007
FFFC
FFE7
0002
FFF8
FFF9
0018
0008
FFF6
FFF9
FFF9
FFF9
FFFF
FFFC
0000
FFF1
0014
000E
000B
FFFE
FFF0
0001
FFF6
0005
FFEB
FFE9
0004
0011
FFF0
0000
FFFC
001A
FFEE
FFFB
0009
FFF3
FFE8
FFFD
FFF8
0010
0019
FFF2
FFF0
FFF0
FFF7
0011
FFFF
0006
FFFA
FFF7
0005
0011
0018
000A
FFF3
FFF2
0004
0006
FFFB
0001
FFF9
FFFA
0003
000C
FFFC
0003
FFEB
FFF6
0000
FFFD
000D
FFF5
FFEB
FFF8
FFE8
0002
FFFF
0016
000E
000B
000F
FFFF
000D
FFF9
FFF9
0008
FFF7
0009
FFF6
FFFA
FFFE
FFFA
FFEF
FFFB
0003
0012
0000
0004
0002
0006
0010
000F
000B
0006
0004
FFEF
FFF8
FFFA
FFF0
0004
000C
0011
0008
0002
0000
FFF8
0009
FFF9
FFFD
000A
000F
FFED
0015
FFFB
FFF7
0008
0002
0010
FFFD
0005
FFF4
FFFA
0019
FFE9
0005
0008
000A
FFFC
FFF1
0010
0005
0005
0005
FFF7
FFFF
FFF7
000A
FFFC
0001
000A
0016
0009
FFF8
0001
0001
0008
FFFD
FFFD
0002
000F
FFF9
0006
FFFA
FFF4
FFFD
FFE7
0012
FFF6
FFF4
FFED
0003
0015
000B
0018
FFF1
000B
0002
0017
0003
0007
FFF2
FFF2
0012
0005
000D
0016
FFF9
FFFE
0006
0010
FFFC
0006
0001
FFF4
FFF4
0000
FFFD
0010
000A
FFFF
0005
FFF9
0005
FFF8
0014
0002
FFF5
0003
0012
FFEE
FFFA
FFEF
000E
0004
FFF0
FFF0
0001
0010
000E
FFF1
0006
000E
000B
FFFF
FFFC
0016
000C
0005
FFE8
0003
0012
FFEC
FFFC
0003
FFFD
0019
FFFA
FFEF
0005
0003
0009
0007
FFF9
FFF4
0016
0007
FFF1
0001
000F
0007
0001
000C
FFFC
FFFC
0006
000E
0001
000F
0010
0015
0007
FFFF
000D
000D
FFED
000C
FFFD
FFFB
FFFE
FFFB
000C
FFFE
FFEE
000A
0016
FFF7
FFEF
000C
FFFC
FFF9
000C
FFFF
FFF4
FFFF
0002
FFFB
0004
FFF4
FFFD
000E
0001
FFFD
FFFE
0006
FFF9
0009
FFF5
FFFF
000A
FFFF
FFFE
000C
FFF6
0018
FFF2
000D
0003
FFE7
0008
FFFE
0004
FFF1
0008
0011
0005
FFF5
000E
000B
FFF5
FFFB
0007
0003
000B
0006
FFFB
FFFD
000B
000D
0002
FFF7
FFF4
0007
0004
FFF6
0016
0002
FFF2
FFFB
0006
0000
000F
0006
0005
0003
FFFE
0008
0007
FFFC
FFFD
000E
0005
FFE7
FFF7
000D
FFFC
0009
0007
FFF6
0016
FFF5
0008
0005
FFEF
FFFB
FFE8
FFEB
FFE7
FFE7
FFF3
000A
0000
FFE7
FFF5
0000
FFF1
FFF0
0006
FFF8
0007
FFF2
0006
0006
FFFD
FFEF
FFF9
0001
0001
FFE9
FFF8
0010
0004
FFF5
FFF0
000B
0007
FFFA
FFF5
0009
0000
0002
FFE9
0006
FFFD
FFF4
FFF8
0003
FFEF
FFFD
FFE9
FFEE
0016
0009
FFFA
0008
0010
000E
000D
000C
FFF1
FFFD
000E
0007
000A
FFEF
0019
FFF5
FFFB
FFF3
0005
0008
FFED
0003
FFFA
FFFF
0003
000C
FFF3
0001
FFF9
FFF3
0013
0000
0001
0009
FFFF
0002
FFFB
FFFB
FFEB
FFF5
000E
FFFA
FFF8
FFFE
FFEC
FFF3
0012
FFF1
FFFB
0006
0005
000E
FFF8
000C
FFF6
FFFE
FFF7
FFFD
FFF7
FFFF
FFFC
0002
0009
FFF8
FFEC
0008
0001
0015
0007
FFFD
FFF4
0016
FFF2
FFFC
FFF7
FFF9
0006
FFEF
FFF2
FFFC
0004
0000
0006
FFF8
FFF5
0002
0002
FFFD
FFFB
0005
000C
FFFA
0009
FFF3
0001
000A
FFED
FFFD
0014
FFF8
FFFD
0010
0009
FFF0
0012
FFEB
FFF6
0005
0004
FFF8
FFFD
0004
0000
0005
0011
0008
0001
FFF1
000A
FFF8
FFFC
FFF1
0011
000D
FFE8
0004
0002
FFFC
0006
FFF7
000C
FFF2
0003
0009
000C
0000
FFFE
FFF5
0008
FFF3
FFFD
0006
0008
FFFB
000B
0011
FFFA
FFFB
0008
0001
0000
FFE9
0002
FFFB
FFFB
FFF2
FFF7
0002
FFFE
0003
000B
000B
FFE7
FFFB
FFFC
0014
FFF0
FFFA
FFF5
FFF7
0011
FFFF
0005
000A
0009
0008
000C
000E
0002
FFF2
FFFC
000C
FFF1
0007
FFFE
FFFC
000B
000B
FFFB
FFFD
0006
0018
000A
FFF6
0010
0000
0001
FFFE
FFFF
FFFF
0004
000F
0002
FFF1
0006
FFF3
0000
FFF8
0008
FFFD
FFE9
FFF7
0013
000D
0000
FFF4
FFFC
000C
000E
FFF9
FFFF
FFF8
FFFD
0012
0013
000D
0005
0014
000B
0006
0007
FFF8
FFEA
0017
FFF9
FFEF
0003
0003
0009
FFF7
0000
0017
FFE9
0005
000F
FFF1
0004
FFFD
FFF8
FFEF
FFFE
0014
0001
FFF4
0008
0002
0000
FFFE
FFFB
FFFA
0002
0006
FFF7
0014
FFEE
0009
FFEC
0006
0009
FFF0
FFFA
0004
0004
FFFF
000A
FFEA
FFF3
0004
FFF6
FFFC
FFED
0016
0002
0017
0006
FFF7
FFF9
0013
0007
000D
0007
FFF7
FFF4
FFF9
FFED
FFEA
0004
0007
FFF9
FFFA
FFFD
0011
0000
0008
0002
0000
0013
FFFE
0013
FFFE
0015
000D
0000
FFFB
0001
000A
FFFB
0000
000A
FFF9
0011
000E
FFFC
FFFD
FFF5
FFF6
FFF7
FFF7
FFED
FFFC
0015
0002
FFFE
FFEA
0014
FFF0
0001
FFF8
000F
FFFA
FFF7
000F
0009
0013
0016
0011
0010
0008
0017
000F
0002
FFEE
FFF2
FFF6
FFFB
0012
FFF9
000E
0003
FFF8
FFE9
0018
FFF6
FFF3
0003
FFF5
FFF9
FFFB
000C
0002
0009
FFFD
000E
000B
0006
0003
0000
0012
0001
FFEC
FFED
FFFB
0000
FFF3
FFF8
000C
0000
FFFF
FFEB
0005
0000
FFF5
FFF0
FFFB
0004
0000
FFFA
0006
0011
0009
FFFB
0004
FFFD
000D
0007
FFEA
0003
000D
FFFA
FFF6
FFFB
0014
0008
0000
000C
0007
0009
FFFD
0007
0012
0000
0000
FFFC
0003
000F
FFEF
0004
0013
000F
0008
FFFA
FFFE
0002
FFF1
0011
FFEB
FFF9
FFED
FFFB
FFFD
0008
000A
0010
0004
0011
FFF0
FFF0
000E
FFFB
0006
000F
FFFC
FFFF
FFFD
FFFF
0008
FFF7
FFFA
FFFB
0018
FFF8
0003
000B
FFFC
FFF6
FFF3
000D
0008
FFF9
FFF3
FFF5
FFFD
FFFE
0005
000C
FFFD
000B
FFF1
FFFD
FFF9
0001
0016
0001
FFF4
0008
FFFF
0014
0017
0016
FFF3
FFEB
FFF8
FFF7
0002
0013
FFF8
0009
0002
FFF7
0008
0009
0006
FFFA
0014
FFFE
FFF7
000E
000B
0014
FFFA
0011
FFF3
FFF1
FFFC
FFF4
FFF0
0009
0012
0012
FFF9
FFED
0011
FFF7
FFF6
0005
FFFE
FFFE
000F
FFFB
0006
FFFB
FFF3
000C
000A
FFF6
0015
0006
FFFD
0018
000A
0001
FFF6
0008
0008
0010
000E
0003
FFF9
000D
000D
FFE7
0000
0014
0000
FFF7
000F
0003
FFFA
0006
0010
0003
0012
0006
FFFE
FFF3
FFF9
000D
FFF6
FFE7
FFFF
FFF9
0009
FFF4
FFFC
000D
FFF6
FFF5
FFFB
FFEC
000A
0008
FFEB
0006
FFEA
FFFB
000A
FFF3
0005
0008
000F
FFF2
FFF0
0002
000F
0007
FFF6
0016
FFED
FFED
0000
FFFF
FFFD
0001
FFFB
000D
0000
000F
0004
FFF8
FFF7
0001
FFFE
FFF9
0000
0008
0004
FFEA
FFF4
FFF3
FFF6
FFFC
0015
000A
FFFF
FFF3
FFF6
000D
FFFD
FFFE
FFFB
FFFD
000F
FFFC
0003
FFFA
FFF5
FFF7
FFFD
FFF3
0001
FFF3
000D
FFF3
0001
0011
FFF4
0004
0009
FFFB
FFFC
FFFF
0000
FFFF
FFFA
0005
FFEA
0006
FFF9
FFF9
0011
FFF5
FFFA
FFF9
FFF2
FFFE
FFFE
000C
FFF0
0002
0009
0008
FFED
0010
0004
0002
0006
0004
FFFA
0008
0011
000E
0003
FFFA
0000
0006
FFE6
0006
000A
000A
FFF3
FFF5
FFEC
FFFC
0003
0006
FFED
FFFA
FFFC
FFFB
FFF6
0001
0003
FFF8
0001
FFF9
0018
000A
FFF9
FFFB
0007
000A
FFEB
0004
FFFD
0009
0002
0005
FFEC
0013
0002
0002
000D
0016
0001
FFFD
0009
0000
FFFB
FFFA
FFFD
0005
FFFF
0007
FFEA
000A
0011
000E
0008
FFF5
0010
000A
FFFD
0011
FFFB
FFFF
FFF7
000B
000C
0010
0004
FFF4
0008
0003
0018
FFF0
FFFD
000C
0005
0003
000A
0006
0000
0013
FFFD
FFFC
0013
FFE7
FFF8
0007
0008
FFFD
0008
FFF9
0003
FFF9
FFF6
000C
FFFA
FFFB
000B
FFF7
FFF9
FFFD
0003
0002
FFFD
FFFA
0001
FFEC
0017
0009
FFFD
0006
FFFA
0013
0006
0009
0008
000F
0007
FFFC
FFFB
FFF0
0005
0000
FFF5
000C
FFF2
FFFF
FFFD
0003
FFFC
0005
0002
FFFB
0006
0001
FFF2
0001
0003
FFFC
0005
0009
FFFD
000D
0009
0003
000C
0003
0011
FFFA
FFF6
000E
FFFE
FFF8
FFF8
FFFF
000A
0008
FFFF
0001
0010
FFF5
FFFE
FFF3
0000
0006
FFE9
FFF2
FFED
FFFC
000F
FFF8
FFEF
FFF6
0003
0015
000F
FFEB
000C
000A
0005
0012
000E
FFFD
000C
0004
0009
FFF7
0003
000E
FFEB
0006
0012
0001
FFFD
000F
000F
000F
0007
0008
FFED
FFF8
FFFD
0004
0010
0009
FFEA
FFF6
0003
FFFD
FFF8
0008
FFFE
FFF5
0001
FFFF
000E
0006
FFF2
000F
0004
0001
FFF3
FFF2
0011
0011
0004
000E
0000
FFF3
0005
FFF8
0002
FFEF
0007
FFFA
FFF7
FFFD
FFEA
FFFD
0000
0006
FFFA
000C
0015
FFED
0006
0018
FFF1
000E
000D
0017
FFF9
0003
0006
0002
0000
0007
FFED
FFFD
0015
FFFF
000D
FFEB
000B
0002
0000
0006
0007
FFFA
FFFA
0019
FFFE
0014
0002
FFF9
FFFD
0000
0003
0002
000B
0007
FFF7
FFEF
000C
FFF8
FFF8
FFFD
FFF7
0001
000F
0014
0003
0008
FFF7
0003
0017
000F
FFFB
FFFE
000A
FFF0
0002
FFF9
FFFD
FFFA
FFFB
FFF7
FFF3
0005
0009
FFFE
FFE8
0009
FFFB
0002
FFFE
0005
0014
000D
0004
0008
FFFA
FFE9
000A
000D
FFEF
0000
FFFA
0003
FFF5
FFFD
FFFE
FFF6
000B
0006
FFF8
FFF8
000B
000A
0008
FFF3
FFE7
0011
0004
FFEF
FFF4
0000
000F
0002
FFF0
FFFB
0003
FFF6
0007
0003
FFFD
0009
0012
0005
000B
0008
0000
0007
FFFA
0000
0001
FFFB
0005
000A
000D
FFFE
000F
FFE7
0014
0000
0000
000E
0007
FFF6
0002
000A
000F
000C
0009
0005
000E
0010
FFFC
FFE9
FFFF
000A
FFEB
FFF4
FFF4
FFF7
000E
0003
FFF2
FFF4
0006
0004
0018
FFFD
0003
0009
FFF8
0012
FFFD
FFF6
FFE9
0006
0004
FFEC
0003
FFE7
000D
0000
FFFE
0007
000A
FFEC
FFFA
0004
000C
FFF4
0008
0002
FFF4
0002
0000
FFF7
FFEA
FFF2
FFFA
FFF8
000D
0009
0008
FFF6
FFFA
FFFE
FFFC
0010
0007
0005
0002
FFF1
000D
FFFB
000B
000F
000B
0002
000C
000B
FFF6
FFEE
0017
FFF6
FFEE
0001
0002
FFF6
FFF7
FFFE
0008
000B
FFEF
0005
0009
000E
FFF8
FFF9
FFEC
0011
FFEC
FFF9
0009
FFF7
FFFC
FFFB
FFEE
000A
000D
FFF5
FFF7
0003
FFFF
0006
FFFB
000B
FFF9
FFF5
FFFB
FFF7
0009
000A
0000
000A
0008
0007
0010
FFEE
0007
FFEF
0008
FFF4
000C
FFEE
0012
FFFA
FFFE
000C
FFFD
FFFD
FFFB
0003
0005
0003
0006
FFF2
FFF3
000B
000C
0001
0013
0004
FFEC
0007
000B
0000
0004
0007
FFFB
FFFD
0003
000C
FFF0
FFFE
FFF7
FFF7
000C
FFF8
FFFC
000D
0007
0003
FFE9
0003
FFF7
FFFC
FFFD
0011
FFFD
0004
0007
000A
FFFE
0006
000C
0000
FFF3
FFFB
FFFF
FFFF
000E
FFFD
FFF7
0019
0001
FFFE
FFF3
FFEE
0014
0001
FFE7
0015
000F
FFEF
FFF9
FFF4
FFF2
FFFA
FFF4
0000
FFFC
FFE9
FFF9
000A
0015
FFFB
0000
000A
0007
0000
0019
000F
FFFE
0000
000D
FFE9
FFF7
0009
0007
FFFA
FFF5
FFFD
0006
0004
000C
0001
0001
0001
000B
FFFA
0009
0019
0007
FFFD
FFFE
FFFF
FFFF
000A
FFFA
FFFC
FFEB
FFFB
000A
FFFB
000D
FFEF
FFFF
0006
FFF4
0000
FFFB
FFF8
0000
FFEC
FFEE
0003
FFEB
FFEE
000D
FFF6
FFFC
FFF2
FFF0
FFF7
FFFB
FFF9
0000
FFEC
FFF5
0000
000E
0007
0003
0005
000A
FFF6
0001
FFEE
FFFD
FFEB
FFFE
000B
FFF4
FFFF
FFF0
FFE8
0000
0001
0001
FFFC
0001
0000
0010
000C
000D
000E
0003
0003
FFF8
FFF8
0002
FFF3
FFEE
0006
0008
FFFB
FFF5
0004
000F
000B
0015
0000
FFFA
0004
FFFC
0000
FFFD
FFF2
FFFD
FFF0
FFFF
FFF0
0004
0010
000A
0014
0000
FFF0
FFFB
000B
000B
0000
FFFD
FFFF
FFFD
0003
0001
0004
FFFD
FFFE
0000
000C
0009
0012
0003
FFF3
FFF2
FFFF
FFF6
FFFE
0004
0013
0017
FFFA
0008
FFE9
0003
0017
0005
0001
0004
0004
FFEA
0005
FFFA
FFF4
FFF3
FFFA
FFF0
000F
000C
FFEE
0007
0004
FFFE
FFF7
0003
0007
FFFF
FFF6
0005
FFFD
0001
FFFE
0007
000D
FFFC
FFF5
0005
0004
FFEE
0009
FFF9
FFFD
FFEE
FFFE
FFF8
000E
FFFA
000C
FFF9
FFF5
000A
FFE9
0011
FFF2
FFFE
000D
FFF6
0014
000E
FFFC
0005
FFED
FFEF
FFFE
0000
FFFE
0002
FFFA
0003
0005
0010
0004
FFF7
0005
0006
000C
000E
FFF7
FFFA
0007
0013
FFF7
000E
FFFC
000C
0014
0000
FFF7
FFF9
0002
0016
FFEE
0001
FFF5
0002
FFFD
FFFF
000A
FFF8
0000
FFED
FFF9
0001
FFF4
0009
FFFB
0000
0002
FFFD
000F
0000
FFF7
0006
0002
0005
0005
0003
000C
0005
000B
0006
0001
FFE9
000A
FFF5
0003
FFF9
0005
FFF5
FFFB
0019
0002
FFF0
000D
0005
000B
0012
FFFB
0011
000E
FFF8
FFEE
0004
0010
FFFF
0001
FFFD
0006
000E
0007
0019
0009
FFEB
FFFB
FFF8
0000
FFFC
000F
FFFB
0001
FFF8
FFF2
FFFA
0006
0002
0004
000B
0002
0009
FFFC
0000
0013
0004
0007
0003
0008
FFFC
0014
FFEE
000A
FFF9
FFF4
FFF9
0004
FFFA
FFE9
0009
0004
000E
FFFB
000D
FFFB
0016
000B
0007
0003
FFFD
0011
0005
FFF0
0007
0007
0001
FFF5
0002
FFFA
0000
0002
FFF4
FFF9
0005
FFF2
FFFC
0017
FFEE
FFF6
FFF5
000D
0016
0002
FFF3
FFF8
FFF9
FFFB
FFFD
000A
FFFC
FFFA
FFF7
0003
000E
0001
FFFF
0002
FFE8
000A
000D
FFF8
FFED
FFFD
FFFF
FFFD
0001
FFF0
000C
FFFE
0012
FFFA
0015
FFFA
0004
0003
FFF3
000C
0005
FFF8
FFFE
FFEC
000E
FFFF
0008
0002
000F
000A
000A
FFF8
FFFF
0000
0006
0013
FFEE
FFF6
FFF9
FFF8
FFF5
FFF7
000B
0002
FFF7
FFF5
000C
000E
0015
FFF5
0006
FFEA
FFFD
FFF3
FFF6
FFFB
FFEE
FFF8
0005
FFF7
0002
0000
0000
FFF2
0009
0005
FFFA
0007
FFF2
0000
FFEF
0005
FFF9
FFE8
000C
000B
FFF6
FFEA
000A
FFFC
FFF8
0003
FFF4
FFFC
000D
FFFA
0002
FFF0
0005
0012
FFED
FFFE
FFFD
0017
FFFD
000F
FFF9
FFFE
0001
0003
FFFD
FFF1
FFFC
0009
0007
0000
FFFC
0008
0005
0000
FFF5
FFF4
0006
0015
0006
000A
000F
0002
0004
0016
0003
FFFE
FFFA
FFFF
0002
0008
0001
FFF5
0005
FFF4
0000
FFFB
0000
FFEB
0006
0016
0002
0009
0009
FFF8
0006
FFFA
FFFF
0008
FFFF
0004
FFFD
FFF0
FFFD
0001
FFF5
0002
000C
FFFF
0008
FFF6
0005
0010
0002
FFF9
FFEF
FFE8
FFF2
FFEF
FFFA
FFF2
FFF2
0000
FFF6
0006
FFF5
0003
0005
0007
0005
0018
0005
0018
FFF8
0001
0013
0014
000B
FFF9
FFF4
0011
FFF6
FFFB
000D
0007
0005
FFF3
FFFE
0006
FFF5
FFF5
0007
0002
0003
FFEE
0002
0005
000B
FFFF
FFF8
000B
0007
0002
000D
FFF1
FFF7
0001
0005
FFED
0015
0012
0002
0000
0011
FFF1
0004
FFF7
000A
FFEE
FFFC
FFF5
0005
FFF1
FFFE
000C
FFF8
FFFF
FFFE
0009
0014
0008
FFF3
FFFA
FFFC
FFEF
0000
0013
0006
FFFE
0002
FFED
0003
0009
FFF9
0018
FFFC
0000
FFF2
FFFC
FFFF
0007
FFEC
FFFC
0003
FFFF
000B
FFFD
0005
0003
FFFC
0009
0000
FFF9
0001
0002
0000
0010
FFFC
FFEC
FFF0
FFEF
FFFF
000E
0002
0002
FFF4
FFFC
0009
FFF4
0008
000D
FFF4
FFF7
0005
0010
0000
0007
0008
FFF2
FFF7
FFFA
FFED
0001
0002
0012
0014
0008
FFF5
FFF2
FFFF
FFF0
0002
FFF5
FFFB
FFF3
FFF8
0013
FFE9
FFFE
000B
0014
FFF4
000B
FFF7
0015
0001
FFEA
FFF8
0009
FFFB
FFEF
0001
FFEA
FFF5
FFF6
FFFC
0003
0004
000F
0016
0009
FFFA
FFFE
000E
000E
0007
FFF3
0005
0011
0008
FFFC
FFE9
0011
FFF6
FFFF
FFEC
FFFE
FFF4
0008
FFFD
001A
FFF7
FFF4
FFF6
FFFC
0004
000F
FFF5
FFF3
FFEC
0008
FFF3
0003
0001
000C
FFEE
0012
FFFC
FFF1
0007
0012
000E
000B
0002
0003
0005
FFF9
000B
0017
0007
FFFD
0007
0006
FFED
000D
000B
FFEF
0006
FFFF
FFF7
0013
FFEF
0005
0012
FFFC
0001
FFF6
FFF7
000E
FFF1
FFEE
000E
0010
0001
0001
FFF6
FFFE
0001
0004
FFF4
FFFD
0003
FFFE
000D
FFFA
0011
FFF7
0009
0008
0016
0002
000A
0006
0001
FFF4
FFEE
0002
0006
000E
000E
000E
0006
FFFC
FFF6
0004
FFF8
FFFF
0005
000A
FFFC
FFF9
0008
0002
FFF7
FFF2
FFF9
FFF8
FFFF
FFFA
0002
0003
000F
0006
0011
0003
0003
FFFD
0000
0007
FFFC
0016
0003
000E
0000
000F
FFF8
FFF5
0008
000A
FFFC
FFFB
FFEF
FFF4
FFED
0003
FFFC
0005
000A
FFF3
0011
FFEE
FFFA
FFF9
FFFA
FFF8
FFFD
FFFD
0001
0003
FFE8
0013
FFF1
0005
0017
0001
FFEE
FFE8
FFF4
FFFF
0009
0001
FFF0
0003
000D
000B
FFF5
0018
0011
FFEC
FFF6
000B
0012
0009
0006
FFEB
FFF4
FFF6
FFF5
0007
0008
FFF4
FFF6
0000
0010
0003
0001
FFFF
0006
FFEF
0008
FFEC
FFF9
FFFB
FFFF
0001
FFF6
FFF8
000E
FFF0
FFF6
FFEE
FFFC
000D
000E
FFF9
FFE7
FFF9
FFFC
FFF6
FFFE
FFFD
FFF8
FFFD
0006
FFF5
FFFC
0019
0002
FFF3
0018
FFFA
FFF3
FFFE
FFFB
FFF8
0016
0005
FFFF
0005
0009
FFF7
FFF8
FFF6
0007
FFF6
FFFF
FFFB
FFFD
0006
FFF7
0000
FFFB
FFEE
FFF2
0006
000B
0002
000A
0002
FFFD
FFEE
0006
0008
FFFC
FFFB
FFED
0012
FFFF
000B
FFEF
0004
FFEB
000E
0010
0003
FFFB
FFF4
FFF2
FFFF
FFF7
FFEE
FFFD
FFF2
0007
0003
0010
FFF6
0016
FFF9
FFFB
FFFE
000E
0000
FFFE
0005
0014
FFFD
FFF3
0007
FFFB
FFF6
FFEC
FFFC
FFEF
FFF1
0000
000A
FFF9
FFFD
0000
FFE7
000A
FFFE
FFF9
FFE7
000A
FFEE
FFFC
FFEF
0001
FFF7
0016
0009
0018
0000
FFF4
0009
0006
0007
FFF4
0015
FFEA
0009
FFF9
000D
FFFC
0007
FFEE
FFFB
0003
0012
FFFB
FFF2
0000
0005
FFF1
0002
FFFB
0001
0001
0003
000B
0006
FFF7
000B
FFF4
0008
0007
000D
FFFC
0010
0006
FFFD
FFE7
FFFE
0006
FFF4
FFEE
FFFF
FFFF
FFF3
FFFB
FFF3
0004
FFEB
0002
0006
000B
FFF2
FFEF
FFFD
0012
FFF0
000A
FFF0
FFF4
FFF3
0001
0011
0001
0005
0001
FFF0
0007
FFF0
0001
FFF8
FFF3
0004
FFFE
0010
FFFE
FFF8
000B
0009
0002
FFF6
FFF9
0000
0002
000F
FFE8
0004
FFFD
0010
0014
FFFD
000D
0007
FFF9
FFF9
FFF9
000F
FFE6
FFFD
FFF4
FFFF
FFFD
FFEE
0000
0019
FFE8
0002
0013
FFE7
FFF5
000C
000C
FFEF
0000
FFF8
FFF7
0001
FFF1
0003
0008
FFFF
0003
FFF2
FFF8
000A
FFFF
FFFB
FFF1
000A
0000
000A
0017
0009
FFF1
0002
FFFD
0005
0013
FFF9
FFF6
FFFB
FFF7
FFF1
0002
0004
FFFB
000A
FFF6
FFF1
FFF2
0007
0007
FFFE
FFE8
0000
FFF2
0012
FFFC
0004
0002
0006
FFE7
FFEA
FFF5
0016
0005
0009
000B
FFF5
FFF8
0009
FFFF
FFF5
0005
FFEE
FFF9
0014
FFEE
0010
0009
FFF5
FFFD
FFF1
0004
0009
FFF8
0001
0002
FFEC
FFFC
FFEF
0000
0009
FFF9
FFFE
0004
0009
0007
0005
FFF3
0005
0003
FFFA
FFFB
0004
0009
FFFA
FFF2
0000
0007
FFF5
FFF9
0016
FFF3
0013
0002
FFF2
FFF5
FFF3
000D
0008
000E
FFFB
0016
FFF2
0016
FFFD
FFE9
FFF9
FFF7
000A
FFF3
FFF5
FFF9
FFF9
000F
0005
FFFD
FFFE
FFF4
0003
0003
FFF8
FFFE
000E
FFF7
0002
0003
FFF9
FFFB
0006
000B
0017
0006
0005
FFFE
FFFA
FFFE
FFF5
FFF9
FFFF
0011
0004
FFFF
0008
FFFC
0001
000D
FFFE
0018
0011
0003
0001
0014
0012
0010
000E
0004
0011
0003
0006
FFF5
FFF7
FFF7
0014
FFF0
FFE9
000E
FFFA
FFFE
FFF6
0006
FFFD
0004
FFED
0011
0017
FFEF
FFEF
0001
FFF2
FFEB
FFF7
FFEB
000E
000F
000A
0001
0010
0008
FFEE
FFF0
FFF9
FFF7
FFFD
0002
FFF9
000E
0014
FFF9
FFFD
FFFE
0005
FFF9
000C
FFEE
0001
000E
FFF2
FFFA
000B
0019
0007
FFF2
FFFB
0015
0007
0009
FFFB
0011
FFEE
000D
0002
0002
FFF8
FFFC
FFF4
0007
FFF8
FFEE
0003
0006
FFFE
0002
FFF0
0004
000B
FFEA
FFF8
000D
0004
FFEF
000A
0017
0005
FFFB
0013
0008
0007
0004
FFF6
FFF8
FFFC
0006
FFF6
FFFD
0013
FFFA
FFFD
0001
0017
0004
FFFE
0006
0004
0006
0003
FFF5
0004
FFFA
FFF5
0006
FFFD
FFE8
000E
FFFA
0011
FFFB
0000
000B
0002
FFFC
FFF0
FFFB
0000
000C
FFEE
FFFD
FFEF
000B
FFFF
0011
FFEC
FFF5
0001
000F
FFFC
FFFF
0003
000A
FFFF
0006
0006
0005
FFF4
0002
0011
0002
0005
FFFB
000A
FFFB
000B
0016
FFF2
0013
0010
000B
FFE7
0000
0008
FFF9
FFEF
0007
FFED
0007
0005
FFFF
0013
FFE9
FFEE
000B
0003
000B
0003
FFFC
000C
0006
FFEF
0012
0001
FFEB
0009
FFFB
FFFE
FFF7
FFFD
FFF5
0002
0000
0004
0000
0002
0009
FFF6
FFFB
FFEA
FFE9
0004
FFF8
0012
FFE9
0008
0014
0003
0013
FFFC
0007
FFFD
0012
0003
FFFB
0009
FFE7
FFF7
FFFF
FFFF
FFF7
FFFE
0016
0003
0011
0012
0011
FFF8
0005
0012
FFFF
FFFF
0003
FFFF
0001
FFFA
FFFD
000F
FFF5
FFFA
000D
FFEC
FFEA
0000
0004
FFFF
0003
0015
000C
0002
0012
FFFD
FFF0
FFFA
0007
0017
FFF5
FFE9
FFF9
FFEF
000B
FFFD
FFE9
FFF0
0003
0000
FFF4
FFF0
FFEE
0003
0007
0008
0012
FFFC
000A
0003
FFFE
FFFB
0002
FFFC
0005
0001
000A
0004
FFEF
FFF7
FFFF
0007
FFE8
FFF3
FFFD
0003
FFF8
FFFF
000D
FFF3
0002
FFF8
0009
0002
FFF9
0005
FFF8
000B
0002
0009
0002
FFFF
000E
FFFE
000D
0004
0001
0008
0004
0001
000F
000B
000C
0006
000D
0005
0009
000A
000A
FFF3
0000
FFF9
0007
FFEF
000A
0012
0008
0001
0003
FFED
FFF7
FFEB
FFF4
FFF8
FFF6
0003
0010
0000
0008
0004
FFF4
0015
0013
0008
FFF1
FFF5
0006
0001
FFF5
000D
FFF8
FFEC
FFF2
0008
0009
FFF2
FFF1
FFE8
000E
0009
FFFF
FFE9
FFF9
FFF6
FFF8
0009
0018
FFED
0006
FFF7
0002
FFED
0002
FFF6
000D
FFF9
0015
000D
FFFD
FFFE
0006
0006
0015
0002
0009
FFFC
FFF8
FFF9
FFFF
FFF9
FFFC
000B
0002
0012
FFF9
FFEE
FFF9
FFF0
FFFC
FFF7
0003
FFFD
0000
000A
FFF7
0002
FFE9
FFFC
FFEB
FFE7
000C
FFF4
000D
000D
0000
0009
FFFC
0004
FFFE
000A
FFF8
FFFB
0000
FFFF
FFF4
FFF8
FFF0
FFFE
0007
0008
000E
0007
FFFF
FFFB
FFF3
000A
FFF7
FFFA
000B
FFF9
0003
0003
FFF0
FFF9
FFF4
FFF1
FFFE
FFF7
FFFB
FFF0
000C
0003
FFF2
FFF7
0003
FFFA
FFFF
0005
FFFF
0004
000A
0008
FFF8
FFFB
FFFA
FFFA
0018
0018
000C
000A
0013
0002
0008
0003
FFFD
0001
FFFE
FFEF
0011
FFF5
000A
FFF5
0005
0010
0003
0004
0015
000B
FFFD
FFF8
FFF5
FFF6
FFFF
FFF6
FFEB
0004
FFEE
FFEF
FFF1
0010
FFFF
FFFE
000B
FFF1
FFFC
0008
FFEE
0009
FFFF
0002
0001
FFF7
0002
000C
FFFF
FFF0
0003
FFF6
FFED
000A
FFF4
000A
FFF4
FFEC
0003
0002
0003
0002
FFFF
FFF1
FFEF
0009
FFF9
0009
FFF6
000A
FFFF
0005
FFFB
000B
FFFF
000F
0007
0014
FFF9
0015
FFF8
FFFD
0012
0004
0000
000F
FFEC
FFF8
000B
FFEE
0014
FFED
000D
0010
0003
000C
FFF0
FFEA
FFF7
0002
FFF4
0011
FFEE
0012
0000
0003
000B
FFF7
0017
FFF2
FFFB
0011
FFFA
0005
0008
FFF2
FFF4
0005
0007
0009
FFFC
FFF3
FFFF
0003
FFF7
0009
FFFC
0003
000A
0005
0003
FFF2
0009
0001
FFF6
000C
0016
0011
FFFA
0000
0002
0000
0003
FFFC
0002
000A
000A
FFFF
FFF8
FFF0
000A
000D
FFFC
FFED
0009
FFF4
0004
000E
FFFC
0004
FFEB
FFF3
0003
0006
0005
0012
0005
000C
FFFE
0000
0016
0018
FFF6
FFFC
FFF4
FFF7
000A
0003
0001
FFF9
000C
FFFA
FFF6
0005
FFF6
0001
FFF6
000E
0002
FFFF
FFFF
000A
FFFF
000D
000C
0006
FFFD
FFFB
FFF8
FFEA
0001
FFFA
FFEF
000B
0012
FFFC
0003
FFFE
FFFF
FFFD
FFFE
FFFA
FFEC
000C
0011
FFFB
FFFD
FFF5
FFFD
0004
0007
FFFC
FFF5
000D
0004
0012
FFF9
0009
0001
FFF8
FFFB
FFF0
FFF5
0011
0006
0012
FFF9
FFFD
0013
FFF5
FFF8
FFFC
FFF9
0016
FFEA
FFF6
FFEC
000C
FFEF
0004
0016
FFF8
FFFE
0007
FFEC
FFF8
FFFB
FFFF
FFE9
0001
FFFB
0014
FFF1
0011
000F
0000
FFF5
0001
FFF5
FFF3
FFFE
0002
000A
FFF7
0002
FFEB
000E
0003
000A
FFFE
0007
FFE8
0003
0009
FFFF
FFF4
FFFF
FFF4
FFF6
FFF6
0001
0002
FFFD
FFF8
0009
0006
0000
0003
FFF1
0011
FFED
0003
FFF6
0008
FFF3
FFF3
FFF7
000B
0005
0002
000B
0004
0000
FFE9
FFF7
0000
0008
0014
000E
FFF5
0001
FFF9
0004
0000
0018
000C
FFF0
FFF0
FFFA
0000
FFEA
FFFF
000D
000B
FFF7
0000
000F
FFF6
FFFA
0007
FFF6
0004
0000
0003
0003
FFF9
FFF2
000D
FFE8
FFFA
0003
000E
FFF7
FFEB
FFF5
0013
0015
000B
FFFA
FFFA
FFFB
0011
FFF5
000A
0000
FFF2
0013
FFF4
FFF4
000D
000C
000D
FFFE
0001
FFF5
0009
0014
0004
0006
FFEC
FFFF
0010
0004
0001
0008
FFFA
FFE7
FFF3
0000
FFF7
0006
FFEE
0004
FFFB
0006
0011
0007
0008
FFFC
FFFD
FFFF
FFFD
000D
0008
FFF1
0012
FFF7
000C
0000
FFF9
0009
0006
FFED
FFEC
000E
FFFD
0004
FFF8
0001
FFF9
000F
0005
0005
FFF8
FFF5
FFED
000C
0009
0002
000F
0005
FFF8
FFF6
0006
FFF2
0005
0011
0009
0004
0008
FFFB
FFF6
FFFA
FFF7
FFFA
FFF2
0003
0009
000A
0007
0008
FFFE
FFF0
000C
FFEC
FFF0
FFF9
FFF8
0007
FFF0
0004
000D
0007
000C
FFF4
FFFF
FFEC
FFFC
FFF3
FFFF
0002
0006
FFFA
FFF7
FFF9
FFF6
0004
0017
0010
000A
0007
0015
0001
0019
0013
0002
0007
0010
0010
FFF8
FFEB
000F
000D
0001
FFEB
FFF3
0002
FFF6
0006
0014
FFEE
000A
000F
FFF8
0017
FFF6
0008
FFED
0007
0002
FFFA
0002
FFFE
000E
FFE7
000B
FFF3
0003
0011
0001
FFEA
FFED
FFFF
000F
FFFE
0001
FFFB
0007
FFF4
0009
0004
0005
FFFD
0007
000E
0004
FFFC
FFF2
FFFA
FFF5
000F
FFF3
FFFA
000F
FFFB
000C
0000
0005
FFFA
FFEF
000C
FFF1
FFEF
FFF7
FFFA
0008
FFFD
FFFE
FFFC
FFF6
0006
0012
0009
000A
FFF7
000D
FFF1
000F
FFF7
FFF9
0004
FFF9
FFF5
0007
FFEE
0012
0003
0007
0003
0008
FFFE
0002
0005
0018
FFF2
000C
000B
FFFB
0010
0004
FFFB
0000
FFF6
FFF0
FFF4
FFF0
0019
0000
FFFA
0002
FFF0
000D
0003
0001
FFFD
FFEC
0006
0005
FFFD
FFFF
FFF0
000A
FFF2
0001
0019
FFF9
000C
FFFF
0002
FFFE
FFEB
FFEE
FFFC
FFF5
FFFD
FFFB
FFF0
FFF9
FFED
0000
0019
FFFC
000A
0004
FFFB
0007
FFF2
FFF7
FFFB
0003
FFF2
0001
0003
FFED
0003
000B
FFFC
FFF9
FFFF
FFFF
0006
0006
FFFA
FFFD
0002
000C
0005
FFF9
000F
FFEA
0008
0000
FFFB
0017
FFF5
0006
000A
000F
FFFA
0008
FFEA
FFFC
FFFF
FFFD
0005
FFFE
0004
0000
FFFD
FFFB
000A
0003
FFF7
0013
0005
0004
0003
FFFE
0008
FFF2
000D
FFFC
0012
FFEC
FFF5
FFF7
0005
FFF3
000F
0003
0001
0007
FFFE
FFF9
FFF9
FFF8
000A
000A
0005
FFF9
0003
0016
FFF8
FFFA
000E
FFF6
FFFC
FFFA
000F
0000
0001
FFF9
0002
FFF6
0001
FFFC
000B
FFF6
0009
000D
FFFA
FFF3
0013
FFF3
000B
FFF9
0005
0001
FFED
0009
FFF6
FFF9
0017
000D
0002
FFF2
FFF5
FFFC
0001
FFFD
0002
0002
FFFD
FFFC
FFE7
0007
FFF6
0011
0000
0008
000B
FFF9
0018
0002
0001
0005
FFF9
000C
FFFF
FFFF
0008
0009
FFEC
FFFC
FFFE
FFF7
FFFE
FFF5
FFEB
FFEB
FFF7
0002
FFFB
000B
FFFC
FFFF
0004
0006
FFFE
FFED
FFFF
FFEE
FFF5
FFFC
0001
FFFC
FFF9
0004
FFF9
FFF0
0002
FFE8
000E
FFEA
0006
0004
000F
FFFC
000D
FFF2
0007
FFE8
0004
FFF1
FFF1
FFFC
FFFB
0004
FFEC
000D
FFF2
FFF5
0005
0010
FFFC
FFF3
FFF2
0008
FFF8
FFEF
000A
FFF9
000D
0003
000C
FFF2
FFF3
000C
FFFA
FFFE
FFF6
FFFF
FFED
0003
FFF7
FFFF
0006
FFF0
FFFE
FFFB
FFEA
FFF8
FFFA
0001
0005
0008
FFFD
0015
FFFB
0007
000B
FFF9
000E
0019
0014
FFFC
FFFA
FFFF
FFF4
FFE7
FFFA
000F
FFFF
0009
0005
0005
0001
0005
0006
FFFC
0003
FFFA
000F
0004
0003
0003
FFFE
0003
0012
000B
0009
FFF2
FFEE
0001
FFF2
0007
FFF2
FFF5
FFFD
FFF2
FFEE
000A
FFE9
FFFC
0010
FFEF
0005
FFFE
000D
FFF8
FFF4
0009
0000
0011
FFF0
0000
FFF0
FFF3
0001
FFFF
FFEE
FFFC
FFFB
FFFA
FFF6
0003
FFF5
FFFD
FFF1
FFF8
FFFC
FFF3
FFF3
000C
FFF2
0005
FFFA
0011
0013
FFF3
0007
FFF4
FFFD
FFFB
0006
0017
0010
FFF1
FFFA
FFFB
FFEB
0007
0008
FFFF
0002
FFEE
000A
0005
0007
0013
FFF3
0003
FFFF
FFFA
0008
FFED
0013
FFF0
0001
0004
0015
FFFD
0011
0008
FFF9
0006
000B
0004
0004
000E
0016
0009
FFF7
FFE9
000C
FFF6
FFE8
000A
0010
0004
000D
000C
FFFE
000A
0003
FFFB
0008
0013
0000
FFFD
FFEF
0006
000B
0008
FFF8
FFF0
0009
FFFF
0008
0001
000B
000E
FFF7
000C
FFFC
FFFE
000B
0006
FFFD
FFF4
FFFF
FFFA
0009
FFFF
FFF7
FFF3
FFEC
FFFF
0002
FFE7
000C
0012
FFFB
0005
0011
000E
0000
0010
0007
0003
0019
FFFD
0016
FFFE
000A
0006
0001
000F
0002
0006
FFF5
0004
FFF7
0009
FFFF
FFFE
0004
FFEC
FFF5
0001
FFF0
FFEA
FFFC
FFE7
000F
0004
0011
0006
0003
FFF8
0010
FFFD
0007
0019
0005
FFEA
0007
FFEE
FFFB
000F
FFE9
FFF4
FFFA
0009
0014
0009
0016
0001
0000
000A
FFFB
0014
FFFD
000D
000E
FFFA
FFF8
FFFA
FFF4
FFF2
0004
0008
FFF5
FFFE
FFFC
FFF6
0006
000C
0004
000D
0007
000C
FFFC
FFE9
0007
0006
0019
FFEE
0001
0000
FFFB
0012
0013
000C
000A
0017
FFFD
0000
FFEA
0008
FFF2
0018
0010
FFEA
0007
0000
FFFF
0001
FFFC
FFFE
FFF2
FFFA
FFFB
0015
0016
FFF9
0001
FFFC
FFEB
0002
0000
000C
FFFC
FFFB
0007
FFFE
0007
0003
0000
0010
FFFC
000D
FFFD
000B
FFF8
FFF3
000C
0013
FFF9
0001
FFEF
0007
0005
0004
0009
0002
000F
0006
0018
0000
FFFF
0006
0009
0013
FFFC
FFF6
0001
000B
FFF4
FFFE
0005
0002
0008
FFFE
0003
FFF1
FFF5
FFEC
FFF3
FFF8
FFF4
FFFC
FFF4
FFFA
0016
FFF2
000A
0004
0001
FFFD
FFFF
FFE7
0013
FFFC
000F
FFFA
FFF0
FFFE
0010
0006
FFFC
FFF8
FFF6
FFEA
000F
000C
0001
FFF9
0006
000A
FFF7
0008
0003
0009
FFFF
000F
FFF4
FFFF
0002
FFFF
FFF5
FFF7
000A
FFEF
FFF4
FFF5
0008
0001
0007
000E
0005
FFFF
0009
0018
0006
FFEF
0001
000D
000B
FFE9
0005
000E
FFEE
FFF4
FFF7
000B
FFFB
FFFE
0011
FFF4
FFF4
FFFE
FFF0
0011
0003
FFF5
FFEF
0004
0005
0000
000F
FFFD
0001
000A
0010
0014
000E
FFFC
0001
0003
FFF6
000D
FFEF
FFF3
0004
FFFC
FFFF
0011
000D
0008
0007
FFF8
0000
FFF4
0000
FFEF
FFFE
FFFB
FFF6
0007
FFFD
FFF4
FFEF
FFFE
FFFB
0015
0000
FFFD
FFF6
FFFB
FFFA
FFFC
FFFF
000C
000A
0000
000A
FFF8
0011
FFF5
0007
FFFF
FFF8
FFEA
0005
0017
0000
FFFE
0004
FFF2
000E
000F
0000
0003
0003
0004
FFFD
0010
0010
FFFB
000B
0010
0018
FFF4
0013
FFF6
0017
0018
FFF2
FFF3
0004
FFE7
FFE8
FFFC
0000
000B
000F
0007
0013
FFFA
FFF1
0000
FFF6
0007
0000
FFE9
FFF8
0000
0003
0017
0008
FFFD
FFF1
FFE7
0005
FFF3
0013
0000
FFF5
FFEF
FFFA
0018
000F
0002
0012
0002
FFFE
FFF3
FFFA
0001
FFFE
0016
FFFC
0011
0009
FFF5
000B
FFFB
FFFC
0005
0008
0002
FFEB
FFF0
0004
0008
000B
FFEB
0005
0017
FFFC
0004
000E
0012
0019
FFEE
0006
0006
0016
FFFB
000A
FFFB
0014
FFEE
FFF1
0012
0006
FFF4
FFF9
000A
FFFB
000C
FFF8
FFFB
0008
FFFE
0006
FFF2
000A
FFEE
000F
FFF7
FFF9
FFF1
0010
FFFC
FFF7
FFED
FFFC
FFF3
0012
0003
FFFC
FFFC
000C
0008
0009
000F
FFFA
0007
FFFD
000C
000C
FFF9
0000
0011
0019
FFFC
000D
FFFB
FFF8
000B
0011
0009
FFF5
FFFD
FFFB
FFF1
FFF1
0006
FFFE
FFFF
0004
FFF3
FFF2
0001
FFF9
000B
0004
FFFA
FFF8
0008
0004
0005
FFF9
0006
FFF7
000B
FFF9
0009
FFF7
FFF0
FFFA
FFF6
0004
0003
000A
FFE9
FFFF
0004
FFF1
FFFD
FFF0
0000
FFF5
FFFE
FFF1
0000
0000
000A
FFFA
000E
FFFF
FFFE
FFF5
FFF6
0000
0007
0003
0003
0006
0012
FFF2
FFFF
0004
FFF3
0002
FFE9
0005
FFF0
FFF5
FFFC
000A
000B
FFF7
0007
FFF0
FFEA
FFFA
FFF9
FFFD
FFF1
0014
FFEE
FFE9
000F
FFF7
0006
0005
0004
FFEE
FFFD
FFF7
0005
FFF3
FFFC
FFFD
FFF3
0003
FFEF
FFE8
0019
0000
FFFE
000A
FFFA
0011
FFEB
FFF3
000C
000A
FFEB
0002
0004
0004
0000
0003
FFFE
0001
0002
FFFE
000C
FFEE
000F
FFF4
0000
FFFE
FFFC
000B
FFF1
FFFF
FFEC
FFF1
0000
FFFD
FFFF
0005
0003
0011
FFFA
0006
0015
0018
0005
0000
FFFB
0004
FFFF
000A
FFEB
FFF5
000A
0004
FFE8
0006
FFFF
FFFC
0003
000B
0010
0005
FFF9
0016
FFEA
0004
FFF9
0002
FFFD
0007
0006
FFF3
FFF8
FFFF
0017
0007
0002
0004
0003
FFFC
0004
0006
0001
0004
FFFE
0012
FFEC
000C
FFFC
0013
0004
0001
000A
0015
FFFA
000A
0004
FFFE
FFF8
0003
0009
000F
000A
0005
0006
0011
0009
0017
000C
FFF4
FFF7
0013
0007
FFFA
0008
000D
0005
0013
0004
0011
0009
0001
FFF7
FFED
FFF4
0004
0003
0010
0009
FFF8
0000
0005
FFF8
0006
FFFD
FFFE
0005
000C
FFF0
FFF4
0002
FFF7
FFF1
FFEF
FFE7
FFEF
0014
0003
FFEE
0011
FFF7
FFEF
000D
FFFC
000C
000D
FFF1
000C
0007
000C
0001
FFFB
FFF5
0003
FFFB
FFF8
FFFD
000E
0000
0011
0005
0001
FFFD
000E
FFF8
FFF7
000F
FFED
FFEE
FFE9
FFE9
0009
0002
000A
0014
0006
0002
FFFC
FFF7
FFEE
FFF0
FFFE
0013
0005
FFF6
000D
000A
FFFF
FFF6
000A
0009
FFF5
FFEC
FFF3
FFF6
000B
0010
0012
0014
0010
FFEE
FFEB
0000
FFFE
0005
FFFC
0000
FFF3
FFFE
0005
0002
FFFD
0007
0017
FFF7
FFF3
FFFF
0019
0015
FFF8
FFFC
0004
000A
FFFC
FFF8
FFF0
000A
0005
0000
FFEF
FFFE
FFEF
000E
FFF7
FFFF
0016
000C
FFF5
FFEE
FFFA
FFF5
FFFB
0007
FFF5
FFEE
FFFA
FFF0
0009
0007
0015
0003
FFFB
0001
0001
FFF8
0009
0004
0003
FFFC
0000
0009
FFEA
000B
0007
0013
0011
FFEB
0019
FFFE
FFE9
FFEE
0002
0008
FFF0
0007
FFFE
0016
FFF9
FFFF
FFFE
FFEF
0002
0008
FFFF
FFFB
000E
000A
0004
0004
FFFA
0004
FFF4
0009
FFFE
0000
FFFF
FFF9
0017
0015
FFF6
0003
FFED
FFFF
000B
FFF0
0005
FFEA
FFFA
0003
FFF8
0010
FFFC
FFFB
FFFC
FFF6
FFE7
FFFD
0011
0009
0003
0002
0000
FFF9
0011
0006
000C
000A
0002
0001
FFFE
FFFF
0005
FFE8
FFF4
FFFA
0003
0008
0001
FFF2
0019
000F
FFF4
0007
FFEF
FFE9
FFFE
0014
000A
0007
000B
FFF4
000C
FFFF
FFF6
FFF8
FFFA
000D
0006
000E
0003
FFF5
FFFF
0002
FFFD
FFFD
0002
FFF9
0001
FFFD
0007
000D
0007
FFF5
0003
000D
0002
FFF0
0009
0008
FFED
000E
FFF2
FFEA
0000
FFF4
FFF0
0003
FFF4
0003
FFEC
000B
0004
000A
0006
0003
000E
FFED
0001
000A
0000
000D
FFF7
FFFB
0003
FFF5
0004
FFFF
FFF1
0013
0012
FFF9
FFF9
0010
FFF6
0003
FFF1
000D
0006
0001
FFE9
000A
FFEB
0015
FFFA
0000
0000
0002
0002
0014
000C
FFF8
FFF6
FFF5
0007
0010
0008
0001
FFFC
0010
0007
0005
0000
FFFC
FFFB
FFEA
FFF6
0010
FFEC
0016
FFFF
0000
0000
0015
FFFA
FFFF
FFF1
0003
0001
FFF5
FFFF
FFFD
FFED
FFFE
FFF4
FFFE
0004
0004
FFF0
0008
0005
FFF8
000C
000F
FFF2
FFFF
FFF5
0014
FFE9
FFF5
FFF0
0008
0004
FFFB
0002
0006
FFFE
0004
0004
000B
FFFF
FFF7
FFFA
0007
0003
000C
0006
000C
FFEC
0005
FFEE
FFFE
FFF1
FFE7
FFED
0017
FFF0
0017
000B
0018
FFF9
FFF7
0012
FFF9
FFF8
FFEB
FFEF
0003
0000
0002
0003
000A
FFF9
FFF9
0007
000A
FFF6
FFEF
FFEB
FFFF
FFF9
FFF0
0002
FFF5
FFF5
FFFA
0008
FFF5
FFFA
0001
0007
000B
FFFC
000E
000C
0001
FFF1
FFF2
0003
0007
FFF1
FFF8
FFFF
0001
FFFE
FFF0
FFFD
FFFC
000E
000C
FFFB
FFED
FFF9
FFFF
000A
FFFC
FFFB
FFF9
FFFD
FFF9
FFFA
FFEA
0005
FFF4
0010
0000
FFF0
0008
FFED
FFEC
0018
0000
0008
FFFF
000F
FFF9
0002
0000
000F
000C
FFFF
FFF5
0003
FFFB
0005
0002
000A
0009
0000
FFEA
000B
000E
FFF0
FFF8
0010
FFF6
0000
FFF7
FFF8
FFF7
0000
0002
0002
FFF8
0019
0013
0001
0003
FFFC
FFF4
FFFF
0016
0007
FFFC
000B
0009
000E
FFFD
0010
FFFF
0009
FFFA
FFF1
0005
FFED
FFF1
FFF1
000E
0001
FFF8
FFF1
0010
0009
FFFA
000C
0001
FFF7
FFFA
0004
0007
FFFD
0003
FFF5
FFFD
0012
0008
FFFF
0007
0002
0002
FFF3
FFF6
0004
FFFE
FFED
FFF0
FFF7
FFE8
0008
0004
0008
0002
FFFD
0005
000B
0006
000A
0003
FFF1
0010
FFFF
FFFF
FFFC
0005
0010
0003
FFFC
0011
FFF6
FFEE
FFF6
FFF0
0008
0008
0002
0002
0004
0002
000F
0016
FFFE
0009
0014
0010
FFF4
FFFF
0001
FFF7
FFF5
FFEF
0008
0008
FFFB
000A
0010
FFFD
FFF6
000C
0005
0012
0013
FFF1
0005
0004
000B
FFFD
0008
FFF8
FFF3
0010
0000
FFF3
0002
0009
0013
000C
0002
000F
FFFE
000E
000A
FFFD
0001
FFFF
0016
0009
FFF3
FFFF
FFFB
FFF7
FFFD
0004
0013
FFEA
0011
0000
FFFB
0002
0008
0004
FFED
0003
FFFD
0008
0005
FFFC
FFEE
0015
0015
FFF3
0003
FFFE
0002
FFF0
0010
000B
FFF0
0009
FFF6
0000
0003
FFFE
FFEE
0003
FFF5
FFFD
FFF8
0013
FFFC
000A
FFF9
000C
FFFF
0006
0016
FFED
FFE9
FFF5
0004
FFEC
0017
0005
000B
0003
FFF9
FFFC
FFF3
FFF1
0004
000F
0002
0000
FFFC
0011
FFFF
FFED
FFF6
FFFF
0003
000F
FFE9
0001
0001
FFF6
FFEC
0007
FFFD
000B
0003
0004
0002
0004
000C
FFEC
000F
FFFB
FFFE
FFF7
FFF9
FFF3
FFF3
FFF0
0000
000A
0010
FFFF
0001
FFF8
FFF7
000D
000C
0001
FFF2
0000
FFFA
0009
FFF4
FFE8
0008
FFF9
0003
FFF7
0019
000B
FFEB
0010
0002
FFF9
0001
FFFB
000E
0009
0004
FFE8
000E
0004
FFFB
FFF7
0005
FFFD
FFFA
FFEF
0007
0000
FFF8
0006
FFFE
FFF7
FFFA
FFED
0011
0006
0008
FFF9
000E
FFF6
FFF6
FFEE
0003
FFF8
FFF5
FFF5
0006
0002
000B
FFF9
0010
0002
FFF3
FFEE
FFF6
000F
FFF5
FFFB
0010
FFF9
FFFA
FFFF
000C
FFFA
0012
0009
000F
FFF7
0010
0000
001A
FFF4
FFFD
FFFA
FFFC
FFFB
FFEF
FFFC
0013
0003
0008
FFF9
FFFD
FFFC
FFFF
0001
FFF8
FFFD
FFFF
0003
FFFE
FFEF
0012
0011
0012
FFFC
000E
0004
0005
FFF4
000A
0002
000B
0001
FFFB
FFEF
0017
0013
000A
0000
0016
0008
FFF0
FFEE
0006
000E
FFF2
FFFC
FFF9
000B
FFED
0007
FFF7
0006
0004
FFFE
FFFF
FFFA
FFFB
0003
0012
0001
FFFE
FFFB
FFFE
FFF0
FFF2
0009
FFFC
FFF3
0003
000E
000C
FFF8
0010
0007
000A
FFFD
FFFF
0001
000B
0009
0004
FFF7
FFF5
FFF8
000A
0003
000F
0018
0001
000D
FFEF
0002
000A
0008
FFF3
0000
0006
0009
000A
FFFB
FFFB
FFEE
FFF6
FFFF
0005
0005
000E
0006
FFF2
0007
000C
001A
0004
000C
FFFB
0003
0002
FFFD
0001
FFF6
0009
000A
000D
FFF8
FFF8
FFF9
FFF9
0006
000A
FFFE
FFED
0006
FFFB
0009
0009
FFFE
0015
FFF5
FFFF
FFFB
FFF0
FFF6
FFFC
000F
FFE9
FFFF
0003
FFFD
FFEF
FFF1
0015
0009
FFFB
000C
0007
0011
FFEF
0004
FFF2
0017
000B
000A
FFFF
0017
0014
0006
000F
FFFB
0005
000A
0014
0005
0017
000E
000D
FFFD
FFF3
000C
0012
0003
FFFF
0000
000F
FFFD
FFF6
0005
0016
FFF1
0008
000A
FFFB
FFE9
0008
0008
0001
FFF9
FFF5
0011
FFFB
000E
0004
0006
0003
FFF8
FFF6
FFFB
FFFA
FFFF
000D
FFF0
FFFA
000D
0002
FFFA
FFFE
FFED
0006
FFFB
FFF7
FFF8
000E
FFFA
0000
000E
0010
0008
0000
0002
FFFE
0005
FFF7
FFF3
FFFA
0013
0013
000A
0001
0000
0009
FFF0
0004
0012
000C
000C
0004
FFE9
0000
FFF7
FFFF
FFFB
0007
FFFD
0001
FFF6
FFE7
0005
000C
000A
0002
FFF6
FFF7
0005
000B
0017
0003
FFFB
000F
000B
FFF9
FFE9
FFEF
0008
FFF3
0006
FFFC
FFF8
0006
0005
FFF8
0012
FFFD
FFFB
FFF0
000D
0007
FFF5
FFFD
FFFB
0009
000F
0002
0001
0001
0009
FFEB
0004
FFFB
FFFC
0006
0005
FFFE
0004
0006
FFF1
0004
FFF0
FFEB
FFF8
0005
000D
0004
0005
0010
FFF5
FFFA
0005
FFF4
0014
0011
FFF3
FFF5
FFE8
FFFB
0012
0008
FFFD
0009
000F
0007
FFEF
FFF2
FFF3
FFFF
0011
FFF7
000B
0017
FFF5
0007
0014
0004
0001
FFF8
FFFA
0004
0005
FFF1
FFFD
FFFF
000F
FFFB
0012
FFFA
FFFF
0006
FFF4
FFF7
FFF9
0002
0007
FFF9
0004
0005
FFFD
FFF8
0002
FFFB
000B
FFF7
FFF1
FFF6
0009
FFFD
FFF5
0003
FFFF
0001
FFF0
0007
FFF8
FFF9
000C
0007
000F
FFF7
FFEB
0006
FFFC
FFF7
FFF5
000A
FFFA
0007
FFFF
0013
0001
0008
FFFB
FFFD
FFFD
0007
FFEF
0004
0016
FFF8
000E
000B
FFFC
0004
000A
FFF9
FFFA
0018
0004
FFFC
FFF9
0006
0011
FFFE
000A
FFF0
0005
0018
FFF8
FFF7
FFF4
FFFD
FFFE
0001
0014
0005
FFED
0000
000F
000C
FFEE
FFF4
0002
0006
FFF6
000A
0002
0009
FFF7
0011
0006
0018
FFF9
FFE9
FFFB
FFFE
FFFC
FFF0
FFF4
0011
000F
FFF2
0011
000A
FFFE
000A
0002
0005
FFE9
000D
0000
0000
FFFE
FFF3
FFFC
0008
FFF5
000E
FFF7
0007
FFFE
FFFF
FFE8
0007
FFEC
FFF0
FFFA
000E
FFEE
FFF7
0013
FFFC
000C
FFF4
000B
FFFF
FFF5
FFF5
000A
FFEE
0001
FFEC
FFFF
FFFA
0005
000E
0005
FFFB
0006
0008
0001
FFF5
FFEE
FFFC
FFF5
0014
FFFF
FFFE
FFF2
0006
FFEB
0001
FFF8
FFF4
FFF7
FFFC
000C
000B
000D
FFFF
0000
FFF9
FFF4
0000
0004
0005
000A
0006
FFF0
FFEE
0008
0001
0008
0003
FFFB
FFF2
0006
0000
0011
0000
0002
0005
000A
0001
000E
0000
FFFF
000B
FFEC
FFFF
0018
0002
FFF1
0009
FFF7
FFF1
0009
0008
0001
000E
FFF3
0005
FFFD
0000
0004
FFF6
000A
FFE8
FFFB
000D
FFF2
FFED
FFF1
FFFA
0009
FFFF
FFFD
FFFD
FFF2
FFED
0004
FFF2
0002
0016
0004
0006
0009
0004
FFF2
0007
FFF6
0000
0003
FFFE
FFEA
FFFB
000E
FFF4
FFFE
0009
0008
FFF9
0010
0009
FFF8
FFFE
000E
0000
FFF4
0005
0003
0003
FFEA
000C
0014
FFFF
FFF5
0009
FFFF
0011
0002
FFFA
FFF4
FFFC
FFEA
FFFD
FFEE
FFF5
FFF5
FFF6
FFF8
FFF0
0004
FFE8
FFE9
FFF4
0018
FFFB
000C
0001
FFFF
0003
FFE8
0016
FFF2
FFFE
0010
FFF5
FFF0
0001
0007
0007
000C
0009
0012
0012
0009
0002
FFFE
FFFB
0003
0005
0003
0003
FFFF
0004
000A
0006
000D
0004
0015
FFEC
FFFB
FFF1
0006
0000
0004
000E
FFF1
0012
FFFF
FFEA
0000
0007
0002
0008
000D
FFEE
0003
FFED
FFF9
FFE9
FFFD
000C
FFF3
000B
FFF7
0012
FFFB
0005
FFEC
0006
0006
FFFF
FFFF
001A
0011
0005
FFFB
0004
0003
FFFB
FFFE
FFFF
000D
0008
000F
FFFD
FFF4
FFFC
0017
FFFC
000E
0007
000A
FFF2
0000
000C
FFF2
FFE8
000D
0003
000D
FFFB
000A
0003
0002
FFF8
FFFF
0006
0006
0000
0004
000C
FFFA
FFF4
FFFE
0000
FFF9
0008
FFFC
FFF9
FFFE
FFF6
0010
FFEA
0006
FFFA
0008
FFF2
000A
FFFB
000D
FFF7
FFEF
0000
0006
0011
0002
FFF8
FFE7
000C
FFF7
0007
FFF2
FFF5
000E
FFF3
FFE7
FFF9
000D
0005
0002
FFF0
FFF9
000F
0001
FFF9
FFF9
000B
0004
0004
0007
FFF9
000B
000A
0000
FFF8
000C
FFF5
FFF5
FFEA
0000
000B
FFEF
FFEC
0009
FFF9
0004
FFE8
000B
0014
000B
FFF2
0006
FFF2
FFFB
FFF9
0001
FFFF
FFF6
0014
0008
FFFF
FFED
FFFB
FFFF
0008
FFF6
FFF6
FFE8
FFFC
FFED
0001
FFF9
0005
0006
0002
0002
FFFB
0007
FFF9
FFFA
FFF9
FFF9
FFFE
0009
0004
0015
0007
FFF0
0013
FFF7
0000
FFFC
000C
FFFD
FFF5
0008
0016
FFEA
FFF5
0007
0006
FFFA
0003
0005
FFF7
0003
FFF0
FFF8
FFF2
0011
FFF0
FFF8
FFF8
0001
000B
FFF6
FFF3
0007
FFFD
000C
FFEF
000D
0010
FFF9
FFF8
FFFD
000B
0000
000B
FFE8
000D
FFF7
FFF2
FFF3
0011
0016
FFFD
FFF9
000D
0011
0001
FFF1
0012
FFFA
000F
0000
FFEC
FFEB
FFFC
0000
0008
FFF9
0013
FFFB
FFFA
FFFC
000B
FFED
FFF2
FFEE
FFFE
000D
0002
000E
FFFB
0012
0000
000F
FFF2
FFFC
0003
0008
000A
0010
0008
FFE9
0005
000E
0005
0005
FFFB
FFFA
0018
FFFC
0007
0007
FFFA
FFFA
0001
0014
000F
FFF4
FFF6
FFFA
FFFB
FFF2
FFFA
0006
FFF4
FFEE
FFF4
0005
FFFB
FFF1
FFF6
0005
FFF1
FFF6
FFF9
FFFC
FFF4
FFFE
0011
0002
FFF6
FFF8
0001
0001
FFF5
0006
FFEA
000C
FFF5
0004
0009
FFFD
FFE9
FFFD
FFE9
000B
FFF7
0006
FFF8
FFF6
0013
0000
FFFD
0013
0008
0009
FFEF
0008
FFF8
FFFF
FFEE
0004
FFFA
000E
0003
FFFE
FFF5
FFFB
0006
0003
0002
FFF6
0001
FFFF
000D
0003
FFFA
0001
000C
FFF6
FFF7
FFEF
FFF9
0007
000A
0004
000E
0006
FFFB
FFEC
FFF2
0004
0001
FFFA
FFE8
FFF4
FFF5
0005
000C
FFF7
FFFC
000F
FFE9
0003
0001
0010
0007
FFF8
FFF1
FFEE
FFF8
FFF3
FFFD
FFF1
FFF2
FFE7
FFFF
FFFE
FFF5
0013
FFFE
FFF9
FFE7
0001
0018
000B
FFEB
0000
FFFA
FFF8
0000
FFF6
FFEC
FFFE
FFF8
FFFC
0004
000A
FFFF
0000
0010
FFFD
FFF4
FFF5
FFED
FFF4
0000
FFFB
0016
FFFC
0005
FFF4
FFF3
FFEB
000F
0006
0008
FFF9
0007
0008
0007
FFEC
0012
0010
0009
0005
FFEE
FFEF
0004
FFE9
FFF5
FFFD
0007
0008
FFF4
0010
0004
0003
000E
0004
FFF2
0004
0018
0005
0009
FFF7
FFF4
FFF6
FFFD
000F
FFE9
0001
000B
FFFC
0008
0000
000D
0000
FFFA
0019
0008
FFEE
0015
FFF1
FFF3
FFF2
000F
0004
0007
000A
0011
0003
FFF2
0006
FFFF
FFED
FFFE
000C
FFF4
FFF3
FFFF
FFF4
FFF9
FFF8
0015
0012
0004
FFFB
000F
0010
0011
0000
0012
0000
FFFF
FFFA
FFF6
FFF6
FFFB
FFFE
FFE7
000F
FFFC
0004
0006
0006
0004
0007
FFF9
0004
0012
0004
0007
FFFB
000E
000E
FFF6
FFEB
0007
FFF3
0008
0009
0001
0012
FFF2
0000
0009
FFF6
FFFA
FFF3
0004
FFFF
0012
0009
000E
FFFD
0006
0006
0002
0019
FFE7
0002
FFEA
FFF1
FFF3
0003
0002
0006
FFEB
0009
0012
FFFA
FFF2
FFF1
0006
0000
FFFA
FFFB
0000
0012
FFFE
FFF2
0007
FFF4
FFFB
0007
0000
0009
0005
FFFB
0009
FFFC
FFF5
FFF4
FFFB
FFFF
FFF5
0002
000B
0005
0015
0002
0007
0003
0002
FFFF
0009
0009
0004
0007
0003
000A
0011
000D
FFF3
FFF2
FFFF
000C
FFF5
FFF1
FFF6
FFED
000F
FFEB
0002
0015
FFFF
FFEB
FFEA
FFFC
FFF4
000F
0004
FFFD
0016
FFF8
0001
0015
000B
FFF6
0003
FFEE
0004
0007
FFF0
0013
0004
FFF7
FFF1
FFF2
0013
0002
FFFC
FFFE
FFF1
FFF7
FFF1
000D
000F
FFED
0004
FFFF
FFF0
FFFF
FFFF
FFF4
FFFD
FFF3
FFE8
FFF9
FFFD
FFFF
FFF3
FFF5
FFEE
FFFD
FFF5
000A
FFF9
0009
0010
0006
0001
FFFD
FFF8
FFF7
000C
0011
FFFD
FFF5
0002
000D
000A
000E
000C
FFFC
0000
FFE8
FFF8
0006
0003
0002
0007
000E
0007
FFEE
FFFE
000F
FFFC
FFFD
0008
FFFB
FFEF
FFF5
0002
FFF8
FFFD
0000
FFF6
FFFE
FFF4
FFFA
0002
0008
0000
FFF0
FFF6
FFFC
0008
0007
0008
0000
0004
FFF2
FFF8
FFFF
000C
0002
FFFC
FFF4
0000
0004
0002
0007
FFF4
0006
000B
000C
FFF5
FFF7
0001
0001
0005
FFF4
FFF5
FFF9
FFFC
FFF6
0004
FFF8
0003
000F
000C
0001
FFFD
FFF1
0013
0011
0002
0010
FFEA
0002
0004
FFFE
0012
0001
FFF1
FFF7
0001
FFFA
0002
000D
FFF6
FFEF
0016
0003
FFF3
FFFA
000A
000A
FFEB
0008
0012
FFFD
FFF0
FFFE
0007
FFFC
FFED
FFF1
FFF6
0006
0001
FFF6
FFFB
FFF8
000C
FFF7
000E
0005
FFEE
FFFE
FFF3
FFF3
0001
000E
0007
FFFE
FFFB
FFF9
0003
FFFC
FFF2
FFFC
0004
FFF2
000E
FFFA
FFFB
FFF1
0003
FFF5
FFF7
000B
FFEF
0000
0013
0005
0001
0014
0010
0005
000B
0010
000F
FFFF
0008
FFF9
0001
FFFB
0005
FFFD
FFF0
0005
FFFE
0008
FFF2
0000
FFEF
0002
FFFF
0000
FFF9
0006
0012
FFF8
FFF5
FFFC
0015
0000
0002
0012
0002
FFFD
0005
0005
000C
0008
FFFC
0007
0007
0007
000E
0007
FFE9
0010
FFF1
FFFE
FFF2
FFFC
0004
FFF9
FFFE
0016
0006
FFFD
0007
FFEB
0004
FFF8
0006
FFF9
0006
FFFE
0000
FFFF
0007
FFEF
FFF6
0003
0014
FFFD
0003
FFFF
000E
FFF4
0004
000F
FFF7
0004
FFFF
FFFE
0015
FFF2
FFF9
0005
FFFB
0007
0001
0007
FFF0
FFEE
0001
FFF1
0013
FFF3
0007
FFF8
FFF2
0013
0000
FFFC
000E
0012
0008
FFEF
0005
0019
0000
0003
0015
000E
0004
0008
FFF0
000A
0013
FFFC
FFFF
FFF6
FFFC
FFEB
FFFC
000D
0002
FFF4
000C
0006
FFF8
FFFC
0011
FFEE
FFF5
0003
FFE9
0002
000C
FFFC
FFF8
FFE8
0000
FFF5
0008
FFFE
0019
000C
0006
0008
0014
0006
0007
0018
000A
0008
FFF9
FFE9
FFF5
0003
FFFE
FFEA
000F
FFFD
0017
FFFD
FFFB
FFF5
0017
0007
FFFA
FFFB
FFF4
FFFE
000A
0003
FFFB
0008
FFFA
FFFA
0016
0005
0005
FFFE
FFFD
0006
FFFF
0002
000D
0017
0004
FFF9
FFF9
FFF8
0006
0009
FFF8
000F
FFFC
0003
000F
FFFD
0004
FFF9
0002
0008
FFFA
FFFC
FFF0
0002
0000
0006
FFFE
000E
FFFA
FFF1
FFF0
FFF9
0001
FFFB
FFFB
FFF3
0017
FFF3
0000
0007
0009
000E
FFFF
0012
FFEB
0005
0015
000F
FFFF
FFF7
FFEF
FFEF
0010
FFFE
FFED
FFFD
000F
000C
FFEE
FFFC
000A
0006
0000
0008
FFED
FFFB
0005
000C
0005
FFEB
FFF9
FFF0
0003
FFF8
FFFF
FFF2
0008
0009
000E
FFFF
000A
0007
FFF7
FFF9
0006
FFF7
FFF8
0007
000E
FFFB
0004
0017
FFF2
FFF0
FFFF
0005
FFF2
FFF8
0004
FFEF
0005
FFF0
0007
0004
000E
0000
0009
0006
0004
0002
000B
0013
0013
000B
000B
0002
0008
0003
FFFF
FFFC
0008
000C
0000
FFFD
FFF8
FFFD
0007
0000
FFFB
FFF1
FFFF
FFFA
FFF8
FFFD
FFF7
0008
0002
0004
000A
000D
FFF7
FFFD
000E
0001
FFFA
000C
0005
0010
0000
000F
0005
FFF8
0001
FFFC
FFFC
FFFB
0001
000F
FFF8
FFFD
FFEE
FFFF
FFF7
FFFD
0008
FFF2
FFFA
FFF8
0018
FFF2
FFF9
0017
FFFA
0017
000E
FFF2
0011
0015
0013
FFFA
FFFE
0000
0004
0004
FFFC
FFF7
FFF5
FFFD
FFF3
0003
FFF1
0008
0005
0008
0004
FFFC
FFF7
0006
FFFE
FFF3
0009
0011
0000
0002
FFF1
FFF0
0007
0014
0002
FFF7
FFEA
FFFD
FFFB
FFFB
0003
FFEE
000E
0006
FFE7
0013
FFFC
FFF9
FFFC
FFFA
FFFD
0018
FFFE
FFFB
0000
0011
000D
000D
0008
0002
FFF6
0018
000B
000A
0001
0008
0003
0005
FFFB
FFFF
0006
0012
FFF9
0007
FFF3
0009
FFFE
FFFD
FFFF
FFF6
FFF3
FFF6
0000
FFFC
FFF8
FFFB
FFFD
FFFE
FFFF
FFEC
0002
FFEB
000A
FFE9
0015
FFF8
0004
FFF3
0005
0005
FFFD
FFF1
FFFC
0017
000B
FFF5
FFFC
0015
FFF9
0007
FFF8
0003
FFF7
FFF9
0006
0007
FFF6
FFEE
000F
FFF9
FFF4
0000
0018
0005
000C
0005
FFF1
0001
FFFE
0017
FFF9
000A
000F
FFFA
FFEC
FFF2
FFF2
0004
0005
FFFF
FFFF
FFF0
0005
FFF9
0013
FFFF
0013
FFF0
FFF3
FFFF
0007
0003
0006
FFFF
000B
FFEF
FFFA
FFEF
FFFA
FFF0
FFF9
000F
FFF7
0008
000D
0001
0006
FFF5
FFFB
0000
000D
FFFF
000F
0005
0019
FFF7
FFF7
FFFF
0002
FFFB
FFF9
0017
FFF9
FFF1
FFFE
000B
FFF9
FFEE
FFFE
FFF2
0004
0005
FFF9
FFEF
0007
000B
000F
0005
000A
FFF3
FFFD
0004
0001
FFF2
FFF9
000F
0004
FFFA
0001
FFED
FFFA
0001
FFF7
0005
000D
FFF1
FFF9
000D
0003
0001
FFED
0009
0011
000D
000A
FFED
000E
FFF4
FFF4
0002
FFFD
FFF7
FFF7
0005
0013
FFFE
FFE8
FFF9
000D
0002
000B
FFFB
0002
FFFD
0005
FFF0
0013
FFF8
0003
FFFF
0009
0001
000E
FFF7
FFFC
FFFB
FFF3
0008
FFFB
0005
000F
FFF9
FFF9
0002
0000
FFFB
000C
0010
FFFA
0001
FFF0
FFF6
0003
FFF8
FFF3
0013
FFF4
FFF3
0006
0000
0007
FFEF
0010
FFFB
0003
000E
0005
FFEF
000A
FFF6
0012
0006
0012
FFF5
0003
FFF7
0009
FFF6
FFF9
0013
FFF4
0006
000C
0008
FFFD
0002
FFF2
0010
FFF9
FFFD
0000
FFF8
0006
FFF1
0010
0008
0000
FFF8
000A
FFEA
FFF6
FFF5
FFFB
FFF5
FFFC
000D
0011
FFF1
0006
0011
000B
FFF9
FFF7
FFF4
FFF0
FFFF
FFEF
000C
000D
FFF8
0006
FFF9
FFEE
0010
FFFD
FFED
FFFD
0000
0001
FFF8
FFFF
FFF0
0008
FFF7
FFF3
0004
FFFB
FFF9
0001
FFFF
FFFF
0003
0013
FFFE
FFF1
FFFD
0006
0005
FFFB
FFFA
0019
FFF6
FFF8
FFEF
0000
0000
000E
FFFD
FFF7
000B
000B
000F
000E
0008
FFEC
FFEC
FFF8
000C
FFF4
FFF0
FFF7
0001
FFF6
FFF7
000C
0003
0006
0003
0000
FFEC
000F
0001
FFFD
0008
FFEE
FFFA
0003
FFF7
FFFA
0006
FFF7
FFED
FFED
0002
0009
FFF1
0014
FFF6
0009
FFFA
0001
000D
FFFC
0001
0010
000E
000A
FFF8
FFFD
FFFB
FFFB
0004
FFFC
FFF6
FFFA
0003
FFF9
0013
0005
FFF4
000F
FFF8
FFF8
FFF2
FFFE
000C
0009
FFED
FFEB
0008
0002
0002
000B
0018
0013
0009
0007
FFF2
000B
FFFF
FFFD
FFF1
0018
000D
0003
0005
FFFA
FFEB
0017
FFF9
FFED
0004
0013
FFEC
0000
FFF8
FFFA
0007
0005
000B
0002
0001
FFEC
FFFD
000A
000F
FFEE
0017
000C
0014
FFF9
FFEF
000A
0007
FFF9
FFEE
FFFB
0009
0006
FFFD
FFE8
000A
0001
0011
FFF3
FFEE
FFF4
0004
FFFE
FFFE
FFF6
000E
FFF0
0009
FFF7
0009
0010
0002
FFFB
FFF6
000E
0001
FFFA
FFEA
FFE7
0000
0002
FFFE
FFF0
0005
FFF0
FFFA
FFEA
0018
FFE7
FFF8
0006
0005
0001
000C
FFFE
0015
FFF9
0000
FFF4
0006
FFFF
000F
0008
000C
FFEF
0005
0003
FFF0
FFF7
FFF6
0011
FFF9
FFED
FFF4
FFEA
0019
000E
0006
0007
FFEE
000C
FFFD
0005
0010
FFF0
0007
000E
0005
FFFC
000E
FFF2
FFED
0003
FFFD
000F
0009
FFF6
0003
FFFC
FFF8
FFF3
000B
FFF1
FFE8
0011
FFF4
0004
FFF8
FFF7
FFFC
FFFF
FFF4
0012
FFFF
FFF7
FFEE
FFFE
FFFF
FFF6
0002
0007
FFF8
FFFF
0006
0009
FFFF
0004
FFF6
FFF9
0000
0007
FFF5
0019
0005
0004
0011
FFF4
0008
0004
000E
0006
0012
FFFB
000A
0007
FFF9
000F
FFF4
FFF5
0000
0000
0001
FFFD
FFFB
FFFC
FFFD
FFFD
0004
FFFF
FFFD
FFF4
FFFC
FFFB
0004
0007
0002
FFF7
FFFB
000A
FFF9
0002
FFFC
0007
FFFD
FFEA
FFEE
000B
0009
FFF5
FFFF
FFEC
0004
FFE8
0003
FFFF
0005
0002
000C
0002
FFE7
FFFD
FFFA
FFFA
0000
000B
FFFD
0006
FFF7
0000
0000
FFF2
000F
FFF3
000A
0005
FFFB
000B
0015
FFF0
0000
0009
0009
0015
0013
0006
FFEF
FFF4
FFFE
0001
FFF5
FFFE
0001
FFF5
FFF7
FFFE
0007
0002
FFF5
0010
0000
FFF2
FFFD
000B
FFF9
FFF6
FFFF
0007
FFF1
FFF6
FFF3
0010
FFF2
FFFA
0004
000B
0000
0008
000F
FFEC
0000
FFFC
0001
FFEE
0000
0012
FFFE
0012
FFF9
FFF9
FFF9
FFFE
0000
FFF6
FFFF
0001
000B
0001
0011
000C
FFEC
FFFA
FFF1
000C
000E
FFF1
0007
FFFE
000B
0010
FFFC
0007
0002
000C
0002
FFFF
000C
FFED
FFFB
FFEE
FFF7
FFFC
FFF0
FFF8
0006
FFED
000C
FFF2
FFFC
000A
0012
0008
FFFF
0001
0010
000E
000F
000C
FFF2
FFFC
0011
FFF4
000A
FFFF
FFFE
0001
FFF1
000E
000B
FFFB
0008
0010
000D
000A
0013
0017
FFEE
FFFD
0000
0019
000C
000A
FFFF
FFFE
000E
0008
FFF8
000F
FFF4
0012
FFED
FFE7
0000
FFFE
000A
0013
FFFC
FFFD
0008
FFF4
FFFA
000E
FFF8
0005
0018
0001
FFF8
FFF3
0003
FFED
FFF5
0008
000B
FFFC
FFF1
0006
FFFB
FFF1
0001
0012
000A
0005
000A
0013
0000
FFFA
FFEA
0011
FFF6
FFFC
0005
FFF0
0006
FFF6
0003
FFF9
000D
000A
0003
000A
FFF8
000D
FFF1
FFFA
FFFE
0009
FFF8
FFF3
FFFF
0008
0002
FFFB
FFF7
FFF2
FFFC
0007
000A
FFF7
000C
FFF1
FFF2
0003
FFFF
FFF8
0000
0010
0013
0007
FFF3
0008
0014
FFFF
FFE7
FFF8
FFF6
FFF9
FFF8
0001
FFF2
0002
FFF2
0005
FFF1
0001
0000
FFFA
0008
FFF7
0002
0002
FFFB
FFED
FFF2
000E
FFF1
0003
0000
0004
000B
0009
0019
FFFF
0007
FFF2
0007
0002
0000
FFF8
FFFC
FFF9
FFF8
FFF8
FFF9
FFF3
0004
0000
0007
000E
0004
FFFE
FFEB
FFF3
0009
0003
0003
0005
0010
FFE9
0005
0001
0011
FFFC
FFFE
FFF6
000C
FFF0
FFF9
FFFC
FFF3
FFFB
0007
000C
0002
0000
FFF3
0004
FFF5
0004
000F
0003
FFEA
0001
0010
0008
FFF4
000B
FFFC
FFFC
FFF8
0004
0008
FFEE
0006
FFFA
0004
0013
FFF5
0007
FFF0
FFFB
0010
000F
FFF9
FFEC
FFEE
FFFB
0003
0013
0004
FFFF
000D
000F
FFEC
0004
FFF2
0008
000F
FFFE
0018
FFED
0003
0002
0002
FFEB
FFFB
000D
FFE8
0002
0009
FFF6
FFF9
FFF9
0003
0006
000D
FFFA
0012
FFF4
FFFF
0008
FFE8
0009
0011
FFF0
000D
FFED
000A
FFFB
0003
FFFE
FFF0
0003
FFF4
FFF1
0008
FFF8
0013
FFFA
0001
0003
000A
0002
0009
FFF7
0004
0004
000C
0009
0004
FFF0
FFFC
FFF8
0010
FFFD
FFF0
FFEB
FFF7
0005
FFF5
0006
0017
FFED
0000
FFFB
FFFD
0017
0010
FFF5
0004
000F
FFF5
FFF9
0006
FFF2
FFFD
0002
FFF5
000D
FFFC
0006
000F
000D
FFF9
0002
FFFF
FFF5
000C
000E
FFF6
FFEF
FFF0
000A
FFFC
FFF5
FFF2
FFF6
FFEF
FFF7
FFE8
FFF2
FFF9
0009
FFF8
000B
0001
FFE7
FFF5
FFF7
FFFC
000D
FFEC
FFF7
0002
0005
FFEA
FFF7
FFE8
FFFB
000A
FFF4
FFEA
000A
0005
0002
FFE7
0002
FFF7
0001
0005
FFF7
FFFB
FFEE
0019
FFEA
FFFA
FFF4
FFF1
FFF6
FFF3
0008
0014
FFED
FFFE
0003
FFF4
FFFD
FFF4
0006
FFF1
FFF5
FFFA
0015
FFF9
FFF3
0000
0013
FFFE
0001
FFF8
FFFD
000B
0009
0009
000F
FFE9
0002
FFF4
000B
0002
000C
000A
000E
FFFE
0010
000E
0003
FFFB
0008
0004
0011
000B
FFEC
FFF9
FFFE
0003
FFEC
0008
0002
0009
0003
0005
0009
FFFA
0002
0007
FFFC
000B
0007
FFED
FFF8
FFFA
FFF0
FFF2
FFF5
FFEF
000B
0000
0000
FFF2
FFED
FFFF
FFF7
0012
FFFC
000C
0002
FFFC
FFE6
000C
000F
FFF9
000B
FFFE
0005
0001
0009
FFF2
0004
0019
0012
FFF5
0008
000A
0004
0004
0016
0002
FFF2
0001
0007
0015
FFFC
000B
FFEF
FFFD
0000
FFFA
0009
000D
FFF8
0002
0002
0000
FFF3
FFEF
0006
0002
0003
FFF4
FFF2
0009
000C
FFEC
0010
FFFD
000C
0014
FFF4
0007
FFEF
FFFB
FFEE
FFF4
000B
0000
000A
FFFA
0007
FFFD
0004
0008
FFF2
0006
0009
FFED
0003
FFF2
0006
FFF7
FFF1
000C
0002
000A
FFFE
0002
FFF8
000E
FFFF
FFEC
FFF9
0002
FFE8
FFE9
0008
FFFB
0006
0003
FFF8
FFFA
0018
FFFF
FFEA
0012
FFFD
FFFF
0004
FFF7
FFF0
000A
000D
FFF6
0003
FFFF
FFF6
0011
FFF2
FFF3
0009
000C
0000
0003
FFFA
FFF9
FFF6
FFF0
0009
FFFD
FFFC
FFE9
FFF8
0003
0002
0009
FFFE
0003
0016
0010
FFEA
FFF1
000A
FFF1
0009
000A
FFFB
FFFB
0010
FFED
000D
FFFF
FFE6
FFF4
FFFF
0014
0003
0009
000E
0000
FFEA
FFFE
FFEF
FFFC
0009
0005
FFF9
000B
FFF3
0005
0002
000F
0005
000A
0019
0006
FFFE
0015
0003
FFF8
0006
0015
FFFC
FFEB
FFF0
000E
0007
FFE9
FFF6
FFED
0012
0002
0011
0017
FFF2
0002
0000
FFE8
FFF3
0010
FFF7
FFFC
FFF3
0006
0007
FFEE
FFF2
FFF4
FFFB
FFF0
FFFA
0008
0012
FFFB
FFF3
FFF9
000B
FFFF
FFFF
FFF6
0008
FFFD
FFF4
000A
0007
FFFC
FFF2
0006
000E
0000
FFEF
FFFF
0001
FFFE
0003
0005
000F
0009
FFF7
0005
FFF5
0008
0000
FFEE
FFFC
FFFD
0014
0011
000C
000E
FFFA
FFF8
0004
FFFF
0000
FFFF
FFF1
0013
FFFF
000E
0007
0003
FFEE
0008
0006
0003
000B
0001
000B
FFFE
0012
FFF8
FFFF
0005
0006
FFF5
0008
0002
FFF9
000F
FFFD
0012
0008
FFF3
FFEF
FFEB
0006
FFF9
0000
0006
FFFB
FFF6
0007
FFFD
FFFD
0002
000D
FFF6
FFF2
0019
000A
FFF7
0015
000C
000C
FFFD
FFFD
FFF1
0008
FFFF
FFF2
0006
FFF0
FFF9
0004
0003
0007
0011
000F
FFF5
0002
0005
0006
FFF3
FFF9
FFF7
FFFF
0006
0008
FFF4
FFFB
0007
FFF5
000C
FFEA
FFF6
FFFB
0011
FFFE
FFFC
FFFE
000C
0019
0001
0000
0007
FFF1
0004
FFFE
FFE9
0005
FFFF
FFFA
0007
FFF6
0000
0006
000D
0012
FFFB
FFFF
FFEA
FFEA
FFFD
FFF9
FFF9
FFF9
FFE8
FFFF
0007
0007
0002
FFEC
FFFE
0008
0002
0014
0009
0013
FFFA
0006
FFF9
FFF6
000A
0004
FFFE
0019
FFF5
FFEE
FFF7
FFFC
FFE8
000E
000B
0003
0001
0002
FFF5
FFF7
0002
0008
0013
000D
000C
FFFA
FFFF
FFF8
FFFC
FFF8
0008
FFFA
0001
FFF4
000A
FFF9
FFFF
000A
FFF6
FFF7
000B
0007
0001
0001
FFF6
FFF8
FFFE
FFFC
0006
0019
FFFF
0011
FFFD
0008
0006
FFEE
0019
0010
000C
FFFB
0005
0006
FFEB
FFFE
0008
000E
0003
0001
0007
0019
0003
0010
FFFB
FFF1
000A
FFF2
0011
FFE9
000F
FFFF
0008
FFFF
FFFF
FFFA
0009
FFF7
0019
FFF9
FFFD
FFFB
FFF9
0000
FFEA
000A
0003
FFF2
000C
000C
0009
0003
FFFC
FFF6
FFFA
000F
FFFE
FFF7
FFF6
0004
0010
FFE9
FFFA
FFEF
0008
0012
FFF5
0005
FFFD
0003
0001
000F
0006
FFFA
FFFD
0007
000B
FFF0
0016
FFF5
FFFF
FFFA
0001
000D
0016
FFFD
0008
0002
0001
000C
FFFD
FFEA
FFFE
FFF2
FFF3
0005
FFF0
0013
0010
FFFF
000E
FFFD
000A
0008
0003
FFE9
FFED
0002
0002
FFFC
0004
000A
0000
FFF0
FFF8
FFF2
0015
FFEC
0001
0005
FFFC
FFFF
FFFC
FFF6
FFF8
0002
0015
FFF2
FFFE
0003
0008
000A
0010
FFFF
FFFE
FFF7
000D
0000
FFF9
FFF4
0003
FFFF
FFF8
0003
0007
0012
FFED
0011
FFED
0006
FFFD
FFF8
FFFC
0000
0000
000B
000E
FFF5
FFFD
FFED
FFF7
0009
FFF6
FFED
0003
FFF8
FFFA
FFFB
FFF8
000E
0018
FFEC
0004
FFF5
0002
FFFF
FFFB
000C
0009
FFFA
FFFC
FFFB
FFFD
FFFE
0015
000E
000A
0002
FFEC
0003
FFFB
FFFD
000D
FFF9
0009
FFF9
0000
0010
0003
FFFA
0019
FFF1
0004
FFEA
0006
0011
FFF3
0000
FFF6
0017
FFFA
FFEB
0002
FFF8
FFFA
0001
0013
FFFB
FFFC
0015
FFF5
FFF2
0003
0001
0010
FFF9
0003
000C
000C
0004
FFF9
0008
0005
0007
FFFD
000C
FFF7
FFEF
FFE7
FFEF
FFFF
0009
0015
000B
FFFC
0010
FFF4
0011
0008
0008
FFEB
FFFE
0002
0004
0007
FFF7
FFFF
0005
0000
000E
0000
FFF5
FFF3
FFF3
0008
FFFD
0001
FFF2
FFF4
FFF8
FFF0
FFFF
FFFB
0002
0007
FFF6
0017
FFED
FFF9
0000
0018
000A
FFFB
0012
FFEF
FFEE
001A
0019
FFF6
0006
FFEF
FFF8
0006
0010
FFF3
FFEF
0003
0001
FFFA
FFF5
000B
0005
FFF6
FFEF
FFFF
FFF0
FFFC
FFF0
FFF8
FFFB
0008
FFEE
000B
0011
0001
FFFE
0019
0002
FFF1
FFFA
FFF9
0004
FFF3
FFF9
FFFC
FFED
FFF0
FFF1
0005
FFF2
FFFA
FFFE
FFF4
FFEC
FFFA
000D
FFF2
000B
FFFB
FFF5
0007
FFF1
000F
FFF2
0005
0003
0001
0006
FFFF
0005
000D
FFFD
0011
FFFE
FFED
FFF4
FFF4
FFEA
FFFA
FFEE
0008
0006
0010
FFE7
0006
FFF2
FFFA
0015
FFF5
000D
0001
000F
0007
0007
0012
FFF8
0011
FFFD
000C
FFFB
0010
FFFE
0003
FFF9
0010
FFFE
FFFB
FFE9
FFF9
000B
0002
0010
FFFE
FFFA
0005
000A
0007
FFF2
FFFD
0001
FFF0
0010
FFFE
0007
FFF8
FFFA
FFFC
FFFA
FFFE
0002
FFFE
0012
FFFB
FFF9
0011
FFF7
0001
0015
FFFE
0011
0002
0009
000E
0001
0009
FFF9
0010
0016
FFF3
FFF3
FFF5
000E
FFFD
FFE8
0009
FFF0
0001
FFF9
0005
000C
FFF6
FFED
000C
000A
0013
FFE7
FFFD
0018
FFEA
FFFE
FFF5
0009
000B
FFF5
0010
FFF3
0007
FFF0
FFF0
FFEC
FFF7
0002
0001
0010
FFFC
0004
FFF0
FFFA
FFF8
FFFC
0018
000D
0007
FFE8
0012
FFFF
0002
0013
0008
FFF9
FFF2
FFF1
FFF5
0006
FFFF
000B
0013
FFF5
FFF2
FFFA
0003
0014
0004
0007
0018
000C
0018
0002
FFFC
FFF9
FFE7
FFFF
FFFE
FFF3
0009
FFFC
FFF2
000E
0004
FFF1
FFFD
0006
FFF4
0002
0002
FFF1
FFE6
000C
FFF6
000B
FFF6
FFF9
0010
FFF3
FFFA
000B
0004
FFED
0017
0009
0008
FFFE
0003
FFFC
FFFC
000D
0008
FFF9
FFFB
FFFF
0004
0002
FFF5
FFF7
FFF7
0007
FFFD
0010
FFF3
0004
0014
000A
FFFB
FFFF
0005
0011
0014
FFFE
FFF5
0015
0002
0004
0005
0001
0007
FFF6
FFF8
FFE9
0007
FFEA
0008
000E
0004
FFEF
FFEC
0008
0012
000F
0014
0000
0000
FFF9
FFF7
FFFE
FFF2
FFFC
0001
0005
FFF7
0003
0006
0006
001A
0016
FFF4
0006
FFF7
FFFA
FFF9
FFEF
000F
0002
0002
FFF9
0009
0014
0009
0007
000A
0001
0005
FFFF
0004
000A
FFF5
0002
FFEC
FFEB
FFE8
FFF5
0016
0005
000B
FFF8
0003
0009
000C
0011
FFF5
0005
0002
FFFC
0006
0001
FFF9
0009
0001
0007
FFFD
FFFE
FFEA
FFFE
0006
FFFC
0010
FFF9
FFED
0002
FFFF
0002
000E
FFF7
FFFE
0007
000E
0007
FFF3
FFF1
FFFA
0012
FFF4
FFF9
0005
0007
FFFD
FFFA
0000
FFFD
FFE9
FFEF
FFEE
FFF0
0004
000D
FFFD
0005
0003
FFF8
FFFD
0017
000D
0013
000B
0001
0004
0003
0005
0016
FFEF
0000
FFF5
0001
0005
0003
FFFF
0014
0007
0019
000C
0004
FFE6
0001
FFF1
0004
0001
FFEE
FFF7
0003
FFEC
FFFD
000B
0003
0000
FFFF
FFFB
000D
000F
000F
FFFB
0005
FFEE
0016
FFF2
FFF0
0005
FFFD
0004
FFEB
FFFD
0011
FFF7
FFF3
FFFB
FFF1
FFFC
FFEE
FFED
FFF3
FFF5
FFFB
FFE9
0005
FFF5
0006
FFFF
FFF8
0019
0015
FFFC
000C
0008
FFFF
0003
000D
0004
FFF8
0015
000C
FFFB
FFFF
0009
FFF6
FFFC
000E
FFF3
0009
0012
FFFF
FFFC
000C
FFFC
0012
0002
FFFD
0004
0002
0002
0008
0002
0018
0003
FFF5
FFF1
FFFE
FFF5
FFF8
FFF0
0015
000B
0007
FFF8
0008
0006
0008
0008
FFFA
0009
0008
0009
0009
0002
FFFA
0001
000C
FFF7
0010
FFFB
FFFE
0010
FFF0
FFF7
0002
FFF7
FFFB
FFFA
FFFE
0003
0000
FFFE
0001
0005
FFF0
FFFD
FFFE
000B
FFFA
0012
FFF2
0004
FFE7
FFF7
FFEB
FFFF
0000
0005
0006
FFF4
0013
000A
0002
0008
0013
FFF1
0007
0009
FFF8
FFF9
0002
FFF5
0017
0003
0000
0010
0003
0001
0007
000B
FFFE
0018
FFF5
FFFD
FFFD
FFED
000C
FFF4
0010
FFED
0009
0002
0005
FFEC
0006
FFFA
FFFC
FFFB
0001
FFF1
0004
FFFF
0007
FFFE
0008
FFFE
0001
0006
0006
FFFA
0011
0006
FFFF
000E
FFF7
0010
0001
FFF3
0003
0006
FFF4
0008
0008
0013
0002
000A
0018
0006
0007
FFE8
FFEF
000D
000A
0006
FFEE
0005
0002
FFEA
FFF9
0004
FFF1
FFEE
0003
FFF6
FFF5
0012
0003
FFF3
0008
000A
0010
FFEF
FFFB
000E
FFFC
FFFC
0015
0000
0013
0001
FFFF
FFF4
0004
0005
FFFB
000C
FFF9
0002
FFFC
FFF7
FFF5
FFFE
FFF6
0010
0006
FFF8
FFED
0002
FFF8
FFFB
FFEA
0003
FFF8
FFF7
FFF7
FFF2
0000
0002
FFF2
FFFA
FFF5
0007
FFFC
000C
0019
0018
FFF5
000A
FFF4
FFED
FFEA
FFFC
FFF2
000D
0001
0007
FFFE
FFFA
FFFA
0005
0003
FFEE
FFFD
0009
000C
0002
0001
0019
0007
000D
FFFD
000E
FFFD
FFEC
0006
FFEA
0008
0003
FFFD
0002
FFFE
FFF7
0003
FFF3
FFF2
FFFB
0005
0012
0004
0004
0009
FFF0
0006
0013
000E
000A
FFFB
0007
FFF4
FFFF
FFED
FFED
FFEE
000C
FFF3
000E
0009
FFFE
FFF1
FFFA
0005
FFED
0007
FFF4
0002
0003
FFFA
FFF2
FFFA
FFFB
0001
0007
0004
FFFC
FFFC
FFF5
000A
FFF9
FFFD
000E
FFF3
FFF9
0002
0010
FFF9
FFF7
0006
FFF9
FFFE
0002
FFF3
0011
0004
FFED
FFF3
000D
0008
0007
FFFA
0008
0009
FFFE
FFFF
000B
FFF4
FFF4
FFF3
000A
000B
0008
FFFC
FFFD
FFF7
0000
0006
FFF1
0009
0004
000E
FFF7
0005
FFF5
FFF4
000D
0008
0003
0002
FFFB
0001
0006
0018
FFED
0010
0000
FFF6
000D
0006
0001
FFED
FFF7
0000
0011
000B
FFFF
000D
000B
FFEC
FFFA
FFF9
FFF4
FFFD
0001
0012
FFF5
FFF3
000E
0001
0009
FFF9
FFF5
FFEC
0008
000E
FFFD
0001
FFFE
000D
FFEF
0010
FFFA
0010
FFF7
FFF5
FFFB
000D
0009
0011
0001
0009
0002
0007
FFF7
0001
0007
FFFF
0001
FFFC
FFF9
FFF8
000F
FFFA
0001
0005
FFEC
0000
FFF0
FFFE
FFFC
FFF8
FFEA
0001
FFEB
0005
0001
FFF9
FFFE
FFFF
FFF6
FFFA
FFF1
FFFC
FFFE
0001
FFFE
FFFE
FFFE
FFEF
FFFE
0000
0000
FFF8
FFF6
FFE9
0001
0012
FFE9
FFF3
0009
FFEF
FFF9
000A
0006
FFFE
0008
000E
FFF8
000E
FFFB
FFF7
FFFB
000D
FFFA
0003
FFFD
FFED
FFEF
FFFE
0018
FFF9
FFFF
0006
0009
FFFA
000D
FFFE
0009
FFFA
FFF0
FFF1
000A
0002
FFF0
000D
FFEF
FFFE
FFFF
0006
0002
FFF0
0006
FFF2
FFFC
0003
FFEC
FFF6
FFF4
0001
FFFD
000E
FFF6
0005
0005
000F
0006
0001
FFF4
0012
0003
0006
0003
FFFC
000C
000A
FFF0
0000
0009
FFF5
0002
FFFB
FFF5
0008
FFEA
000E
000F
FFFA
0007
0006
0006
FFFB
0005
FFEE
FFF6
FFFD
0006
FFF0
FFFA
0007
FFF5
000A
FFF9
FFF6
0004
FFF1
0003
FFFC
0006
0012
FFE8
000F
0010
FFFA
000E
FFF7
FFF6
FFF2
0003
FFFE
FFFE
0009
0000
0018
FFEB
0008
FFFF
000A
0013
FFF5
FFF3
FFFB
FFFA
FFF6
FFFF
0006
FFF8
FFF8
0002
0009
FFF6
FFF2
000A
0001
FFFB
0017
0005
0018
0003
0000
FFF5
FFFC
FFFC
FFFD
FFF2
FFE7
0005
FFF8
0009
FFF8
FFEF
000F
0001
0004
0001
0009
000B
0002
0009
0003
FFFD
FFF7
FFF1
0003
FFE9
000D
FFF7
FFF6
0000
FFFD
0011
0001
FFFD
0002
FFFC
0011
000B
0002
FFF8
FFEB
FFF3
000F
0016
FFF6
0004
FFF7
FFEA
FFF9
FFFD
FFF8
FFFF
FFF7
0014
FFF8
0001
FFF2
0010
FFFF
000D
FFFC
0017
000A
0001
FFF6
FFF7
000B
0001
0000
FFF1
FFFF
FFF3
0010
FFF7
FFEB
0003
0006
FFFE
0003
FFF0
FFFC
FFF6
FFE8
0008
0009
FFEE
0004
FFFB
0007
000E
FFFD
0008
0001
FFF7
0017
0004
FFF8
0002
0006
0011
000A
FFED
0003
FFE9
FFFE
FFF6
0002
FFFF
0013
FFFF
0009
FFFA
FFE9
FFFE
0012
FFEF
0005
0002
FFEF
FFF4
0007
0001
0004
FFF7
0019
FFF8
0011
000E
FFFC
000F
000B
FFEB
FFEB
000D
FFFB
0008
FFFD
FFEF
0011
0003
0008
0014
FFF3
0009
0003
FFF0
000F
0002
0009
0005
FFF9
FFFF
FFEE
0000
0015
0007
FFFE
000C
0004
0012
FFEC
0000
0014
0007
FFF4
FFF3
FFFE
FFFF
0005
FFF9
FFF2
0006
FFFE
0000
FFFA
0009
FFF5
FFFE
0009
FFFB
0002
FFFA
FFF5
FFED
0009
FFFB
0010
FFE8
FFFD
FFFE
FFFC
FFF7
0001
0010
FFF7
0014
0004
000E
0002
FFFA
0007
FFFF
FFF5
FFEB
0004
FFFB
0000
0011
FFFD
0001
FFFA
0005
FFF9
FFFB
FFFD
FFE8
0006
0013
0015
FFFA
FFFF
0000
0006
FFFD
000B
FFEA
0009
FFE8
FFF8
0007
FFFA
FFFB
0004
FFF3
FFFC
0005
FFFF
FFFD
0007
0000
0002
FFF4
0015
0000
0002
000B
FFF3
000D
0004
FFF4
FFFF
000C
000B
FFFA
FFF9
FFF4
0012
FFF0
FFF3
FFEA
000F
0002
0005
FFFF
0008
FFF1
FFFE
0014
0006
000A
000B
000B
FFF7
0009
FFFA
000F
0001
0006
0012
FFF8
0005
FFEE
FFFC
FFF6
FFEA
FFEC
FFFA
0001
0005
FFEF
0001
000C
FFEE
0011
FFF8
FFEA
0005
FFF4
0014
0014
FFFA
FFF6
FFF4
000E
0014
FFF2
0009
FFFC
FFFE
0000
FFF0
FFFD
0005
FFF3
0012
0005
0013
FFEB
0002
0000
FFFE
FFEF
FFFA
FFF0
FFF6
000D
FFF3
0001
0015
FFF0
0006
FFF9
0001
0003
0010
FFFA
0000
FFEA
0010
0000
000C
0000
0001
FFFD
0009
0002
FFFA
0017
FFF0
0002
FFF5
0000
000B
0000
FFFE
0000
0017
0003
0005
FFED
0006
FFEB
0009
0006
FFF3
0018
FFF3
FFF4
000C
000F
FFF4
000B
0005
FFF7
0012
000B
FFEA
FFFD
0016
0000
FFF8
FFFA
0002
FFFD
FFFA
FFEF
FFF6
FFEB
FFE9
0005
FFE7
0009
000D
0001
FFF2
FFFB
FFFB
FFF7
FFF9
FFEF
000E
0003
FFFA
0003
0014
0015
FFF3
FFEE
FFFC
0001
FFEF
FFE9
FFEF
0001
0003
0004
FFF7
000A
FFEF
FFF5
0004
0001
0007
FFEC
0005
FFF1
0002
FFF6
0004
0004
0005
0008
0002
FFFC
0018
FFFD
FFEC
FFF7
0006
FFED
0003
FFFA
FFF3
FFF9
0003
0009
0005
FFF2
FFF6
0008
0000
000F
FFFB
0010
FFF7
FFF6
FFE9
0006
FFFB
FFF8
0003
FFF3
0007
000E
FFFE
FFF0
FFFA
0009
0005
FFFA
0003
FFE7
0003
0009
FFF9
0002
FFF7
0000
000E
FFF0
FFF8
FFF7
FFFF
FFED
0015
FFFD
FFFC
0005
FFF0
FFFB
0005
FFFC
FFF7
FFED
000A
FFFB
FFF9
FFF3
FFFC
FFF5
FFF7
FFF1
FFEB
0004
FFFD
FFFA
FFFF
0007
FFFE
0004
0004
FFF2
FFF5
FFF4
0002
0009
FFF6
0008
000C
0005
000C
FFFD
FFFE
0018
FFF3
0000
FFFC
FFF7
000A
FFF5
FFF6
0008
0006
000A
0003
FFFB
0003
FFF0
000B
0004
0014
0005
FFF7
0004
FFFD
0012
FFFE
FFFF
0002
FFF4
FFF9
FFF7
FFFB
0000
FFF0
FFE9
0007
0001
0004
FFF7
FFFE
0006
FFED
0002
0000
FFF2
FFFF
FFEE
FFF9
0012
0007
FFEE
000C
0002
000E
FFE7
FFF9
FFF6
000C
000F
FFF8
FFF4
FFEF
0000
FFF7
0004
0005
000A
0017
FFFC
FFF2
FFEA
000E
FFF4
0008
FFED
0000
FFEC
0004
FFF9
FFEC
0015
0014
FFF9
FFFA
000B
0006
0001
FFE6
0008
FFFB
FFEA
FFF5
0013
000C
FFF4
000D
0012
FFFC
FFFD
FFF7
FFFA
FFFE
000A
FFF4
0007
0017
0018
0006
FFFC
FFFB
FFF5
FFF9
FFEF
FFF9
FFFD
FFF7
000C
0018
FFF2
FFFA
FFFE
FFFD
000D
FFFD
FFF2
FFFF
0007
0012
FFFA
0004
FFFC
000E
0008
000D
FFF3
0010
FFF6
000D
FFF4
FFF7
FFF9
0007
FFF6
0008
FFFB
FFF5
000B
FFFA
0007
FFFB
FFF2
FFFB
FFF4
000F
FFF8
000B
FFFB
0017
000D
000D
0006
FFFE
000B
FFF3
FFF4
0016
FFEE
0014
FFFC
FFF6
FFF4
0006
FFF1
0008
0004
FFF4
0010
FFF0
0003
FFF5
0007
FFFB
0015
0002
FFEF
FFF9
FFFE
0004
0006
0000
0001
0007
FFF5
000C
FFF6
FFED
0002
FFEA
0003
0008
FFED
0006
FFF6
FFF9
0009
FFFE
0006
FFFE
FFF3
FFFE
000C
000A
FFF7
0002
000C
FFE9
FFFE
FFEF
FFF9
0009
FFFF
FFEF
000D
FFFF
FFFE
0013
FFF4
000D
0004
000D
0000
0012
FFED
FFF6
0003
000A
0007
0011
0005
0001
FFFC
FFFF
0008
0000
FFF6
FFF3
FFFF
0000
FFFF
0003
0004
FFF5
FFF6
0005
000B
0001
FFFA
0005
0009
FFF4
0000
FFED
FFF3
FFF9
FFF5
000D
FFF7
FFE8
0018
0007
FFFB
FFF2
FFF1
000E
0005
000D
FFF7
FFEF
FFFE
FFF2
FFFB
0001
0003
0001
0010
0012
FFFE
FFF4
FFFB
FFFF
FFFD
0001
0007
FFED
FFEE
FFFC
FFFA
0003
000C
FFF2
0008
0009
000D
0010
0001
FFFD
0002
FFFA
FFFB
0003
0010
FFED
FFFB
0002
000F
000B
FFEE
0013
000C
0004
0006
0007
000D
0003
FFF8
FFFD
0007
0014
FFFD
0004
0000
FFF8
0000
0009
0006
0001
FFEB
0002
0002
FFF4
000B
0009
FFF3
FFF4
FFFB
FFF9
FFF0
000B
FFF3
FFEB
FFFA
000D
FFF4
FFF8
000C
FFF0
FFF2
FFF7
FFF6
FFF9
0009
000F
FFEA
0002
0000
0011
0009
FFF5
FFFC
0005
FFF1
0001
FFFD
FFFB
0001
FFFF
FFE7
0003
0001
0010
0005
FFFC
000D
FFFF
FFED
FFF6
FFFE
FFF4
0001
0008
0016
0019
FFFF
000A
000A
0000
0007
0005
000A
FFFE
FFE8
000D
FFF4
0002
000F
FFF4
0012
FFF0
FFEF
000E
0003
000F
FFF4
0003
0001
FFE8
0004
0008
0010
0001
0000
000E
FFFF
FFFC
0000
0005
0006
FFEE
FFFD
FFFE
FFFD
FFF7
FFFC
FFFD
0010
0000
000A
0010
FFEA
000B
FFF0
0005
0007
FFFF
FFF5
FFF9
FFFC
0008
0008
0004
FFE7
0001
FFFC
FFEB
0000
0009
FFF9
000C
0005
FFFE
FFFA
0000
FFEC
0006
FFF8
FFF7
0002
000C
0005
FFFF
0008
FFEC
FFFD
0009
0010
0005
0002
000E
0000
0013
0015
FFED
000B
FFEB
FFFB
000F
0002
0006
0004
FFF8
FFF4
0004
FFFD
FFFF
0004
0000
FFED
FFE8
0008
000E
FFF2
FFEA
FFF6
FFF7
FFFE
FFF2
0005
FFFA
000E
0001
000B
FFF0
FFED
FFF6
000C
0013
0014
0017
FFFF
0011
000A
0001
0017
0005
0008
FFF1
0001
0017
0000
000B
FFF4
FFFC
FFF5
FFE7
0004
0007
FFFA
0005
FFF9
0002
FFFE
FFF6
FFFB
FFF6
0014
0000
0001
0008
FFF2
0001
FFF0
FFF6
FFF9
0003
FFFB
000D
0016
0002
0010
000B
0009
0011
FFFC
000F
0007
0003
0001
0009
0012
0012
FFF0
000B
FFFC
FFF7
FFFA
FFF8
0006
FFEE
FFF7
FFFC
0002
0015
0002
FFFA
000B
0003
0005
000A
FFF9
0007
0001
000A
FFF9
FFE7
0004
FFF5
0007
000A
000F
0008
FFFA
FFFA
FFF8
FFFF
FFF2
FFF5
000B
0014
0011
0014
0010
FFF7
FFFD
0015
0000
FFFA
FFF1
FFF8
0017
FFFE
000F
0016
0009
0005
0011
FFFE
FFFA
FFF1
0007
0014
FFEE
FFF4
FFF5
FFFF
FFFF
0017
0009
0015
0003
000F
FFF7
FFFC
000D
FFF8
0009
FFED
FFF9
FFFF
0008
000D
000E
000D
FFFB
FFF9
0005
0000
000F
000C
000D
FFFB
FFFF
0016
FFEA
0013
FFFB
0006
FFF2
0014
FFED
0018
FFEF
0005
0008
FFFB
0007
0012
0010
0004
000A
FFFF
0006
FFF4
FFF2
FFF3
FFEB
0009
FFF7
0009
FFF7
000C
000C
FFE9
0017
FFF9
0000
FFE8
000C
FFFC
FFFD
FFF6
FFFA
FFFC
000A
000E
0019
000B
FFFE
0004
FFFE
FFF8
FFED
FFE7
FFFE
0007
0009
000B
FFEF
000D
000D
FFE9
0007
0003
000C
0003
FFF4
000C
0019
0003
FFFA
FFFB
FFFF
0010
FFF3
FFF4
0000
0005
FFEF
FFF4
FFFE
FFF0
FFEE
FFFA
0003
0005
0000
0007
FFFE
FFFA
FFE8
0005
0013
0006
000F
FFFA
FFF2
FFEE
0006
FFE8
0007
FFFC
0006
0004
000A
000F
0007
FFF8
FFFC
FFF7
FFE7
FFF3
FFF7
0001
0011
FFEB
000E
0014
FFF6
0001
FFF7
000A
0012
FFEB
FFF5
0002
FFF9
0010
0003
FFFB
FFF6
FFFB
FFFD
FFFC
000D
000B
000F
FFFC
0004
0012
FFFD
FFFF
FFFA
0002
000A
FFF0
0005
0005
0004
0004
FFEF
FFF8
FFF9
0007
FFFB
0010
FFF9
000E
0005
0007
000D
FFFC
0004
FFFB
0003
0019
000B
FFF7
FFF9
FFEA
000A
FFEF
000D
FFFD
0010
000E
0002
0003
0011
FFF7
0002
0005
0007
FFFC
0004
000F
FFFD
FFFC
FFFB
FFF5
FFF5
0011
FFF9
FFF6
000B
FFFB
0007
FFE8
FFF9
FFF9
FFFB
FFF9
FFFB
FFFF
000B
FFFF
FFF9
FFE7
0009
FFE7
FFF4
0002
0000
FFF9
FFF7
0001
FFF9
FFF8
FFF9
0010
FFF7
0007
0008
FFF5
0002
0000
000B
FFE9
FFFD
0006
0001
000C
0005
000D
FFFF
FFFC
FFF7
0012
0000
FFF3
FFFB
000A
FFF1
FFF7
0011
0008
0005
0015
FFF5
FFF7
000A
0005
0000
FFED
0013
FFF8
0012
FFF3
FFF5
FFF7
000C
FFF7
FFFA
FFF1
0009
0008
000C
0007
FFF7
0009
FFF7
FFF2
0001
0004
0005
FFFF
FFF0
FFFF
0009
FFF4
0000
000D
FFF3
0011
FFF4
0007
0004
FFF9
FFFA
FFF3
FFF2
0001
FFFA
FFFE
0007
FFFF
0005
0004
FFFD
FFFC
0002
FFFD
FFFE
0000
FFF0
0007
FFEB
0001
FFF1
FFF9
0008
FFF8
FFFE
0008
FFFE
0007
0004
0010
0001
FFEC
000E
0019
FFEC
0006
FFF0
0007
000E
FFEC
0015
FFFE
0010
FFF4
0012
000B
FFE9
0006
0001
0012
FFFF
000D
FFFC
0008
FFFB
FFF5
FFFB
FFF2
FFF0
FFF3
FFEB
0000
000C
FFEC
FFF1
0000
0018
0000
FFFB
FFF2
FFFF
0000
FFF9
0000
0001
0002
FFFC
000E
FFF7
FFF7
0004
0013
FFFF
FFFB
0006
FFF5
FFFC
FFEE
FFF9
FFFF
FFFE
0009
FFFE
FFFC
FFF9
FFF1
FFFA
FFF5
0011
FFF7
0010
0000
0005
FFFE
FFFA
0000
0003
FFFA
FFE7
0010
FFF9
0000
FFFD
FFFE
000B
0008
0004
0001
FFFE
000F
FFF2
FFF9
0007
FFF7
0000
FFF7
FFF2
FFFC
FFFE
000C
000E
FFF8
FFF0
0018
000E
0003
0009
FFF8
0005
FFFF
0013
000C
0003
000F
FFFA
FFF2
0004
0003
000E
0005
0003
0013
FFFF
FFF1
FFFD
000C
0011
0008
FFF3
0007
FFFE
FFF6
FFFD
FFF8
FFFB
0006
FFFF
FFFE
0005
FFFB
0010
FFFE
FFFF
0011
0007
0014
000A
0019
0004
0009
0000
0000
0006
FFF4
000D
FFF9
FFEB
FFFD
FFF0
FFFB
FFE7
FFED
0012
000A
0006
FFEA
FFEF
0006
FFFF
FFFF
0003
FFFB
0003
0005
FFF6
0000
0007
0002
0006
FFFB
0006
0003
000B
0008
FFFD
0005
0003
0005
FFFE
0008
0016
0014
FFF9
FFF2
000C
FFF7
FFF7
0001
FFFA
FFF3
FFF5
FFEA
000C
0019
FFE7
000C
0001
0008
FFF9
0001
0009
FFF1
000F
0018
FFF4
FFF2
000E
FFF6
FFFE
FFF9
FFF9
0002
FFF3
FFFB
0007
0003
FFF6
FFF6
FFF9
000A
000E
0006
000F
0005
0002
0016
0007
FFF3
0004
0005
FFFF
FFFC
000C
000B
FFFB
000D
000D
0001
FFFE
0008
FFF0
000A
FFF4
FFF1
FFEC
FFF8
FFF9
0000
0014
0000
FFFA
FFF7
0007
FFF6
FFFD
0015
FFFA
0002
FFF9
FFF4
0005
FFF2
FFFB
FFE8
0004
0013
FFF6
FFFF
0015
FFF7
FFF8
FFF9
FFFA
0008
000B
000B
000E
0001
0005
FFFC
000D
FFF2
000D
FFF6
FFFA
FFFA
FFF6
0012
0010
FFFF
0000
000D
0010
000B
0008
0005
FFF6
FFFC
0019
0003
0004
000A
000E
FFF3
FFFE
0003
FFFE
0012
FFFD
FFF4
0007
FFFE
FFF8
000B
FFFA
0009
0003
000A
000A
FFF4
0003
FFEB
0010
FFFB
0006
FFFD
FFF3
000D
FFF5
FFFD
FFFD
0000
FFFD
FFF4
000D
FFFC
000F
FFFD
FFF9
FFF3
0000
0000
0009
FFF0
FFF3
FFEB
0005
0012
FFF3
FFF2
0017
FFF6
FFF4
0000
0002
000A
0006
FFF9
0010
FFF2
0009
000F
0007
0011
000A
FFFC
FFF0
000A
0008
0004
000B
FFF9
FFFF
FFF8
FFF1
FFFB
FFE6
FFF4
000B
FFFB
FFF7
0007
0017
FFFB
0006
0019
0005
0013
FFF3
FFED
0006
FFE9
0009
000D
0007
FFF5
0013
0001
0006
0002
FFF6
0001
0005
0002
0000
0004
FFFD
FFE7
FFE7
0006
FFFD
000C
000A
0011
0002
FFF4
FFF2
0003
FFF4
0004
0008
FFFF
0007
000E
0004
FFEE
0001
FFF3
0003
0010
000A
0002
000E
FFF4
FFFD
FFF2
FFFD
FFFE
0002
000E
FFF5
FFED
FFFE
000F
FFEB
000B
FFF2
FFF9
FFF1
000C
0000
0004
FFFF
FFF8
000E
FFED
0002
0000
FFFB
FFFD
FFFB
FFF5
0005
000B
0002
FFFF
000B
000C
0005
000C
FFF7
FFF3
0010
FFF6
0015
FFFC
FFFD
0017
0001
000D
0006
FFFE
FFFB
FFFF
000C
FFF6
FFF8
FFF4
0003
000D
0001
000B
FFF4
FFFF
0016
FFFE
0006
0014
FFF4
FFFF
0003
FFFC
0013
FFF5
0000
0008
0001
FFFA
0005
0008
0002
FFFF
0002
000D
FFFE
0004
FFFE
0001
0005
FFF4
FFFE
FFFC
FFFF
0004
FFF4
0009
FFFB
FFFE
0008
FFF7
FFE9
FFF6
0006
FFF7
FFF7
000A
FFF1
FFEC
000E
FFFB
0001
0009
FFFB
FFEE
FFF6
000C
FFF4
0001
0004
FFFF
0002
FFF5
FFF9
FFFE
0004
000B
0000
0000
0008
FFF8
FFEB
FFF6
0003
0009
FFF8
FFFB
FFF8
FFF9
0007
000A
FFFE
000B
FFF0
0014
FFFC
0012
0018
FFED
FFF7
FFED
0017
000F
FFEE
FFF7
FFE9
FFF9
0004
0005
FFF2
FFFD
000B
FFF1
0018
FFF5
FFFF
FFF5
0002
000B
0003
0011
000C
0003
FFF7
FFED
0002
0010
0009
FFEF
0000
0001
FFF9
0013
0005
0006
0004
FFFD
FFFD
FFFA
FFFF
000E
0019
0008
0001
0005
FFF9
0007
0010
FFFE
FFEF
000F
0006
FFFD
0018
FFEE
0005
0013
0001
0006
0005
FFF6
FFFC
0002
FFF5
FFFA
FFEB
0008
000C
0013
000E
0000
FFF6
FFF1
FFEB
0001
FFFD
0002
FFFC
FFF0
FFF1
FFF9
FFF8
000D
0001
000B
FFF7
0002
0009
FFF8
FFEA
0000
FFFB
0011
FFF3
FFFA
0003
0011
0001
0002
0010
FFF4
0013
FFEF
0004
0013
FFF1
0010
0004
0009
FFEB
0007
0017
000F
FFEC
FFFE
FFF7
000E
000D
FFF1
FFFE
FFF8
FFEF
0002
FFFB
0000
000B
FFFB
0019
FFFC
FFF8
FFEC
FFF8
000B
0011
0003
FFF7
FFFC
FFFB
0000
FFF5
000F
0005
000B
000D
FFF6
FFF9
000C
FFFE
0015
FFF5
0016
FFE9
0005
FFFC
FFF8
0013
0001
0007
0016
0005
FFF3
0010
0007
0001
0011
0006
FFF5
000F
FFF6
FFF5
0007
FFF9
FFFA
FFEE
0002
0007
FFEF
FFF4
FFFB
0010
0001
FFFF
FFF3
FFF3
FFFA
FFFA
FFF5
FFFD
FFF7
0001
0016
0001
000B
FFE7
0005
FFF1
FFFD
0002
0003
0000
000E
0009
FFEC
000B
000D
FFFF
FFF9
000C
0005
FFF6
FFF7
0008
000C
FFE8
FFFD
FFF3
000A
0000
0005
FFF3
0000
FFEE
000C
0011
FFF5
0000
0010
0007
0002
FFFB
0011
FFF9
FFE9
FFFE
FFF7
0008
000E
000B
0014
FFFD
0008
FFF3
FFF9
FFF1
FFFD
0002
FFFD
FFEE
0005
FFE7
000C
0000
FFF2
FFFD
0009
FFFE
FFEC
FFFA
FFE8
FFF9
FFF9
FFFD
FFF3
FFF9
0004
FFFD
0004
000C
FFF9
FFF7
FFF0
FFF8
FFEE
FFEF
000C
0014
FFFE
FFF4
000C
0011
FFF2
0001
0011
0001
FFFB
0009
0009
0007
FFF5
FFF3
0003
0009
0001
0003
000C
FFF2
0006
0014
FFF5
FFF9
0002
0008
FFF1
FFF6
0000
000E
FFFC
FFFA
FFFB
0007
FFFD
FFFA
FFF6
0000
FFFD
000A
0002
000E
0003
0006
0002
0009
0004
FFF4
000D
FFF7
FFF6
0002
FFFC
0004
0000
000A
FFF0
FFFD
FFFE
FFF3
000E
FFF8
000F
0016
FFF7
000D
FFFC
FFFC
FFF8
0008
000B
0017
0003
0004
FFE9
FFEE
000B
0000
0008
FFE9
000C
0002
FFFA
FFF5
FFFE
0000
0003
000C
FFED
FFEE
FFEF
FFF7
FFEF
0013
FFFA
0010
000D
FFF5
FFF9
000A
FFFF
FFF6
0003
0011
FFFB
0004
FFF3
FFFB
FFFE
000F
000D
FFF5
FFF7
0011
FFFD
0008
FFEB
FFEB
FFEF
000B
FFFD
FFFB
FFFC
FFEC
0004
FFEE
FFF4
000D
0017
0001
0006
FFFD
FFF3
0004
FFEC
FFFC
000C
0008
FFFB
000E
FFF5
0007
FFFA
FFEC
FFF7
FFFD
0003
0009
FFE7
FFF8
0010
000B
FFF9
FFEE
0003
0000
0002
0007
FFFB
0002
FFFA
0001
FFFA
FFF7
0006
FFFB
FFFC
FFFB
0006
FFED
0006
0004
0006
0000
FFEC
0000
000E
FFF4
FFF4
FFF8
FFF6
FFFD
FFFB
0004
FFFC
FFE7
FFFF
0011
0000
0008
FFFE
FFFC
FFF7
0004
0006
FFFE
000A
FFF9
000A
0017
FFF8
000C
0000
FFFB
FFFA
0000
FFFE
000E
000A
000C
FFFD
0005
FFF5
FFF6
0009
000B
FFFE
FFFF
0007
0004
000F
FFF5
000D
FFFC
0002
FFEC
FFF1
0003
000F
FFFA
0006
FFEE
000B
FFFD
FFE9
0013
FFF3
0006
FFF0
FFF7
0006
000F
FFFE
FFFA
FFF8
FFFB
FFF7
0006
FFFF
FFFD
0006
FFF7
FFFC
000E
FFFC
FFFE
FFF7
FFF5
0005
0011
0009
0010
0011
0008
FFF8
000B
FFEE
FFEC
0007
0006
FFF7
000C
0001
0001
000F
000B
0002
FFF1
FFFA
FFF8
FFFA
FFFD
0005
FFF1
000F
FFF4
0002
FFEC
FFF4
000C
0001
0008
FFFE
FFFC
000F
FFFA
FFFB
0009
0014
0000
0004
0002
000A
0006
0001
0005
0002
0019
0006
FFF6
FFF4
FFFF
0008
0005
000A
0012
FFF1
FFF4
FFFC
FFFD
0006
FFF6
000B
000D
FFF2
FFF1
0009
000A
FFF3
FFF6
FFFC
FFFB
0001
0007
0017
FFFC
000A
0002
FFF8
FFEC
0010
FFFF
FFE7
0005
0017
FFF5
FFF9
0010
000E
FFFD
0002
0007
0000
0004
0009
0010
FFFC
0002
0005
0014
FFEA
0013
0008
0001
FFF3
FFF4
000A
0003
FFF2
FFF9
FFF5
0014
FFF3
0002
0006
FFEF
FFF4
FFFD
FFFF
FFF4
FFF7
FFF8
FFF2
FFFD
FFF3
FFFE
FFFD
0010
FFFF
FFF6
0001
FFEF
FFFE
0014
0009
FFF6
0012
000A
000B
FFFB
FFEA
FFF5
0019
0006
FFEA
FFFE
FFFE
FFEF
000E
FFFF
000D
0000
FFFD
FFF0
FFF6
0004
0000
000D
FFFF
FFF1
FFFD
000A
000E
0011
FFFC
0001
FFF3
000A
FFFA
0001
FFF4
0010
FFFA
FFFF
FFF5
0001
0001
000C
0005
0001
0001
FFF7
0005
FFFA
FFF8
000D
0008
FFFD
0000
0006
0016
0003
FFF7
FFED
000C
0011
FFFE
FFFF
0001
0000
FFFA
FFFC
FFF6
0015
FFFB
000D
0003
FFF5
0013
0003
FFF9
0003
FFF9
FFEE
FFEA
FFF9
000A
0008
FFFB
FFF6
FFF5
000B
FFFC
FFF8
FFF5
000F
0007
0009
000D
FFF9
FFF5
FFF3
FFF5
0002
FFF9
FFFF
FFFC
0006
FFF9
0018
FFFF
FFFC
0017
0009
FFF0
FFF9
0007
0009
0006
0000
FFF3
000B
FFF7
0000
0004
FFF7
FFF6
FFFC
FFED
FFFE
FFF7
0001
FFF1
FFF3
FFF3
FFF3
FFFE
0012
0002
0004
FFF9
0002
0000
FFF1
FFFC
0008
FFF6
FFF6
FFF1
FFFF
000F
000B
0011
FFF7
0009
FFF8
FFEF
FFF6
0011
0016
0004
0004
000C
0000
FFF7
0000
000A
0003
FFFD
FFF6
FFF2
FFF5
000F
FFF5
0002
FFFC
FFEE
FFF6
0009
0003
0008
0011
FFEC
FFEE
0003
0014
000C
000D
0017
FFFF
FFFB
0001
FFF8
0009
FFED
000A
0009
0004
FFF4
0013
000A
0011
FFED
0001
0002
FFF7
0007
0002
FFFD
FFFB
FFF3
FFF2
FFF1
FFEF
FFF6
0015
000A
FFFA
0002
FFF1
FFE9
FFE9
0013
FFEE
FFF8
000B
FFFE
FFF4
FFFD
FFFE
0006
FFF5
FFF9
0011
FFFF
FFF6
FFFD
0000
FFFD
000D
0005
FFEB
000D
FFF1
0007
000B
FFFD
FFFA
FFF1
0002
000F
FFFA
0005
FFF8
FFF7
000B
FFF9
0009
000C
0001
000E
0007
FFFD
0007
0017
000B
FFFA
FFFF
FFF5
FFF7
FFEB
0009
0017
FFFE
0016
0008
000C
0009
0018
000B
FFFF
0017
0005
0003
0004
FFF5
000A
FFEB
FFF6
FFFA
FFF7
0019
0002
FFE9
FFFC
FFEC
0006
0003
0005
000E
FFED
FFFB
FFF5
0004
000C
0019
0005
000C
0006
FFED
0002
FFF5
FFF8
FFEE
FFFF
FFF2
0008
0007
000F
FFF4
FFF5
FFE9
0000
FFF5
FFFF
FFF3
FFEB
FFF4
FFFA
FFEE
0012
FFF0
0002
FFFA
FFFD
FFF6
FFFD
000C
FFFF
FFFC
FFF6
0007
FFFC
FFFE
FFE8
FFF4
0004
FFFA
000B
FFFB
0017
FFFE
000B
FFE7
0016
FFF3
FFEA
0016
FFF9
0003
0002
FFED
000F
0015
FFF2
000D
0013
0005
FFF6
0009
0000
FFF3
0004
000D
FFF9
FFF4
FFFD
FFF8
0005
000C
0002
FFF7
0012
FFFD
0013
FFEC
FFF6
FFFB
FFF7
FFF8
0018
0004
0010
FFEF
0007
0011
FFFD
000E
0010
FFF4
000B
0002
FFF1
FFFE
0017
0006
FFF0
FFF0
0006
0012
0004
0006
FFFC
FFFA
FFF3
0018
0001
FFF3
0016
0018
000A
0000
FFF8
FFF1
FFF5
0008
FFF7
FFFA
FFFA
FFFB
FFF2
0019
0003
FFED
FFE6
000B
FFFD
FFE7
FFF9
FFF5
0008
000B
0001
FFF7
FFF6
0012
0008
000B
FFFE
FFFB
0003
0003
FFFC
0012
0007
0003
0008
FFEC
FFFF
0000
FFFD
0007
000F
FFFF
FFF0
FFF3
FFEA
0007
0005
FFFB
FFF6
0006
FFFD
0003
FFE9
FFEA
FFFD
000E
0005
FFFF
FFF1
0010
FFF8
0000
0000
FFF8
0001
FFF8
FFFE
0006
0002
FFFB
0000
FFFD
0001
FFEB
FFFD
0003
FFF8
FFF4
0000
FFED
FFEC
FFFE
FFFA
0011
0000
000C
FFFE
0015
FFFE
FFF5
0004
FFF4
000C
FFFB
FFFD
FFFB
FFF3
FFFC
FFFA
FFF9
0001
0006
FFF9
0005
FFF9
000A
0004
FFFD
0014
FFFE
FFFD
FFF3
0002
FFF6
FFEC
0000
FFEB
FFF9
000F
FFF0
FFFA
FFFC
0003
000F
FFFA
FFFA
FFFA
0003
FFF4
0009
FFF8
FFF6
0009
0004
0010
FFFC
000A
0016
FFFF
FFEC
FFF4
FFFC
0001
FFF8
FFFA
FFF0
0004
FFF6
0000
FFF3
0007
FFFB
FFFE
000D
000B
0012
FFF4
0017
0000
FFF1
001A
0003
FFFD
FFEF
0010
FFF7
0015
0007
FFEF
0004
000A
FFFE
000D
0001
FFF9
0008
0009
FFFB
FFFF
0006
000F
FFF7
FFFB
0003
0005
000E
FFFB
0015
0011
0017
FFFB
0007
FFFC
0016
0006
000F
0002
0006
FFFB
0006
FFF9
0004
0007
0003
FFF3
FFF5
FFF5
0003
0003
0006
FFFB
000A
FFFE
FFF2
FFFA
000B
FFF2
FFFC
FFFB
FFFA
FFFE
FFFB
0001
0000
FFFD
0007
0004
FFEC
000F
FFEA
FFF1
FFE6
FFF8
0001
0005
0013
FFFC
FFF5
FFF9
FFF8
0010
FFFE
001A
FFFB
FFF5
000B
0005
0007
FFE9
FFF9
0005
0003
FFEF
0002
FFF0
FFF9
FFF6
FFF9
FFF7
FFF6
0003
FFF6
0010
FFFA
FFFE
0014
000E
0000
FFFA
0007
FFF4
FFFB
FFF0
FFFF
0009
FFEA
FFFF
000A
FFF3
FFFE
0006
0009
0007
FFF9
0001
000C
0009
FFF4
0009
0003
FFF6
000D
FFEE
FFFE
FFF4
FFFD
0001
0015
FFF4
FFFE
0003
0002
0000
FFF2
FFFF
0004
0010
000B
FFED
0017
0002
0001
0016
0005
FFFF
0014
0007
0009
0008
0007
FFFA
0008
FFFF
FFF4
0005
FFF6
FFE9
FFEE
000D
FFFE
000B
FFF1
0005
0004
0002
0009
FFEE
0001
0004
0001
FFF3
FFF9
0007
FFFB
FFF7
000A
0001
0015
0001
FFEA
000F
0011
0016
FFF7
0005
0003
FFF6
FFF0
0002
000C
0003
FFF4
FFF4
0005
000A
FFF7
0007
000F
0010
0003
0000
0005
FFFA
000F
FFFE
FFFD
0015
000B
0009
0015
0005
FFF7
0012
FFF9
FFF7
000A
FFF2
0007
0002
FFFB
000B
FFF5
FFFE
FFF9
0005
FFF5
FFF1
FFF9
FFFC
FFEB
0000
FFF6
FFED
FFFE
FFFA
000B
0002
FFF9
0005
0011
0001
FFFD
FFFC
0008
FFFA
FFFD
FFFA
0006
0011
FFFD
FFF9
FFF5
FFF8
0007
0002
FFFB
0002
000A
FFF1
0011
0004
FFF6
000C
FFE7
0001
FFEC
FFF6
000D
FFFD
FFF2
000C
0005
0001
FFF2
FFF1
FFF9
FFFC
FFEE
FFFC
0000
000D
FFFF
0000
0004
0015
FFF8
0003
FFFB
FFFF
000F
FFED
000F
FFFF
0013
0002
FFFC
0008
000B
FFE8
0006
FFF9
0008
000E
0002
FFEC
000D
000A
FFFE
0001
0003
000A
0003
0007
FFF8
FFFE
0007
FFF3
0012
0017
FFF1
FFE8
FFF6
0006
FFFB
000E
FFF9
0005
FFFB
0000
FFF9
FFF8
000F
000A
FFFC
FFF9
000E
000C
FFF9
0015
FFFA
000A
FFEF
0013
0004
FFFD
0000
000C
FFF4
000D
FFF8
0001
0014
0014
0011
000D
0003
0004
0000
FFF6
FFEA
FFFE
FFF2
000C
0008
FFF1
FFF6
0002
FFF9
0002
0005
FFEB
FFF9
0008
0004
0012
FFF0
FFF7
FFF9
FFF0
FFF5
0006
0000
FFFF
FFFF
FFFD
0016
0000
FFFA
FFED
0008
FFFE
0006
0000
FFF1
0001
0008
FFF1
FFFC
0019
0012
0006
FFF2
000A
FFFF
0000
0001
FFED
FFFD
FFF2
FFF1
FFEF
FFFB
0002
000C
000D
FFF5
FFFB
0003
FFFC
FFEB
FFF5
000F
0003
0018
0016
0004
FFF4
FFFD
FFF8
FFF9
FFFA
FFF6
FFF7
FFEC
0005
FFFD
FFF7
FFFD
0010
0004
FFEA
FFEC
0003
FFFC
FFFF
0005
FFF4
FFFD
0016
FFF0
FFFB
FFED
FFF9
FFEC
0019
FFF6
FFFC
FFF7
0005
000C
000B
FFF1
FFFB
000C
FFF2
FFFF
0008
FFF8
FFF3
FFFF
0009
FFF6
000F
0004
FFF8
FFFD
0008
FFF3
000A
000D
0004
FFF6
0010
0000
0007
0000
000B
FFED
FFFA
000F
FFFE
FFFA
0001
000C
0003
FFF6
FFF7
0011
FFF3
0009
FFF3
000E
000A
0013
FFF0
FFFA
FFEA
000B
FFED
0001
000F
0000
000B
0003
0001
FFFC
FFED
FFFD
0010
0013
FFF0
0006
0010
FFF8
FFF6
FFF5
0005
FFFC
0016
FFFB
0012
FFFF
FFF2
FFF1
000B
FFF6
FFE8
0016
0005
FFF9
FFF7
FFFA
000C
000B
FFEB
FFFB
FFFC
0008
000B
0011
0007
000E
0001
FFF8
FFFB
FFFC
FFEE
0006
FFFD
0011
0003
0000
000D
0011
0001
FFF1
0016
0007
0007
FFF4
FFEE
0016
000B
FFFF
FFFA
0007
FFF9
0013
FFF5
0000
0004
FFFB
0001
0000
FFF9
FFF8
FFFC
0006
FFFD
0001
0007
FFF4
FFFC
0004
0001
0010
0004
0008
FFF9
0018
FFF4
0000
0003
0015
0007
0002
000A
FFFF
FFF3
FFEF
FFFE
FFF6
FFFD
0003
FFFD
000F
0013
0009
0002
0017
FFFD
000A
000C
0003
FFEF
000F
000A
FFFB
0005
FFEF
FFFD
0001
0010
FFFF
FFFF
FFF7
FFFA
0000
0001
0009
FFF1
FFFC
0003
FFFB
0000
FFE7
0003
FFF5
FFFE
FFF9
0006
0008
0003
FFEF
FFFF
FFEA
0007
FFFC
FFFC
0012
FFF0
0006
FFFE
FFF5
0012
0007
0004
FFFF
0003
0001
000D
FFFF
000C
FFFA
FFFD
FFFA
FFF4
FFFE
FFFE
FFFC
000E
FFF9
0005
0011
FFFE
0006
0009
FFEF
000C
FFF2
FFFF
000F
000B
FFF2
FFFF
0003
FFF9
FFF9
FFF8
FFEE
000F
FFF0
FFF9
0003
FFF3
000C
0004
FFFD
FFFD
FFFB
FFF2
FFFF
0001
FFFF
FFF0
000A
0017
0015
FFFE
FFF2
000A
FFEE
000B
FFFB
0003
0006
0004
0010
0007
0001
0006
FFF8
0007
FFEA
FFED
0013
0008
0006
0001
FFF7
FFFC
000D
0014
FFF9
FFF2
FFF1
FFF3
0010
FFF7
0006
FFF6
FFEC
FFFF
FFFF
0005
FFF0
0004
000C
0004
0014
FFF3
FFFF
0005
FFFF
FFFD
FFF9
FFEF
FFF0
000B
FFF9
0008
0008
000A
FFFB
FFE7
FFF7
000D
0003
0003
FFF5
0009
0019
0005
FFF5
0007
0003
0004
0004
FFFC
FFFB
FFFA
000F
000C
FFFB
0007
0000
0000
0006
0005
0009
FFFB
0007
0001
0002
0001
0001
0000
FFF0
000A
0005
0008
FFE8
0009
FFFB
0007
0012
0003
FFF4
0002
FFFF
FFF3
FFFD
FFF5
0001
FFEC
FFF3
FFEF
0009
0007
0009
FFF1
0005
FFF7
0007
FFFF
0008
0003
FFFA
0000
FFF6
FFFC
FFF9
0018
0014
FFF7
0000
FFF8
FFEA
000B
0003
FFF1
FFF3
FFFF
000D
FFFC
0002
FFF1
FFEB
FFF9
FFF1
0017
FFFC
0006
FFF8
0005
0000
FFEA
0010
FFEB
FFF4
0000
0007
0009
000C
0008
0011
0015
0007
FFFC
0000
0017
FFEC
FFEB
0007
0005
FFFD
FFF2
0005
000D
FFFD
0002
0014
FFFE
0018
000E
000D
0000
FFF2
FFF3
FFEB
0004
000E
0007
FFF8
000E
FFF8
FFFD
FFEE
0012
0005
FFED
0012
FFFC
0014
FFF4
0006
0007
000B
FFFF
0012
FFFA
0008
FFFD
0002
000C
0006
000A
FFF9
0006
FFFB
FFE9
000A
FFFD
000D
FFF9
0006
0009
0012
000C
0001
FFFB
FFF4
0004
0001
FFF1
FFF3
FFF8
0002
0007
0008
FFFA
FFFF
0008
0002
FFEF
FFF6
0001
000E
0005
0018
0003
0000
FFF9
FFED
FFF9
FFEF
0001
0004
0007
000B
FFF8
0007
FFF0
FFEE
0001
0018
FFFD
000C
0006
FFFD
FFFF
0012
FFFB
000D
0004
000F
FFFB
000C
FFF9
0000
000A
000E
FFFF
0008
FFFF
0010
0002
0016
FFFC
000F
FFF2
FFF3
FFF7
000D
0010
FFEA
0013
FFEE
0014
0006
0002
0002
0015
FFF2
0015
0016
FFFF
0014
0011
FFF3
FFE7
000B
0000
000B
0008
0002
0004
0016
FFEC
000F
0005
FFF5
FFFD
000D
0016
FFF1
0016
FFFF
FFF7
000C
FFFC
FFF3
FFF6
0006
0007
FFFC
000D
0007
0004
000D
0003
FFEF
0006
FFF0
000B
0005
FFFC
FFF5
000C
000D
0000
0015
FFED
FFFA
FFE9
FFF9
FFF8
0000
0005
FFFE
FFEE
FFEC
0007
0002
000D
FFF6
FFEB
0003
FFF5
FFF6
FFF7
000D
0004
0016
FFFA
FFFB
0016
0009
0010
000D
FFF0
0010
FFFF
FFF7
FFFB
0002
FFF8
0010
000B
FFFF
FFF2
0000
0004
FFFE
FFF4
FFFB
FFF9
FFF0
0012
FFEA
000D
FFF9
FFF2
FFF6
FFF9
0006
FFFD
FFF7
0006
0002
0007
FFEB
0008
FFF9
FFF7
FFF1
FFF1
0006
FFF1
FFF3
0004
FFFD
0009
FFED
0002
0006
FFE9
FFFE
FFF8
FFF2
FFFF
FFF8
0003
FFF7
0012
0000
0013
0007
0000
FFFA
FFF5
FFEA
000F
FFFC
FFFD
FFF0
FFF5
000D
FFED
FFEC
FFF9
0003
0006
FFFD
0006
0008
FFF5
000B
0003
0010
000A
FFEB
0001
0003
000B
0000
000C
FFF6
0018
FFEC
000C
FFF8
FFE8
0003
FFFA
FFE8
FFF3
FFFF
FFFA
0015
000B
0005
FFEE
FFF7
000F
FFFE
000C
000C
0001
0013
FFFF
FFFC
0007
0010
FFFA
000F
0003
FFF9
FFF5
FFED
FFFD
FFF6
000F
FFF5
0001
000D
FFFF
0006
0006
FFFA
0005
0019
FFF7
000E
0000
000D
000D
FFF3
FFF0
0004
0011
FFFB
0017
0001
FFF7
0003
FFEE
0006
FFF9
000C
FFF9
FFF9
FFF3
FFF5
000F
000A
FFF8
0006
0003
000F
FFFA
FFF7
FFFB
FFE7
0000
FFEB
FFFC
0009
000A
FFFD
FFF3
0018
000C
FFFA
0008
0004
FFF8
0002
0003
FFFA
FFF2
000D
0009
0003
0006
FFF5
0008
FFFA
FFF9
0001
FFE9
FFF7
FFF2
0003
FFFF
0000
000F
FFF2
FFFC
0005
0001
FFF6
000F
0004
0004
FFEF
0012
0003
0003
FFFF
FFF9
0001
0002
FFF2
FFF5
0008
0000
0008
FFFC
000E
0001
0007
FFF1
FFF0
FFF5
0007
FFEF
FFFA
000E
FFF1
FFF7
FFF6
FFEC
FFF4
0015
0009
FFFB
FFF8
0019
FFEF
FFF2
0014
000B
FFF0
FFF6
FFF4
0005
0000
0004
0011
0005
0003
FFF5
000F
FFF0
FFFD
0007
0007
FFFC
000E
FFF2
FFF7
FFF5
0001
0014
FFF8
0006
FFFB
0003
FFFD
FFFD
0012
FFFD
000C
0013
0003
0000
0012
FFED
FFED
FFF0
FFF9
0012
FFF3
0007
0016
0008
0014
FFF2
FFFC
FFF0
0009
0004
0001
FFF9
FFF3
0001
FFF8
FFF8
0012
0005
0008
FFEF
FFEE
0009
FFFF
FFF8
FFF2
FFF8
FFFF
000E
FFF5
FFF2
FFF7
0003
FFFE
FFFF
FFFC
0003
FFF6
0009
FFFA
FFF2
FFFD
0006
0005
0003
0010
FFFF
FFFE
FFF2
0005
FFFC
FFFE
0005
FFF8
0018
0005
FFF3
0000
0000
FFFE
0006
0003
0012
000A
FFF6
FFF2
0006
0003
0001
FFF5
0007
0008
FFF5
000F
000B
FFEF
0015
FFF3
FFEB
FFEF
0005
FFFD
FFFD
FFED
0003
FFF8
000A
FFF5
000A
0016
0010
FFFC
FFF7
FFEE
0014
0007
000D
000A
0003
000C
0003
000B
0007
0015
000B
FFFE
FFF7
000F
000A
000F
0005
000C
FFF8
FFEF
0000
000F
0000
FFFD
000D
0017
FFFE
0003
FFF6
FFFF
FFF7
000A
FFFC
0000
FFEF
000D
0002
000B
FFEB
FFFE
FFF1
FFF3
0004
FFEC
0000
000A
FFFE
0009
0018
FFF7
FFF7
000A
0012
FFE8
0007
0017
000B
0007
0005
FFFA
FFF9
0008
000C
FFFE
0004
0006
0003
0000
0003
0008
FFFA
FFFF
0003
0006
FFFF
FFF0
0000
000E
0007
FFF6
000B
000A
0006
000A
FFF1
0009
0001
FFF6
000D
FFF6
0004
FFF3
FFEB
FFF9
0011
0009
000B
FFF9
FFFB
0001
000C
0005
000A
000F
0009
0004
FFF4
FFFA
FFFC
0001
0017
0011
0003
0002
FFF8
0010
0013
FFF5
FFF7
0012
000E
FFFC
0009
FFF7
0019
FFF6
000E
FFEB
0001
000B
000D
FFF9
FFFC
FFEE
FFFB
0006
FFE7
FFFA
0002
FFFC
FFFC
FFFC
FFF4
0004
FFF6
FFFF
0003
000D
FFFF
FFFC
FFE9
0006
FFFB
FFE8
0005
0001
000B
FFFB
000D
0005
0009
FFFA
FFFC
000A
0004
000B
FFEF
0018
FFFC
0016
0008
000F
FFEF
0005
000D
0006
0008
0001
FFF9
FFF7
FFEE
FFFC
000A
FFFA
0012
FFEE
FFFA
FFF2
0011
FFF8
0002
FFFE
FFFB
FFE7
000E
FFF8
0008
000E
FFF9
FFFC
0002
FFF4
FFF1
FFF0
FFFC
0000
FFEC
FFF2
0000
FFF3
000A
FFF8
0010
0003
FFF3
000A
000B
FFFF
FFFA
FFF6
FFEA
FFFE
0011
0006
FFF8
000D
0008
FFFE
FFF8
0008
0001
000B
FFFC
FFF9
FFF2
0004
0007
0004
FFFB
000E
0011
000C
0007
0006
FFFA
0002
FFFD
FFF8
FFF0
FFFA
FFFF
000E
0001
0001
000F
0009
FFFB
FFF3
0003
FFF6
0011
0009
FFFC
FFFD
0000
FFF6
0003
0007
000C
0001
0010
0009
FFFD
0000
0017
FFF9
FFF4
FFFC
0008
FFFD
0002
0011
0005
0008
FFF9
FFF7
000F
0003
FFFF
000A
FFEF
FFFF
FFFA
FFFA
FFFB
0004
FFFD
FFF2
0015
FFFE
0005
0009
FFF2
FFF5
0005
FFFA
0003
FFF1
000D
FFEF
0003
0005
FFFD
0001
FFF6
0002
FFEC
000B
000E
FFFE
0014
FFF3
0003
FFEE
0008
0001
FFFC
0009
000F
0000
0011
0006
000C
FFF9
000D
FFEF
0001
0016
FFEC
FFF7
FFF9
FFEB
0002
000C
FFFB
FFFA
0001
FFF8
000B
0002
000F
000B
FFFB
FFFC
0005
FFFD
0015
FFF8
FFF4
0000
FFFD
0014
FFF3
000E
000E
0010
FFF6
0009
FFF5
FFF1
FFF7
FFE8
FFFC
0011
FFF1
FFFB
FFFC
FFE8
FFFB
FFFA
FFFD
0000
FFFC
0004
0000
FFF9
FFF6
FFFA
0004
FFF5
000D
FFFB
FFEC
FFFD
FFF8
000B
FFFA
000E
FFFF
0000
FFF3
FFFF
0005
FFE7
FFFE
000A
000B
001A
FFFE
0009
FFFE
0012
FFF8
FFF2
FFF7
0007
0007
FFFB
0008
FFF2
0019
FFFC
0002
0006
FFFC
FFFD
FFFF
FFFA
FFEA
FFF9
FFF2
FFF1
0011
0003
FFEE
000A
FFFD
0008
FFFE
0006
FFF2
FFFC
FFF6
FFFD
000B
FFF8
0005
FFFF
0008
0009
0002
FFFD
FFEE
0005
0005
FFF7
FFFD
FFF5
FFF0
FFED
0000
FFF8
0001
FFF0
FFF3
0007
FFF1
0005
FFF5
FFF6
FFEF
0007
FFFB
0010
000E
0010
0005
0002
0003
FFEE
0001
FFF5
0007
000D
0001
0002
FFFB
000B
FFFB
0008
FFFF
FFF8
FFFE
0002
0013
0001
0006
FFFE
0000
FFEA
0006
0014
0000
000D
000A
0010
0012
0006
000D
FFFE
FFFB
FFFC
0010
0007
FFF2
000E
000D
0003
FFFA
FFF7
FFF9
FFFC
0014
FFFA
000E
FFFC
FFFE
FFF8
FFF7
FFFD
0001
0003
0007
0012
FFE7
0011
000E
0005
0014
0003
FFFB
FFF8
FFF4
0005
0001
FFF8
FFF8
0008
0009
FFFA
FFF5
0008
FFFB
FFF8
0014
FFF1
FFF5
000B
0014
0002
FFFC
0007
FFF2
FFFD
0001
FFFC
000E
000A
0002
0010
FFF3
0002
FFF6
FFFE
0014
0001
0008
0007
000C
FFF4
FFF7
FFFC
FFFF
000B
FFF8
0018
0002
FFF5
0002
FFF3
FFF4
FFFC
FFFB
FFF3
0011
0005
0000
FFFB
FFF4
FFF0
000D
0017
0004
FFF1
FFED
0005
0006
FFEF
0012
0006
FFF8
FFF6
FFFD
FFF3
0006
FFFB
FFFA
0015
0008
0004
0015
FFFE
000D
0008
FFF4
FFF6
0010
FFE9
0018
FFFD
0009
FFFA
0009
FFED
FFF5
0007
FFF3
FFF7
0006
FFFD
000D
FFF4
0009
0002
FFF1
0004
0003
000A
FFFE
FFF2
FFFD
0015
0013
FFEB
FFF5
0014
0007
000B
0005
FFF3
FFFD
0002
FFF8
FFF2
FFF1
FFF7
FFFF
0001
0015
FFF9
0008
FFF0
FFF9
0009
FFF4
0012
FFF2
FFFB
000E
0001
FFF5
FFF3
FFFC
FFF4
0003
FFFD
FFF5
FFFA
0006
FFFD
000E
0018
FFF0
FFF0
FFF7
0009
FFE6
FFF3
0008
0004
FFFC
FFED
0000
FFFC
FFFE
FFF8
FFF7
FFFC
FFF6
FFF3
0011
FFF7
FFF4
FFFE
0013
0007
FFF5
FFE7
000B
FFEF
000B
FFF4
000D
0005
FFEC
0003
FFFD
FFF2
FFF7
0005
FFED
0006
0007
FFFA
0006
0003
0011
0007
FFF8
FFFD
0001
FFFB
000D
0008
FFEF
FFF6
0017
0002
FFF1
FFF5
0004
FFFC
0009
FFE8
FFF7
FFF0
FFF1
FFFE
000D
0004
000A
000C
FFF6
000F
FFEC
FFF6
FFFD
FFF4
FFF8
000F
0002
FFFF
FFFC
FFFC
FFFF
0014
0010
FFED
0003
FFF2
000B
FFED
000F
FFF2
0011
000D
0006
0006
0008
FFFE
000E
000F
FFF0
0002
FFF9
0007
0006
FFF8
FFE9
0003
000B
FFF6
FFFA
0004
FFFB
FFF7
0013
FFFC
FFF3
FFE9
0005
0002
0006
FFFC
0008
FFFA
FFFA
0001
0001
000B
000B
0013
FFF6
FFF2
FFF5
000F
FFF5
0010
FFEE
FFFD
000F
0015
0004
FFF0
FFF0
FFF2
000D
FFED
FFFC
FFEB
000D
FFFD
000C
FFE7
FFF5
FFF0
0002
0007
000B
FFF2
000B
000A
FFEC
FFF7
0003
0008
FFFA
FFF9
FFFC
FFF7
FFFB
0007
FFED
FFF4
FFFB
0009
0005
0016
FFF4
0008
0006
FFF8
FFF2
0006
000B
FFFF
000B
FFF7
FFF2
0005
FFFE
0008
FFF2
0013
0003
0009
FFFE
0003
FFF6
FFF9
FFFD
FFF6
FFFF
0000
0007
0000
000E
0006
FFE7
FFF9
FFF2
0010
FFF6
FFF8
0004
FFFA
FFF8
0002
0000
FFF2
0005
0012
0004
0017
0009
FFF7
0010
FFF8
0015
0011
000C
FFFA
FFF6
FFFD
FFF4
FFEC
000E
0006
000C
0007
000A
0009
0001
FFEC
FFFC
FFFE
0003
0001
FFFE
000A
FFFB
0013
0002
FFFF
0002
0004
FFF8
FFF3
000B
0011
FFFB
000B
FFF5
000D
FFF7
FFFD
0013
FFFD
000C
FFF8
FFF1
FFED
FFEF
FFF2
FFFF
0000
000D
0008
0000
FFEF
0004
FFFC
FFFA
0009
FFF7
000F
FFF3
0009
FFF4
FFF4
FFF0
FFFA
000D
FFFA
000F
FFFF
FFF5
FFFF
0001
0007
0005
000B
0006
0017
000A
0001
0009
000A
FFF4
0010
000A
FFFE
FFF2
FFEB
0002
FFFA
FFFB
0006
0002
FFF9
0002
0002
0008
000C
FFFB
000A
0005
000A
FFEF
FFFB
0006
0011
FFF4
000C
000B
0012
0014
FFEC
0003
FFEE
FFF6
000B
FFF3
FFF2
FFE7
FFFE
0000
FFF0
FFF3
0006
FFFA
FFF6
FFF7
FFEA
0001
0004
0006
0009
FFF7
0011
0002
FFEA
FFFD
0016
0009
FFE8
FFF0
FFE6
FFFE
0003
0006
FFFD
0009
FFFA
000D
0007
0006
FFF7
0004
FFF9
FFF2
0007
0011
FFF5
FFF5
FFFE
0008
0002
FFFA
FFFE
FFFE
0012
FFFE
0012
0002
FFF3
FFFC
FFF7
0003
0004
FFFD
0013
FFF9
FFF2
FFF6
FFFD
FFFF
FFF2
FFF5
FFFF
FFFF
FFF4
FFFA
0008
0008
000B
FFFF
FFFD
000C
FFF4
FFFC
FFF3
FFFD
000A
0002
0000
0008
FFF2
FFF6
0007
FFF9
FFE7
FFF8
0001
0009
FFFD
FFFB
000C
0003
0009
0009
0007
FFFA
FFF5
000C
FFF9
0003
FFF3
0016
0004
000C
FFFB
0010
0001
FFF6
FFF8
0012
FFF5
FFF4
0004
FFE7
000B
000F
0014
FFF6
FFFC
FFFA
0007
FFFB
FFFB
FFFF
0000
FFFC
0009
FFF7
000C
0009
FFF8
0012
0000
0004
FFF2
0019
0003
0001
0004
FFFD
FFF8
0009
FFF8
0009
000D
FFF5
FFF5
0011
0000
0008
FFFB
0010
FFFE
FFF0
FFF6
FFF6
0007
FFF4
0005
FFFA
FFE6
0018
FFFA
0016
0016
FFFB
0001
FFFA
FFED
000B
0013
FFF4
FFF7
FFFD
FFF8
0003
0003
FFFD
FFF6
0018
FFEE
0002
0003
FFF8
FFFA
FFF3
FFEE
0009
000E
0004
0000
0001
FFFA
FFF9
FFED
0001
000E
0010
0008
0000
FFE8
000A
FFE8
FFF6
0008
FFF2
FFEC
FFFB
FFFC
000D
0011
FFF4
FFF4
FFF9
FFF9
FFF6
0001
000D
0011
000D
FFFD
FFF2
0000
FFF8
FFF5
FFFD
0008
000C
0017
FFED
FFF6
0012
FFEE
FFE9
0005
FFEA
0002
0003
FFFB
000E
FFFA
0002
000F
0005
FFF9
FFF6
0007
000E
000E
0001
0015
FFF5
0007
FFF6
FFFC
0005
0013
0001
0005
FFFE
0002
FFF1
0012
0001
000A
