FFF8
000D
FFF9
0011
FFEC
0010
FFE9
0001
FFF7
FFE7
0001
FFEA
FFF2
000F
FFFB
0013
FFFF
0002
FFF5
FFF3
FFF6
0009
0003
0007
0015
0001
0015
FFF8
000A
FFFF
0017
FFF8
FFF5
0001
FFF5
0006
FFF4
FFF2
FFF0
FFF1
FFED
0000
0002
0000
0003
FFF7
FFF3
0002
000C
0001
FFFA
0008
FFF0
0001
FFF8
000B
0000
0013
0000
0014
000A
FFFC
FFFB
000D
0009
0003
FFFC
0007
0014
FFEC
FFF7
0002
FFEC
FFF6
FFF7
0014
000D
FFFD
FFF2
FFF0
FFF3
FFFF
000D
0005
0000
000E
FFEA
FFF8
FFF7
0008
0001
0011
0006
FFEF
0009
0019
0000
0000
000B
FFFD
FFFF
0002
FFF7
0000
000C
FFF9
FFFC
FFF9
FFFA
000A
FFF5
0010
0008
000F
000A
0004
FFE7
000E
0006
0001
FFFA
FFF0
FFFA
000F
0006
0003
000E
FFFC
FFEC
000B
0016
FFE9
FFED
FFF9
0002
000B
FFF6
0004
0001
FFF1
FFFB
FFFA
FFFF
FFFB
FFF1
FFF3
FFFF
000B
FFF3
FFE9
0001
FFF3
0005
0003
0001
FFFF
FFEE
FFF7
FFF7
0000
FFFC
FFEF
FFF8
0006
000E
FFF4
0015
0006
0004
FFFD
FFEF
FFF8
FFFD
0004
0000
FFFA
0002
FFEE
000A
FFFC
FFF9
FFF2
FFF6
0002
0000
0014
0011
0002
000A
FFEA
0007
0007
FFFE
FFFD
FFFC
0002
FFF9
000D
0013
FFF6
0004
FFF8
0000
0007
0014
FFED
000F
0009
FFFC
0000
000A
0001
FFFF
000D
FFFF
FFF5
FFF0
0003
FFF1
FFEC
000B
000D
FFEA
0009
0008
FFF3
0005
FFFD
FFEB
0017
FFE7
000C
0001
FFF3
0007
FFFD
0005
FFF1
0003
FFF2
FFFF
0005
0005
0004
0019
FFFF
0005
FFFE
0000
000D
FFFE
FFF4
0006
FFFB
000C
0011
0015
000A
0005
0006
FFF0
0012
0002
000A
0008
FFEA
FFFF
FFFA
000C
FFF7
000F
000F
FFF5
0010
FFF7
0001
0004
0003
0002
000D
0012
0013
000A
FFFD
FFF4
0008
0017
FFFD
FFFC
FFF4
000E
0001
0016
FFFC
0007
0011
0018
0006
FFFE
0013
FFFC
0012
FFFB
FFFA
0006
FFFD
FFEE
0001
FFF1
FFFD
000B
FFFC
0003
0006
0013
FFFB
0005
FFF2
0015
FFF8
FFEF
000A
0007
FFF8
0008
0003
0008
0005
000F
FFEC
FFF6
0000
FFFF
0014
0000
FFFE
FFFB
0008
FFF5
0007
000B
0000
0001
0003
0013
0002
FFFA
FFF2
0011
FFFC
FFF8
000B
000E
0007
0009
FFF6
FFFB
FFF9
000B
FFFD
FFEE
FFEE
FFE7
FFFA
FFE9
FFF2
0002
0004
FFFD
0000
FFEB
0007
0000
FFFA
FFF4
0010
FFF6
FFF8
000D
000F
000E
FFF2
0002
000F
0007
0011
0012
0008
0000
0016
0015
FFFC
000C
FFED
FFFD
000A
0004
FFFB
0006
FFFF
FFF3
0001
FFEA
0005
0019
FFF3
0004
FFF6
0000
0013
FFFB
0002
FFF9
FFFA
000E
0011
000F
FFE9
FFEB
0000
0007
FFFE
FFFE
FFF0
0004
FFF6
FFFC
0006
0014
000E
FFF3
000A
000F
000F
0009
FFFB
000C
0005
FFF2
0002
FFFA
FFFC
FFFC
000B
FFEE
FFF5
FFF0
000E
000E
0007
FFFD
000C
FFF1
FFFF
0000
000C
0007
0000
0018
0000
FFFE
0001
FFEB
FFFE
000E
FFF2
000C
0006
FFFD
FFF4
0005
0009
0008
0011
FFF7
0013
000E
0012
0005
0009
0012
FFFD
FFFA
0001
FFF8
FFF6
0015
0007
FFFA
0007
000B
FFFF
0002
FFF6
0003
FFFF
0005
FFEF
0004
FFFE
0007
0004
0004
FFF0
FFF8
000B
0016
0007
FFFB
FFF7
FFF4
FFF9
FFFA
FFF4
FFEE
FFF5
FFF4
0002
FFFC
0002
FFFA
000A
FFFD
000E
FFF7
FFFE
0006
0017
0016
FFF3
FFFC
0006
FFF2
0008
000F
FFFD
000D
FFF8
0011
0002
0001
000E
FFF2
FFE8
0001
FFEE
0001
0014
FFF3
FFF5
FFFE
FFEB
FFF0
FFFB
000A
FFFE
FFEA
000E
0001
FFFE
FFFD
FFFC
0004
FFE7
0001
000D
FFFB
FFFE
000B
000D
0013
FFF2
0005
FFFC
0017
FFFD
FFEC
FFF4
FFF5
FFFA
0003
000D
FFF7
0013
FFF4
FFFE
FFEC
FFF6
0012
0006
FFED
FFF6
FFFE
0003
FFFA
FFFB
FFEC
0009
0003
0012
0015
0010
FFF9
FFEC
FFFD
0016
FFF4
0008
FFF6
FFF9
000D
0002
FFF0
0003
FFED
000E
FFF8
0018
0000
FFF2
FFF2
FFFB
FFFB
FFF9
0013
000C
0003
0006
FFFD
FFF6
FFF6
FFF0
FFF6
0013
0001
FFF5
FFF8
FFF5
0004
0016
0014
FFFB
0001
FFFE
FFF3
FFF9
0004
FFE8
000A
FFE7
000D
FFFD
FFFF
000D
FFED
000D
FFFB
0012
FFEF
0006
000B
FFFE
0000
FFFC
FFFC
FFFD
0016
FFFC
0002
0002
0012
FFF4
FFFC
0008
FFF9
FFEB
FFF8
0002
0016
000D
0004
FFF9
FFE7
FFF5
0014
000B
0008
000F
FFFA
FFF5
FFFD
0005
FFF2
0000
0012
0005
FFEF
0000
FFFA
FFFD
0002
0009
FFF7
0005
FFF5
FFFE
FFFA
0006
FFF7
FFFC
FFFE
FFFF
0015
FFF5
FFFF
FFF0
0003
000A
FFEC
0015
0001
0009
000D
FFEB
0000
FFF8
0004
FFF8
FFF5
000C
0005
000A
0000
FFFE
FFFD
FFF9
FFE8
FFF5
0000
0009
FFED
FFF1
0003
FFFC
FFFD
FFEC
FFEF
FFE8
0011
0004
FFFF
FFF8
FFFF
FFF8
FFF5
FFFA
FFF7
0003
0002
0001
000B
FFFD
FFF4
FFFA
FFF0
000F
FFF9
FFF0
FFEB
0008
0002
000E
000C
000B
FFFE
FFF8
0013
FFF5
FFF7
0006
FFF3
0011
FFFC
FFFD
0002
0009
FFFB
FFF5
0010
FFFD
000E
FFEE
FFF6
0004
FFFE
0008
FFFA
0004
0002
FFF7
FFFC
000D
0002
FFF9
000D
0002
FFF1
FFE8
000B
FFFB
FFF2
0002
FFF2
FFFD
FFF4
0001
0003
FFED
0012
0004
0013
FFF9
FFF7
FFEF
FFF1
0001
000A
FFF0
FFF4
FFFA
0000
FFF4
0017
FFF3
FFFA
FFF8
0001
0000
0003
0006
0010
0001
0009
FFFE
FFFC
0019
0010
FFF9
000D
FFFD
000E
0006
0004
FFF1
0007
FFF8
000A
000A
0004
FFFA
0006
FFF9
0007
0009
FFF3
FFF2
0014
FFF8
FFFB
FFF1
FFEF
0000
0015
FFFC
0017
0008
FFFC
FFF6
FFF5
001A
FFF3
0010
0006
000A
FFFF
FFF3
0001
0004
FFFE
000B
0015
0017
0019
FFF8
FFF7
0013
0006
0012
0008
0005
0004
0007
0008
FFF3
000E
FFFA
FFF6
000A
FFFD
FFEE
0003
FFF7
000C
FFF5
0005
0006
0000
0008
FFFE
000A
FFFD
0015
000D
0009
0005
000F
0012
FFFB
FFFB
0007
0001
FFFC
0001
000B
FFF6
000E
0004
FFFE
0003
0017
FFEE
FFFC
FFEF
0013
FFF0
000E
FFED
FFF9
FFF3
FFEC
0002
0016
0000
FFFC
FFFA
FFFE
000C
FFFD
FFFB
FFFA
FFF6
FFFC
FFF9
FFFF
0006
0010
FFEF
000C
000F
0007
FFF0
0018
000A
FFF4
0015
FFF7
0007
FFFB
0007
FFFE
FFFB
FFFF
FFF1
FFFE
FFFE
000D
0008
000C
0005
FFEB
FFEC
FFFC
000F
FFF9
FFF6
FFFF
FFF4
FFFD
FFFF
FFF2
0011
0008
0016
000B
FFFB
0001
FFF8
FFFF
0000
0007
FFE9
FFF6
0002
000B
FFF3
0003
FFF5
0005
0005
FFFF
000E
0006
FFF9
FFFE
FFF9
FFF8
FFE8
0003
0015
0015
FFF3
FFF3
0000
FFF5
0005
FFF3
FFF9
FFF3
0015
FFFD
FFF4
0001
0001
FFF9
FFF5
FFF5
0006
000D
0009
0005
FFF0
0002
0009
FFFB
FFEC
FFF2
FFF4
FFF9
0010
FFF2
FFFF
FFEE
0006
FFF7
000F
FFFB
0000
0014
0002
FFFC
FFF3
FFFE
FFF0
000D
0007
0001
0002
FFE9
FFE7
FFF0
0017
0004
FFF6
FFFA
0012
FFFE
FFFC
FFFB
0011
FFF8
0005
FFE7
000F
000C
0012
0010
FFFE
FFFA
FFFE
0005
FFF8
000F
000F
FFF8
0004
0011
FFEE
0004
FFFA
FFFA
0005
0002
FFFF
FFF7
0015
FFF5
000E
0003
000E
FFF9
FFFA
0015
FFFB
000A
000B
FFF1
0001
0001
0008
0014
FFFE
0015
0003
FFF5
0011
FFF6
FFFB
0001
0009
FFF5
0003
0003
0005
FFFB
0008
FFF0
0006
0012
0001
FFEC
0011
0000
0001
0015
FFFF
FFF3
FFFC
000F
000E
000E
000F
FFF0
000D
FFF2
0018
FFFB
FFF8
000D
FFF5
FFF1
0000
FFEB
0003
FFF6
FFFC
0000
000F
FFF0
0004
0004
FFFB
000B
0005
0007
0003
FFFA
FFF7
0013
FFFA
0016
000C
FFED
0006
FFF9
FFED
0002
FFF3
FFFA
FFFC
0000
0007
FFF5
FFF6
0005
FFF9
0009
000A
0000
0000
0006
FFFD
0004
FFFC
FFFA
0014
0004
FFFD
0013
0004
000B
FFF6
FFED
0000
0004
0006
FFED
0014
FFF8
0012
0002
0005
0000
0005
FFEA
FFF5
FFFF
0016
0002
FFEF
FFF8
FFF8
0015
0007
0008
FFFF
000D
0004
FFFE
0017
000D
FFFE
0005
FFFF
000C
FFFB
FFF6
000B
FFFA
0001
FFF3
0005
FFF3
FFFC
FFEE
0008
FFF3
FFFD
FFFF
0004
FFFA
FFEC
0010
000D
0000
FFF9
FFFF
000F
0007
0008
0009
000C
0004
0008
FFF4
0010
FFFB
0008
0009
FFFC
FFFE
0005
0005
FFEB
0006
0005
0014
0002
FFFE
FFEA
0005
FFFC
0009
FFEF
FFF8
FFFC
FFF9
0004
0011
FFF0
0000
0003
000B
FFFE
0008
FFF3
0003
FFFF
0000
0006
0003
000B
FFFE
FFFF
0002
0010
FFF6
0014
FFF8
0000
0018
0000
0013
0003
0007
000C
FFF9
FFFF
FFFD
FFEF
FFF3
0006
000B
0002
0002
FFED
0001
FFEC
FFF9
FFF5
0011
FFE8
FFF6
0015
FFF8
0001
0005
FFF3
FFFA
FFFA
FFEE
0000
000F
FFF2
0002
000C
0017
0012
000E
000B
0014
000A
0005
0016
000C
FFF6
0004
0001
FFF0
0004
0015
FFF1
0009
0003
0009
FFF3
0001
FFF0
FFFB
FFF0
FFED
000D
0004
FFF9
0008
FFFF
FFF7
0006
0006
FFFC
0017
000A
0009
FFF3
FFFB
0014
FFF8
FFFC
FFFB
0007
FFFC
FFFD
0005
0012
FFFD
0012
0001
FFF0
0004
FFF2
FFF7
001A
0000
FFFD
FFE8
FFFC
000F
0007
0004
0006
0002
FFFE
0004
0012
0002
FFF1
0011
FFFA
FFEB
FFEC
FFE7
000E
FFFB
000C
FFF8
0009
FFFA
0006
0005
FFF0
0007
0002
FFFC
0003
0005
0002
0008
0008
FFFC
0006
FFF7
000A
FFF4
0005
000B
0000
FFF8
000D
0013
FFF2
0003
0005
0009
0000
0005
FFFE
FFFC
FFF0
FFFD
FFFA
FFF5
FFF8
000F
FFFD
FFF8
FFF8
0006
FFF8
FFF2
FFF5
0004
FFFC
0006
0002
0016
FFF2
FFFE
FFED
0005
FFFC
FFF2
FFF9
FFF9
FFFA
FFF6
000F
0011
0010
0000
FFE8
0008
0015
0013
0008
0012
0010
0004
000D
FFFA
0011
0000
0014
FFFA
FFEF
0008
000E
FFFE
FFF6
FFFC
FFFD
FFFE
000F
FFFA
FFF3
FFF9
FFF4
FFFD
0003
FFFB
000F
FFF3
FFFB
0007
0006
0001
0019
0006
FFF4
0017
0011
FFED
FFEF
0014
FFF9
FFF0
FFF1
0007
0013
000B
FFFE
FFF7
000F
0012
0012
FFF8
0003
0019
0018
FFF6
0001
000D
FFF0
FFF0
FFFF
000A
FFEF
0003
0001
FFEE
FFF8
0000
0005
000F
0000
FFFF
0003
FFFB
0007
FFEF
0018
000F
0013
FFFD
FFF6
FFF9
000D
0004
000D
0005
000F
000E
0006
0009
000C
0000
0000
FFF9
000B
FFFD
FFEF
0004
FFF9
0011
FFFB
000B
FFFC
FFF4
FFF8
FFFB
0005
0008
FFFE
0018
FFF8
FFFB
0003
FFF0
FFFB
0012
FFF0
FFFB
FFF9
000D
000D
000C
0000
FFF2
FFFF
FFE8
0008
001A
FFFF
0000
FFFC
FFF8
000A
FFF2
000F
FFEB
000A
0009
000A
FFF7
FFFE
0009
0001
FFF8
FFFF
FFFF
0000
FFFB
0002
FFFB
0013
FFFA
000F
FFEE
FFF0
FFF3
FFF7
FFF4
000E
FFF0
0007
FFED
0007
FFEE
FFF6
0001
000C
0001
FFF1
FFFC
0006
0006
FFFC
0016
FFF4
FFEF
FFFD
FFFE
FFFF
000A
FFF2
FFF8
FFFD
0001
0016
FFF9
FFF8
FFEF
FFF1
0009
FFFE
000B
FFF1
0015
0015
FFF6
FFF8
FFF7
0012
0002
FFFD
0003
0006
FFF5
FFFA
FFF0
000C
0019
0000
0017
0007
FFFD
FFFF
FFFC
FFF6
FFFD
FFF7
FFFC
FFF9
0004
000E
FFFE
000E
FFF9
FFEC
0002
FFF5
FFF5
0002
FFFB
FFFA
0005
0006
0013
FFF0
FFF7
FFED
0002
000C
FFF6
FFF4
0005
0000
000B
0007
0009
FFFF
FFF3
FFFF
FFF1
0007
0000
0000
0013
FFFE
FFF9
000F
FFFF
0004
FFF1
0005
0018
FFF8
FFF7
0001
FFE7
FFF1
FFF5
FFFE
0004
0012
FFEE
0014
FFED
FFFD
FFF8
FFFD
000F
0002
FFFE
FFF2
000B
0001
0009
0014
FFF7
0001
0000
FFF3
0008
000A
0012
0009
000A
0015
0014
FFF0
FFFC
FFFE
0009
0000
FFF4
0013
000A
0008
0000
0007
0006
000B
FFF7
FFE7
000C
FFFA
0005
FFFF
000C
FFFB
000F
0001
FFF8
FFEB
FFFD
0000
0008
FFF9
0019
FFF5
0005
000B
0009
0001
0001
0004
0004
0014
FFF2
0007
FFF6
000D
0006
0011
FFFD
FFF7
0002
FFF4
FFF9
0000
FFF8
FFF6
FFF9
000D
000E
FFF4
FFF0
FFF1
FFF3
FFFE
0005
FFF5
0009
0000
0016
000A
000E
FFF1
0011
0008
0002
FFED
0003
0001
0009
FFE8
FFFE
FFFB
FFF7
000D
0006
FFF9
FFF5
FFF8
0004
FFEF
0002
000E
0000
FFF9
FFFD
FFFA
FFFF
0012
0003
FFED
0001
0008
FFFB
FFF0
0017
0012
0001
FFEF
FFEF
000A
FFFC
0003
000F
FFFE
0007
0010
FFFE
0007
0001
0001
FFFA
FFF9
FFF7
FFF9
FFFF
0002
FFFB
000D
FFF9
0008
0012
FFE8
FFFA
FFF1
FFFA
FFF8
000A
FFEA
0009
FFF7
FFF1
FFFF
0006
0003
0001
FFFA
0004
FFFD
FFFF
0007
FFEE
FFFD
FFFB
0001
FFE6
000A
FFFC
FFFA
FFFF
000C
FFFF
FFED
0015
FFF7
000E
FFF8
0015
0002
000D
FFF4
FFF9
FFFF
FFFF
0003
0007
FFFE
0008
0011
FFEF
FFFB
000B
000F
0007
FFF5
0014
0006
FFEF
0008
FFFA
FFF9
000D
0013
0006
FFFA
FFFB
FFF7
0001
FFF7
000C
0008
FFF3
0006
0016
FFFD
0007
0002
000B
FFEA
FFFD
0003
FFFA
0004
FFF7
000C
FFFA
FFF6
0003
0004
0001
FFFC
FFFA
FFFC
0010
FFEE
FFF2
0007
FFE8
FFF6
0008
FFFB
FFE8
0014
0010
FFF9
FFF8
FFFB
FFEE
0003
0009
000E
FFF6
0013
FFF7
FFFF
000E
0002
0000
000B
0003
FFFC
0000
FFE9
0006
0005
FFE8
000B
FFF6
FFEE
0011
FFF4
0005
0003
0003
0010
FFF3
FFF8
0006
FFFF
0003
0002
FFFF
0008
FFF6
000A
FFFD
FFF3
0008
0010
FFF8
FFF8
000A
FFF4
0004
FFFC
0006
0006
0005
FFF8
0011
FFFC
000B
FFF7
FFF2
0008
0018
0008
0003
0009
FFF1
0004
0012
FFF8
FFF4
0004
000E
FFFC
0003
FFFE
000D
0003
0008
000D
FFEF
FFF9
0016
0017
FFFA
FFF0
FFEB
FFFF
FFFB
FFF7
0000
FFE7
0009
FFFD
0013
FFFA
0001
FFFA
000A
0006
FFF0
0001
FFFE
FFEE
0013
0008
FFF1
000A
000D
0001
FFFF
0013
000A
FFFA
0001
FFEC
0004
000E
0003
FFFE
FFF3
0008
FFF2
0008
0010
000C
FFF1
0005
0012
0005
FFFA
FFF0
FFF1
000B
0015
FFFF
FFF2
000E
FFEA
0009
0006
FFFD
FFF6
FFEC
0007
FFF0
0006
0013
FFF2
FFF0
FFFB
000A
FFF7
0004
FFF7
0004
FFF4
000D
0009
FFE9
0007
FFF1
0006
0018
FFF7
0017
000F
FFF4
0007
FFF2
FFF6
FFF9
FFF4
000F
FFF2
0009
0004
FFF7
FFF7
0016
FFFB
FFED
FFEC
0003
0002
0007
0016
000A
0001
FFFA
000E
0007
0014
FFFC
FFFF
FFFA
0006
FFF1
FFF8
0012
FFF6
FFFB
FFFC
FFFD
FFE8
0003
FFF6
FFE6
000D
FFFD
0007
FFFB
0003
FFF5
0012
0019
FFF6
FFF9
0001
0005
0002
FFFE
FFFF
FFFE
0006
0004
0012
FFFA
000A
0017
0004
0017
FFE7
FFFD
FFFB
FFFC
FFED
0008
FFEF
0007
FFF0
0002
FFF5
0001
000E
0007
FFFA
FFFB
0003
FFF3
FFF4
0009
FFFE
0000
0018
FFF9
FFFF
000D
0010
0003
0012
0001
FFFC
FFF5
0016
0009
FFED
0012
FFFC
0019
0005
FFF9
FFF6
FFF9
FFFD
FFFD
0009
0000
FFFD
FFFC
000D
FFFE
FFFB
FFF0
FFF8
FFF8
0008
0006
FFF7
0007
FFFB
FFFC
FFEF
0010
0014
0012
0009
FFF8
0005
FFFA
0003
0005
FFF2
FFF8
0007
0005
000E
0005
0001
FFF9
0004
FFFD
0007
0000
FFFD
000A
000B
FFFA
FFFF
0002
FFEC
0006
0007
0003
FFF9
FFF6
FFF9
FFF6
000B
0004
FFF7
0005
0009
FFFC
000E
0007
FFFC
FFF6
0004
FFF6
0001
FFF4
FFEE
0008
FFEB
FFF9
0004
000B
0012
FFF7
0006
0002
0009
FFFA
000E
0014
0008
FFE8
0018
FFF4
FFF6
0003
FFE7
FFF8
FFFB
FFE8
0015
000F
0005
000F
FFFC
FFFD
0003
FFF0
0001
FFF4
0004
FFF2
0003
0009
FFFB
0001
FFFF
0009
FFF9
FFED
0010
0007
FFF4
0004
0008
FFF0
FFFE
FFF3
FFEB
0004
0009
0016
0016
0000
FFFF
FFE8
FFF7
0003
FFEE
0003
FFEE
FFFA
000E
0016
000C
FFF7
0007
FFFB
000C
0008
0006
0000
FFF9
FFFB
0009
0004
0007
0002
0001
0009
0001
0007
FFF5
FFFF
FFFE
0006
000A
FFFD
0002
FFFF
FFEC
FFE8
0003
FFF2
000B
000F
000F
FFEA
FFF9
FFFE
FFF4
000A
FFFB
FFFC
0002
0016
0003
0000
0008
FFFB
0004
FFFD
FFFE
0007
FFFB
FFF3
000C
FFF2
000A
FFF6
0001
FFE9
0018
FFF5
FFFF
FFFB
FFE8
FFF7
FFEA
0003
FFF8
FFF9
0000
000F
FFF3
0004
FFEE
0006
0006
FFEA
000D
0000
FFEA
000F
0016
0003
0017
0009
FFF2
000B
FFFA
FFFA
0010
0008
0009
0007
0008
FFF9
0010
FFF4
000B
0004
0010
000D
FFF3
FFF2
0007
0005
FFF4
0004
FFEB
000C
0008
FFFE
FFF1
FFFE
FFF8
0003
FFF6
FFF5
FFF3
FFF0
0000
0009
0002
0001
000A
FFEF
0003
FFF7
FFFD
FFEA
0005
000F
FFEA
000E
FFFD
0004
0009
FFF3
0001
FFF9
0001
000A
FFF1
0006
FFFF
FFF0
0004
000B
0002
000A
FFF2
0009
FFEF
FFF6
0017
000A
FFF0
FFF4
FFF7
0006
000F
000B
FFED
FFF9
FFF0
FFFC
FFFB
FFF2
0015
0008
FFEF
0000
FFEF
0004
FFF6
0004
FFF9
000E
FFF4
FFF9
0007
0006
FFFC
0006
000D
0004
FFFB
0002
0007
FFFF
0012
FFF1
FFFD
000C
FFF9
0013
0006
0012
0009
FFF8
FFFB
FFF4
0003
000A
FFF4
0005
FFFD
FFF5
FFF8
FFFA
FFFF
FFFD
FFF2
FFF7
0009
0012
FFFD
FFFF
0006
0002
FFF5
FFEF
FFF5
0004
0015
FFF5
FFFA
FFFB
FFF6
0000
0004
0014
000B
FFFD
000F
FFFC
0009
FFF6
FFF8
FFFA
0003
0007
FFEF
0019
0008
FFFE
0006
FFF2
0002
FFFE
0006
0008
0004
0014
FFFD
0001
FFEF
000F
FFF9
FFF5
0015
FFEF
0016
FFFC
0008
FFFE
0009
000C
FFF9
000E
0009
0003
FFF5
FFE9
000A
0013
FFF3
0007
FFEE
0006
0010
FFFC
FFFF
0008
0012
FFF7
000E
000E
FFF4
0005
0001
0003
FFF7
FFF9
0002
FFF1
0013
0003
FFFB
FFF7
0016
0002
000C
0005
FFF1
0002
FFFA
0001
FFF7
000D
0014
0006
000F
0001
0011
000A
0008
0007
000C
FFF8
FFE9
0000
0009
0001
FFFE
FFFC
FFF9
0001
FFF3
0004
FFF7
FFFB
FFF7
0001
FFF6
FFF5
FFFE
0008
FFF9
0003
0000
FFEE
0008
0017
0006
FFF4
FFFE
0003
0000
FFFC
0005
FFF7
000F
000A
FFEC
0010
000B
FFF6
000A
FFFA
FFF9
FFF7
FFF2
FFFE
FFEC
000D
0001
FFEA
000A
FFFB
FFED
FFF8
FFFB
0012
0015
FFF4
0000
0007
000C
FFF0
0015
0011
0012
FFED
0004
FFE7
0011
FFEF
0017
FFEC
FFF6
0012
0003
0013
0001
FFFF
0016
000F
0001
0004
000E
0000
FFEC
0000
FFFB
FFFF
FFF5
FFFA
FFE8
FFF2
FFFF
0007
FFFA
FFEF
FFFB
FFF5
0007
000B
0007
FFFA
000D
0011
FFF0
0012
FFED
FFEF
000F
0013
0014
0011
FFF8
FFF5
0005
0007
FFFE
FFFA
0005
0007
FFF9
0008
FFF3
0006
FFF9
0005
FFED
FFF5
0005
0007
0004
0007
000D
FFF6
FFF8
0007
FFF0
FFE7
FFF8
0003
000B
0009
FFF7
0006
0009
FFE8
0008
FFF2
FFFE
0003
FFF2
0016
FFF7
FFE9
000F
FFFB
0013
0007
000C
FFFA
FFF3
FFF7
0018
FFFF
0005
FFFB
0003
0003
FFEC
000A
0005
0003
0013
0006
FFF7
FFF1
FFE8
FFF7
FFF9
0001
FFED
0001
0015
000D
FFF4
0008
0009
FFFD
FFFE
FFFD
FFFF
0000
FFFF
FFF6
0007
000B
000E
FFF1
FFF8
FFED
FFFF
000B
FFF4
FFED
0003
FFF0
0004
0000
000B
0011
0005
0003
0001
0001
FFF3
000A
FFFD
FFF9
0017
FFFF
0007
FFF7
FFF0
FFFC
0018
FFF1
FFFF
0006
0019
0006
FFFD
000C
0003
0000
FFEB
0008
FFFF
FFEF
FFF0
0014
FFFE
0000
FFFE
FFFB
FFFA
0018
0008
FFF9
FFF3
0007
FFF4
FFF4
0001
FFFC
000A
000E
FFFA
FFED
000C
FFF7
000B
000E
FFFD
0000
FFF5
0006
FFFB
FFFA
FFFE
FFF8
0002
000B
FFF9
FFF5
0010
FFFC
0009
0004
FFFD
FFFC
0008
FFEF
FFF4
000F
0001
FFF7
FFFF
0006
FFF9
FFF5
000D
0003
FFFC
FFFF
FFFF
000D
FFF5
0007
FFEA
FFF6
FFFE
0013
0000
FFFD
0001
0009
0004
FFF9
0010
0013
FFF5
FFFA
000C
FFFA
FFF5
FFF6
000B
FFFB
0009
FFF6
000F
FFF8
FFF8
0007
FFF9
FFF8
FFFC
FFFE
FFED
FFFC
0009
0007
FFEA
FFEE
000D
000D
0014
FFF8
0001
0003
FFFF
FFEE
0001
0001
FFFA
0006
FFF3
FFEC
000D
FFFA
0001
FFEA
FFE9
FFF0
0001
FFF4
FFFB
FFEB
0002
FFF8
0008
0016
FFFB
FFF9
0000
FFED
0008
FFEE
000E
000A
0015
0018
FFFB
0002
000D
0000
0007
0011
0002
FFFF
0001
FFF4
000E
000F
000B
FFF7
FFEF
FFE7
FFF2
FFF8
FFFA
0006
0007
0001
000F
FFF2
FFF4
FFF5
0003
FFF9
0004
FFFA
0003
000A
0008
FFFF
0008
FFF6
0000
0007
0001
0001
FFF9
FFFD
000E
0010
000C
FFFE
0006
FFFF
000E
0011
FFF9
0001
FFFD
FFFF
FFFC
0002
FFF2
FFFE
0007
FFEC
0011
FFF1
0005
0002
FFFC
0000
FFEF
000D
000D
0006
0001
0010
FFFE
FFF8
FFE7
FFF8
FFF0
FFFB
000E
FFF9
FFFC
FFEF
FFEC
FFF4
0009
0006
FFF7
0007
0006
FFFC
FFF6
0004
0007
0007
FFFD
0006
FFF5
000D
FFF5
FFF6
FFF5
0004
000E
FFF5
FFFF
000D
FFF1
0013
FFFB
0001
FFF0
0004
FFE7
FFEE
FFF9
FFFC
FFFF
0004
FFFF
FFFD
0010
FFFD
000D
0002
FFF7
0006
FFFC
FFEF
FFFE
0004
000C
FFFA
0001
FFFD
FFEA
000E
FFFE
0005
FFF3
0009
FFFE
FFF1
0006
0002
FFF8
0001
0008
0007
FFFE
FFF4
0010
FFFB
0012
0001
FFED
FFFA
FFF0
0001
FFF4
0013
000A
0007
0012
0015
0006
000E
000E
000C
000B
0006
000D
000C
0008
000C
000B
000B
0006
0003
000F
0014
FFF8
000A
000A
FFF8
FFF9
0001
FFFA
0001
FFFC
FFEA
000B
000E
FFFB
0003
0009
0018
FFFA
FFF2
0000
0007
FFF6
000A
FFF7
0011
0002
000A
0007
FFEA
FFF6
FFF7
0002
0002
FFEF
FFF6
FFFF
0003
FFF3
0014
0006
FFFC
FFF7
FFF4
0015
0016
0015
0004
0007
0003
FFFB
0009
FFF5
FFF6
000B
000F
FFFA
0009
FFFC
FFF9
FFFD
FFF3
0004
0006
0003
FFFB
FFFC
FFF6
FFF0
FFEC
0005
0003
0007
0012
FFFD
0008
0008
0005
0011
0005
0000
FFFF
FFF9
0018
FFEC
000C
0018
0015
0009
FFEE
FFF6
000C
FFF5
0014
000B
000C
FFF6
0000
0004
FFF9
FFF8
FFF9
0012
0004
FFF8
0011
FFFD
FFEE
FFEC
0014
FFF4
0011
000A
000B
0010
FFFE
FFE8
FFFA
000D
0002
0004
000B
0002
0003
FFE7
0007
0002
0009
0010
FFF8
0007
000E
FFF6
FFEE
FFFF
000A
FFED
0001
0005
0004
000B
FFF1
0006
0004
0006
FFF6
000E
0002
000D
FFFF
FFF4
FFEA
0010
FFF8
FFF3
000E
FFF7
0006
FFEF
000B
0001
FFFA
FFFF
0002
FFEC
0013
FFED
FFF6
0000
000D
000B
0001
FFFE
FFFA
000B
FFF7
0002
FFFA
0001
FFF2
FFFA
000F
FFEF
000D
000E
FFFB
0003
0004
0000
FFEE
0008
0017
FFF7
FFF5
000E
0011
0007
0018
000F
FFF7
FFFC
0009
000C
FFF7
FFFA
FFF3
0006
000E
000C
FFFA
0011
0005
0001
0006
0007
0002
0005
0009
0008
0003
FFFF
0006
0015
FFFA
0010
FFEE
0000
FFFC
0012
0002
000B
FFFC
000B
FFF7
0018
FFF6
FFFB
0011
0018
FFF7
FFF3
FFF7
0009
FFF4
FFFE
FFFB
FFF1
0000
FFF6
FFE7
0001
000A
0004
000D
000F
000D
FFFE
0000
FFE9
FFFA
FFF5
0008
FFE9
001A
0003
FFF4
FFFD
FFF4
0002
FFFC
FFF6
0006
0001
0003
FFFB
FFFE
0002
FFF7
FFF9
FFF1
0018
0007
0001
0003
0003
FFEB
FFFB
FFF8
0001
FFFC
FFFC
000F
FFFE
0002
0001
FFFA
FFFA
0003
FFFB
0004
FFEF
0017
000B
FFFC
000A
FFF6
0006
0004
000F
0001
000B
FFFD
FFF3
FFFD
FFF9
FFF7
000F
FFEC
FFEB
0007
0007
0000
0012
0010
0005
0006
0019
0003
0009
FFFF
FFFE
FFFD
0004
0002
0010
000D
FFF2
0014
0007
0008
0019
FFED
FFF3
0006
FFF5
0010
FFF5
FFE7
FFF6
000A
0003
000C
0011
0008
FFFE
FFFE
000C
FFFD
FFFE
000B
0002
FFF4
0017
FFF1
0012
FFEB
0015
001A
FFFF
0007
0012
0001
0008
FFFB
0006
000D
FFF3
FFF5
FFFF
FFE7
000F
FFED
000F
FFF3
FFE6
0012
0009
000E
FFF2
0002
000A
000F
0009
FFEF
FFFF
0007
0004
0008
0002
FFE9
0013
FFF1
FFEE
000E
0014
0008
FFEF
FFEF
FFF8
000A
FFEE
FFFB
0004
FFF9
FFEA
000A
0004
FFFD
FFEA
FFFC
0006
0002
FFE7
FFF6
FFF1
000A
FFF5
0005
FFFC
000E
000F
FFEE
FFF8
000B
FFFE
000C
000C
FFF6
000E
FFFF
FFFF
FFEB
FFEA
0000
FFFA
FFFB
FFF4
0013
FFFA
FFF3
FFEF
0008
FFE6
0008
FFF7
0005
FFFE
FFF4
FFF9
FFFF
0010
0016
FFF2
0004
0008
FFFC
0005
FFF0
FFFA
FFF0
FFFD
FFFD
0004
FFF6
FFFB
FFF5
FFF7
0004
000D
0003
0017
FFF9
000E
0009
000D
0003
FFFE
0009
FFEB
0006
0006
0003
0011
0003
FFEE
FFF7
0009
FFFD
FFF9
FFF6
0011
FFF1
FFED
000C
FFF2
000D
000D
0000
FFEE
000B
0000
FFEE
0005
0003
FFFE
0008
FFEE
0011
FFEE
FFEC
FFF4
FFFF
0006
0012
0003
FFF5
0013
000D
0000
FFFD
FFF3
000B
000B
0006
000C
FFF0
FFFB
0018
0018
FFFE
0011
FFF5
FFFA
FFFE
0016
000B
0001
FFF2
0012
0006
FFEF
FFF8
FFFF
0002
0002
0008
0000
0000
0011
0003
0006
FFEF
FFF0
0002
FFF3
FFFE
000D
FFFF
000A
0018
FFFC
FFFC
FFF5
000D
FFFD
0017
FFEF
000B
0008
0009
0001
FFFC
FFFF
FFF2
0001
FFF4
FFFF
FFF7
FFFD
0004
0013
000C
FFEA
000A
0003
FFFE
000D
FFEC
000B
FFFD
FFFE
FFF3
FFED
FFFF
0009
0007
0004
FFF7
FFFC
FFFB
000B
FFFE
0005
0016
0017
0009
0016
FFF8
0008
0012
000D
FFF1
FFE7
FFFB
FFF3
FFFA
0011
FFEE
FFFD
FFFB
FFFD
0008
0010
000F
0000
000E
FFFF
FFFF
FFFC
FFF4
0005
0004
FFF0
FFFE
000F
000B
0008
0001
0004
000B
0008
FFFC
FFF3
000E
FFF5
FFF9
0004
0009
FFFB
0004
FFFB
000E
000A
FFFD
0000
0013
000B
0007
001A
FFF8
FFEC
000C
0000
000D
FFFA
000D
0002
FFF3
FFE9
000D
FFFB
0016
FFEF
0000
0005
FFFD
FFFE
0001
FFF6
0019
000A
FFFD
FFF7
0000
000F
000D
000C
FFFD
FFFA
0007
0003
FFF2
FFED
0008
0000
0008
0017
FFF6
FFEE
0014
000D
000C
FFF8
000A
FFE9
FFE7
FFFC
000E
FFE7
0000
0013
FFFC
FFF7
0008
FFF3
FFF8
FFFB
FFFD
FFF0
0000
FFF3
FFEA
FFFB
FFFE
0004
000A
FFFB
0000
FFEE
0013
FFF5
FFFE
0006
000A
FFFE
0011
FFF8
0000
0007
0011
0005
FFFC
0003
000D
0006
FFEF
000C
000F
000F
0008
000C
FFFA
0000
FFFC
FFF4
0000
0006
FFED
0011
FFEF
FFFC
FFEB
000D
FFF9
0007
FFFA
0000
FFF7
FFFB
FFEE
0009
FFFD
FFEA
0008
000E
0007
FFF2
0000
0009
FFF4
0018
0007
FFFA
000C
0010
FFFD
0012
0018
FFF7
0006
FFFE
0003
000F
FFFF
FFF1
0008
FFF5
FFFD
000E
FFFA
FFFC
FFF4
0006
0007
0010
000C
0002
FFF3
0007
000F
000A
FFFF
000F
0009
FFE8
0006
FFF0
0004
FFF7
0006
FFFF
0004
0001
000B
FFF9
0009
0004
FFFE
FFF9
0004
0008
0007
000B
0017
0012
FFFE
FFF0
0002
0002
FFFD
FFFC
FFFC
0011
0002
0000
FFF8
0019
FFF6
FFF9
FFFC
FFFD
FFFF
000E
FFF9
0001
0000
000B
FFF5
000A
FFFC
FFF8
FFE9
FFF5
FFF8
FFFC
FFF8
0007
0003
FFF1
FFFC
0009
FFFB
0003
FFF8
FFFA
FFFC
FFF4
0000
FFF1
0017
FFF6
0003
0009
FFFB
FFF4
0004
0002
0007
000E
0019
000B
000A
FFF4
FFFD
0003
0009
FFED
0000
0001
0005
FFF1
0012
FFF4
0013
FFFC
FFF9
FFF4
FFEE
FFFC
FFF8
0006
FFFD
0004
0001
0005
0015
0005
FFF4
FFF6
FFFA
FFF4
000D
FFEA
FFFC
0019
0006
FFF2
FFE9
FFF8
000F
FFF8
FFF6
0002
0002
FFFC
0002
0007
0018
FFF9
FFF2
0014
0016
0007
FFFD
FFF2
FFF5
0014
0001
000F
FFF2
0007
000C
000B
0003
FFEF
0002
FFF6
FFFF
FFFF
0007
000A
0000
0012
FFF3
FFFB
FFEC
0005
0015
0008
FFFD
0008
FFFC
0012
FFF0
0008
FFFB
FFFB
FFFE
0004
0003
FFFF
0001
FFFF
0007
0008
000D
0000
0004
FFFF
FFEE
0011
000A
000C
FFF5
0008
0000
0010
000C
FFF3
0009
FFFA
FFF0
FFEC
0003
FFF8
0000
0018
FFF9
FFEF
FFEC
FFEB
FFF6
0007
000A
0004
0011
FFF8
0001
FFF6
000D
FFF7
0001
0006
0011
FFEB
0019
FFFF
000C
FFF9
000C
0009
000A
FFFF
0000
FFE9
0000
0006
0012
000B
0008
FFF1
0003
FFF4
0014
FFFA
FFF0
FFF2
FFF2
FFF0
0006
0015
FFF7
FFF5
FFEA
000E
0015
0002
000E
0007
0008
FFEE
000E
0003
FFF5
0002
0006
000F
0017
0003
FFF2
FFFC
0004
FFF6
000E
FFFE
0003
FFFB
FFF6
FFF5
FFFE
000E
0005
FFFC
0010
0006
000B
FFFB
0010
0006
000E
FFF6
FFF3
000B
FFEC
000C
0002
0001
FFFF
FFF8
000B
FFF8
0011
000D
0010
0004
0009
0001
000B
0000
0014
0002
FFF3
0001
0001
0006
FFEE
0006
FFFB
0004
FFFE
FFE8
0011
0009
FFFD
FFFE
FFF0
FFEC
FFFD
FFF8
000A
FFFF
0010
0010
0012
0001
0001
0006
0000
0009
FFFA
0012
0006
FFEB
FFF7
FFF3
0001
FFEA
0012
0003
0006
0009
0006
FFFF
0007
0015
FFFF
0005
FFFD
FFF5
FFFF
000C
000D
FFF9
FFFC
0007
0002
FFF5
0010
FFFC
FFFE
0000
000E
FFFC
FFF8
0006
FFFD
0003
0004
FFFD
FFFE
0000
FFF7
FFE8
FFFC
FFEC
0002
FFFF
FFF1
FFF3
0002
FFFE
0005
FFE9
0015
0007
0004
FFF8
0005
FFF3
FFF9
FFF8
FFF9
FFEF
0006
0003
FFFE
FFF5
FFFA
0004
FFFC
FFF9
000A
FFF5
FFFF
FFFA
0019
000F
0001
000F
0008
FFF1
FFFE
FFFD
FFFD
FFFD
FFF8
0001
0011
FFFD
0007
FFEE
FFF4
FFF3
0002
FFEF
0013
FFF9
0012
0005
FFEF
000C
0019
0007
FFFB
0001
000D
0003
0002
000B
000D
FFF9
FFF3
0008
FFF5
0012
FFF4
000D
FFEF
0000
FFFC
0002
FFF5
FFF6
0013
0011
0012
FFFF
FFFB
FFF7
FFF8
0008
000A
FFFE
0006
FFF5
0018
000F
FFEA
0002
0007
0013
FFFA
0000
0003
FFF6
000A
FFF6
0019
0013
000C
FFFA
FFEE
000F
0006
FFF8
0005
0000
0007
FFF8
0005
FFEC
000D
FFED
FFFC
0015
0006
0004
0006
0009
0017
0003
000B
FFF8
000A
0006
FFFC
000F
0008
0003
FFFE
000A
000B
FFF1
0000
0003
0003
0007
0001
FFFB
FFFE
0008
0006
0015
0015
0006
0005
FFF9
FFFE
FFF0
FFFC
FFF6
FFF5
0013
FFF5
FFFB
FFF2
0010
FFF2
0011
FFFD
FFF4
FFF0
FFF0
FFF9
0010
FFFF
0004
FFFB
0012
FFF9
0007
0016
0014
0019
0005
FFEB
0007
0002
0008
0008
0000
000F
0012
FFFC
FFFD
0011
000B
FFF4
000B
0008
0000
FFF9
FFE8
000B
0005
0002
FFEC
0007
0014
0019
FFFF
FFEB
FFFE
0000
0001
0008
FFF8
FFF6
0008
FFF8
0016
FFF7
0009
0004
FFFF
0006
0002
0003
FFFA
FFFA
000B
0001
FFF2
0009
FFF2
0003
0011
FFFB
FFFE
000C
0009
0002
000C
FFF2
FFFF
FFF9
000F
0005
FFFF
000E
FFF6
0006
0015
FFF1
FFF9
0003
0002
0015
0012
FFFB
FFF3
0013
FFF9
FFFD
FFFB
0009
0010
0010
FFFE
0002
0008
FFEE
0007
000E
FFF5
FFFE
0006
0007
0010
FFF0
FFF7
000B
FFFE
FFFE
FFFC
0006
FFF5
0000
0013
FFFA
0000
0007
0017
0004
0001
0004
0007
0017
FFF5
0008
0009
000B
FFF4
000B
000C
FFEE
FFFE
FFFF
0012
000C
FFFD
0002
FFF9
FFF4
001A
0003
FFEC
0007
0001
0007
000A
0000
FFE7
FFF4
FFF6
000B
0008
FFF4
FFFF
FFF9
FFE9
FFE9
0005
0004
0011
0002
FFFC
0014
FFF2
FFEF
0000
FFEF
FFFF
FFE8
FFFB
0012
FFF7
FFF8
000A
0007
0006
0003
FFF9
0014
0001
FFFD
FFF7
0008
0008
FFFE
0007
FFEB
FFED
FFFE
0013
FFFA
0012
000C
0019
FFF6
FFF9
FFFD
0008
FFFD
FFF0
0002
FFFD
FFFF
FFFF
FFF5
0007
0019
FFF6
FFE9
FFF8
0008
0006
FFF0
FFF2
FFFC
000F
FFF9
FFF3
0000
FFFC
0002
FFFF
FFF9
0010
0004
FFFB
0005
FFFB
0003
000A
0004
0005
000A
0002
FFF8
000A
FFF4
FFFA
FFF0
FFF6
0003
000B
FFE9
0009
0003
FFF8
000B
0016
0001
FFF4
FFEE
0016
000C
FFF6
0006
0007
0010
FFEA
0004
0007
0008
000B
000F
0008
FFF5
0008
FFFF
FFF7
0010
FFFE
0008
000A
0009
FFF8
0009
FFF0
FFED
FFF2
FFF6
0001
0008
000C
0012
0003
0003
0014
0006
FFF7
FFFB
FFF4
FFF8
0009
FFFE
0005
0006
FFF8
FFEE
0005
0002
0000
FFF8
FFEC
0004
0016
FFF7
FFF8
0014
FFEC
FFF8
FFFF
0006
FFEE
FFF7
000F
0000
FFF8
FFFD
0014
000D
0000
0010
0007
0006
FFFD
0001
FFF9
0015
FFEF
FFFA
FFFB
FFEC
FFF9
000C
0010
FFF9
FFF3
FFE9
0000
FFFF
FFEE
FFF0
FFF3
0015
0000
0002
FFF7
0007
0004
0014
000D
FFF1
000D
FFF1
000E
0003
0003
0019
0008
0008
FFFA
FFF0
FFF8
FFFC
FFE7
0011
000E
FFFB
0013
0000
FFF9
FFFE
FFF4
000E
0009
0011
0011
000A
0008
FFFD
0012
FFFC
FFF5
0003
FFFD
0002
0010
000A
FFFC
FFF2
0000
0002
FFFC
FFEA
FFFA
0017
0002
0005
0007
FFF0
0007
FFFD
0001
0015
0009
FFF5
0006
FFF3
FFFD
FFFF
0001
0015
000B
FFED
FFFF
FFF7
FFF8
FFFC
0001
000A
0003
0005
0001
FFFD
0000
FFF5
FFEA
FFF8
000B
0019
FFF7
FFFB
0005
0011
0015
0002
FFF0
FFF4
000C
0006
0012
FFFD
0004
FFFF
000A
0003
FFFA
0004
FFF0
FFF8
FFFD
FFF9
0001
FFF7
0003
FFF6
000A
0009
0006
0006
FFF7
000B
0011
0007
FFFC
FFEB
FFFD
0004
0000
FFFC
000A
0009
FFFA
FFE8
FFFC
0016
FFEF
000B
0013
FFF7
0001
000E
FFF2
0002
0007
0009
000A
0006
0006
0010
FFFE
0004
FFFC
0009
FFFB
0009
0006
0000
0002
FFF5
FFFD
000A
0007
FFF8
0003
0012
FFFA
0009
0006
000D
0017
FFED
000B
0004
000B
FFFF
0006
0008
FFF8
000E
0000
000D
0003
FFF0
FFFA
FFFB
000B
FFFF
0007
FFF4
000F
FFEC
FFF2
FFFA
0002
FFF9
FFF5
000A
FFFF
FFFC
000B
0005
0005
FFF1
0004
0003
FFF9
FFFE
0003
000D
FFF2
FFF8
FFFB
FFF5
0007
0001
000E
000A
0004
0003
0014
0010
0004
0010
0003
0008
FFF0
FFF1
FFF9
FFF2
FFF6
0000
000B
0001
0006
FFFF
FFFA
0007
FFFE
FFF8
0008
FFF1
0002
0003
0002
000C
0006
FFE9
0000
0007
0007
0009
0007
0012
FFFA
FFFB
FFFD
FFFA
0003
FFF6
0007
0007
FFF6
FFF9
0001
FFF4
0007
FFFB
FFF3
FFF3
0002
FFED
FFF0
000B
FFF6
FFF3
000E
0019
0006
0006
FFFE
0007
0011
0003
0006
0008
0010
000B
FFF7
0010
0000
FFF1
FFF9
FFEE
000F
FFFC
0013
FFF3
FFF2
0006
FFFF
0004
FFF8
0015
000C
0003
FFF4
0009
FFFC
000F
FFF2
FFFA
FFFF
FFFF
FFFC
0005
0003
0003
0000
FFF1
FFF3
0000
0007
0001
0015
FFFC
FFEC
0000
0010
FFFB
000A
FFF8
FFF6
0015
FFFB
000C
0004
FFFB
0002
FFF6
FFF0
0008
0016
0002
FFED
0001
FFF8
000C
FFF8
0002
FFF5
FFEB
FFF9
FFF1
0005
FFFE
0005
0006
FFFB
0008
0004
0013
FFFF
0002
FFEE
000C
FFFA
FFEF
FFFC
FFF8
0006
FFF4
FFE7
0010
0000
0018
FFEF
FFF3
FFF3
FFFC
FFF3
FFFA
FFFE
FFEE
FFEF
FFED
FFF2
000D
FFF7
000E
FFF6
0010
FFF4
000C
FFFE
000C
FFF3
0012
000E
000E
0005
0004
0005
FFF1
0008
000D
FFF0
0003
FFF5
0010
FFE9
0016
0004
FFFC
FFFA
0007
0003
FFFE
FFFC
0003
FFFE
001A
FFFB
000A
000F
0012
FFFE
FFF6
0008
0002
000F
FFF2
0000
0004
FFF5
000C
0010
0006
0014
0003
0002
0003
000E
000C
FFF7
0010
0000
FFFF
0007
0008
FFFE
0000
FFF5
FFF1
FFFA
FFF1
0003
0001
0003
FFFF
0015
FFEC
FFFE
0001
000D
0013
FFF0
FFFA
FFF6
0001
FFF7
0011
0011
000B
000C
FFF4
FFE9
000A
000B
FFEF
0009
0001
FFF5
0002
0014
FFED
0010
FFF8
000B
FFFD
FFEE
FFF3
0003
0015
000D
0006
FFEC
0009
0004
FFF8
FFFD
0000
FFFC
FFFC
000D
0003
FFFA
0003
0000
000A
0013
FFFA
0008
FFFA
FFF8
0000
000A
0000
0001
0013
0005
FFFC
FFEF
FFF8
000E
0008
0004
FFFC
FFFC
FFF5
FFFB
000D
FFFF
0000
FFFF
FFF8
000B
0003
000C
0002
FFF9
FFF8
0002
FFFC
0006
FFF1
FFFF
FFF2
FFF9
FFEB
FFFA
000D
FFEB
FFFD
FFF9
FFF4
0003
FFF5
0015
FFF5
FFF1
0005
0010
FFF9
FFFE
0017
FFFB
000F
000C
FFF9
FFFC
0013
FFFC
0008
FFF4
FFF8
0002
FFF7
FFFC
FFEF
0015
0008
FFFE
0000
FFF8
000E
FFFC
FFF8
0002
FFFA
0012
0001
000E
FFF1
FFFA
FFFF
FFF2
FFFD
FFF3
FFED
FFEE
000F
FFFB
FFFD
FFF9
0000
0007
FFF5
FFF2
000E
0016
FFF7
0006
FFF9
0007
FFF9
FFF6
0017
0013
FFF9
FFFE
0006
FFF8
FFFA
FFEF
0009
000A
0003
0017
000E
0015
FFEE
FFFC
000B
FFEE
FFF2
0011
0004
0007
FFFA
000F
FFE9
0013
0001
000A
FFFF
000F
0012
0005
FFF4
FFFF
0007
0004
0004
FFF2
FFF2
0007
FFF5
FFFE
FFFC
FFF6
FFF3
FFF8
000B
0007
FFFF
0005
0011
0002
FFEF
FFEC
FFFA
FFF2
0007
000E
000E
000A
FFFE
FFF3
0012
0001
FFE9
FFF6
0005
000D
000E
0008
0000
FFF6
0015
0004
0007
000B
FFEE
000C
0000
0004
FFFE
FFFE
0009
0005
000A
0006
0018
FFFE
FFEE
FFFB
0001
0007
0000
0008
000F
FFFF
FFFB
FFFD
FFF2
FFEC
0000
FFF0
FFFA
FFF2
FFEC
FFFA
FFF0
0000
0006
0004
FFFA
000D
FFFA
000F
FFFD
0001
FFFF
0000
FFF5
FFF9
FFF5
0010
FFEA
0016
FFFC
FFF8
FFEF
000A
FFF9
0005
FFF6
FFFA
FFFE
FFFC
0014
FFFF
0008
FFF7
0004
FFE9
0006
FFF9
0007
0000
0006
0006
FFF0
0008
FFFD
0009
0008
FFF3
FFFE
FFF3
FFF7
FFFE
0000
0014
0010
0006
FFFD
FFF9
FFF0
0009
0000
FFF1
0003
0002
0011
000B
FFF8
FFEE
FFFB
FFFB
FFEE
0007
0002
FFF0
000A
FFFD
0005
0005
FFEB
FFFD
0006
000D
FFFC
FFF6
0013
FFFB
000F
FFFD
000B
FFF2
FFFA
0010
FFED
0003
FFF6
000D
FFEC
FFEF
FFFC
0018
000C
0012
FFFB
0001
FFF7
FFFF
000A
FFFA
0010
000A
FFF8
0015
FFF8
FFFC
000B
0001
FFF4
FFFF
FFFC
FFF8
FFFC
FFF7
0009
FFEA
FFF5
FFFD
000D
0014
FFFF
FFFF
000B
0011
FFFD
FFF7
FFF2
0003
FFF2
000A
000A
FFEE
0007
0001
FFF7
FFFC
000F
0005
FFFF
FFF3
FFEB
0001
000E
0001
FFF8
0015
FFED
0003
0013
000B
0001
0001
000A
FFF6
FFFC
FFEF
0002
FFF4
0000
0008
FFF5
0017
0005
FFF4
0001
0004
0008
FFFB
000A
FFFD
0003
0001
0002
0010
FFFA
FFF9
FFF3
FFF6
000E
0012
000D
0001
FFFC
FFFF
FFFC
FFF8
0008
000B
000F
000B
FFF0
FFF6
FFFC
FFFF
FFFD
FFFD
0005
FFFD
000A
0003
FFF4
FFF8
FFF5
FFED
FFFA
0001
0004
0001
FFFB
0005
0006
0006
FFF0
000B
0012
0001
FFFD
FFFD
0006
FFF7
0008
0019
FFFF
0003
0008
0001
0009
FFF2
FFFC
0002
0003
0009
FFF3
0005
FFFC
000F
FFFC
0011
FFF6
0006
FFEC
0000
0013
FFFE
FFF7
0012
FFF2
FFEF
FFEC
FFED
000E
FFFE
FFF6
0004
FFF9
0007
FFFA
FFEC
0001
FFF6
0003
FFFD
0001
0006
FFFB
FFF5
0001
0007
000F
FFF8
FFFF
000D
FFFE
0000
0001
0000
000E
000C
0006
0004
000F
0011
0007
0001
000E
FFE7
0003
FFF9
0012
000F
0002
0001
0009
0012
FFF9
000E
0007
0008
000B
FFFB
0001
0004
FFFB
FFF9
0005
0001
FFF0
000A
FFF5
0004
FFFB
0018
FFFE
FFFD
FFFE
FFFB
FFF4
FFF8
FFF0
000C
FFFB
0001
0006
FFFE
FFF0
0008
FFEE
0004
FFF1
0002
0016
0011
0003
0000
0006
000C
FFFD
FFF3
0012
0019
000D
FFFE
0005
FFFA
0006
FFFE
0014
FFF5
FFEE
0017
0003
FFEC
FFF9
0017
FFFA
FFFB
0014
FFF8
0012
000D
0003
FFFF
FFF1
0004
FFF3
FFFB
FFF8
FFF9
FFF7
0003
0002
FFFF
FFF2
000E
0005
0005
FFFD
FFFC
FFF9
000E
0013
000C
FFFD
FFF1
0012
0017
000E
0002
0002
FFFE
0001
FFFC
0007
FFF8
0008
FFF6
FFF2
FFF7
000B
0008
FFEF
FFFE
0005
0009
0017
0003
000A
0002
FFFC
0018
0005
000A
0001
FFF7
FFFA
0005
0009
0002
FFF3
FFE9
FFED
FFFC
0008
FFFB
FFFA
FFFF
0016
FFFB
FFFA
FFE7
FFED
0010
FFFB
FFFA
0016
FFF8
000C
0004
0002
FFFF
000B
000E
0002
0007
FFFB
000E
FFF5
FFF0
FFFB
0002
0008
FFF6
0001
FFF2
FFF5
0004
0001
FFF8
0004
0014
0006
FFF1
FFF9
000B
0001
FFF9
000C
0000
FFED
000A
000E
FFFC
FFF9
FFF9
FFF7
0008
0008
FFF1
0008
0003
000E
FFF6
FFF7
000F
FFF9
0017
FFF9
FFF7
FFFB
FFEB
FFF0
FFF2
0008
0001
FFED
FFEC
FFF1
FFF6
0007
0002
FFF1
0001
FFF2
FFF9
FFE6
FFFD
FFF2
0002
0015
0015
0010
0007
0016
0000
FFFE
FFFC
000C
FFFD
FFF9
0008
FFFC
FFF3
000B
FFFE
0004
0015
0006
FFF8
FFF0
FFF3
0012
FFFD
000E
0008
FFF0
0011
FFFD
0001
000A
FFFD
0003
0008
FFEE
FFF6
FFF3
000C
0017
0017
FFFC
FFED
FFF9
000A
000C
FFE7
0009
FFF9
0007
0007
FFFE
0000
0008
0003
0010
FFF8
0000
FFF3
FFFF
0003
0006
FFF5
FFF8
000C
0009
0008
0006
0001
000E
FFFE
FFEE
FFF8
FFF4
FFEE
0004
0003
FFF3
0010
0006
FFFB
0002
FFFE
FFFD
FFE7
FFEE
000C
FFEA
000C
FFFB
0000
0011
FFFB
0009
0001
000E
0012
0000
0007
000B
FFF7
FFF8
FFFC
0009
FFFE
0000
0002
0002
FFF3
0008
FFE8
FFF1
FFFC
0004
FFF2
0000
0008
0010
000F
000A
FFFE
0008
FFF3
0008
FFEA
FFEE
FFF9
0003
0009
000D
FFF6
FFFC
0001
FFF6
FFFA
0007
0017
FFFF
0002
FFF0
0016
0010
FFFA
000A
0001
FFFA
FFFF
0003
FFF0
FFF7
FFF0
0002
FFFA
0003
0012
000B
000E
000B
FFEF
0016
FFFA
FFFA
FFF3
FFFB
0013
FFEA
0001
FFEE
0016
0006
FFF8
0014
FFFA
FFEE
FFF5
FFFB
0006
0003
FFFA
0016
FFF5
0007
FFF6
FFF5
0000
FFEF
0001
FFFF
0004
0009
FFF8
0000
FFF8
000C
0001
FFF5
0011
FFF6
FFF6
000E
000B
FFF8
FFFF
FFFA
0012
000A
000C
0007
0010
FFFC
FFF0
0009
FFFB
0008
FFEF
0009
0002
FFF8
FFFB
000F
FFFC
0007
0006
0014
0000
0007
000B
0003
0006
FFFB
FFFA
FFF3
0004
FFF1
0006
FFF6
0006
000B
000F
000F
FFF6
0019
0003
0002
FFFA
0004
FFE8
FFE8
0001
0005
0001
0004
0001
000C
0014
FFF3
0002
FFFC
0006
0005
0017
FFFB
FFF1
FFED
FFF5
FFF4
0005
FFF5
0002
000E
0009
FFFF
FFF8
0007
FFFD
FFF2
FFFA
FFFD
000C
FFF3
000A
FFFB
FFF7
FFEA
0011
FFEF
FFF7
000C
FFFE
000D
0005
0019
0008
0000
0006
FFEE
0017
0004
0007
FFFB
0002
0013
FFF3
0006
FFF4
0009
0005
0009
0011
0004
FFEA
0003
FFF1
FFFC
FFF5
FFF9
0016
0003
FFF8
FFF1
FFF9
0002
FFF4
FFF6
FFEE
0009
FFFD
FFF8
FFFA
0001
0000
FFED
0012
0009
0000
FFF5
FFF8
FFFD
FFFB
FFFF
FFE6
FFEA
0004
0000
FFF7
0008
000C
0015
0006
FFEE
FFEC
0007
000F
0018
FFF9
FFFD
0015
000B
000E
0003
0003
FFF7
FFF8
0009
FFFE
FFFB
FFF3
FFF3
000E
0002
000B
0001
FFFF
FFFC
0010
0006
FFF6
0009
0005
0002
FFEA
FFF9
FFF0
FFFF
FFFF
0000
0011
FFF8
FFFA
FFF5
FFF2
FFF0
FFF8
000A
0002
FFE8
FFFB
FFFE
000F
0001
0013
0001
0003
0006
0016
0002
FFFB
0005
0015
FFFF
FFEF
000E
FFF2
000D
000C
000C
FFFC
0003
000F
FFFF
000A
FFFC
0012
FFEF
FFFD
FFF0
0001
000B
FFFF
0006
0008
FFEF
0004
000C
0015
FFF6
000B
FFF3
0008
0009
FFFC
000E
000C
FFF3
0003
000A
0009
FFF3
FFF0
000A
FFFE
FFF3
000A
0000
000C
0003
FFED
000F
0007
FFF7
001A
FFE9
000B
0006
0005
FFF3
FFFB
0019
0009
FFF6
FFFC
FFFC
000F
000E
000B
0006
FFFB
FFF6
FFED
000D
FFFF
FFFC
0007
FFFF
000D
0002
000A
0000
FFF0
0006
0017
0014
0006
0001
FFFA
0013
FFF8
FFFA
FFEE
FFF7
FFED
FFF7
0005
0014
0005
0008
000B
FFF2
0006
000C
FFFD
FFFB
000B
0005
0002
000E
0002
000A
FFEF
0005
FFFD
FFFE
FFF4
0003
000D
FFED
0005
0002
0001
0007
FFFA
FFF3
FFFB
0001
000A
0004
FFFB
FFFB
0007
FFFB
FFEE
FFFF
FFF5
0017
000F
000C
000E
FFEB
FFE7
0004
FFFE
0003
FFF3
0009
000A
FFEC
000B
FFF8
FFFE
FFFE
0002
FFF2
0019
FFFE
0004
FFF2
FFE8
FFEF
000E
FFF6
0000
FFFE
FFFF
FFFB
FFFA
FFF3
FFF0
FFE9
000F
FFFD
FFFD
FFFE
FFF9
0008
FFF5
FFF8
0001
FFFE
0018
FFEC
FFEF
0009
FFEE
0009
FFF3
0007
FFF5
0006
000B
0002
FFF7
FFFD
FFF9
0004
FFF3
0009
0001
0005
FFF9
0007
000A
FFF9
0004
FFFF
0011
0007
0004
FFFD
0015
FFEB
FFF8
000C
FFFE
FFF8
0010
FFF7
FFF5
0019
FFEC
FFF8
FFFD
FFF2
FFF1
0009
FFF4
FFFB
FFFB
FFF7
0009
FFF0
0002
000E
FFFB
FFFA
FFF7
FFF1
0006
0009
0002
0000
FFF6
000A
FFFE
FFFD
FFF2
0001
0014
0002
0006
FFF3
FFFA
0008
FFFF
0019
FFFE
FFFD
0000
FFFE
0004
000C
0015
0002
FFFD
FFFA
0004
0007
FFF3
0003
FFFF
000B
FFE9
FFEA
FFE9
0001
FFFD
FFF8
FFF9
000B
0015
0002
0001
0006
0008
000C
000A
0000
FFFE
FFF2
FFF0
000D
0007
FFFB
0002
FFFA
000D
0006
0006
0011
FFFE
FFE7
0002
FFFF
FFF8
FFFE
000B
0008
FFFC
0004
FFF2
0006
0006
000E
0008
FFEB
FFFF
000F
FFFF
FFFE
FFE9
FFF8
FFF8
FFFD
0007
0005
FFFA
0009
0000
0003
FFFC
FFF4
FFFB
FFF8
0013
FFFC
FFFB
FFFA
000C
000B
0006
0006
FFF6
0003
FFFB
0007
000E
FFFC
0005
0004
FFF4
FFF9
FFF0
FFED
0002
FFF1
FFFB
FFFD
000B
0000
FFF2
FFF9
0008
FFFD
FFFB
000A
0018
0009
FFEE
FFF8
FFFE
FFF9
0006
0018
0000
000B
0004
0012
FFFF
000D
0000
FFEC
FFED
FFFF
FFEE
FFF8
0003
000C
0005
FFFA
0002
0015
0000
0000
0004
FFFD
0006
0008
FFFD
0009
0000
FFF3
0001
000E
FFF0
FFFF
000D
FFEE
000C
FFFC
FFFC
FFFC
000F
FFF8
0003
000D
0009
0004
FFF0
FFF1
FFFB
0006
FFFC
0015
FFF3
0011
FFE8
0015
FFFE
0008
FFF6
000B
000A
FFFD
000A
000A
0016
0006
FFFE
0014
FFF6
FFFA
0009
FFF9
0003
FFFA
FFF5
FFF9
FFF5
FFF1
0006
FFFC
0000
FFF6
0011
FFFE
000E
FFF5
FFF3
0005
0006
0004
0018
0008
FFFE
FFFC
000C
0002
0003
0010
FFF9
FFFD
0007
FFEA
0007
0008
FFF5
0005
0006
FFF9
000C
FFFF
0010
FFEF
0012
FFEF
0007
0005
000B
FFFF
000A
0005
FFF0
FFF0
0003
000E
FFFE
FFF6
FFFB
FFF6
000C
0007
FFFF
0000
000D
FFF0
000A
FFFE
0008
FFFA
FFFA
000B
0003
0013
FFF7
0003
0003
0015
FFEF
FFEF
FFF7
0012
000E
0003
FFF1
0002
FFF8
FFF7
0003
0007
FFF6
FFFB
000D
0014
0002
FFFE
FFF9
0002
FFF3
0003
0000
FFF4
0003
FFF7
0001
0000
000B
0008
0003
0013
0005
FFFE
0006
0009
000D
FFE8
FFF3
0001
FFEC
FFF6
000B
0002
0000
FFFE
0004
000C
0013
FFFE
FFFA
0002
FFEA
0015
FFF6
FFFE
FFF6
FFFA
0001
FFF4
FFFD
FFF3
0003
0010
FFF5
FFF6
FFFF
FFE7
FFF5
0007
FFFF
FFF9
FFF2
0004
0005
000B
FFFE
FFFB
FFF7
000D
000F
0006
FFFD
000B
0006
FFEE
FFFF
FFFF
0000
000A
FFEB
FFFD
FFF5
0005
000B
FFF3
FFF3
FFFF
FFFD
FFFA
0007
FFFC
0001
FFF4
000E
000A
FFED
0008
0004
FFF3
0007
0000
0000
FFFD
0003
0015
0005
000E
FFF0
FFF3
0000
FFFE
FFF8
FFED
0009
FFF1
FFF9
0008
FFF3
0005
0004
FFFF
000E
FFF5
FFF3
FFEB
FFF9
0005
FFEB
FFF6
0005
000C
0018
FFF9
FFF1
FFFB
FFF2
FFFF
FFF1
FFFD
FFE8
FFF1
FFF0
000A
FFFD
000C
0008
FFFE
0008
0005
0011
0002
0013
0012
FFF1
FFFC
FFF5
0002
FFF5
FFEF
FFF0
0008
FFF9
FFE6
000C
0001
000C
0004
FFF9
FFFF
000F
0007
0002
0003
FFE7
0003
0004
0014
0004
FFF9
0009
FFF1
FFF8
000F
000A
0007
0005
0000
FFFF
FFF2
0010
FFEC
FFFB
FFFB
0008
FFEF
0008
FFF4
0008
000F
FFFE
FFFA
0005
FFF0
0009
000B
0001
0003
0015
0003
FFFC
0018
0004
000C
0013
0014
0014
0003
000A
000A
FFF5
0012
000B
FFF6
FFF2
0006
FFF5
FFEF
000A
FFEE
FFFF
0008
000C
0001
0003
FFFC
FFF4
0004
FFF7
FFEE
FFFA
0010
FFFC
0019
FFFB
FFF8
0005
000D
FFFF
0007
FFFB
FFE9
FFEB
0009
FFF4
FFF3
FFEC
FFFB
FFF5
0008
FFF4
0006
0003
0002
0014
000A
FFFC
FFFA
FFF0
FFF2
0017
000E
000B
000C
0008
0003
000C
0002
0004
FFFA
0004
0001
0014
FFF2
FFFC
FFF8
0005
FFFE
0005
0002
FFF6
FFF3
0013
FFFD
0009
000C
FFFA
0008
FFF3
0004
FFFD
FFF2
0000
0015
0007
FFFC
0009
FFFE
FFFD
0003
000B
0011
0004
FFFA
FFF0
0013
0007
0001
FFFE
0012
FFED
0013
0004
0004
0008
0001
0003
FFE7
000C
0012
0011
0009
0007
FFFC
FFF5
0014
0009
0014
0005
FFFD
0004
FFF2
0008
0007
FFF8
0008
FFFE
FFEE
0012
0000
FFF7
FFFB
FFFD
0008
FFFE
0015
0005
0006
000E
FFF8
FFF0
0007
0009
0011
0003
000A
0000
FFF0
0015
FFEE
FFF7
FFED
0002
FFFA
FFFB
FFFA
000A
0001
0000
FFFF
FFF0
FFFB
0009
0006
FFEA
0005
FFF9
0001
0006
0007
FFF6
FFF2
0002
0012
0019
FFF8
0002
FFFC
0008
0001
FFF2
FFF8
FFF9
000B
0000
FFED
0004
FFEE
FFF6
FFFA
FFF2
000C
FFF3
FFFB
FFE8
0002
0003
FFFC
000C
FFFC
0015
0003
FFFC
FFFE
000B
FFF8
0011
FFF9
0004
0004
FFF4
FFF1
FFF2
FFF6
0018
000D
FFF9
FFFE
FFF5
FFF6
FFF2
0018
0000
FFFD
000D
0004
0004
0011
FFFB
0000
FFF1
0001
0002
000E
000C
000E
0001
FFFF
FFFE
0014
FFF5
FFF3
FFF7
0015
FFF1
0009
FFF3
FFFF
FFF8
0004
FFF7
FFFF
0002
FFF0
FFEF
0003
0003
0000
0002
FFFA
FFF8
0007
000B
FFFA
FFFA
0004
FFF8
FFFB
FFF3
0010
FFF6
FFFF
FFEF
0017
FFF8
FFF9
FFF8
0004
FFFA
000F
0007
FFED
FFF7
FFFE
000C
FFEB
000E
000E
0008
0000
FFFE
0013
0008
000A
000E
FFF9
000C
FFF8
FFEB
FFF4
000E
000B
FFF1
0005
FFF8
FFFB
FFF9
FFEE
0008
000D
0003
FFFA
000F
FFFC
FFF1
FFED
FFFA
0001
FFFE
FFED
FFF5
FFF8
FFF2
0004
FFF3
FFEB
0011
FFF9
0012
0013
0000
FFF7
FFF4
FFFC
FFFA
FFF5
FFFA
0002
0010
0015
0010
0001
FFEA
FFFF
0000
FFEC
FFF4
0010
FFE9
FFF3
FFF1
0009
FFF7
FFF3
0009
0014
0008
FFF5
FFFA
FFE7
0007
FFF8
0009
0005
FFFC
0011
0007
0011
FFF6
000C
0006
0001
FFF9
000B
FFEA
FFF5
FFF4
FFF5
000D
FFFC
FFF4
FFFA
0000
0000
FFF9
FFF8
FFF9
FFF3
FFF7
0011
FFFA
FFF8
FFF8
0003
000B
FFF9
0001
0002
FFF9
FFF1
0005
0008
000A
0012
FFFD
0001
FFEE
FFF1
0005
FFE7
FFE9
FFEE
FFFF
0005
FFF9
000A
FFEC
0015
0011
0013
FFEF
FFFC
FFEF
0018
FFF9
FFFA
0014
FFEC
FFFE
FFFB
FFF3
FFEA
0002
FFF1
FFF1
FFFB
FFF7
0001
FFF9
0000
0000
FFEF
FFF3
0010
0004
FFF3
0002
000D
0005
000B
FFFF
000B
0006
FFF1
000A
FFFA
FFFB
FFFE
FFED
FFF8
FFFE
0001
0003
000C
0011
0001
FFF6
000B
0001
FFEC
000B
0015
000E
FFFC
0005
0005
FFF0
0004
000C
FFEB
0002
FFF9
FFFF
0009
FFED
FFEE
000C
0002
0006
000D
0000
FFE7
FFF1
0006
000E
0010
0016
000A
000B
FFF9
FFFA
0006
0001
FFF2
0004
0006
FFF4
FFFD
0005
000E
FFF5
000C
0009
0001
FFFC
0002
0009
0005
FFF8
0002
0002
0003
0000
0006
0006
0005
FFF5
0011
0010
000A
FFF1
0012
0001
0007
FFF9
FFFD
FFF3
FFFD
0002
FFF9
0018
FFF8
000C
0003
FFE7
0007
FFF6
FFFE
0011
0007
FFEC
FFFC
FFF9
FFEF
FFF7
FFEC
0007
0006
FFF2
0011
0012
0001
0011
FFF7
FFEE
000C
0001
FFFB
FFED
0001
FFEC
FFEE
FFFC
0010
FFF4
FFFB
FFFA
0001
0008
0005
000B
FFE6
000D
FFF0
FFFA
0006
0019
0002
000C
FFF7
000F
0002
000A
0003
FFF9
0002
FFF4
FFE8
0003
FFFC
FFED
0016
0004
000E
0017
0008
0004
0009
FFF7
FFF3
0010
0000
000D
0006
FFFE
FFF4
FFFF
FFFD
FFF7
FFFE
FFF7
FFEE
000C
FFEE
FFFE
000C
0016
FFFD
0003
0003
0000
FFF8
0008
0000
FFFB
0014
FFF8
0001
000A
FFFD
FFF7
0017
0005
000F
FFFA
000C
0000
FFF5
0007
FFFD
FFF6
FFFC
000E
0004
0008
000A
FFEC
FFFA
FFFE
000D
FFF7
FFF9
FFE7
FFF4
0012
FFF9
FFF0
000C
FFFA
FFFE
FFF1
0004
FFFC
0006
FFFA
FFE8
FFEF
0011
0002
0006
000B
0016
FFF7
FFF9
FFF5
FFEB
FFF3
0017
0016
000F
0011
0009
0006
FFFE
000C
0003
000B
0005
0005
0000
0006
FFEC
FFF8
FFFE
FFFA
000E
FFFD
0007
0001
0014
0007
FFED
0002
FFEE
FFF3
FFF5
FFFA
FFFC
0006
FFFB
0016
000E
FFFF
FFF6
FFF8
FFF3
FFEC
0004
000D
0019
0001
FFF1
0003
0004
FFFF
000E
0010
0004
FFFA
0002
000E
000B
FFE9
0008
0006
0006
FFFC
FFEE
0017
FFFD
0006
FFF8
FFE6
FFF7
FFFE
0002
0004
0002
0005
FFE8
FFF8
FFFC
0004
000A
000B
FFFD
0003
FFEE
0008
FFF3
0003
0019
0018
0004
0008
000C
0001
FFF5
FFE7
FFF4
FFFF
FFF0
0003
FFED
000D
FFF6
FFFB
0016
FFFC
000E
0013
FFFD
0000
FFF5
FFFC
0006
FFF0
0008
000D
FFFE
0009
FFF3
FFF5
FFF9
FFFA
FFED
FFF3
000D
0000
0011
FFFD
0002
FFEB
FFF9
000A
000E
0005
0015
FFFC
FFF4
0003
FFFD
FFF3
FFF9
FFF9
0013
000D
0006
FFFD
FFF4
FFF9
0017
0003
FFF5
FFFF
FFF8
000D
FFF1
FFFD
0002
0006
0002
FFF2
FFFD
000C
FFFA
0016
FFF9
000B
FFFE
0016
0004
0000
0003
0001
FFF8
0002
0003
FFED
FFFD
FFFF
FFF4
0000
FFFA
0005
0003
FFF4
FFF7
000D
0010
000D
FFED
FFF7
0000
0004
FFF2
000A
FFED
FFFA
0006
0010
0003
0009
FFFF
FFFE
000E
FFFC
0008
FFEB
0001
FFEB
0000
FFF8
0014
FFFF
0001
FFFD
0004
0007
0006
0001
FFF2
FFFF
FFE8
FFFA
0012
000E
0002
FFF3
FFF0
FFEB
0015
FFF9
FFF9
FFFD
FFF8
FFFE
FFFC
0004
0003
FFE7
FFF6
0007
FFFD
000C
0010
FFF3
0010
0005
0019
0000
0001
000C
0016
0002
0011
0018
FFF7
FFF7
FFFF
0011
FFEB
0004
0003
FFFA
FFF5
000D
FFFF
0004
0001
FFF1
FFFE
0005
FFFE
FFF8
0006
0000
0004
FFFC
0005
FFF3
0009
FFF9
0002
FFFD
0019
FFF4
0005
0004
FFEE
FFF7
000A
FFFE
FFFC
000F
0006
FFF6
FFFD
0014
FFFE
FFF5
FFFA
0009
0009
FFFC
0004
0012
000B
FFE8
0011
FFED
0003
FFF9
FFEF
FFF9
FFF3
0017
FFFF
000B
0000
FFFD
FFF6
0008
FFEE
0012
0009
FFF4
FFF2
FFEE
000F
FFFD
FFED
0009
FFFD
000C
0014
000D
000F
0000
FFFA
FFE9
000B
0000
FFF8
FFFC
FFF4
FFF7
0010
0009
FFF7
0005
0000
0003
FFFF
0017
FFF3
FFFD
0002
0015
FFF3
0013
0001
FFF1
FFFC
0003
FFF8
FFFB
000B
000B
FFEC
0006
0003
FFF9
FFF7
FFFB
0013
FFFB
000A
FFEA
FFF2
0011
FFF1
0010
FFFD
0003
0009
0002
FFFD
0010
FFE9
0003
FFF2
0005
FFF4
FFF6
0008
0005
0001
0013
000C
0003
0003
FFEB
FFFC
FFFC
FFF1
0010
FFF2
0012
000B
0004
FFFF
FFF5
FFED
0002
FFFF
000A
FFFB
0007
FFF8
0005
0009
0001
FFFC
000F
FFF8
000D
000C
FFF4
0006
0015
000C
000F
0011
FFF2
FFF0
0003
0006
000D
0014
FFFA
FFF2
FFF2
0003
0009
FFF8
0007
000C
FFF6
FFFD
0002
000C
0016
FFFA
0003
0013
FFFC
FFFE
FFFB
FFFD
0010
FFFB
FFF0
000C
0007
0002
0009
0003
FFF3
FFF3
0014
FFFE
FFF2
0000
0004
0013
0011
FFFD
FFEF
FFF5
0002
0002
0014
0006
0019
0009
FFFA
FFF8
000C
0004
FFFD
0009
0004
0004
0002
0001
0011
0009
FFFF
FFFF
FFFD
FFF7
FFFD
0003
FFFA
0000
0004
0008
FFFB
0000
0003
0009
FFFA
0002
0001
FFFB
FFE8
0005
000B
FFF4
FFF3
FFF8
0009
000F
FFF6
FFF2
0003
FFEF
000A
000C
FFF3
FFF6
0009
FFF1
0011
0007
FFF3
0000
FFF7
0007
0008
FFF5
0001
0005
0005
FFED
FFF8
FFF9
0008
000A
0008
0007
FFFE
FFF9
000F
0005
0007
000D
FFFE
FFF4
000D
000F
0000
FFF1
0011
0000
0008
0001
FFF8
FFFF
0007
0010
000E
FFFD
FFF8
FFEE
0001
FFE8
FFFB
0009
FFFF
0001
000F
FFF5
FFFA
0016
0006
0000
FFFB
0003
FFE8
FFF9
FFFE
FFEE
FFF7
FFF8
FFF0
FFF8
FFF2
FFED
0010
000B
0001
0000
FFFE
FFFC
0006
FFE8
FFFA
FFEC
0003
FFF1
FFFB
FFFD
0013
FFF9
FFF6
FFED
000B
0004
FFF8
0012
FFEF
0015
0005
000E
FFEF
0008
0006
FFF9
000C
0010
FFFB
000F
FFF0
0005
FFF2
0009
FFEC
FFF7
000A
0001
FFF1
FFF8
0010
FFF9
000B
FFFC
000D
000D
0001
000B
FFF2
FFF4
0016
0005
0000
0014
FFFC
0001
0006
FFFE
000F
0001
FFF7
FFFF
FFF1
0000
000D
0003
0008
FFF5
0004
FFF6
0008
0012
000D
FFF0
0013
FFFE
FFF4
0008
FFF5
0000
FFFF
0014
FFF6
FFF6
FFF5
FFFA
000B
0003
0012
FFEF
FFEF
FFF8
FFFC
FFF3
0014
FFED
FFF1
0003
0009
0008
0007
0019
0001
FFF9
FFF2
000C
0008
000A
FFF7
FFF9
0005
0009
0013
0003
FFF5
FFFA
FFED
FFF4
FFFE
0003
FFFC
FFFE
FFE7
FFF4
FFEA
000C
FFFC
0005
FFF7
FFF8
FFF9
FFE9
000F
000D
0003
FFFC
0008
FFF0
000D
FFEF
000E
FFEA
0007
FFFA
FFFA
000D
0000
FFFC
0013
0008
0012
FFFE
FFF3
0004
FFEF
FFF9
0002
0012
FFFC
0002
FFFF
FFF9
0007
0013
000F
0001
000F
0006
FFEB
0000
FFF6
FFFC
0011
FFFA
FFF5
0012
FFFB
FFFA
FFFB
FFE6
FFEC
0002
0003
0017
FFF9
0007
0007
FFFF
000C
FFF8
000E
0007
0004
FFFF
FFFD
0005
FFF6
FFF6
000B
FFF8
0011
0015
FFF4
000C
FFED
FFEA
0007
FFFC
0016
0013
000A
FFFC
FFEC
FFF4
000C
FFFC
000C
FFFB
000A
0002
FFFA
FFF8
0003
000A
0004
FFEF
FFFE
0003
000C
FFFE
0006
FFF4
FFFC
0005
0019
000B
0002
FFFF
0014
FFF4
FFFF
0014
FFFA
000D
FFEB
0013
0009
FFFA
000E
FFFB
FFF2
0000
0001
0006
0005
FFEF
FFF0
0007
FFFB
0014
0013
FFFF
000B
0000
0000
0009
000B
0005
001A
FFFD
0010
FFF1
0006
0012
0006
FFF9
FFF6
FFFC
000C
FFF3
FFF8
FFF9
FFFD
0008
0013
FFE9
FFF1
FFF6
FFF8
FFFD
FFED
0012
0002
000F
0004
FFFD
0007
FFFF
FFF2
FFF4
000B
FFFB
FFF8
FFF9
FFF9
0002
0001
FFFE
000A
0009
0006
FFFF
FFFF
FFEC
0004
0006
0008
FFF9
FFED
0008
0009
FFF3
FFFE
0006
FFE9
FFEC
0005
0003
FFF9
0008
0003
0007
FFFE
FFF1
FFEF
FFFD
000C
0015
0009
FFFA
FFF4
FFFC
0001
0015
FFFF
FFFF
FFEB
FFFD
0006
FFF0
FFFC
FFFF
FFE9
0005
FFEC
FFF4
FFEE
FFFD
FFEB
0011
0002
0000
FFFB
FFF8
0006
FFF0
FFF3
000A
FFFA
0005
FFF8
FFF9
0002
0001
0001
FFF7
FFED
FFFB
0004
0018
0004
FFFC
FFFE
FFF6
0002
0018
0011
FFFC
0008
0012
FFFC
0017
0013
FFFE
0012
000A
FFE8
FFF4
000B
FFF2
FFF9
0000
FFE9
FFF0
FFF7
FFFE
0007
0012
0002
FFF7
0004
0004
FFFE
000F
FFF8
000A
000A
FFFE
0005
FFF9
0000
0003
FFE8
0014
000C
0004
FFFF
FFE7
FFF0
0016
0010
FFF3
FFF6
0003
FFF0
0012
0002
0008
0002
0014
FFFA
0008
0018
FFFE
FFF9
FFEA
0001
000B
0008
FFED
0008
000A
0018
FFF1
FFFF
000F
FFE9
FFF4
FFFA
0006
0002
FFFA
FFFF
FFF2
0016
0011
FFF5
FFF7
FFEF
FFF6
FFFB
FFF4
FFFD
0005
0001
FFED
FFEB
FFFC
FFED
0008
FFEB
FFE9
0000
0009
0015
0004
FFF9
0016
000C
0012
FFFB
FFEB
0005
FFEB
FFF5
FFFF
FFF8
FFF4
0005
FFF9
0013
0012
FFED
0004
0008
FFF7
0017
FFF9
0007
000A
0014
0009
0000
FFF4
FFF4
0001
000E
0011
FFFE
FFF9
0006
000D
0001
0010
0002
0004
0001
FFF6
0008
0006
0001
0003
FFEE
FFFB
0001
FFE7
0001
000F
000F
FFEF
000D
FFF5
FFF4
000D
FFF7
FFFB
0007
0005
0000
0014
FFF4
0016
0007
000F
0001
FFFD
FFF7
FFFF
000B
FFEF
FFF1
FFF3
0005
0005
0008
FFFA
0000
0013
0004
000D
0012
0001
FFFE
FFFA
000D
FFFA
FFF8
FFFC
000D
FFFC
0005
0005
0001
0010
000A
000E
0011
0008
FFFF
FFF6
0008
FFF8
0000
0006
FFFF
0000
FFED
0007
000D
000C
000B
FFE9
FFF5
FFF9
000A
FFF7
FFF5
FFEF
FFFF
000C
FFE7
FFF2
FFF0
0009
0008
FFF6
FFF8
FFFF
FFF7
FFFA
0004
000A
FFEE
0017
FFEA
0006
FFFD
0000
0008
0007
FFF9
0002
0009
0000
0007
FFFB
FFF2
000F
FFFF
FFEA
0010
FFFA
0000
0000
FFF4
FFEE
FFF4
000B
FFEE
FFFC
0000
0008
0003
0008
0003
0009
0009
FFEC
0009
FFFA
0000
0002
FFEB
FFF9
FFFD
0004
0003
000A
000E
0002
FFF4
FFFC
FFF8
0004
0017
0001
FFFB
0014
FFF2
000B
0002
0003
000B
FFEE
FFF6
0004
FFFA
FFF4
FFF6
FFF9
FFF3
FFF5
FFEE
0017
0007
FFFC
FFFC
FFF5
0004
FFFC
FFFB
000B
FFF0
FFED
FFF1
FFF9
0000
FFEE
FFF7
FFE7
0008
FFF2
FFFC
0004
0018
0000
0006
0004
0001
0006
FFFA
0003
FFFB
0010
0011
0015
000A
0001
FFFB
0001
0007
0000
FFFB
FFF1
0014
0011
0004
0008
FFEE
FFFE
0002
000A
0000
FFF7
0007
FFFD
FFF4
0003
0009
FFF3
0015
0004
0010
0001
000E
FFF0
FFF7
0007
FFFC
FFE8
0000
000F
0001
0006
0005
0005
FFEF
FFF9
000B
0008
0001
FFF2
FFFF
0007
0003
0001
0007
FFF1
FFF5
FFF5
FFFF
000C
000E
FFF4
FFEB
0002
0004
FFFE
FFF7
FFF7
FFF0
FFF9
0001
0018
FFEB
0006
FFFD
FFFD
FFFF
0004
FFF0
FFF0
0010
FFF5
FFFC
FFF1
0002
000D
FFF3
0014
0006
000B
FFED
0002
0007
0009
FFEE
FFFA
FFF6
FFF2
000C
FFF2
FFF2
FFEF
FFF9
0016
FFF6
FFEF
FFEF
FFF0
0013
0004
FFE8
0009
FFFF
FFFE
0002
0010
FFFD
0013
FFFE
0004
0009
0017
FFFE
FFF1
FFFF
FFF4
0000
0004
0006
0008
000E
FFEF
FFFB
FFFA
0015
0002
0002
000D
0005
FFFB
FFFF
FFFB
0008
FFFA
000E
0017
000E
FFFF
FFFC
0010
0012
FFFD
FFFE
0010
FFFD
000C
0007
FFF9
FFFF
FFF7
FFF2
000B
FFFC
000B
FFFF
000C
0001
FFF3
000C
0007
0015
0010
0015
FFFF
000B
FFFC
FFFA
FFEC
000A
FFF5
FFFA
FFF9
0005
000B
FFF4
FFEF
0006
FFFE
FFF7
000E
0012
0007
0002
0012
0007
FFEC
0012
FFF1
0004
000F
0005
FFEC
FFF3
FFFE
FFF6
FFFF
0000
FFF6
FFF3
0007
FFF8
FFFC
0011
0001
0007
FFE6
0008
FFFA
0004
0005
FFF4
0005
FFEB
0007
FFFB
FFEF
FFF7
0007
000F
0010
FFFA
FFF8
0007
000C
FFFE
FFE7
0001
FFF8
0013
FFE7
FFEF
FFF4
0010
0016
FFE7
FFFE
FFFB
000F
FFF5
FFF9
FFF6
000B
FFFA
FFEA
0000
FFFF
FFF1
0009
FFEB
FFEC
0014
FFF7
FFEA
0004
0008
0004
FFFE
FFFF
0002
FFF9
000C
0006
FFE8
FFF3
FFFF
FFF2
FFFA
0005
0003
0009
0002
0006
000C
000F
FFFF
FFF8
FFFF
0002
0004
0001
FFFA
0012
FFE7
0008
FFFF
0008
FFEF
FFF5
FFFC
FFEE
0001
000A
0013
000B
FFF6
0006
000A
FFFB
000E
000B
FFE7
0003
000D
FFEB
FFF7
0004
0001
FFFC
0002
0002
000B
0007
0001
0012
FFF0
FFF2
FFFF
0003
0009
0009
FFF8
FFE7
000A
0005
FFF4
0013
0006
000C
0015
000E
0002
FFFF
FFFC
FFFF
0003
0005
000E
0007
FFFB
FFF2
FFF9
0018
FFFC
000C
FFEF
000F
FFEF
000C
FFF9
0017
0004
FFF6
0005
000C
000F
0007
000B
FFFE
FFF9
000D
FFED
0001
FFF9
FFF8
FFF8
0001
000C
FFF3
0000
0007
0000
000F
0001
000A
FFF9
000D
FFFF
FFEB
FFF5
FFF0
0009
0005
FFFA
0003
FFFD
0004
FFF9
FFFE
0014
0009
000E
FFFF
FFF2
0002
FFF2
0007
FFF6
000A
FFE9
FFF8
FFFB
0001
FFF3
FFF5
000D
FFFE
FFEE
000D
FFFB
0011
000A
FFFE
000A
000B
FFFF
0003
0007
FFFD
0018
FFF5
FFF9
0007
FFF4
0006
0004
FFFB
000E
0007
FFEA
FFF8
FFFA
0001
FFF8
FFFD
FFFE
FFF6
FFE6
FFF9
FFFF
FFF6
000D
0000
0009
0001
000A
0009
FFF5
FFF8
FFEB
FFFF
FFF7
0008
FFF3
000A
0003
0005
0001
0005
0000
0009
000D
FFF9
0002
FFFC
FFEC
0007
FFFB
0004
000E
FFF9
FFFD
FFF7
FFEF
000F
0009
000C
0007
FFF9
FFE8
FFFA
0003
000E
FFFE
FFFC
FFEA
FFFD
0002
0017
0000
FFE9
FFEE
FFF6
FFFD
0006
FFF7
000F
000D
0007
000F
FFF5
FFFC
0006
0004
FFEF
FFF5
FFFD
FFF6
0007
0007
0003
0005
000F
0003
0004
0004
FFF3
0002
0007
FFF7
0014
0005
FFFB
0003
FFFF
0010
FFEA
0008
0003
000F
0000
FFFB
FFFD
000A
0011
FFFA
FFFD
0005
0004
0003
0014
0004
FFF1
000F
000F
0004
FFFA
0018
FFEE
0000
0002
000E
000D
000F
FFFE
0018
0011
0011
FFFD
FFF3
FFFA
FFF8
000E
FFF1
FFFC
FFF5
0003
0005
0018
000B
0004
FFFD
0011
0013
0008
FFFF
000A
FFF9
FFF4
FFEC
0005
000A
FFF3
0015
FFFE
000D
000E
FFF1
FFFE
0003
FFFE
FFFC
FFEB
FFFC
FFFB
FFF9
0007
0009
0004
000A
FFEC
0003
FFF1
FFFE
000E
000E
FFFC
FFF8
0005
0015
FFFB
0019
000D
0003
0007
0009
FFFB
0000
000A
FFF7
000E
FFF9
0006
FFF8
000C
FFF1
FFEC
000B
FFFA
FFFE
0006
000F
0002
0007
FFF5
FFF3
0017
000B
000B
0000
000F
FFFC
FFFD
FFFC
0010
0008
FFFD
0008
FFF5
0016
0007
FFFE
0007
0000
000C
FFFD
0009
FFF4
0008
0000
FFF7
0000
0002
FFF4
FFF6
000F
0002
000D
FFEE
0002
FFFE
FFE7
FFFB
FFEF
0005
FFEE
0010
0001
FFE7
0008
FFF3
FFF4
0004
0019
FFE9
0006
FFF7
FFF0
FFFA
0005
FFEF
001A
0004
FFEE
FFF7
FFF2
0005
000A
0009
000F
000D
0003
0007
0006
0000
000E
FFF9
FFF7
000C
FFF1
FFF9
0012
000D
FFFD
0009
000E
0011
000B
0001
0005
FFFA
0008
FFF9
FFF5
0009
FFF6
000A
FFEB
0002
0000
0009
FFF6
FFF2
FFFD
FFFD
0009
000E
0004
FFF2
FFFE
FFFC
0000
FFFA
FFF8
FFF1
000A
000D
FFEF
FFF5
0008
FFFF
FFF7
FFF9
FFFF
FFFF
FFFC
FFF2
FFF4
0003
FFFA
FFFC
FFEF
FFF0
FFF4
FFF7
FFFE
0001
FFF9
FFF2
0009
0000
000F
0016
0015
FFED
0009
0004
0005
0011
FFFB
0000
FFEF
FFFB
0002
FFF8
0010
FFF4
000F
0011
FFEC
FFF5
0008
FFF8
FFF7
FFF1
0003
000D
FFFA
FFFE
0006
FFEF
000B
000A
FFF5
0008
FFFD
000A
FFF4
FFFE
FFFA
0000
FFEA
0001
0001
000F
FFF3
FFF2
FFEF
0012
0009
FFED
0007
000A
FFF3
000D
FFF5
FFF9
0001
0001
FFF3
FFFD
0001
FFF2
FFF0
FFF3
FFEB
FFFA
000C
000E
FFFD
0003
FFF4
000C
0006
FFEF
0001
0007
FFFA
FFFF
000F
FFFA
0007
000E
0012
0008
000F
FFFC
FFF3
FFED
0009
0005
FFE9
000C
FFF5
FFED
0005
0009
FFFB
0003
FFF2
000F
0004
FFED
FFFF
0006
0003
FFFB
0013
000F
FFF9
FFFB
FFE9
0000
0000
0000
FFFB
0009
FFF4
FFFA
FFF8
FFF3
FFFB
0008
0007
0007
FFE6
FFFB
000A
FFF2
0015
0011
FFFD
000B
FFF7
0007
FFF5
0002
FFFD
0003
FFFA
FFEB
FFF8
FFF9
FFFD
0002
0003
FFFB
0003
FFEF
0008
0005
000F
0005
FFFF
000D
FFF1
FFFA
0003
FFF7
000C
FFF5
FFF5
000D
0000
000B
0001
0015
FFFF
0003
FFEB
000D
0015
FFEA
0015
0007
0003
0004
0003
0000
FFF0
0005
0001
FFFC
FFFD
0003
FFFC
FFFE
FFED
FFF4
0018
FFFA
FFFD
000B
FFF6
0000
FFF1
FFEE
0004
FFFF
FFF1
FFF2
0004
0004
FFF2
000F
0009
FFF1
0008
0004
0006
0010
0003
FFE9
0012
0006
FFF4
FFF9
000E
FFE9
FFFC
0002
000B
FFF9
000A
FFF8
0003
0002
FFF0
0002
0001
000B
FFEC
FFE9
000E
FFF9
0005
FFF4
FFF0
FFF3
FFF2
0001
FFF8
FFFF
FFFA
FFF7
0002
FFFB
FFFD
FFF4
FFEE
FFF6
FFFC
000A
0003
0003
0002
FFFA
0008
FFF9
FFF8
0004
000F
FFF4
FFFF
0003
0005
FFF7
0004
FFF0
FFED
FFF9
FFF8
FFF5
0007
000D
000C
FFE8
0006
0014
0005
FFF5
0013
000A
FFFD
0013
000C
FFF6
FFFA
000B
0000
0000
0006
FFFA
FFF9
0016
FFFC
FFF4
FFF7
0007
FFF8
FFEA
FFFE
0005
000B
FFF5
FFFD
0003
FFFF
FFF6
0014
0008
000F
FFFF
FFEB
FFF5
FFFE
FFF2
0005
FFFA
FFF6
0008
FFEE
FFEE
FFEE
0001
FFF5
FFEE
FFF5
FFFC
000F
000C
0004
FFF9
0007
000A
FFF9
0003
000D
FFEC
0005
FFFF
000B
FFF9
FFED
0010
0008
0013
000F
FFEF
0000
FFFF
0004
0002
0010
0002
FFFA
FFF7
FFFF
FFFB
FFF7
FFF7
000C
FFF9
FFF9
000A
0004
FFF7
0002
FFEF
000A
FFFF
000C
000A
0002
FFFF
0012
0007
FFF7
FFF3
FFED
FFED
FFF7
FFF0
0003
000A
0011
000B
FFEC
0004
FFFD
FFFC
000C
FFF5
FFF2
000A
FFF5
FFFB
000A
0006
FFF8
FFED
FFED
000A
FFF5
FFFC
FFFD
0003
FFFE
FFFF
0012
000C
0005
FFFE
0014
000D
FFFC
FFFA
0002
FFF1
0005
FFEC
0017
0001
FFFD
0005
0006
0002
0004
FFFE
FFF9
FFFA
FFFC
0001
0001
0006
FFFF
0005
0008
FFFF
FFFC
0003
000A
FFF2
0016
0007
0006
000F
0004
FFFB
FFEE
FFF2
FFFC
FFF5
000A
0007
FFFD
FFFC
FFFD
0003
FFF2
0001
FFF4
FFFF
0008
FFF8
0006
0008
FFF6
0006
FFFA
0000
0003
FFFC
0013
000C
0013
FFFA
000C
0013
FFF7
FFFF
0007
0005
FFF5
000B
0002
FFEE
0001
000F
0001
FFEE
FFFB
FFF6
FFF5
FFFD
0004
FFF6
0007
0005
0002
FFFC
FFFA
0004
0004
0000
FFF2
0011
FFFA
FFF5
FFF7
0009
FFFC
FFF6
FFFA
FFFA
0005
FFFE
0019
FFF8
0004
FFF6
0000
FFEF
FFEB
000B
FFF9
0015
FFF3
000D
0005
FFFF
0013
0003
FFFC
FFE8
0000
FFFA
FFFF
FFF5
FFFD
0000
0002
FFEF
FFF1
0005
0005
0014
0010
0015
0002
0002
0007
FFEA
FFF9
FFF6
0008
FFFC
0006
0008
0011
0001
0008
0001
FFFE
FFF3
FFE7
0005
FFF3
0003
FFEF
0011
FFF1
FFFC
FFEF
000C
FFFE
FFFD
FFFC
0013
FFFE
FFEC
FFFA
FFFB
0014
0007
FFFB
FFEC
FFFE
0000
000F
FFF3
FFFB
FFFF
0002
0003
0003
FFFD
FFFC
FFF8
0000
FFF8
FFFD
0019
0005
FFE7
0008
FFF3
FFF9
FFF1
0001
000A
0009
FFF6
0003
FFF5
FFF5
FFFD
000B
FFF6
FFF0
FFF1
0005
FFF1
0005
FFF7
0009
FFF0
0004
FFF9
FFFE
0005
FFF6
FFF8
FFF7
0006
FFFD
FFF7
0005
FFFA
0010
0002
FFFE
FFEC
FFF5
FFF3
0017
FFF9
FFFF
FFF8
FFED
FFFE
0010
0005
FFF8
FFEC
0002
FFF3
FFE9
FFF3
0012
FFFB
0010
FFF3
FFF3
0000
000E
FFFD
0010
FFFA
FFFF
FFFC
FFFA
0006
000C
000C
0000
000B
000F
FFF1
FFF8
0004
0005
FFEB
FFEE
0001
0017
0015
FFE8
FFFA
0002
FFFB
FFFD
0002
FFFD
FFF7
0008
FFF3
FFFE
FFFD
FFFB
0003
000D
FFFF
0004
000B
0010
0003
FFFB
FFF9
FFE7
FFEB
000B
FFFF
FFF0
FFFA
0000
FFFD
FFF3
FFF1
0008
0009
FFFA
FFF4
FFF6
FFFE
0009
FFED
FFFB
0010
FFFB
0009
0016
FFEA
0006
0001
FFFC
FFF4
FFF8
0009
000A
0014
0004
0003
FFF5
0005
001A
0009
000D
0001
FFF8
FFFB
0006
0006
FFF9
FFF7
FFFA
0006
FFF9
FFFB
FFFA
FFF9
FFFD
FFF7
FFEB
FFE9
0001
FFE9
000D
000D
FFFB
0010
0009
0009
0004
FFF6
0002
FFFE
000A
0001
0006
0001
0000
FFFA
FFF6
FFF1
0008
0007
FFFE
FFFC
FFFB
0013
FFF1
FFFE
0005
0005
000D
FFF7
FFFC
FFFE
FFFE
0011
0009
000E
FFF0
0010
FFF7
0016
000A
FFFE
0013
FFEF
FFFD
0010
0008
FFF2
FFF8
0008
0000
FFFB
FFF9
FFFF
FFED
0001
0002
0010
FFF1
0004
FFEF
0019
FFFF
FFED
000A
0008
FFF7
0008
FFEF
0009
0015
0000
0001
FFEE
FFFD
0005
0014
FFF7
FFEC
000A
0003
FFF3
0001
FFF6
FFF6
0011
FFFB
0015
0006
0018
FFFB
FFFE
FFE9
0017
0003
0000
0010
0013
FFF7
FFEF
0000
0012
FFFB
000C
0001
0007
FFFF
FFFF
000F
FFFE
0006
FFFC
FFF7
000B
0006
000C
FFF4
000E
0012
0003
000B
FFF5
000A
FFEF
FFED
FFFE
0014
FFF9
0009
0003
0000
FFFE
FFF2
FFF7
FFEF
0009
FFFC
0003
FFF2
FFF9
0000
000D
000A
0006
0003
0014
0000
FFFA
0005
FFFA
FFF5
FFEF
000F
000C
0003
FFFB
FFEE
000E
0011
0009
FFF2
0005
FFEF
000D
FFFD
0002
000E
0009
000B
0000
0005
FFF8
0003
FFEF
000B
0002
0013
FFFD
0014
FFFE
0003
000D
FFFC
0000
FFEF
0007
FFF4
000A
000B
FFF8
FFFD
FFF6
FFFA
FFFF
0008
0003
FFFD
FFF9
0019
FFFC
FFF0
000F
000D
000C
0004
0002
FFF7
0011
FFFD
FFF6
000B
000E
000C
0003
0015
FFF7
0010
0018
FFF6
FFE9
FFFC
FFFF
0000
0009
0018
FFFD
0009
FFFE
FFED
FFF0
000A
000D
0011
FFF3
0004
FFEB
0009
FFFB
FFFC
0000
FFE8
FFF8
FFFA
000E
0003
FFFF
FFEA
FFFF
FFF8
000C
FFEB
0000
FFF9
FFEC
FFF2
FFF9
FFF2
000A
FFEF
FFF9
000D
000A
FFF8
0019
0015
0011
0006
FFFC
000D
FFF0
FFFE
0002
0006
0016
0008
0007
0009
0008
0004
0003
0010
000B
0014
000A
0008
FFF3
0007
0002
FFEF
000F
0008
0001
FFE8
0011
0006
FFE7
0008
000E
FFFC
0003
FFFC
FFFB
FFF7
FFF7
FFF5
0005
FFFF
0001
0008
0001
FFE8
FFEA
FFFB
FFF5
0014
FFFF
0007
0003
0015
0006
0009
FFFD
FFFE
FFFB
FFF5
FFFE
FFF7
000B
0007
000D
000C
0008
FFF4
0019
0009
FFFB
0006
FFF3
000C
FFF6
FFF0
FFF6
FFEF
0000
0003
FFFB
0013
FFFB
0007
FFF2
0008
0010
000E
FFF5
FFFF
FFFD
0011
000B
0010
0007
000F
000F
0011
FFF3
FFED
0007
0006
0004
000A
FFFB
FFFD
FFF8
FFF5
FFF9
0007
0006
000D
FFF1
FFF3
0000
FFF8
000A
0010
FFF6
0005
0006
0010
0012
0003
0013
FFFB
0019
FFF7
000B
FFF5
000C
0006
0013
0007
0002
000E
FFF8
0003
FFEE
000A
FFF8
0012
FFEB
0003
0003
FFFA
000E
FFF8
0013
0010
0003
FFF7
0013
0008
FFFC
FFFE
0008
0007
FFF8
FFF6
FFF5
0008
FFF9
FFFF
FFFB
0006
FFFA
0009
0005
0012
FFF5
FFF7
0002
FFF7
FFF6
FFFB
0009
FFF6
FFFF
0003
0000
FFFE
FFFF
0007
FFFD
FFFD
000E
0005
0004
FFF2
FFF9
0011
000B
0001
000F
0001
FFEA
FFEE
FFEC
0006
FFF9
FFFA
0006
0009
FFF5
0001
FFFC
0019
000F
FFFA
000B
0002
FFE7
FFEE
FFF0
0004
0011
FFF9
FFF3
FFF6
FFFE
FFFC
FFF5
0003
FFFA
FFF8
0006
0002
FFFF
FFFD
FFFA
0005
FFF4
000C
FFFA
FFFF
0006
FFF7
FFFC
0006
FFF5
FFEA
FFEF
0005
0002
FFED
FFFA
FFFA
0000
FFF2
FFEA
FFF5
FFF8
FFF7
FFF9
FFF4
FFFF
FFFC
FFFD
0002
FFFC
FFFF
0016
FFF5
FFFB
0010
0000
FFF3
FFFE
FFFF
FFF5
0006
0000
0005
0008
0002
0010
0018
0000
FFF8
FFF5
FFF7
0014
0008
FFFD
0005
FFF7
FFF0
FFF8
0005
FFFC
0019
FFF5
FFF4
FFF5
0000
0013
0008
000D
FFF8
0002
FFF9
FFF7
000D
FFFB
FFFC
FFF5
FFF5
FFF1
0005
000F
000D
FFF9
FFFB
FFF7
0001
0005
FFF3
0018
000C
000E
0012
FFF0
FFFF
0011
0003
0014
FFF1
FFF2
000E
0019
FFF0
FFEE
0003
000F
0012
FFF8
000E
0007
000E
FFFB
FFFB
000A
FFF8
000C
FFF2
FFF4
FFF6
0006
0005
0013
FFF1
000A
FFEC
0004
FFF7
FFFC
FFFC
0011
FFF9
0012
0003
0005
FFF7
0001
000A
FFF2
0005
FFF2
0018
0008
FFF7
FFF7
FFF7
FFF8
000C
FFFB
FFFC
FFEE
FFE9
FFF7
FFF2
0007
0009
0006
000D
0004
FFEE
0003
FFF6
FFFE
FFF2
FFFB
000C
FFFB
000B
0008
0010
0009
0001
FFE9
0016
FFFB
0001
0008
0007
FFFA
FFEB
FFE8
FFFD
000D
FFE8
FFFD
0003
FFFC
0006
0009
FFEC
0000
0002
0004
0004
FFFA
000B
0000
FFFE
0005
0015
0003
000C
FFFE
FFE7
FFFC
FFFA
FFFB
0003
FFFE
FFF8
FFF6
FFFC
FFFB
FFF8
FFFE
FFEE
000D
FFF8
000E
0007
FFF8
FFE8
000D
FFF6
000E
0003
FFFD
FFEB
FFFA
000E
FFFD
000F
0013
FFFA
FFE7
0008
FFFB
FFF0
FFFB
0009
FFEF
0003
0004
000A
0014
0008
0002
FFF3
FFFC
0005
0003
FFFC
FFEE
0001
FFF3
FFFF
0013
0010
FFFC
000A
FFF2
FFEC
FFF5
000D
FFF3
0014
FFFC
0005
0004
000D
0000
FFEA
0008
FFF8
0014
FFEE
FFEE
000A
FFFF
0009
0013
FFF8
0008
0016
FFFF
000F
0013
000C
0000
FFFA
FFFF
000D
0010
FFF6
FFFE
0012
FFFD
FFF5
000F
0018
FFFF
0004
FFEE
0013
0016
FFF8
FFF5
0000
000A
0009
000B
FFFD
FFF4
FFEC
0000
0002
0005
FFEB
000B
FFFC
FFF9
0002
0016
FFF2
FFFD
0010
0001
FFF7
FFEF
FFF5
0003
0015
0003
0001
FFF4
FFF9
0003
0004
FFFA
FFF4
FFFE
0003
0009
000F
000A
FFF2
FFEF
000B
FFFD
0015
FFFB
FFEE
0013
0006
FFF4
FFFF
000A
000E
0002
FFFE
FFEE
FFF9
0018
FFF5
FFF3
0007
FFFE
FFED
0001
0016
0007
000A
0010
0002
0009
FFFE
0010
FFF2
FFFB
0012
FFFB
0002
0002
0003
FFFF
0008
0008
FFF2
0002
FFF9
FFFD
0004
0016
FFFE
FFF9
FFF6
000A
FFF6
0015
0005
0004
FFF6
0000
FFFB
0014
FFFB
FFFA
FFFF
FFE8
0001
0008
FFFB
FFFA
FFFF
0004
0009
000C
000B
FFFD
FFFF
FFF9
FFFB
0003
FFED
FFEF
FFF8
000D
0007
000E
FFFC
FFF0
FFE7
0013
FFF1
000E
0012
FFEB
FFEF
0000
000D
FFFF
0006
0000
000E
FFF7
FFE8
FFFD
0006
FFF0
000D
FFFD
0010
0005
FFFC
FFF1
FFEF
0001
000E
0013
0011
0007
FFE8
FFFA
FFFC
0004
FFF1
0017
FFED
0015
0008
0004
FFF3
000A
FFFE
0014
0003
FFF3
0016
0001
000E
0003
FFFF
FFF9
FFED
FFF6
0004
0003
FFF9
0002
0005
0009
0001
FFFD
FFEF
FFED
FFF5
FFFD
0007
0004
000A
0016
0007
FFF7
0000
FFFC
FFF8
0016
FFFD
0005
FFF3
FFFD
FFF3
FFFD
0002
FFEF
0018
FFE9
FFF8
FFF6
0002
0007
0017
FFFB
000A
FFF7
FFF8
0000
0005
FFFE
0002
FFFA
0016
FFFC
0014
0000
0015
0003
0013
0015
FFF2
0008
0007
FFF6
FFF7
000F
FFED
0000
0010
0011
000E
0006
FFF5
000D
FFEE
FFFA
FFED
FFFD
FFF1
0003
0006
0013
0018
FFF7
FFF4
000C
FFEB
0005
0002
0005
FFED
0006
0001
0001
FFFD
0003
FFE9
0004
FFFB
FFF0
FFFA
FFF2
0005
0008
FFF4
000F
FFF1
FFF9
FFFB
000D
0003
FFF7
0007
FFEE
FFFA
FFF7
FFFC
FFF8
000B
FFEF
000E
FFED
FFE9
FFFA
FFFA
FFF8
FFFB
FFF6
0007
0008
0004
0011
FFF8
0009
FFF6
FFFC
FFF6
FFE9
000E
0009
FFED
0008
000C
0004
FFFE
FFF9
FFFE
0002
000C
FFF5
0004
000D
000C
FFFB
000E
000B
0001
FFF4
FFF1
0001
000B
0004
FFFE
FFE7
0005
000C
FFF6
FFEF
000B
FFF0
0006
FFF8
FFEA
0012
0009
0008
FFF6
0010
0000
0006
FFF7
0000
0004
0015
0001
FFFA
0009
000A
FFF1
FFFE
FFE6
FFED
000C
FFFE
000C
000B
0000
FFF1
0005
0003
FFF0
FFFE
FFFA
0004
FFFF
FFFD
0001
0007
000A
000F
FFF0
0008
0001
FFFF
FFF4
0006
FFFD
FFF9
0000
FFFF
0007
FFF7
FFF1
FFFD
0015
0003
0009
0013
0002
0017
0002
0006
0018
0009
000D
000B
0009
FFF6
FFF8
FFF9
0004
0002
FFFD
FFF9
0007
FFF6
FFFD
FFEC
FFFE
0007
0008
000C
FFFC
FFFA
000A
FFFC
FFEF
FFF6
0000
FFFB
000F
FFFF
0012
0007
FFFB
0000
FFF8
FFEB
0003
0002
0014
0002
0010
FFF0
FFF2
000B
FFFC
FFF0
0001
FFF7
0000
0011
000E
0005
FFFF
0008
0003
FFF3
FFFE
0004
FFF0
0001
0011
FFF6
FFE8
FFF0
0009
0007
FFEE
FFF8
000A
FFF1
FFFF
FFF5
0002
FFF0
0007
FFF3
FFF7
FFEB
000B
0011
0003
FFF5
FFFA
0000
000A
FFF4
FFF2
FFFE
FFED
0001
FFF2
FFFF
0009
0005
FFF7
FFFB
FFF5
FFF2
FFFB
FFFB
0002
000D
FFF6
0006
000E
FFF0
0005
0000
000D
0004
000D
FFFD
0000
FFFC
0006
0004
0016
FFED
FFF7
000F
FFF5
000D
FFF7
FFFC
0002
0015
0001
0004
000A
FFFD
FFED
FFF2
FFFC
0003
FFF0
FFF4
0008
FFF2
0007
000D
0001
0000
0008
FFFD
0006
FFFE
0003
FFFB
000C
0006
FFFB
FFF3
0012
FFF0
FFF9
FFF9
FFFB
FFFC
0013
FFEB
FFFF
0004
FFF5
FFF3
FFED
0009
FFFA
000D
FFF8
0003
0006
FFF6
000F
FFFD
0006
000F
0009
FFFA
FFFA
000B
0007
FFFF
0007
FFF5
FFFF
0002
FFF4
FFF6
0002
0002
0013
0000
0009
000A
FFED
FFED
000B
0002
FFF2
FFFC
000E
0004
FFFB
0000
000D
FFFA
000C
FFFD
FFF6
0003
0000
000B
FFFE
FFF6
FFF4
FFFE
0012
FFEB
0000
FFFA
FFF4
0002
FFE9
FFFC
FFF9
FFFA
0001
FFFA
FFFA
FFFC
FFFE
FFEC
FFFC
0007
0002
0000
0012
FFFD
000A
0003
0000
FFFD
0004
0002
0003
0006
0007
FFFB
000D
000C
FFEB
0005
FFFB
0016
FFF9
FFF9
0004
0012
000A
FFFF
000E
FFEA
0013
000E
FFE7
FFFC
FFF3
000C
FFF2
FFFF
FFFB
FFFD
FFF3
0005
0006
FFF5
FFF7
0002
0019
FFE9
0006
FFF1
0002
0012
0009
FFFF
000C
FFE7
FFF4
0004
FFFB
000A
000A
0004
0001
0002
FFF9
FFF5
FFFD
FFFA
0003
000A
0016
0003
0014
FFFC
0005
0006
FFF3
0015
FFF0
FFEC
FFF9
FFFB
FFF8
FFFC
FFF2
FFF5
FFE7
FFF4
FFFA
0009
000C
FFFE
000C
0007
FFF2
FFFC
0002
FFF2
FFF8
000A
FFF1
0000
0009
0000
FFFC
0005
0011
0002
0009
0012
FFF4
FFEF
FFF9
FFFC
0005
0016
000E
0010
000B
FFFA
FFF9
0003
0004
FFF2
FFFA
0001
FFF5
000E
0002
FFFC
FFE8
FFF4
FFFD
0004
000C
000F
0001
0011
0002
FFF6
FFF7
FFEF
FFF7
FFF8
0004
FFF9
0007
0003
0001
FFF3
0007
FFF5
0010
FFF9
0006
0009
0002
0001
FFE6
FFF8
0005
FFFB
0010
FFFD
0002
0006
000B
FFFA
FFFE
0001
FFFD
0015
FFF4
0007
FFF6
FFF2
FFF4
0010
FFF7
FFF1
0010
000D
FFF9
0005
FFED
FFF2
0006
FFEE
000B
FFF8
FFFF
0009
0009
0001
0000
0002
000C
FFFB
0006
FFFF
FFFC
0000
FFFC
0000
FFF9
FFF1
0008
FFF1
FFED
0009
000B
0011
FFF6
0004
FFF9
FFF4
0006
0012
0010
0004
FFF8
FFF3
0006
FFF2
FFEF
0014
000D
0001
FFFE
FFF5
FFFF
000A
FFF2
0017
FFF7
FFFA
FFF4
FFFB
0007
FFF6
0004
0019
000E
FFEC
FFFA
FFFA
FFF4
0004
0001
0002
FFFB
FFE9
000B
FFF6
0007
000A
000F
0004
000A
FFF7
0011
FFF2
0001
0006
FFF9
FFF2
FFF7
FFF5
0000
FFF3
000D
000B
0005
FFFB
0000
FFFD
FFFB
FFEC
FFF6
0005
FFED
0002
FFF6
FFF5
0002
FFED
FFF8
FFEF
0000
FFF7
FFE8
0008
0010
FFFD
0015
0012
FFFF
0000
0003
0014
FFED
0004
FFFC
FFF2
FFEB
FFF7
000C
FFFE
FFEC
000E
0005
0004
FFF8
0005
0003
FFEF
000D
0002
0000
FFF9
FFF0
000D
FFFA
FFFA
0011
FFFF
0011
000B
FFFB
FFF8
FFF5
000B
0003
0009
0011
0005
FFFF
0009
FFFF
FFF7
0002
FFFB
FFF6
0001
0011
FFF6
0009
FFFA
FFF7
0009
000A
000A
FFFF
FFF9
FFFC
FFF9
0004
FFFB
0000
000B
FFFD
FFF7
0019
FFFB
FFEB
0014
0011
FFF5
000A
FFF6
FFED
FFEE
FFFF
0013
FFFF
FFF3
0002
FFE8
0002
0012
FFF2
0004
0001
FFF5
FFF0
000D
0007
FFFF
0008
FFF5
FFFB
FFF7
000A
0005
FFF1
FFED
FFF8
FFFA
FFEA
0012
0017
FFF6
FFF6
FFF5
FFF9
0007
FFF6
FFF8
FFF1
0008
FFEE
000D
FFED
FFFA
FFF6
0003
FFF9
FFF0
0000
0012
0016
000B
FFF0
0008
0008
FFFD
0003
FFF6
0003
FFF3
0002
FFFA
000A
FFE7
FFF9
0007
000A
FFFE
FFFA
FFF5
FFF2
FFF1
FFFF
FFF6
FFF6
0006
FFF5
0006
FFFC
FFF3
000B
FFF2
FFFE
FFFF
FFEE
FFEA
FFF4
FFEB
0006
0012
000D
0003
0006
FFF0
FFF1
FFFD
0013
FFE6
0015
000E
0009
FFFB
000D
0004
000C
0004
FFFD
FFF5
000A
000A
0001
FFFA
FFED
0014
0002
FFF2
FFF7
0002
FFE8
FFFD
FFFA
0004
FFF7
0009
FFF3
FFEF
FFFC
FFF1
FFFE
0005
0010
0005
0002
FFF0
0018
0004
FFFA
0005
FFFE
0001
0019
FFFB
FFFD
FFF9
000C
0008
0005
FFFB
0006
FFF3
FFFC
FFF6
0007
FFF6
0004
FFF1
0002
0006
0003
0008
FFF8
FFEF
FFF2
FFFE
000A
000F
0013
0012
0005
000F
0001
000E
FFFA
FFFA
FFFC
0001
FFF1
000A
0015
000A
FFF8
0001
FFF2
FFFA
0015
0003
FFFA
FFFD
FFE8
0004
0005
FFFA
FFF4
FFFF
0007
0011
000E
FFF1
FFFE
0001
0001
FFF0
0009
FFF5
0008
FFF5
0004
FFF8
0002
0012
0000
000C
0012
0006
0000
0013
0003
FFEA
0006
FFEF
0001
000E
0002
FFEF
0005
000B
FFFA
FFF7
0003
FFED
0004
0004
FFF7
FFFB
000B
0007
FFF2
FFF5
0009
0002
000C
FFFF
FFED
0000
0000
000D
FFFF
FFF2
FFF9
000B
000C
000A
FFF0
0017
0001
0001
FFFB
0006
0001
FFF1
000D
0014
0006
FFFF
FFF8
0009
FFF1
FFEC
FFFB
0006
000E
FFF1
000F
FFFD
0000
FFF7
FFFA
000E
0001
0005
FFFD
FFF5
FFF0
FFF3
FFFA
0001
0006
FFFB
0000
0015
FFFE
0000
0009
0000
000D
FFF0
FFEC
FFF5
FFF7
0000
FFFB
FFFA
0002
FFEB
0001
FFFF
0004
FFF3
0008
FFE9
FFFF
FFF5
000A
0018
0008
0005
000E
0004
FFEE
0007
0017
FFFC
0015
FFED
0008
0006
FFF8
0010
FFFA
0012
0008
FFF4
0005
FFED
0008
0010
000D
0006
FFF4
0011
FFF7
0002
0007
FFF7
0003
FFFB
FFF6
0004
000C
FFEF
000E
0014
FFF3
FFEF
0009
FFFC
FFFF
FFF4
FFF4
0001
0017
FFF2
0002
0007
FFFB
FFFA
FFFE
FFEF
0009
FFF4
FFFA
0004
FFF5
0012
FFFA
FFF4
0006
0003
FFF7
FFF8
FFF8
FFF8
0009
0016
FFFA
FFFC
FFFF
FFF8
0008
0006
FFFA
0004
FFF9
0003
FFFF
0009
0001
FFF5
0018
FFEF
FFF2
FFFB
FFFB
FFEE
FFF9
0006
FFF1
FFFB
FFFF
FFF4
0008
FFFC
0001
0003
0005
0018
0002
FFFD
FFEB
FFF0
0000
0014
FFF7
FFF8
000C
FFF6
FFFB
0009
FFFC
FFFC
0007
0008
FFF9
FFEE
FFF9
FFFC
000F
0004
FFFC
000A
FFF7
FFF1
0002
0008
FFEB
FFF4
FFFF
0001
FFEA
FFFC
0010
0005
FFE8
0013
FFF1
000A
FFF3
FFEF
FFF5
0008
0006
FFF9
0017
FFFE
000B
FFF3
000B
0010
000B
FFF3
FFF9
0003
0002
FFFA
FFFC
FFF2
0004
000B
0015
FFFA
0000
0011
000F
0002
0000
FFFA
FFF4
FFF5
0000
FFF6
FFF3
FFF5
000A
FFF1
FFEF
FFFC
000F
FFFE
0001
FFF1
FFF5
FFF5
FFF8
FFF7
FFEC
0003
0004
000A
FFF9
0001
FFF8
0003
000B
FFFE
FFFC
FFFB
FFF4
0005
0004
FFF7
FFF8
0018
000A
0004
000A
FFF6
0002
000F
0018
0017
FFF7
0003
FFFB
0007
0000
FFF3
FFF3
FFFA
FFFA
FFFB
0004
FFFB
FFFC
000C
0011
0010
0001
FFFE
FFFF
000A
0011
0002
FFF5
FFFD
FFF8
FFF9
FFFC
FFF6
FFF8
0004
0001
FFF0
0007
0000
FFF7
0009
FFFE
FFED
FFE7
FFE9
0003
FFED
FFF5
FFFC
0010
000B
000D
FFF9
FFE9
FFFD
FFF5
0001
FFF1
0006
0006
0008
FFF7
FFFE
000C
FFFB
FFF3
0007
0005
000A
000E
0002
FFF8
FFEA
FFEE
FFF8
FFED
FFFA
000B
FFF6
FFEF
FFFF
000D
0001
FFFE
0013
0003
FFF3
FFF8
0008
0002
0013
FFEF
0011
0017
000C
0006
0012
FFF8
0001
000B
FFF4
FFFC
0007
FFF6
FFF8
FFFB
FFF4
0003
FFFC
FFF2
0005
0004
000A
FFF5
000D
FFFE
000D
000F
0005
0004
FFFE
0005
0000
0011
FFF2
0004
FFF0
0001
FFFF
0010
FFE9
FFFD
FFF6
FFF9
0014
FFF0
0005
0002
FFF5
FFFC
FFFF
0007
FFF6
FFF9
0019
0004
0001
000F
000A
FFED
0013
0000
0000
FFF6
FFED
0004
0002
FFF6
000B
FFF6
FFF6
FFF0
000A
FFF2
FFF7
0004
0004
FFF4
FFFE
0001
FFFD
FFEE
FFEE
0008
0010
000A
FFE8
FFF2
0008
FFFC
0013
FFF9
000A
0003
0004
FFF7
FFFD
FFFC
000C
0002
FFFA
0003
FFFB
0002
0016
FFFC
000B
FFFC
0002
FFF6
0005
FFFF
000C
FFF9
0016
FFF1
FFFA
FFF9
000F
FFF7
FFED
FFEF
0002
0015
0001
0006
0002
FFFA
000B
FFFD
0002
FFF5
FFFF
0004
0008
FFFB
FFFB
0004
0017
0005
0000
FFF6
FFEE
FFF7
FFFE
000B
FFF7
0009
0001
0009
0007
FFF0
000B
0004
000E
0002
FFF9
FFF8
0018
0004
FFF2
000B
000E
FFF1
FFF6
FFF1
FFF2
0006
FFF4
0013
0008
000E
0015
000E
0003
FFF4
0009
000C
0014
FFF4
FFF5
FFEA
FFE9
0008
FFF4
000A
0005
FFF5
0008
FFFF
000E
FFFB
FFFE
FFF1
FFF9
FFF1
FFFD
FFFA
FFF5
000E
000C
000F
FFF6
0001
FFFF
FFEE
FFFA
FFF4
FFEE
000B
0004
FFF2
FFF2
0005
FFF8
FFF6
FFEF
0019
0002
000E
FFF7
0005
FFE6
FFE9
FFF8
0000
FFEB
0017
FFFF
0003
0002
0002
0006
000B
0006
0000
FFFE
FFFA
0003
0015
FFFE
FFF6
FFFC
FFF8
FFFF
FFF9
FFF7
FFF5
0008
FFFB
FFEB
FFF9
FFE8
0009
000A
0000
FFF5
FFFE
000A
0004
0007
0010
0005
FFFC
FFFB
FFF9
0017
0000
FFFC
FFFF
0004
FFFC
000E
FFF9
FFEF
000E
FFFA
000D
FFFD
FFF3
0003
0009
FFF6
FFFD
FFFB
FFF6
000A
FFFF
0012
FFF6
0003
FFEA
FFFD
FFF2
FFF7
0008
0004
FFF1
0007
000D
0009
0000
FFEF
0008
0003
0009
0006
FFFC
000E
FFFD
000E
0006
0006
0000
FFFF
FFFF
FFED
0004
0006
000D
FFF0
000B
FFFB
0003
FFF9
FFF7
000B
0002
0004
000D
0009
FFF2
FFFA
000C
FFF9
0005
0009
FFFE
0005
FFF3
FFFE
FFE8
FFEE
FFFB
FFFC
000E
0014
000C
FFF9
FFF1
FFEB
0012
0010
0016
0003
FFF4
0004
0003
FFFD
0000
FFFC
FFEC
FFF8
FFFC
FFFD
FFF9
0004
000B
000C
FFF8
0005
0004
000B
FFFE
FFF8
FFF4
000D
FFFB
0011
FFFA
FFEB
FFEC
0009
FFEA
FFFB
FFFB
0018
0003
000A
0018
000B
000F
000B
FFF5
0004
FFF9
0008
0007
FFF9
0009
0006
0004
000A
0008
0012
FFF3
FFEE
0004
FFFA
FFF9
FFF2
FFF1
0004
FFF2
0001
0001
000B
0002
FFFB
000C
0005
0003
FFF3
FFF9
0007
0012
000D
FFF1
FFFC
0006
FFF0
0003
0006
FFEE
0000
0004
000C
FFFF
FFF9
FFFF
FFFE
0004
0006
0010
0006
FFF7
FFF6
FFF5
FFFD
FFFE
0005
0004
FFFE
000E
000B
0009
000F
FFFB
0001
FFFD
FFF2
0017
FFE9
FFF4
FFEC
0010
FFF0
FFE9
0008
0001
0006
FFF3
0001
FFEE
0010
FFEB
FFF6
FFFE
0014
FFFB
0004
FFFB
FFFF
FFFC
0005
000B
FFF2
FFF6
0001
000F
0006
FFEB
000D
FFF6
FFFA
0008
FFFF
FFF1
0000
000F
FFFA
FFFE
FFFE
FFFF
FFF0
FFEB
FFEF
FFFC
0007
FFF1
0002
FFF0
0000
0004
FFF5
FFFB
0000
FFFC
FFEE
000D
FFED
000A
FFFB
FFF7
FFF6
FFFB
FFF9
FFFA
000D
FFFF
0000
0009
FFFC
0004
0001
FFFB
FFFA
0001
0003
0006
FFF4
0013
0008
FFF8
FFFF
FFF6
0001
FFF3
0012
FFF4
000D
0010
0006
FFFD
FFF4
0005
FFFD
FFF5
FFF9
0016
0008
FFFC
0003
FFFB
FFF1
FFF9
FFF2
000A
FFEC
FFFE
FFF8
000F
FFEE
FFFF
000A
0003
0004
0008
FFFE
FFF5
0007
FFF5
FFF3
0013
000F
0013
FFFF
0003
000F
FFFF
FFFE
FFEE
0007
FFFB
0000
FFFE
0003
FFED
0005
0009
FFF7
0002
FFF1
0006
0000
0003
FFEE
0014
FFFE
FFFD
0005
FFF4
0000
000E
0002
FFFD
0000
FFFB
FFF6
FFFB
0000
FFFD
FFF7
FFFC
FFFF
000E
000A
0012
0009
FFFF
0000
FFFF
FFFF
000C
0007
0007
FFFD
FFF8
FFFA
FFF2
FFFF
FFF0
FFFA
FFF4
FFF6
0007
FFFA
FFF7
FFFA
000A
FFEB
FFFC
0009
FFF3
0010
FFEA
FFFC
0002
0005
FFF9
FFFB
0010
FFFC
FFF4
0016
000B
0009
FFEF
FFFE
FFFE
0001
FFF0
0002
FFF4
0002
FFFA
FFFC
0017
FFFB
FFF4
FFEF
0002
0005
000F
FFFD
FFF8
0017
0019
000C
0000
FFFF
0002
0005
FFFA
FFFB
0010
FFFD
000B
FFF0
000B
FFF8
FFF4
0001
000B
FFF8
FFFB
0000
000E
0002
FFEF
FFF6
FFF8
FFFE
0012
0019
FFFE
0004
FFF6
0005
0005
FFF5
000C
0001
FFFC
0000
FFF5
000F
FFEE
0002
0002
FFFF
FFF8
0005
FFF6
0006
FFFC
0009
000B
FFF1
FFFD
FFFE
FFF7
0000
FFF1
0003
0001
0003
0015
0008
000B
0010
0004
FFEE
0000
0001
0000
FFF1
0013
0003
FFFA
0002
FFF3
0008
0017
FFF5
0000
FFF5
0004
0005
0012
0015
0000
0010
0001
FFFE
0005
0008
FFEE
0011
0016
0003
0004
FFFD
FFEF
000B
FFF4
000F
FFF7
0007
FFEA
0005
0004
0015
FFFE
FFF2
FFED
FFF2
FFF1
FFF9
0009
000F
000C
0000
FFF9
FFF7
FFFB
0008
0009
FFFA
0006
FFFF
000A
0007
0015
0005
0004
FFF8
FFF9
000D
0002
000E
FFF0
000A
FFF9
0002
FFF9
0007
0014
0009
FFE6
0005
FFF8
0005
FFF5
FFF4
FFFC
0008
FFF3
FFF3
0009
FFFC
FFFE
0006
FFFF
0003
000A
0005
FFF4
FFFD
0005
000D
000A
FFFB
0005
FFFF
FFF4
FFF2
FFF9
FFEE
FFFB
0004
FFFC
FFFA
FFEA
0004
0012
FFF3
FFF9
FFFD
FFF7
FFFF
0002
FFFA
000A
0008
0011
FFF5
0007
0010
0001
FFEB
FFFD
FFF9
0000
0010
FFFF
FFFD
FFF6
000A
0005
FFEB
FFF1
FFF1
FFF9
FFF2
FFF1
000A
000B
FFF4
FFFE
000F
0006
0010
0011
FFFD
0018
FFF9
0002
0008
0000
FFFA
FFF5
000E
0019
FFF6
0009
FFFF
FFFF
0004
000D
0005
FFFD
FFF8
0001
000A
0003
FFE7
0004
FFED
FFFF
0000
000E
000D
FFF2
0008
FFF4
FFFC
FFF9
FFF0
FFFC
FFFE
000D
FFF5
000E
0000
FFFC
0004
0006
FFFB
0003
FFF9
FFFC
0006
0012
0008
0000
0000
FFFE
0002
FFF1
000C
0005
FFF9
0003
FFF0
FFF4
0008
FFF4
0012
0002
000F
0009
FFFE
FFF9
FFFF
FFF7
000A
FFED
0004
0009
FFF4
FFEC
0003
FFEE
0005
0009
0009
0002
000D
0002
FFFE
0009
FFF3
0005
0010
0014
0001
FFED
FFFB
FFFC
FFF9
FFFE
FFF8
FFED
0002
0000
000E
FFFB
FFF0
0002
0003
0012
FFF5
000C
0002
FFF9
FFF3
FFEA
0006
FFF2
FFFD
FFF8
FFF9
FFEF
0003
FFFD
FFFD
0006
0013
0001
FFFF
FFFE
FFFF
0007
FFF5
FFFC
000B
0000
0017
FFF2
000D
FFE9
0015
FFEC
FFF9
FFF8
FFFA
FFFF
0001
0011
0004
FFF7
0001
FFEF
FFE9
FFF2
0004
0009
FFEF
FFFC
FFFE
0008
0006
FFFE
FFF7
FFF5
0017
000A
FFEF
FFF2
0003
0008
FFF6
0003
FFF7
FFFC
FFF8
000B
FFE7
FFF4
FFEE
FFFE
0000
0010
FFEB
0000
0000
FFEC
FFF1
000C
000A
0004
0006
0009
FFF2
000E
FFF3
FFFA
000A
0012
0000
0004
FFFC
0008
FFF6
FFF4
0009
FFF4
FFFA
0007
FFE9
FFEF
FFFE
0007
0006
FFFD
0000
000A
0002
0003
FFFA
FFF5
0007
FFF4
0006
0003
0007
FFFB
000B
0010
0005
000B
FFF4
0005
0004
FFFD
FFF8
0006
FFFA
0009
0011
FFFE
FFF7
0019
FFF9
FFF8
000E
FFFD
FFFF
0010
000A
0005
0012
FFFA
0018
0011
0000
FFFE
000B
000D
0004
0008
0002
000B
FFF4
0006
0004
FFFA
FFF6
FFEB
0012
FFF8
0000
0004
FFF9
0000
0012
0009
0002
FFE8
000E
0008
0005
FFF5
000E
0003
0011
0009
0003
000E
0006
000E
0003
0017
000B
0000
FFFE
0009
000B
000A
FFEF
000F
000F
FFF6
0009
0011
0005
0006
0005
0007
FFEC
0016
FFEB
0003
FFFD
000F
FFFA
0004
0016
0014
FFF4
0013
000C
FFEC
0013
FFF2
0009
000D
FFF0
FFFD
FFF8
000A
0001
0012
0002
000F
0006
FFF9
FFEB
FFF8
FFFB
FFFB
000E
FFF2
FFFA
FFF9
FFF0
0006
000C
0003
FFF2
FFEC
FFF6
0012
FFF2
FFFF
0011
000A
0013
FFF8
0008
0009
FFF5
FFFF
0000
FFEE
0003
0000
FFF8
0010
0013
0008
000C
FFF7
0002
FFFB
000B
000C
FFFC
0000
000A
FFF6
FFF5
0005
FFFE
0005
000A
FFED
0005
0000
0001
000C
0006
0012
FFFC
0018
FFFF
000E
000F
FFF3
FFEC
0016
FFF5
0006
0003
000C
0015
0000
FFF7
0003
FFEF
0006
0001
FFFB
FFFC
FFF7
FFEA
FFF1
0002
000C
0012
0009
FFF7
0008
0012
0008
0007
0006
0008
0004
FFFB
0003
0009
FFF8
FFFA
0002
FFE6
FFF7
0011
FFF6
FFFF
0015
0000
0006
0005
FFED
FFFC
FFF9
FFFA
0006
FFF7
0013
0005
FFF0
FFF0
0017
FFFD
0011
000A
0010
0000
FFFD
FFFC
0005
FFE9
000B
FFFF
FFF5
0001
FFFD
FFEA
000F
FFF7
000C
0005
FFFD
FFFF
000A
000E
FFED
0000
0007
FFFF
FFEE
FFFE
000C
0007
0005
FFFF
FFF9
FFF1
0013
0007
0003
FFED
FFF7
FFF5
0005
FFF4
FFF9
0007
FFF2
0001
0006
FFFD
000E
FFFF
FFF7
0003
0007
FFF2
0004
000D
FFE9
0003
0007
0011
FFF5
FFFE
0005
FFFE
0019
FFF6
FFF1
0007
FFF7
0013
0003
000C
0003
FFED
000F
FFF4
0014
0014
FFFF
000B
0007
0012
FFF6
FFED
0014
000D
FFFD
000A
FFEE
FFFB
0001
0014
FFFC
FFEF
FFFD
0001
FFEE
FFE9
FFF4
0010
000E
000A
FFF7
FFF3
0008
000D
0005
FFFC
FFF9
000E
FFED
0003
0005
FFF7
FFEF
FFEC
0001
0001
FFEE
FFF0
FFFA
FFFF
0017
000C
FFFC
FFFF
FFFB
FFFB
FFF2
FFF7
FFED
FFF4
FFFE
FFFE
0006
FFF6
FFEF
FFEB
FFF8
FFFD
FFEE
0011
0009
FFF5
000B
FFF8
0005
FFF0
FFEF
000D
FFEE
FFEB
0010
FFEC
FFFE
FFFF
FFF6
FFF5
000F
0016
FFEB
000C
000D
FFF2
FFF3
FFFE
0008
000E
0004
0011
0001
FFFD
000C
FFFF
FFF8
0008
FFFE
0016
000A
0014
000A
FFFB
FFF0
000C
0011
FFFF
FFEC
FFF3
0010
000A
FFF3
FFF7
0008
0018
0001
0000
FFFD
FFF5
FFF4
FFFA
FFF0
0004
0018
0011
FFE9
0006
FFFC
FFF5
0011
0015
0012
FFFB
0000
FFFF
0002
0013
0001
FFFF
0003
000B
FFF8
0007
FFF1
000B
0005
FFF6
000B
FFF7
0018
FFF8
0002
0010
0011
FFEE
FFFC
0003
000D
FFF6
0006
FFE7
FFEC
0001
FFEC
0009
FFFD
FFFD
FFF5
FFFE
0009
FFEF
FFF7
0002
FFF9
FFF6
FFF6
0006
000E
0013
FFEF
0008
0003
0003
FFF7
FFFC
FFFE
0012
FFEE
0006
FFF9
FFFC
FFF2
0004
FFFB
000E
FFF9
0011
FFFA
FFF1
FFFC
FFFC
FFFB
0004
FFFE
FFF4
FFEE
000A
FFFE
0013
FFF9
0002
FFFE
0019
FFF7
0008
0011
FFE7
0007
0015
FFEA
0010
000E
FFFF
FFFB
000D
FFF1
FFF3
0008
0007
0002
FFF0
0010
FFFC
0001
FFF2
FFFF
0004
0005
FFF2
0000
0003
FFF4
FFFA
FFF4
0017
0000
FFFE
FFFF
FFFC
FFF6
0004
0009
0000
FFF3
FFF3
0012
FFFD
0003
FFF1
0001
0006
000B
0008
FFF9
000E
0002
0008
0019
0004
FFF2
000F
FFFB
FFFD
FFFC
000E
0013
000A
FFFF
0010
FFF2
FFEE
FFF0
0010
FFFB
FFFA
000C
000B
0000
FFFD
0007
000A
FFFA
0012
0003
0011
0009
FFF6
0003
0004
FFF9
FFF6
FFFC
0008
FFF2
FFFD
FFFF
000C
FFF9
FFEE
0000
0004
0004
000A
FFF6
0015
FFFD
000A
FFFC
FFFF
FFFE
FFFF
0009
FFED
000D
0009
0013
FFF8
FFFD
FFF6
FFF0
0007
FFF7
0011
FFFD
FFEC
000C
0003
FFFB
FFF1
000A
FFF6
FFEF
0000
FFF1
FFF4
FFFF
000D
FFF4
FFEC
0012
0005
FFF5
FFF7
FFF5
0003
000C
000C
FFFE
FFEC
0009
0018
FFF2
0001
000C
FFEF
FFF2
FFF9
FFFE
FFF4
0009
FFFD
0010
0011
FFFB
0016
0002
FFFE
FFF4
000E
0009
0018
0000
0010
FFFF
000A
FFF4
0001
0001
000A
0015
FFF0
FFFF
0014
FFFD
0006
0006
0014
000C
FFFF
FFFA
FFE9
0011
FFF3
FFF7
0008
FFF6
000E
0019
0013
000A
0004
0001
FFFD
000B
FFF7
FFFA
FFFD
000A
FFFC
000C
FFF3
FFFA
000A
FFFE
FFFC
FFF7
000A
FFFA
FFFD
0012
FFFE
FFFF
FFF6
FFEC
FFEB
FFFF
FFF4
FFFB
0005
0002
000F
0006
FFFC
0008
0004
0014
000C
FFF5
FFFE
0018
0016
000B
0009
000A
0012
0000
0003
FFEF
0004
0001
FFFF
FFF1
0013
0013
FFF8
000E
FFEE
0005
FFF9
FFF5
FFFE
0001
FFFF
0002
0013
FFFB
FFF8
000D
FFF9
FFEA
FFF3
FFFB
0000
0000
FFFD
0006
0003
FFF8
FFFA
0007
0006
FFF4
0018
FFFC
0005
FFF9
FFFB
FFFF
0010
000E
0008
FFF2
FFFA
000A
000B
0004
0006
0000
0004
FFFB
000F
0005
000E
FFEF
FFFF
0005
000B
FFEB
0000
0006
0003
0002
FFEA
000E
0009
000A
0011
FFF7
0003
0000
0009
0018
0006
0009
FFF7
0014
FFFA
FFFC
FFED
FFF5
000D
FFEE
FFF4
0014
FFF9
000E
0002
FFFE
000E
FFF9
0007
0007
0002
FFFC
0011
FFFC
FFFE
0007
0001
FFEA
0009
0003
FFFE
FFFC
0002
FFF5
FFEA
0006
FFF7
000F
0005
000C
FFF1
0002
0006
0004
0001
0008
FFEF
FFF7
0018
FFFD
0005
0014
0005
0009
0006
0014
0008
0016
0009
0014
000F
0009
000F
FFF4
0003
000C
0003
0005
0005
FFFE
FFFE
0010
000B
FFF1
FFFA
0001
FFFF
0009
FFF6
0006
0007
0018
0001
0015
0008
0005
FFF0
FFF8
FFFE
000E
FFF6
0011
FFF8
000C
000E
0012
0002
FFEB
FFF3
000D
0002
000D
FFFE
FFF5
FFF4
0014
FFF1
0006
0006
FFEA
0001
000F
000D
0008
FFF5
0005
0007
FFF6
FFFA
FFEC
FFFA
0001
0001
000E
FFF9
FFFF
0000
0008
FFF6
0018
FFF0
FFFE
FFF8
FFF7
0006
0005
FFF3
FFF4
FFFA
FFF9
000A
0005
0000
FFF6
0001
0008
FFF6
0000
0008
FFF8
000A
FFF8
FFF4
0002
000A
FFFF
FFE8
0011
FFF5
FFF5
FFF6
FFF0
FFFF
0008
FFFB
0018
000C
0006
000C
0004
FFF9
FFF7
0002
0001
000A
FFFE
FFEE
FFFC
0014
0014
000E
0005
0006
FFF9
000C
0010
0000
0008
FFE9
FFF3
FFF1
FFF0
0009
FFFB
FFFD
0002
0009
FFF7
0011
FFF7
FFFC
0008
FFED
FFE7
FFFC
0008
000E
FFEE
000E
FFFB
FFFB
FFFF
FFF9
0013
000C
0000
000C
0000
FFF3
0002
FFF0
FFF8
0012
0001
FFF7
0000
0001
000A
0015
0003
0002
FFFD
0006
000A
000A
0000
0000
FFF8
FFEB
FFFE
FFF0
FFFA
FFF4
0008
0001
FFFB
000F
FFEC
000C
FFF1
000B
0009
FFFF
FFFA
FFF6
FFF6
0000
FFF8
000D
0007
000D
FFEC
FFF7
FFE8
000B
FFFE
FFF8
0003
0009
FFFF
000E
0018
FFF9
FFF7
0003
FFF0
000A
FFEC
FFFA
FFF7
0007
000E
0000
000C
FFFA
FFFD
0004
0001
FFF3
FFFA
FFFC
0008
000E
FFF4
000F
FFF8
000C
0002
FFF0
0005
0004
FFF4
FFEB
0015
0008
FFFF
0014
FFF1
FFFB
FFFD
0019
0005
000B
FFFE
000D
FFF0
000A
000D
0000
0003
FFF9
000E
FFF6
FFFB
0001
FFF3
FFF7
000B
FFFA
0003
0000
FFFE
FFFB
FFF4
0007
0008
0007
0008
0001
FFFA
0004
FFF4
FFF5
0010
0000
0004
000B
0007
0006
FFFD
FFF5
0006
0007
0011
0004
FFF3
FFF2
0000
0019
FFF3
FFF1
FFEA
000A
0011
000D
000F
FFF5
FFEC
FFFD
0010
000B
0009
FFF7
0002
0005
FFFB
0003
0006
FFFB
FFF2
0009
0004
000A
FFEE
000B
0000
FFFA
FFFB
FFF1
FFF7
FFF3
0010
FFF3
0008
FFE9
FFF4
0002
FFF6
FFF1
0013
000C
0000
FFF4
FFF9
0008
0010
0006
000E
000F
FFEE
0000
FFE6
0002
FFFA
0019
FFF0
FFFC
0000
FFEC
0015
000C
0000
0015
0016
FFF5
FFFB
0004
FFFE
0011
000C
FFF8
FFF1
FFF8
FFE9
0009
0017
FFF9
FFF7
0005
000A
0008
000B
000E
000B
000A
0009
FFF2
FFEA
0013
000C
FFF4
0007
FFF7
0012
0002
FFFD
FFEF
FFF5
FFF0
FFE6
FFF7
0005
FFF9
0008
FFF6
0003
FFE8
0007
0015
000C
FFF1
FFE8
0005
FFE6
0007
0000
FFEB
FFF6
FFFC
0005
FFF6
0006
FFFA
FFFE
FFF8
000C
FFFD
0000
0012
FFF6
0003
FFF5
FFF7
000C
0004
0006
FFFC
FFF5
FFF8
0014
0006
0010
000C
FFFF
FFF7
0014
0006
000B
FFF6
FFFE
FFF5
0012
000C
0012
0004
0008
FFF1
FFF6
FFFB
FFFB
FFF1
FFFF
0005
FFF7
FFFC
0007
FFFE
0004
0017
0007
FFF2
FFF9
0005
0007
FFFB
0000
FFFB
0005
FFFE
FFFD
0005
FFEE
0001
0011
0000
FFF0
FFF4
FFED
FFF7
FFF7
FFF3
0006
000E
FFFC
0000
FFF2
FFF8
FFF9
000D
FFF2
0005
FFED
FFFA
0019
FFFE
0007
FFF5
FFFD
FFED
0004
FFEF
FFF4
FFEF
000B
0005
0011
0017
0002
FFFD
0006
0007
FFF8
FFFF
FFF7
0018
0009
000B
FFF2
0007
FFF8
FFFE
0001
0000
FFF5
FFF7
FFEF
FFF4
000A
0006
FFF7
FFFF
0008
FFF0
FFFC
FFEF
0002
0003
FFF7
FFF6
FFF2
FFEF
FFF9
FFED
FFFF
000E
FFF5
0010
000E
FFFC
FFF4
0008
FFF6
FFFF
FFF7
0006
0001
000B
FFFD
FFEE
0003
0013
FFF5
FFF4
FFF9
0003
FFFD
0005
0018
FFFD
0010
000E
0005
FFF8
FFEC
0001
FFF0
FFFC
0007
FFF6
FFFF
000C
FFFC
0002
000F
0007
0004
FFFC
FFFE
0008
FFFD
0012
FFEE
FFF2
000D
FFF7
FFEC
FFE7
FFFA
0007
0003
FFED
0000
0000
FFFC
FFF7
0008
FFEF
FFFF
000E
FFF9
0010
000B
0003
FFEF
FFF1
0002
FFF1
0003
FFF7
0011
FFEC
0002
0013
0011
FFF2
0010
0004
0000
0012
000C
0006
0007
0009
0002
FFEC
0001
FFF9
000A
FFE7
0003
0004
FFFA
FFED
FFF0
FFF3
0009
FFEF
FFF6
FFEF
0003
0001
FFFC
0018
FFF3
0005
FFFA
FFF3
FFF4
FFF6
FFFD
FFEC
0003
000B
000A
000F
FFFF
0003
0002
0018
0007
0000
FFF8
FFFC
FFFB
FFF3
000D
0006
FFE8
FFEE
0006
0018
FFF7
FFF3
0002
0001
0004
FFEB
0005
0003
000E
FFEB
000E
000A
FFFD
FFF9
0009
FFF7
FFFD
0002
0003
000F
FFED
FFF7
FFF6
FFF0
FFFF
0010
0009
0004
000C
FFFB
000D
0003
FFFA
000F
FFF2
FFF1
FFF9
FFF3
000B
FFFF
FFF7
FFF7
0000
FFF5
FFED
FFF8
FFFE
0008
0003
000B
0004
0003
FFF8
FFFC
FFFA
FFF4
0006
FFF2
0018
FFF0
FFF6
0006
0004
FFFB
0009
0002
FFF8
0003
FFEB
0005
0002
0000
0013
0001
0016
000A
FFFD
0007
FFEF
000C
FFF7
0009
0003
0000
000E
000B
000C
0005
FFF6
FFF6
000F
0003
FFF8
000E
FFFD
0001
FFFF
0004
FFEA
FFF3
0005
FFFD
0014
0002
FFEC
0006
0011
FFF7
FFF6
0001
000B
0006
FFF4
0014
0006
FFF7
0000
FFF6
0001
0006
0004
000F
FFEF
FFFA
FFF4
0000
0012
000C
0005
FFFE
FFFB
000B
0016
FFFA
0002
0013
FFF5
0012
FFF9
0003
0019
0002
000B
FFF6
FFF3
000A
000B
000D
FFFD
0012
FFF7
0008
000F
000B
FFFC
000B
0003
FFF5
FFFF
FFF9
FFEF
0006
0007
000E
FFF4
FFF5
0005
0014
FFFC
0008
FFFB
FFF8
0016
000B
FFF7
FFEF
0004
0004
0006
0005
0008
FFF1
0002
FFFC
FFF9
FFF2
000A
000A
0002
000F
FFEC
FFF2
FFFB
FFF8
0011
FFFC
FFED
FFF4
FFEC
FFF6
000D
FFF2
FFFC
FFED
0001
FFF8
000D
0009
FFF3
FFFC
0003
FFFB
0019
FFFA
0000
000C
FFF6
FFF1
0000
0000
0000
FFF2
000F
0000
000E
0009
000A
FFEF
FFF2
0001
FFF7
FFF8
0018
FFFD
FFFC
FFE8
0009
0009
FFF9
0000
000B
FFF9
000D
FFFA
FFF9
FFE7
000C
0005
0013
0003
FFF2
FFF5
0017
000F
0000
FFFB
FFFD
FFF4
0008
FFF5
FFF0
FFF2
FFF5
FFFA
0001
0006
000B
FFF8
FFFD
FFEF
FFF7
FFF8
000E
0017
FFF8
FFE9
FFF6
0019
0007
0005
0015
FFE7
FFF1
000D
FFFA
0019
FFF8
0008
FFF6
FFF9
0012
0013
0002
0002
0003
FFFF
FFFC
000F
0006
0003
FFFC
0009
0007
FFF7
000E
FFF1
000E
0007
000B
0006
000D
0001
0018
0007
FFF7
0002
0010
FFF8
FFFE
FFEB
0000
0005
0015
0002
FFEC
0006
FFF9
0006
000C
0004
0010
000A
0009
FFEE
0002
FFF7
FFF0
0008
0002
0007
0000
0001
FFFD
FFFD
FFEB
0004
000A
0002
0002
0005
FFEE
0002
0003
0014
000D
FFFA
FFF6
FFF1
000B
000A
0012
0005
FFF7
FFF3
FFFA
FFED
0003
0008
000B
000D
0006
FFF5
0010
0007
0013
FFF4
0007
FFFE
FFEC
000D
FFFF
0014
0003
FFEE
0017
FFF2
0003
FFF9
0014
FFF6
FFF0
000C
0013
FFFD
0013
0005
FFFC
FFE8
FFFA
0008
0008
0017
000D
0006
000F
FFF7
FFF3
0007
0000
FFEE
0005
FFF4
000C
FFFD
FFF2
000C
0006
0014
0007
0001
000C
FFF2
0006
0015
0002
0010
000B
000A
FFED
0009
FFFB
FFEC
0010
FFEC
FFFA
FFE7
FFED
FFF5
FFF7
0002
0008
FFEA
0001
FFF9
FFFF
0003
FFFF
0000
FFF4
FFF9
0012
0000
0001
000D
000D
FFFB
FFFD
0005
0000
0002
FFEF
0002
000A
FFF1
FFF1
0008
0005
FFFC
0003
0000
0009
0017
FFFC
FFFA
FFF9
0013
FFFE
000E
FFFE
FFF7
0007
000A
FFFD
FFF2
0005
FFF3
FFF3
0006
0006
0007
FFFD
000A
FFFD
0002
0002
FFF3
FFFB
FFF5
FFF2
0015
0011
FFEC
000F
000E
000D
0003
FFF9
0001
FFED
0007
0005
FFFB
000E
0013
0006
0004
0004
0006
000D
FFEB
FFEB
0009
0014
FFEA
0009
FFFD
FFFF
0010
0003
FFF8
0002
FFF9
0006
0014
FFEE
FFF4
0004
0005
FFF3
FFFD
0009
FFF1
0008
0000
000C
0001
0006
000B
000A
FFF1
0014
0013
FFF6
0000
0000
0012
FFFC
FFF2
0007
0017
FFF5
FFEC
0009
000B
FFFE
0011
000D
0008
FFF2
0010
FFF5
FFEB
000F
0000
0008
0015
0006
0005
FFFC
0009
FFF8
0001
FFFD
0001
FFED
FFFB
FFFA
0001
0000
FFFC
FFF3
FFF9
FFF1
000E
FFF3
000A
FFF7
000C
FFF4
FFFE
FFFF
0013
000B
FFF6
FFF8
0008
0014
FFF6
FFFC
FFF2
FFF6
0017
FFFC
0007
0006
FFF5
0001
FFF6
000B
0005
000C
0013
FFF4
0002
0006
FFFE
FFFE
FFFC
0004
FFF9
0000
FFFB
FFF0
FFFB
FFFA
FFEA
000A
FFFB
0016
0007
0009
FFFA
0006
FFFE
0002
0017
0002
FFF8
0011
FFFB
FFF3
FFF8
FFFB
0004
0006
0008
FFF2
FFEF
001A
FFFB
FFF8
000A
000C
FFF7
0004
FFFA
FFFC
0010
0013
FFFA
0003
0002
FFFA
0016
FFFC
FFFC
FFF4
FFF8
000F
000C
FFF2
0006
0007
FFFA
FFFD
0006
FFFF
0012
FFEB
0004
FFF6
FFF7
FFEC
0004
0004
FFFD
0003
0000
FFF8
FFF9
FFF0
FFFA
FFED
FFF6
FFFF
FFF0
FFED
0003
FFEF
000F
FFFD
000D
000C
FFE7
FFF9
0000
FFFF
FFFB
FFF7
0002
0002
0006
FFFA
0006
FFFD
FFF0
0008
0016
FFFA
0000
0015
0012
0003
0006
FFEC
0008
FFEC
0008
FFEF
0012
0002
0013
FFF4
0008
0006
FFFD
0005
FFEC
0000
FFF1
000A
000E
FFEA
0005
0003
FFF4
FFF9
0002
000A
0001
0011
0006
FFF9
FFF4
0004
FFFD
0008
0008
FFE8
FFFD
0003
000D
0005
0016
FFF5
0011
FFFA
0007
FFFC
FFF7
FFE9
FFFB
000F
0003
0005
0006
000C
FFF6
0009
FFFD
0001
0011
000E
0009
0014
0012
FFFE
FFF6
FFF3
0008
0008
FFF8
000A
FFF8
0002
0009
FFF6
0000
000D
FFFB
FFF4
FFF2
FFEF
0003
FFFA
FFF9
0014
FFF2
FFF8
FFF7
FFF7
0004
FFFB
FFF5
FFFE
FFF5
FFFE
0003
FFF0
0006
000C
0003
000B
FFFE
000B
000D
FFFD
000A
FFFC
000A
FFE8
FFF5
FFFD
000D
0005
000F
0011
FFF5
FFF7
FFEA
FFFB
FFFF
0000
000C
FFFC
FFFF
0002
000E
000F
FFF9
0004
0019
000C
0003
000D
0009
0007
0006
FFFF
FFF1
FFFA
FFF1
FFED
000D
FFE7
0005
FFF1
0010
FFFD
000F
0005
FFFA
000D
0010
FFFE
FFF6
FFF1
FFEE
FFF3
0019
0000
0006
0001
0003
0006
FFFC
FFEE
FFFC
000F
0002
0009
0004
000D
FFFF
FFFB
FFFD
0009
FFF9
FFFE
FFF0
FFF2
FFF0
0003
0005
0002
FFFB
FFF4
FFF7
0000
FFF1
FFF4
0010
0011
FFE9
FFF1
FFF3
0005
0013
0017
FFFD
FFF9
FFE9
FFEB
0003
000F
FFF6
0003
0003
0006
0002
FFFF
FFE9
0012
0002
0004
0011
0003
FFEE
000A
FFEC
0006
FFFE
FFE8
FFF3
0000
0006
0010
0002
0009
0012
FFF1
0003
FFFB
FFF8
FFF5
0002
0005
0013
FFFB
0011
0001
FFF9
0000
0007
0000
0007
0014
0003
000F
FFFA
0003
FFF0
FFF5
FFFC
FFF1
000E
FFFC
000C
FFF2
FFEE
FFFF
0005
FFF3
FFFE
FFF7
0009
000B
000F
0015
FFFC
0011
FFFE
0002
000F
000C
0002
FFF1
0009
0004
000D
FFFC
0005
FFFE
FFF3
FFFE
FFEE
FFF2
FFF1
0001
FFED
000B
FFF5
FFEC
0004
000B
FFFA
FFF9
FFF4
0006
000F
000A
FFF8
0004
000D
0000
FFFF
0006
FFF5
000F
000F
0014
0001
0017
0012
0011
000C
0008
FFF7
000A
FFFB
0013
FFF9
FFF6
0014
FFF9
FFF5
FFF5
0000
FFF2
FFFC
0009
0003
0007
FFFC
0009
FFF7
FFFB
0003
0009
000F
FFF7
FFFF
0004
FFFA
0007
0007
FFFC
000D
0006
FFF3
000D
000D
0001
0016
0000
FFFA
000C
FFFC
FFFC
000A
0007
0009
0007
0009
FFF9
FFF9
0006
0009
FFF2
000F
FFFB
FFF3
FFFF
0014
FFF1
0005
FFF8
0004
FFEF
FFF1
000C
FFFF
FFFB
0000
FFFB
FFFE
0002
0008
0006
0005
FFFD
FFF5
FFF5
FFF7
FFF6
0008
0013
FFFA
0002
000F
0004
FFF1
0001
FFF8
FFF1
FFF7
000E
FFF0
0011
FFF1
0000
FFF4
000B
FFEF
FFE9
000A
FFFB
FFFE
0010
FFF7
0003
0005
000A
0000
0016
FFF8
001A
FFF7
0007
0000
0003
FFE8
FFFD
FFEF
0018
0009
0015
FFEB
FFEC
FFFB
0005
FFFC
FFFD
FFFF
FFFE
0002
0004
FFEB
000A
FFFE
FFF2
FFF6
000D
FFF7
FFF4
0009
0000
0005
0004
0017
FFF1
0013
000A
FFF1
FFFA
0004
FFFA
0003
0002
0002
FFF7
FFEA
000E
FFF3
0005
0003
0009
0003
000A
0005
FFFF
FFFD
0001
0008
FFFC
FFE9
0004
FFF1
FFFC
FFF7
FFF8
FFFC
000A
FFF1
0001
0002
0008
FFFB
0010
0001
FFEA
000C
FFFC
000B
0002
000A
FFF9
0009
000F
000A
FFFE
FFFD
FFFA
0004
0003
FFFD
000F
FFF3
FFF8
0002
0000
000D
0016
0000
FFFA
FFFE
000A
FFE7
FFF0
0004
0016
000D
FFF2
0005
0001
0012
000A
FFF8
FFF2
FFF9
FFED
000C
000C
FFFA
0003
FFEE
000B
FFFE
0009
FFFC
0007
FFFB
0008
FFFF
FFF2
0005
FFED
FFF5
000A
0017
0008
000B
FFF0
FFF2
0005
0005
0007
000E
FFF6
0000
FFF3
000D
0012
000F
0002
FFF7
0002
FFF5
FFFD
FFFE
0018
000B
0000
FFFA
000A
000B
0016
0006
FFE8
0001
FFEE
0008
FFF7
FFF6
FFF4
000E
0001
0009
FFFE
0003
0009
0001
0008
0000
0010
FFFD
FFF7
FFEC
0015
FFF2
FFF0
0019
FFFB
FFF9
FFF7
FFEF
0001
0003
000C
FFFE
FFFE
0003
0003
0008
FFF3
0003
FFEB
0004
0004
FFF8
FFF7
0002
0002
FFF7
FFF4
0009
FFF6
FFE9
0006
000B
0012
FFFB
FFED
0001
FFF6
FFE7
000A
FFFD
FFEB
FFF6
0000
0008
FFFB
FFF8
0011
0003
FFFC
FFFB
0002
FFF0
FFEF
0004
0003
000E
000C
FFFC
0001
0006
FFF8
FFFA
0008
FFF7
0004
FFFB
0010
000A
0002
FFF8
0011
0003
FFFD
FFFF
0012
FFF9
0012
0012
FFF2
0000
0009
FFFF
0010
0003
0005
0005
000A
000B
000C
0002
FFF4
0009
0003
0000
0002
0006
FFFA
FFF9
0003
FFFE
FFFC
FFFF
FFF8
0017
0000
0005
0003
000C
0004
0009
FFFE
000F
FFF6
FFF8
0002
FFEF
0008
0000
0017
FFFB
0000
0013
FFFF
FFEE
FFFF
000E
000B
FFFE
000B
0008
FFEE
FFFE
FFFF
0011
FFF3
FFEC
000A
0001
FFF2
FFFA
000D
000B
FFF3
FFFA
0014
0002
FFF0
0001
0005
FFFC
0001
0002
FFFA
000D
0005
000D
FFF0
0008
0008
0005
FFFE
000A
0008
FFF8
FFFC
000E
FFF0
0004
0013
FFEA
0003
FFFF
FFEB
FFF2
0007
FFE9
FFFD
FFFC
FFF7
0013
FFF3
FFF2
FFFB
FFEE
FFFD
000A
000F
0001
0011
0001
000B
000A
FFFF
FFFE
0013
000A
0001
0007
0012
0003
000E
FFF8
0001
0005
0005
FFFA
0005
0012
FFF3
0004
0004
0010
0007
FFF3
FFEA
000D
FFF5
0009
0002
000B
FFF0
FFF5
FFF1
FFFA
0006
FFF8
0000
FFF1
FFFF
000B
FFFB
000D
0002
FFFD
FFF2
FFF4
FFFF
0005
000B
0012
0019
0014
FFF8
FFF5
0017
FFFD
0006
FFF4
FFF0
FFF7
000A
000E
FFF2
0011
0000
FFFC
000D
0010
0004
0011
000B
FFF1
000C
FFF5
FFF5
0009
0006
0006
0004
FFED
0005
FFEF
000C
0008
0013
FFFC
000B
FFFC
FFEF
0012
FFF5
FFFA
FFF6
0009
0017
0001
0015
FFF7
0004
0002
0002
FFF5
0009
0017
000E
0014
0004
0009
FFEF
0010
0005
0014
FFEC
0005
FFF9
FFFB
0012
FFF4
FFF4
000C
0001
0000
FFED
0007
000E
000F
FFFA
000B
000C
FFE7
0004
0007
FFF2
FFFF
0008
000D
FFF1
0009
FFF6
FFFF
0003
FFF7
FFFD
0012
000E
FFF1
0011
0006
0006
0014
FFE8
FFFB
0007
FFE9
FFF3
0000
000F
000B
FFF9
000D
000D
FFFD
FFFB
000B
0007
000D
0001
FFF9
0001
FFF9
0002
000B
FFF6
FFF4
0009
FFF9
0003
FFF1
0005
0002
FFF3
0002
FFFE
000E
FFEB
0002
FFF1
000D
FFEB
FFF2
0005
FFEE
FFF9
FFFB
FFFD
FFFA
0009
FFFA
000F
FFF1
0001
FFFA
FFFE
000C
0008
FFF7
FFEE
0009
FFFD
FFFF
FFF4
FFF8
FFFA
FFF7
FFFB
FFFD
000F
0007
FFFF
0018
0012
0005
0011
FFF4
FFFD
FFF4
FFFB
FFFA
0001
FFFD
FFEE
0007
FFF4
FFF3
FFFE
FFF9
000B
0015
0014
FFF3
FFEE
000A
0013
FFF1
000F
FFFE
FFFF
FFF4
0009
000C
FFFA
FFEF
0005
FFFF
0013
0003
FFFA
FFFA
0000
FFEC
0001
FFFD
0004
FFF4
FFF5
0002
0019
000F
FFF8
0002
FFEA
FFF9
FFFD
FFEE
FFFA
FFEB
0001
0009
0001
0008
0003
0000
0006
FFFF
000A
0011
0001
0009
000F
FFEC
0004
0003
FFFD
0002
FFF7
FFF0
0008
FFFB
000C
0007
FFFE
FFF3
0003
0007
0001
000B
0006
FFF7
FFFF
FFF7
0008
FFFB
0010
0009
000D
FFFA
FFF4
0001
FFFF
FFE8
FFFF
0016
0010
0007
000A
FFEE
FFFF
FFFB
FFF1
000B
0008
FFF9
0005
FFF6
0012
000F
0005
FFF6
0007
FFF2
FFF9
FFF4
FFEE
FFF3
FFEF
FFFC
FFEC
0017
0010
FFFD
0016
FFFE
0002
FFF6
0009
FFEF
0000
000E
0007
0007
000B
FFFD
0004
FFFE
FFF9
FFF8
FFFB
0003
FFF8
0005
0005
0014
0011
000D
FFFF
000A
0005
FFF6
FFFF
FFFF
FFF9
FFE6
FFED
0012
0008
0008
0009
000F
0015
000C
FFEC
FFEA
0010
000B
0005
FFFC
FFFC
000D
0007
FFF9
FFFB
FFF6
FFFF
FFE7
0011
000C
FFF1
0011
000F
FFF4
FFE7
0007
000B
FFF5
FFFF
0012
FFF8
0003
000A
0002
000A
0015
FFF4
0008
000E
000E
000D
0000
FFEB
FFEE
FFFA
FFF2
000F
FFF0
FFFC
FFF5
000B
FFFE
0007
0005
0011
FFEA
FFFD
000B
FFFF
FFEE
000F
FFF8
0001
000A
000C
FFFB
FFF8
FFFD
0009
FFFE
0002
0011
0000
FFFB
0008
0000
FFFA
FFF5
0009
FFFF
0007
FFFF
0007
0002
FFF8
000C
000D
0012
FFFE
0005
000B
FFF7
FFEE
0012
FFF1
0007
FFE9
0008
0005
0006
FFF0
000D
FFFC
FFF2
FFF9
FFF2
FFF5
FFF1
FFFD
FFEA
0002
0012
0007
0007
FFEC
FFE9
0006
FFFD
0000
FFEA
FFF4
FFF0
000D
0009
0001
FFFF
0003
0000
FFFE
0005
FFFD
0009
000D
0011
FFF8
0006
FFF5
FFFA
FFF7
FFEC
0012
0005
FFFF
FFEC
0000
FFF8
0012
FFFA
0004
FFFD
FFF6
0002
000A
FFF7
FFF7
FFFB
FFF0
FFFE
000B
0002
FFF4
0010
0012
FFF4
0004
0003
FFF1
000B
000C
FFFD
0003
0013
000B
FFFC
0008
FFF6
000A
0011
FFF4
0003
000A
0007
0007
0001
FFF1
0014
0000
FFFD
000A
0001
0007
0001
FFF5
FFEC
FFEF
FFED
FFF7
FFFB
FFF4
0009
FFF2
FFFF
FFF9
000D
0009
FFEA
0005
FFF2
0001
FFF4
0006
0013
0005
0001
000E
0005
0010
0002
000F
0008
FFF9
000D
0005
0006
FFFF
0010
FFFD
0004
000C
FFFF
FFED
FFFA
FFF3
FFFA
000F
0009
FFED
FFFA
0016
000D
FFF4
0006
0011
FFE8
000C
FFF9
FFFC
FFEF
0010
0000
0001
FFFA
FFEB
000A
0004
FFF2
000D
0010
0008
FFFB
0008
FFF3
0001
0001
FFFB
FFF3
FFF9
FFFF
000B
FFF7
FFF7
FFFF
0005
FFFF
0005
0000
FFEA
0005
0006
0000
FFFA
0007
0003
0007
0002
FFFC
FFEF
FFFF
FFFB
000A
000B
000B
0016
0003
FFFD
FFF3
000C
FFFB
FFFB
FFF1
FFF6
FFF1
FFF2
0005
0009
000D
FFF9
FFF6
0000
000A
0001
0002
000B
FFFE
FFF5
0018
FFFC
000A
FFF0
0000
0001
0009
FFFB
FFF1
FFFD
0000
FFE7
FFF2
FFF1
000D
FFF6
0008
0012
0002
FFFF
0005
000C
0005
FFF0
FFF0
0009
FFEB
FFFE
0016
FFE8
FFF1
0004
0006
000F
0006
0019
0014
FFF4
0004
0015
0002
FFFA
FFED
FFFC
0015
0010
0010
FFF6
FFE8
FFF7
0015
0001
0018
FFF3
FFF8
0006
0008
FFF4
FFFC
FFF6
FFEC
0000
FFFF
0014
0017
FFF9
0004
FFEF
FFF5
000F
0003
FFFC
FFFE
FFFB
0009
FFF7
FFF6
FFFF
FFFE
0003
0004
FFF9
0005
FFEB
0011
0003
FFF4
FFEF
FFE7
0004
0001
FFF9
0004
FFF7
0016
FFF9
0005
0015
FFFB
000C
000E
0000
FFE7
FFEF
FFFF
FFF2
FFEB
0008
0006
FFFE
FFF6
FFF5
FFEF
FFE9
FFE8
0002
FFFD
FFFD
FFF6
0000
0003
FFF5
FFFF
FFF4
0000
FFF9
000C
0011
0000
FFFD
FFF7
FFFA
0007
0000
FFFD
FFF9
0008
FFEB
0008
FFF9
000C
000F
0010
0000
000D
FFFA
0015
0015
FFF6
000D
FFF0
FFF8
FFF3
FFF9
000A
0004
0004
FFF6
FFFA
0013
0001
FFF0
FFEA
0002
FFF1
0004
FFFA
0002
FFF9
0004
FFF1
FFFC
0018
FFED
000A
000B
FFFC
0005
FFEF
FFF9
000D
0010
0001
FFFE
FFF6
FFF1
FFFC
FFF7
FFFE
FFF4
FFFD
FFF5
000A
000C
0019
000B
FFF1
FFFE
0009
FFF3
0003
FFF5
000B
FFF4
FFFE
000D
FFEB
0005
FFFE
0004
FFF7
FFF9
0008
0007
000A
0008
0005
FFED
0010
000A
000B
FFFC
0001
FFF5
FFFB
0004
0004
000C
000A
000C
000B
000D
FFF7
0000
FFEE
0008
FFF0
FFF2
FFF1
FFFA
0008
FFF9
FFF7
000E
FFF4
0001
FFEF
000C
0003
0007
0003
0006
0002
FFF0
0006
000D
0002
0006
000B
FFFF
FFF9
FFF8
FFE8
FFFB
FFF8
FFFB
0002
0010
0003
000F
FFFC
FFF5
0000
0003
000D
0003
FFFC
0011
FFFE
0001
FFF3
FFFC
FFFE
FFE9
0009
FFF5
0003
0005
0004
FFFD
FFFF
FFFB
FFEE
FFFF
FFFB
0002
000A
000C
FFF8
0009
000D
0008
0005
FFFE
0003
0000
0003
FFF6
0005
FFFD
000A
0004
FFF0
FFF1
0001
FFFF
0001
FFF7
FFF6
000C
FFFC
FFF8
0012
0006
0011
0006
FFF7
FFEA
FFFA
FFF2
0005
0009
FFF6
FFF6
0007
FFFC
FFFC
FFF5
0000
0000
0011
FFF2
FFF2
FFEB
FFFE
000F
000A
0001
FFF7
FFF5
000D
0004
FFFB
0002
0001
0012
000B
0001
0007
000D
000F
FFF8
0003
0000
0013
000D
0006
0002
FFFF
0006
FFEF
FFF6
0000
000B
FFF4
0006
FFEA
FFFE
FFEA
000B
FFF1
FFEB
0005
FFFD
0011
0004
0000
0006
000A
000A
0002
FFF5
0007
FFF5
0013
FFF7
FFF9
FFF9
0001
000A
0001
FFFC
000A
FFF4
0011
FFFD
FFEC
0000
0009
FFFF
FFE9
FFFD
0004
000B
FFEE
0007
0009
FFF2
000C
0001
FFFB
FFFC
FFF8
0008
FFFA
0011
FFE7
FFF2
0005
0004
FFFC
0005
000F
FFFE
FFE7
0000
0005
0015
0008
FFF9
0017
0000
FFF6
0001
0017
000C
0002
000F
FFF3
0001
0004
0000
0001
0000
0000
FFFB
FFE9
0014
0001
0001
FFEF
FFFF
FFFF
FFF9
FFFD
FFED
FFFF
0008
0013
0007
FFFE
FFF1
FFF9
FFF4
FFFF
0005
0005
FFFA
0000
0003
FFFE
0019
000A
FFFB
000C
FFF7
0006
FFF2
0011
000C
FFFA
0009
0004
FFEC
FFF6
0009
000E
0006
000E
FFFE
0016
0008
FFED
0014
FFF5
0001
000F
0002
0000
FFFA
FFEE
FFEF
FFFA
0012
0018
0001
FFF9
0018
0000
000F
0001
0015
0004
0003
0017
FFF9
FFEC
0006
0007
000B
000B
0003
0016
FFEF
0004
FFE8
000B
0001
0007
0000
0007
FFFC
0000
0000
FFEB
0006
FFF2
FFF5
FFEE
000F
FFEF
0014
000F
000A
0003
FFF4
FFF3
0002
FFEE
0003
000F
0011
FFF7
FFEF
FFF7
FFF1
000F
0015
0001
0002
000B
FFF2
FFED
0000
FFFD
FFF9
0006
FFFF
FFF5
0010
0001
FFFE
FFF1
FFF9
FFF1
000C
FFF0
0013
000B
000F
0015
000B
0004
0003
000C
000F
0003
0008
FFF2
000B
FFF5
FFFA
FFFE
FFF0
FFF4
000B
FFF9
FFFE
0018
0011
0002
0000
0002
FFF4
FFFC
FFED
0000
0001
0006
FFFE
FFFE
FFFE
0011
0015
FFFA
0001
000D
0016
FFFC
FFFC
FFEC
FFF0
0015
0010
FFFA
0007
0002
FFF0
0000
0004
FFFB
FFEE
0001
0014
FFF9
000B
0002
0009
0000
FFFE
FFFA
FFFE
FFF6
FFFD
000D
0009
0003
FFFB
FFF1
FFFE
FFFD
FFF5
FFFF
0016
FFF1
0012
0002
000C
FFEE
0007
FFFC
0000
0009
FFFF
FFF7
FFFE
FFF1
0007
FFEB
FFFD
0009
000A
FFF2
0005
FFF5
FFEC
000A
FFF5
0006
000D
0002
000B
0001
FFF9
000A
0002
0001
0006
FFFE
FFF8
FFFC
000B
FFF5
FFF4
0008
0011
FFFA
0004
0005
FFED
FFFF
0010
FFFD
FFEA
FFFF
FFFF
0015
FFFC
000F
FFF3
000F
0007
0008
FFFF
0012
0002
FFEE
0011
0018
FFF5
FFFA
FFFA
0001
0002
FFF3
FFFE
0010
FFFC
0001
0003
0017
0005
FFF3
FFFC
0001
0006
000A
0015
FFE9
0015
000D
FFF6
000E
0003
FFFC
FFFD
0015
0005
0000
FFFC
FFFB
0007
FFF8
FFE7
0008
FFF4
FFF2
000C
FFED
0004
0008
0018
0012
000C
FFE8
FFFE
FFF2
FFFA
0017
0012
FFF7
FFFB
FFFC
FFF6
000A
000F
0008
FFF4
FFFA
FFEF
FFEC
000B
FFFC
0002
0008
000E
000F
0000
FFED
FFF4
000D
0010
FFF3
FFF9
FFF6
FFF7
FFFF
000C
FFF3
FFF6
FFFF
FFF3
FFEC
000A
0004
0008
FFFC
000B
FFF5
0008
FFEC
FFEB
0010
FFF4
FFEE
FFFD
0007
FFFA
FFFC
FFF2
FFFB
FFFC
0007
FFFC
0018
000A
0001
FFF6
0011
0005
000F
000D
FFFC
FFF4
0004
FFFF
0007
FFFC
000F
FFF8
FFFF
FFF8
0004
0004
FFF8
FFFA
0002
FFFC
FFEF
0001
0009
FFE6
001A
0009
000D
FFF7
0003
0004
FFFF
FFFD
FFF2
0009
FFED
FFFF
000C
0004
FFFB
0008
0005
000D
0006
FFF9
000A
FFF9
FFEE
FFEE
FFFD
FFF6
FFF4
FFEF
FFF9
FFFB
0000
0005
FFFC
0015
FFF3
FFF9
FFFF
0008
0000
0008
FFFE
0012
FFE7
0004
FFF1
0009
FFF7
FFFB
0002
FFEF
0007
0006
0004
0007
0007
FFF5
0019
0006
0005
FFF5
FFEB
FFFA
FFE7
FFFE
0019
FFFF
FFF1
0005
0009
FFF7
0008
FFFC
000C
FFFC
FFFC
0005
0015
0003
0004
FFEE
FFF9
0000
0002
0003
000C
FFF8
0019
FFF7
0008
FFF2
FFF6
000E
FFF7
0003
FFFF
000A
FFFE
0005
FFF1
0004
0003
FFF6
FFEE
0011
0002
FFFB
FFEF
000F
0010
0009
FFFE
000E
FFF7
000C
0011
000F
0000
FFF7
0007
FFEC
FFFF
0006
FFFE
FFF3
FFF2
0014
0013
000C
FFFC
FFEE
FFFE
0004
000E
000D
0004
FFFF
0004
FFFF
000B
FFEF
0005
FFE7
FFEB
0012
0014
FFFC
FFF8
0003
FFF8
FFFC
0016
FFF5
FFFC
FFF7
FFF3
0002
000D
000E
0007
0005
0012
0000
0005
000B
0005
FFEF
0003
0017
FFFE
FFFE
FFEC
FFED
0008
000D
FFFA
0001
FFEB
FFFC
000F
0006
FFF2
0006
001A
FFF1
FFFC
FFFD
FFFA
0007
FFFD
0015
FFF6
000F
FFFD
0007
000F
FFFB
0000
0000
FFF5
0004
0012
0012
0012
0010
FFEB
0002
0008
FFFD
0007
FFFB
000E
FFFD
FFFF
FFEB
FFF8
0003
0003
FFEC
FFF8
FFFF
000A
0008
FFF6
FFFA
FFF7
0003
0001
FFFC
0001
FFF6
FFF9
000E
FFF6
0009
FFFB
FFFA
000F
FFF4
0008
FFF7
0002
FFF4
0000
FFFB
0004
FFFE
0000
FFF6
0000
0001
0003
0006
0003
FFED
0007
0012
FFFC
000B
0003
000B
0003
FFFF
000D
0000
0003
0009
0006
0000
000A
000A
0003
000D
0003
000C
FFF3
0008
FFFC
0007
0016
FFF8
0008
0014
0017
FFEC
0002
FFF4
FFFB
0002
0017
FFF2
FFF4
0014
000F
0000
FFF6
FFF6
FFF6
0000
FFF0
FFFF
FFF4
FFF7
FFFB
FFFD
FFFE
000D
0009
0001
FFF7
000F
FFF8
FFEF
FFF2
0001
FFF2
000C
000C
0000
FFFC
FFFB
0012
FFEC
0008
FFF7
0005
FFEE
000F
FFF3
FFF9
FFF4
000B
0017
0005
0000
0019
000B
FFFF
FFF9
FFF6
0008
000A
FFFA
FFED
FFF3
0008
0003
FFF1
0009
0005
FFF6
0002
FFF4
0008
0008
FFFB
FFEA
0000
FFF8
000B
0002
FFF0
FFFD
FFF1
0014
FFF2
0003
FFEB
0004
000C
FFF6
000F
0012
0012
0016
0014
0012
FFFB
FFEE
FFFB
0007
0000
0014
000A
FFF9
0002
0003
FFFF
0011
0007
000A
FFFE
FFEA
FFF9
0003
FFF2
0001
0008
0010
FFF2
0014
FFF5
FFF8
FFEA
0010
0003
0014
FFF8
FFF8
0014
FFF3
FFFB
0012
000C
FFEF
FFFA
0006
0008
0006
0018
FFF1
0007
0018
FFF8
0018
FFF0
FFF7
0005
0004
0004
FFF7
FFF6
0004
0007
FFFA
0007
000A
FFEB
0013
0015
0015
000E
0003
FFF2
0013
0000
0005
0006
0005
FFEF
0001
0014
FFF0
FFFB
000C
FFF4
0010
FFF0
0011
FFFB
FFFD
0000
0004
FFF9
FFF1
FFF4
0014
000C
0002
0016
0005
FFFD
FFEC
000C
0001
FFF9
FFF2
FFF7
0003
FFF8
0001
FFFD
FFEB
FFFE
0001
FFF8
FFF4
FFF5
FFFC
FFFF
0004
0009
FFF6
FFF6
FFFD
FFFE
FFEC
FFFE
0001
0007
0005
0016
FFF9
FFF1
FFFE
0004
000A
FFFC
FFFC
0010
000D
FFFF
0000
FFFD
FFF3
0005
000B
0008
FFF4
0007
FFEF
FFE9
0004
FFF8
000F
000D
FFED
FFFA
FFF7
FFF0
000B
0016
FFFB
FFFB
0005
FFEE
FFFF
0004
FFFD
FFFE
FFFE
0001
FFF6
FFF6
FFF9
FFEF
0009
FFFD
FFFC
000B
FFFE
0004
FFEE
FFF0
0017
FFF3
FFFB
0001
000C
0007
FFF9
0005
FFFD
FFFE
000C
0012
000C
FFFF
FFF6
000A
FFF2
0001
FFFD
0014
FFF9
0009
0000
0009
0003
000B
0008
0015
0013
FFFC
FFEF
0006
FFFC
FFF3
FFFE
FFF1
0000
FFFB
000E
FFFE
0015
0000
FFFF
FFEF
FFF2
000C
000C
FFFF
FFFF
FFFA
0005
0006
0009
0008
0011
FFF9
000C
0019
0000
FFF6
0005
000D
FFFC
0002
0005
FFF3
FFF4
FFFF
FFFC
FFEB
000B
FFE9
000C
0006
FFEA
0004
0005
000A
FFF5
0012
0013
000D
FFE8
000A
FFF4
FFFE
FFFF
000D
FFF4
0007
FFFF
0007
0000
0003
FFEB
0011
FFFA
FFFA
FFFB
000D
FFF8
FFFC
FFF6
000C
FFFD
FFF6
FFF3
FFF8
FFF7
FFFE
FFFB
FFF9
FFFF
0018
000B
000B
FFFC
0018
0008
FFF8
FFFA
FFEE
0011
0004
FFFD
FFF8
FFF6
FFFD
FFFC
FFFE
FFF5
000C
FFF3
0005
FFF2
0006
000F
FFED
0007
0008
0012
000C
FFF6
0013
000E
0006
FFF9
FFF1
0010
FFF2
FFF0
0010
FFF6
000A
FFED
000F
0009
FFFF
FFFD
FFFF
0000
FFFB
0009
0004
FFF9
FFFB
FFFC
FFF2
0006
FFFC
FFF7
FFFF
0007
0001
FFF9
0011
0003
000F
0000
FFF5
0008
FFEB
FFF4
FFFE
FFE9
0005
0000
000D
0002
FFE7
0017
000C
FFFE
FFFE
0012
FFFC
FFF9
FFFB
0004
FFFC
0015
0000
0004
0017
FFFF
0010
FFF5
000A
0012
FFFB
FFF6
0000
000C
0002
0001
0012
FFF6
FFFB
0004
0003
FFFF
FFFA
0003
0006
0009
FFFE
FFF0
0002
000A
FFFA
0003
FFF9
0001
0000
FFFC
0005
0009
000B
FFFB
0006
0009
0003
0014
FFFF
000B
FFFB
0014
0001
FFF8
0012
0001
0005
0005
FFFC
0002
