0019
0004
FFF5
FFCE
FFEA
003E
001F
FFE7
FFF0
0024
FFEE
0027
0022
FFEB
FFDE
FFBE
FFFE
000C
0004
FFD5
FFF1
0023
FFD3
0036
0013
0034
FFE3
FFF2
0033
FFF9
FFDF
FFE0
FFED
0022
FFF1
0036
0010
000A
001C
0008
0008
FFF8
0041
0043
FFF7
FFF2
FFE8
FFFC
0015
000C
FFF6
FFC5
FFFE
0002
FFCE
000A
FFFF
FFF5
0026
0002
0019
FFEB
FFF2
000B
FFEA
FFF4
FFBE
0003
0027
0004
0006
0007
FFFD
FFDD
FFF9
FFD5
003E
FFEF
001D
000B
0041
000D
FFE3
FFEA
FFDE
FFF6
FFDC
FFE8
FFF5
002E
0006
0030
0029
FFD5
0030
FFC4
FFE1
FFD7
FFD5
0030
FFEF
001A
FFF6
0034
0014
FFDF
FFED
FFEB
001E
0015
FFC5
FFEA
FFFC
0007
0021
FFF1
FFE7
0008
FFC9
FFBC
003C
0024
0000
002E
002F
FFDD
FFE6
0022
001A
FFF1
0007
0012
000F
0017
FFED
001A
FFE6
002E
0009
FFE3
FFDE
FFE6
FFE1
000F
FFD9
002D
0035
FFD4
0043
0015
FFD8
0011
FFE6
FFFF
FFC6
0009
0008
0031
000A
000A
FFBA
FFEF
0007
FFCD
FFFD
001E
001D
FFEE
FFFF
FFE7
FFEE
FFE1
0020
0025
0011
002A
0006
FFE3
FFE5
0038
0000
001B
0003
FFEB
0012
0008
0036
FFD3
FFF5
FFF5
FFFD
FFD7
0011
0035
0023
0009
0002
FFDB
FFDB
FFEE
000C
0004
0007
FFC4
FFDF
FFD1
FFED
FFFF
001A
0031
FFC8
0028
FFEE
FFE6
0019
000C
0027
FFF8
FFB8
FFFF
FFEB
FFD8
0026
FFFF
0004
FFFF
FFF9
000E
0018
0004
FFD2
FFDC
FFF2
0019
FFF7
FFF4
002E
0021
000A
FFED
0016
0034
0001
0036
FFE7
0013
FFE5
FFE3
FFF5
000B
FFED
FFF2
002F
FFC2
0015
0019
FFF5
000E
001E
001C
0002
0010
0017
000B
0041
FFDE
000F
000B
003F
000D
0000
FFD7
0016
000B
FFCC
FFEF
0000
FFEE
000B
FFDF
FFD1
FFFE
001C
FFBB
FFF3
FFCB
FFDC
FFED
000D
0000
0025
000A
002C
FFDF
FFE0
0006
FFEB
000C
FFC2
000F
0007
FFE4
FFE0
FFEA
0024
FFFD
0000
FFD5
0028
003C
FFDB
FFDF
FFE6
FFCF
0005
0001
FFDB
FFFC
003A
0011
FFED
FFFF
000A
0023
002B
002B
0010
FFC8
003A
FFFD
FFE3
FFF4
FFF2
FFED
FFFD
FFD7
0006
0010
0008
0016
FFFF
0011
0043
FFEF
0015
FFF5
FFEF
FFE6
FFC6
0023
FFFB
0004
0008
0006
FFFF
0038
FFDA
FFEB
0021
000E
0003
FFE4
FFFB
FFEF
001C
FFE7
FFD2
FFF3
0027
FFDE
0017
FFEF
FFF4
FFE9
FFF3
0007
FFEF
FFD4
0016
FFEF
000D
FFDA
0005
000B
FFF9
0004
FFF3
0015
FFEF
FFFC
0015
FFD7
FFD3
001F
001A
FFF2
FFEA
FFF1
FFFE
0001
0003
003C
FFF4
0021
0005
0010
001C
000E
FFC8
FFEF
0017
FFE9
000E
FFD0
0019
FFE7
0026
0008
FFCB
0048
FFBE
FFF1
0027
FFC1
0012
FFD8
FFEE
FFF8
001E
0003
0036
FFFC
0013
0037
FFD1
FFFE
0000
0034
FFEF
FFF1
003D
FFBB
003B
FFCC
001E
001D
0008
000A
FFC5
0010
001B
0003
0015
000D
002E
0014
FFCF
001C
FFED
FFFD
FFD0
0043
0005
FFD9
FFDF
FFD8
003A
0028
FFD1
FFF6
0020
0028
002F
002B
0016
0019
0025
FFE9
0008
FFF1
0016
FFEA
FFFF
0000
0019
0045
000B
0019
FFD3
001A
FFFB
0000
0010
0001
FFEA
FFE9
0003
0000
0006
0001
FFED
FFEB
FFF1
FFBE
FFDC
FFEA
FFE3
FFD6
FFFA
0003
FFED
0026
0020
FFD1
FFF0
FFC3
FFF1
FFEF
000A
0030
002D
001D
FFF7
001D
FFEA
0011
FFE6
001D
0000
FFDE
FFE0
FFBA
0016
FFDE
FFEA
0002
0002
001E
001C
FFFF
FFE3
001D
FFF5
0029
FFEE
FFFE
0021
0005
0029
FFFA
003E
FFDE
0040
0012
FFF9
FFF6
0004
FFE9
FFED
FFDE
FFF1
000C
000A
000A
FFD2
001D
0001
0020
0046
0046
FFCA
0025
0024
FFF5
FFD9
FFC4
FFEB
FFE5
FFF7
FFF2
0007
FFEE
0024
001C
FFE3
0012
FFF4
FFD2
FFBC
003C
FFD3
FFF9
FFEE
FFE0
FFEB
0021
FFEE
0045
FFFA
FFE1
FFD9
FFED
0014
0010
0009
FFDA
FFF3
FFDC
FFCB
FFD3
FFF9
000C
0017
0026
FFC5
FFE4
0023
FFD6
FFFD
0024
FFC5
0004
FFD9
FFF3
0006
FFF0
003A
FFD4
0011
FFEE
0027
FFCE
FFE5
0041
001F
FFDA
0038
0027
FFFF
FFF6
0013
0028
003E
0003
0016
0017
0006
0002
FFE6
FFEE
FFCA
003C
FFD8
0048
FFE2
FFD1
FFC9
FFF6
FFEB
FFC2
0036
FFEA
002E
FFF3
0042
0020
003E
FFE0
FFF6
FFF9
000D
0010
FFB8
0001
0014
0000
FFD9
FFFE
FFFE
000C
FFDF
003E
001B
000B
0034
0036
FFFC
0048
0039
FFDA
002D
FFBA
FFEC
FFF7
0016
FFE1
FFE4
FFFF
FFEF
0031
FFE1
000E
0035
FFF8
FFF0
001A
FFD5
FFF9
0000
FFF4
0001
FFF0
FFE6
FFFC
0041
FFC1
003D
FFD1
FFFA
FFF7
FFCA
FFDE
FFD2
FFE4
0026
FFD7
FFCC
FFFD
FFCD
FFE9
0002
0009
FFF3
FFB9
FFCA
0021
000B
0000
0019
001B
FFE1
000D
0014
FFFE
FFE4
0007
0022
FFEC
0028
FFE7
FFD9
0042
0004
0035
FFE5
FFD4
003B
0000
FFBF
FFFF
FFD2
FFFA
001C
0017
0016
0003
0002
0006
FFC2
FFF5
FFEC
0017
FFF5
FFDE
FFF5
0007
0032
0010
0018
002C
0004
0003
FFE8
FFF9
000D
FFD9
FFED
0029
0013
FFBA
FFF5
FFF2
0026
0008
FFE4
0004
FFE5
FFDE
0005
0036
FFE4
FFE5
FFF9
000D
0009
FFE6
0036
FFF0
0020
FFD7
FFE9
FFFC
0036
003E
0029
001F
000C
FFC8
FFE3
0029
0008
001F
FFF5
0002
000D
FFE2
FFDC
0019
002A
0014
FFCD
0035
FFCC
0033
000E
001A
FFFF
FFE2
FFD2
002A
FFF4
FFFE
0019
FFD4
FFE7
FFE8
FFE3
002A
FFFB
0010
0007
FFFD
0006
FFF9
FFFC
001F
001D
0013
0001
FFE5
FFFD
FFDC
FFE4
002E
FFE9
FFFB
FFD2
0002
FFE1
FFC1
002C
0038
0012
FFDE
0020
0002
FFFE
0025
003C
0048
FFC7
FFDE
003F
FFEA
FFDE
FFD5
FFF5
0026
FFDE
FFE7
001C
FFDF
0041
0009
FFFB
FFE0
FFBD
0028
0005
0012
0020
0001
FFBB
0007
002D
0022
FFF6
0042
FFDC
FFC0
FFC9
FFC3
000E
0007
0019
0025
002E
0034
FFCF
FFC7
0009
FFEA
FFE0
0005
FFE7
0004
FFF5
0004
FFF2
FFEA
FFEC
0018
FFE4
0036
FFE6
0007
FFF1
0040
FFFF
0008
FFCC
0003
FFDF
FFF2
FFEB
FFF2
FFF1
0000
0025
FFDC
0021
FFF9
0027
FFD4
FFE2
FFD0
FFFD
0013
FFC3
0004
FFE7
FFCC
FFCE
0018
FFEF
FFD2
003F
0020
FFF8
FFDD
0021
FFFF
FFE0
000B
FFF4
0014
FFE6
FFDE
FFD3
FFBF
0041
FFCA
FFEA
FFFD
FFEC
FFC9
001D
000C
FFD2
0006
002D
0001
FFC1
0008
001B
FFE2
0035
000B
FFFD
FFCB
FFE8
0015
FFDF
002A
0007
002B
FFC4
0021
FFD9
FFFB
FFFB
001C
0010
001A
FFF5
0010
0000
000E
002C
FFD9
0011
0018
0019
0028
0039
FFD5
FFF5
FFEB
FFDB
FFEC
FFF6
0027
FFDB
0002
FFF7
0006
0021
FFE6
FFF2
FFE8
FFFE
0003
002D
FFE9
0002
FFDD
0010
0027
FFE6
FFEB
FFDE
FFEB
FFE6
FFFA
001D
0007
0038
000B
FFC6
0030
0006
0031
0006
0000
0022
0019
FFE0
0004
FFD9
FFDD
0036
FFFF
0005
FFDB
0009
001D
0004
0005
000F
FFF4
FFF9
0033
FFE8
002F
0011
000A
002F
FFFD
FFD1
FFC3
0042
0003
FFF5
0015
FFE8
0004
FFF6
FFE6
002A
0025
0022
FFC9
FFE0
FFEE
FFCD
0022
0005
0012
FFD2
FFFC
000C
FFE7
FFE0
FFFF
FFE1
002A
FFD5
FFEA
FFCD
0008
001B
001D
001B
FFE6
FFEB
0028
001E
FFEC
0037
003C
FFE6
FFF7
FFD0
FFBE
0011
0036
0017
FFED
0011
0026
FFF3
FFEB
0002
FFF9
0011
FFF7
003B
0012
FFFA
0002
001E
0020
0031
FFE7
0015
FFEE
FFF3
FFEE
FFF0
FFF5
001D
003D
0022
0018
0006
0006
001B
0026
0031
FFDA
FFE9
0002
FFFB
002A
FFF2
0044
FFEE
FFFE
001E
0015
001C
000B
FFDC
0004
000F
FFF3
FFEB
FFF0
FFFC
0026
FFDD
FFE5
FFE8
001B
0012
FFFF
0031
FFB7
0034
FFF0
FFEC
0022
000C
FFD7
000B
0021
002E
FFE8
0020
0035
0023
FFF0
0023
FFF1
0025
000B
FFF1
FFF4
FFE3
FFE7
FFF8
FFEE
0019
FFE8
0037
0013
FFDF
0029
0015
002F
FFE2
0016
000B
000D
FFD2
FFF6
FFC7
0006
0028
FFD0
0010
FFE8
FFC9
FFF7
001B
FFE9
0029
FFB7
FFF6
0047
0014
FFFD
FFD0
FFD9
FFF7
0047
FFF2
FFF8
002D
FFF7
0028
001F
FFFD
0007
001A
FFED
FFDF
FFFE
FFF0
FFD9
0027
FFEF
0015
000B
FFF9
FFDC
FFE9
0040
0004
FFBB
0003
FFC3
FFE7
002F
FFE8
0026
FFF8
0001
0024
FFF0
0042
FFFD
FFE9
001B
000B
FFED
0022
0024
0034
0028
FFE8
FFE8
002D
000B
0009
FFF0
FFFC
FFFD
FFC9
FFEE
FFFC
FFC0
FFFB
FFDF
FFFF
002A
FFD5
0015
001F
0020
001D
FFDD
FFCF
FFF6
0009
FFF2
0005
FFD1
000D
FFEC
000A
003F
FFF1
0046
0006
0018
FFC3
FFEF
0005
FFFD
0035
0000
0040
000A
FFD1
0022
FFD6
001D
FFFA
FFF2
0013
0005
FFDD
0010
FFE9
0008
FFE6
FFEF
0005
FFF4
FFF2
0006
0047
FFCF
FFDA
FFEF
0026
FFFF
000A
FFFA
FFF5
FFFE
0018
003C
FFE8
FFD1
FFE8
FFE9
FFE5
002E
0025
FFF0
0016
FFD3
FFE8
000C
FFD4
002A
000D
001A
0028
0010
000A
FFE2
0006
0028
FFDD
FFDD
0034
FFE2
0004
000B
FFF8
0040
0006
FFED
FFF3
0002
FFD6
0012
FFD8
0027
FFE1
0002
0000
FFF4
0012
FFF3
0015
FFDB
002A
FFF2
FFFC
0002
FFE8
0019
0012
0005
0033
FFD5
FFC3
001F
001E
FFDC
FFFB
000A
0035
0010
0023
FFD5
000F
0000
FFE3
FFDE
FFF9
0016
0002
FFFE
FFE6
FFCD
FFF5
FFE5
0025
0026
FFE4
0033
001E
000D
FFDE
FFF7
0007
0031
0018
0018
FFF3
000A
FFF1
0023
FFF6
FFF3
0000
0004
FFDD
FFFE
001A
FFDD
FFC1
0020
000B
FFE3
FFFE
FFBE
FFD1
0008
0010
FFF6
0008
0004
FFD6
FFD4
FFDC
FFE0
FFF9
FFF0
FFF6
003B
FFD1
FFDB
FFF8
FFBB
0033
0031
FFBF
0001
FFEF
0012
FFDC
0012
FFC9
0013
002F
FFEE
FFFA
FFB8
FFE5
0000
FFD5
000E
000E
FFCE
0041
0017
FFE0
0000
0003
FFEC
0002
FFF7
0003
0027
0021
000C
FFE9
FFC8
000F
FFCC
FFC6
0010
001A
FFF9
0027
FFFA
FFE8
FFE9
0016
FFCE
000C
FFD8
0046
0022
0039
FFF9
0001
FFEA
FFE3
0030
0010
0022
0005
000F
0015
FFF0
FFFF
FFD8
FFEE
FFF9
FFEC
000A
0030
0000
FFDA
FFF3
0018
0001
FFFC
FFC4
FFE0
0028
000C
FFE1
003F
000F
0041
003C
0039
002D
0011
002A
0037
FFF1
FFE6
FFDB
0022
FFE0
000C
FFD7
0027
FFC3
FFFF
0001
0014
FFF0
FFFE
FFEA
FFE8
FFF9
FFF7
0006
FFDE
FFFE
FFEC
001D
FFFF
0006
0005
001E
FFF8
0003
FFE0
FFD4
FFFC
0004
FFDD
FFF1
FFDF
001B
FFF8
0026
0027
0025
FFE1
FFED
0009
FFFC
FFD3
001A
0000
000F
0016
FFF5
FFBA
FFE6
001E
0014
0012
0032
FFEB
0003
0019
FFF9
0014
0028
0001
FFFB
0011
003F
0019
0044
0008
0010
FFD4
FFBC
FFEE
FFF3
FFF6
0009
0011
0000
0010
FFD4
FFCC
FFF1
FFEE
FFD1
0013
FFD4
FFD2
FFCB
0017
0010
0000
000B
FFDA
0013
FFDB
0009
FFEF
FFFB
FFF4
FFE0
0028
FFE5
000B
FFE8
0007
FFFD
FFFC
000F
FFFD
FFD1
0028
FFD6
001D
FFD4
FFE9
0013
000D
FFF4
FFE5
0008
FFC3
FFF3
003B
000C
000E
FFDF
FFB9
FFBC
003C
FFFE
FFF2
002B
FFF9
0021
0007
0002
FFC9
FFDC
FFD3
0006
FFF6
0009
FFD2
FFCA
0001
001B
0002
FFDE
0036
FFFE
FFF6
0020
FFFB
0004
0012
FFDD
000B
FFF7
FFEC
000F
000C
000F
FFF1
FFE3
001A
0032
0037
FFCC
FFFD
000A
FFE8
FFDF
FFFD
003A
0026
FFE2
0024
FFB8
FFF9
FFE5
0025
000F
0004
FFEF
FFED
FFD8
0005
FFC0
001B
FFE4
002B
FFE5
FFD8
FFE5
FFF7
001E
001A
FFC0
000D
FFE6
FFFB
0020
002F
FFF8
FFF2
000E
FFDD
000E
FFE1
FFF5
0004
001E
000C
0010
FFE0
FFE8
FFF5
FFCE
0003
0016
FFEF
0022
FFD2
FFE6
0022
001A
FFF2
FFF9
001D
0008
0000
0012
FFD1
FFDF
000A
000C
0036
FFD6
FFF9
0004
001E
0023
0034
0008
001F
0001
0022
FFBC
FFF3
000F
000F
FFF8
FFF6
002D
FFE0
FFDD
0015
002A
001F
0009
0045
FFE2
001B
FFCC
0009
0044
FFEC
FFE0
001D
FFF8
FFD7
000E
FFC7
FFFE
FFF9
002B
FFEE
FFF6
0011
FFDD
0013
FFFE
0038
FFBE
0031
FFFC
FFBD
FFF4
0042
001D
0029
001E
FFEB
0004
FFEC
0007
FFF2
0028
FFE4
FFDF
FFFA
0016
FFF7
0037
FFD5
000D
0023
FFF7
FFEB
000B
0008
FFD6
FFDF
0020
0006
FFCA
0001
FFD2
0030
001C
FFFF
FFEF
FFFC
0034
FFD6
0018
0000
FFEC
002C
0022
FFFB
FFC6
FFEE
002C
FFFA
FFED
FFDA
0004
0019
FFD4
0003
0000
FFF0
0031
0033
FFF7
FFF4
0008
0013
000A
FFBB
FFE6
FFEB
FFF2
FFDF
0015
FFDC
000F
0001
FFD3
0015
0005
0008
FFE9
FFDF
FFCF
FFD8
FFF6
000C
FFE6
0018
FFD4
003A
FFD5
001A
0001
001C
0019
FFFF
FFF0
FFF8
0024
000F
FFDB
FFF8
FFDC
0015
FFE1
0002
FFC0
FFF2
FFD8
0023
0006
0022
FFDD
0029
FFF8
0000
FFE9
001C
0000
0019
FFF1
000F
FFFD
FFD1
FFDB
FFE2
001D
0000
FFEE
0002
000E
FFEA
FFF5
FFCD
FFFE
FFE3
FFF1
0013
FFE1
FFE3
003E
FFF9
FFFC
FFCA
FFF4
000A
FFE8
0010
0002
003E
0007
001F
0016
FFE3
0028
0009
FFE1
FFDC
000D
FFC6
FFDB
002A
FFFC
0019
FFEF
0047
0020
001C
0013
FFF8
FFD0
0001
0014
FFE8
FFFB
000E
0006
FFE7
0004
0029
0043
FFED
002A
FFEA
000E
0003
FFF7
0027
FFC3
0037
002B
FFE1
0033
0010
0026
FFD5
FFEA
FFD8
0022
0022
0022
0007
FFF1
000C
FFDA
FFE4
FFFB
FFB8
0011
FFDA
0022
0013
FFEB
0004
0010
FFE3
0015
0003
FFEC
0027
FFCF
000D
FFE9
FFDC
0029
000B
FFE2
000A
0000
0038
FFBB
FFBB
FFE8
0032
0025
FFE8
FFFF
002E
FFFC
0034
000A
0019
0036
0030
FFC3
FFD9
FFE7
FFE7
FFC7
FFF1
FFF5
0023
0018
FFE9
0007
0007
0012
FFE0
0004
FFE6
0027
FFEC
FFC5
0007
0008
FFDB
FFFC
FFE1
0010
FFEA
FFF3
0008
0027
0023
FFFF
FFF5
003D
FFFB
FFBD
0026
0007
FFE4
FFDA
0034
FFFA
000B
0005
001D
0018
0004
0036
FFDF
0006
FFEC
FFE5
0002
0000
FFED
001C
FFD9
0011
FFFB
FFFB
0027
0014
0018
FFED
FFF2
000C
FFE2
003B
0004
FFF0
FFBA
0028
0014
002B
FFF7
FFE5
0017
FFDE
000F
0004
002C
FFDF
FFFE
0006
0009
FFFC
0005
FFFC
0014
0014
0017
0026
0037
FFF4
0044
FFF1
FFE2
FFFE
0007
FFF1
0041
FFC9
000A
0016
0019
FFF3
0019
0006
FFDA
FFED
FFE2
0000
002E
FFE2
FFCB
0011
0009
FFF0
001E
FFE8
FFFE
0005
0021
0004
001E
0039
FFBC
FFC0
FFC4
000E
001D
FFF7
0028
FFF2
FFE9
FFDB
000B
FFE1
0023
0000
FFE3
FFE8
000E
0008
FFF9
FFFC
0006
FFE9
0022
FFC7
0018
0006
FFBD
0015
002B
0008
001D
001C
000A
FFEA
FFFE
FFFC
0011
FFBF
FFEF
0000
0015
0016
0007
FFD0
FFF6
0005
FFF3
FFE2
FFDB
003F
0004
0028
0006
001F
0019
FFF5
FFE5
0001
0012
000D
001A
000C
000F
FFE5
FFFB
001A
0000
000A
0036
FFD6
FFE3
FFCD
FFCA
FFEC
0021
FFF2
FFE1
0027
000A
0021
FFDA
FFF9
FFFD
0004
FFFA
001B
FFD3
0022
0013
FFE7
FFF3
0014
001B
FFDE
0006
001B
003A
FFEA
002E
001E
FFE8
FFCB
FFF9
000D
FFE0
FFF3
000B
FFD6
FFD4
FFFB
0023
0003
FFEE
0023
0021
0000
FFD4
FFCD
0025
FFF3
FFD4
0041
001B
FFC0
FFCE
0002
FFE7
FFDC
FFEF
0033
FFDB
0003
0011
0002
FFD5
0001
0002
FFF3
FFE1
000B
FFE6
000D
002E
000E
FFC1
FFE2
FFC2
FFF8
0018
0035
000D
0015
0005
0003
000C
0015
0036
FFE5
0002
0031
FFF4
FFFF
000F
001B
FFED
FFD3
FFCE
000C
FFD6
000F
0017
FFFE
001F
FFFF
000D
000F
0015
0010
FFE4
0002
0010
FFE4
000A
0038
FFFB
0010
FFFA
FFEB
0024
001E
0013
FFE3
002D
FFE2
000A
0011
0006
0018
002A
0003
FFDE
002E
003C
0010
FFFB
FFF6
0047
002A
FFB9
FFFF
FFF8
FFF3
0012
0001
002F
0020
0008
0011
FFFD
000B
FFD9
FFCD
000B
FFE1
0039
0025
FFD3
FFCA
0008
FFFF
FFED
0004
FFF4
003E
0017
001E
000A
0015
000C
0014
0005
FFCA
0011
0016
FFD8
000B
FFC4
001B
002A
002F
0021
0019
FFF4
FFEF
001B
0002
0000
FFD7
0034
FFEF
0024
0010
0018
000A
FFDF
001D
FFFD
0001
0015
FFFA
0013
002A
FFC3
003B
FFDB
0038
0023
001B
FFD2
FFCD
0012
0014
FFF4
0032
0009
FFE8
FFE0
0014
FFE0
0017
0024
FFEC
0018
FFCE
FFFE
002C
0013
FFFE
FFE8
FFE2
FFF8
FFD2
001F
0020
0020
FFD4
FFF7
0012
0016
0003
000A
0038
003A
FFD1
FFEE
FFE3
0015
FFE6
FFD2
0012
0004
000F
FFDC
FFD9
000C
FFE5
003C
FFE4
FFFC
FFE0
003F
0000
0027
FFE4
FFFF
FFDC
0011
000A
FFF7
001B
FFBD
FFDC
FFC3
FFF8
FFED
0001
002C
FFD4
0004
0017
0005
FFFA
FFEC
0014
0011
FFDE
FFD5
FFF0
FFF5
FFE9
FFF1
FFE7
0002
0000
FFF1
FFEF
FFEB
FFEF
FFEA
FFFB
0004
FFEA
003F
0019
0013
FFF7
000B
000D
0020
FFF7
0017
0006
002F
0013
FFFC
FFF5
002B
0005
FFE7
FFDD
001C
FFEE
FFE6
0017
0029
FFF7
0009
FFE7
FFD5
0019
FFED
0047
000C
000A
FFF3
0015
0037
FFD9
002C
0032
FFD4
000C
0019
FFEC
FFC9
FFC9
001A
FFE4
FFFA
0021
001C
FFDD
FFF3
FFD5
FFFE
FFF9
FFCE
FFEC
FFE0
0011
FFD8
000F
FFF2
FFF4
FFF9
0020
0017
0028
001C
FFD5
002D
FFF3
0006
FFF8
FFF4
0003
FFE3
0045
FFDC
000D
FFFE
0010
0021
FFF6
0021
0020
003C
FFCC
000B
FFF9
0001
000B
FFED
0002
0034
0016
0029
FFE4
FFF3
FFFC
0020
FFD5
FFFF
FFF9
FFDA
FFF1
FFDE
0032
0015
0008
0004
0016
001B
FFD0
FFF2
0033
0008
001A
FFEE
FFEA
FFC7
000D
001A
FFFD
FFC8
0015
FFF4
0019
0041
001F
FFFE
FFBA
003C
0007
0013
0000
001C
000D
000B
0017
0031
FFDD
FFF9
FFCD
0010
0005
FFFD
000B
0014
FFE8
000D
FFE3
FFCA
FFEE
FFD1
FFB7
001B
0002
FFF3
FFF6
FFF8
FFBC
FFCE
FFC8
002D
FFE8
000D
FFDA
001E
0015
FFF8
FFC3
0014
001F
0010
0001
001B
FFF5
FFD2
FFF1
FFF7
0002
FFED
0028
FFCF
0009
FFF9
0003
0020
0002
0018
FFEC
FFE7
0031
0046
FFF6
0012
FFD9
FFD5
0038
0009
0028
FFE2
FFDE
FFD2
FFE2
000B
0021
FFE5
FFE9
FFDC
000E
FFFF
FFFB
FFFA
FFEC
FFC0
000D
0020
FFEF
FFE1
FFE6
0005
FFF7
FFDD
FFF2
002E
FFD7
FFC2
0014
FFF9
FFD2
FFD6
FFFB
FFF9
000E
FFFB
FFC9
0022
0001
FFC6
FFD8
FFEB
0028
0032
FFBA
FFDC
0029
0015
FFBA
FFE6
FFE4
0033
FFFC
FFF2
000D
0000
FFE1
FFFE
003C
FFBE
0017
FFEF
000F
FFEC
002F
FFE2
0000
001A
0014
0034
FFD9
0037
0013
FFF9
000B
000C
0017
FFF0
FFFC
0002
0005
0010
0013
FFBD
FFF1
0019
FFEC
FFFD
0017
FFC7
0005
0002
002C
0004
0022
FFC5
FFCF
FFD0
FFF3
FFD2
000A
FFF7
0046
0004
0016
001E
0011
0006
0018
FFE2
FFF2
FFFD
0042
FFFF
000A
000D
FFDC
0022
0022
FFD0
FFD0
FFD4
FFF7
FFFD
FFD2
FFE2
000D
FFC3
FFF9
001A
FFE1
0035
FFE5
0003
002C
FFF3
001C
0013
FFEB
003D
FFED
0042
FFD0
0044
FFC3
FFF0
FFD5
0003
FFEF
0017
002D
FFD7
0013
0001
FFF2
FFF1
0039
FFF1
FFBF
003D
FFE4
0031
FFC6
000E
FFDA
FFCC
0001
FFF4
000E
0018
001E
FFDD
001B
FFDE
FFF5
FFDA
FFFD
0005
FFF5
000A
FFDE
0010
FFF0
0005
FFEC
FFF7
0005
FFF4
FFD7
FFCC
0010
0031
0021
001D
FFF8
0035
0014
FFB8
0003
002E
0041
001D
FFE5
001F
0001
FFFF
FFCE
0024
000D
FFE3
FFF5
FFFD
FFCA
0002
0033
0021
002A
0016
001D
FFE6
FFFF
000C
000F
0000
FFF9
FFC4
FFCD
0030
0004
0023
FFDF
0043
FFF6
FFEA
FFD9
0033
FFD7
FFD7
FFDB
FFE6
FFDC
FFCC
000E
0011
0025
FFEF
FFFF
000E
0002
FFF0
FFE6
0002
FFEA
FFEB
0004
FFDE
0015
FFFB
0001
FFF6
000B
0027
000C
0000
FFEC
FFE4
FFF4
FFEB
0012
FFE7
FFFB
0026
FFEC
0025
000F
FFD8
FFDD
FFB7
000B
FFE9
0015
FFEE
0006
0030
FFDA
FFD7
0005
FFF6
0010
FFBB
0016
0004
0043
FFDB
0007
FFE7
0030
000F
0016
FFFA
FFF5
FFED
0004
0003
FFE7
0036
0007
FFDE
0007
FFEA
FFF8
0025
FFE4
000D
0040
FFB9
0013
FFFE
0029
FFE4
0001
FFF0
0023
0010
FFFD
0023
FFDC
000B
0008
0000
FFF5
FFD7
0003
FFDD
0022
FFEA
0020
FFF0
FFED
FFEC
FFDE
000F
FFDA
001B
FFDF
001D
001C
0038
0043
FFFC
FFF0
0003
001F
0032
FFE8
0045
FFE6
FFE8
0001
FFFE
002C
0023
FFE6
FFB9
FFDF
0010
FFC5
FFD1
0006
FFC5
FFDD
0016
0030
FFF4
FFBE
000D
001C
001B
0000
0006
001C
0006
0019
FFFD
FFD3
0019
0035
0004
0030
001E
FFE4
FFFF
0010
000D
0022
FFE2
0001
000D
FFDA
000D
0014
0020
FFB9
FFED
0025
001D
FFC0
FFF7
001D
003F
0010
FFEE
FFF0
FFDF
0005
001D
FFC4
0022
000A
000F
0024
0037
FFCE
FFE6
FFE1
FFBF
0023
FFEC
FFDB
002A
0010
FFE8
FFEE
000A
FFFC
0020
FFCC
FFF2
0008
FFC2
FFE6
000E
FFDC
FFC7
002C
FFF1
FFF4
FFFF
0023
FFE7
0032
FFC7
FFE3
FFFB
FFE3
FFFB
0017
0039
0004
FFF4
0020
FFE3
FFF7
0016
0016
FFCC
0022
001A
FFCD
0000
FFED
0020
0003
FFD4
FFFA
0005
0016
0011
FFF9
FFE6
FFF8
0029
FFDD
FFE9
0001
000B
FFFE
FFF7
FFF1
FFE1
FFDB
FFF0
FFF3
0045
FFD3
0025
FFDF
001A
FFE6
0025
FFDF
001C
001C
FFD0
FFE6
FFE6
FFC5
002A
0019
0019
0013
FFC4
0013
0041
FFD7
FFFA
002B
FFF4
000B
002D
FFE8
FFF5
FFCF
0011
FFC3
FFF4
002C
0010
000E
000A
FFD3
FFE4
FFF5
FFED
FFDC
003B
FFF0
FFE6
002F
FFF7
0006
FFFE
FFD2
0027
0009
000E
000D
FFEF
FFBD
000C
0008
0019
000E
FFF9
0006
FFC8
FFDB
0039
FFEF
FFDF
FFFC
0010
FFDE
FFCD
FFE0
0020
001A
0026
0009
0021
0014
0046
FFDA
FFEB
0000
FFBF
000D
FFE0
0006
002B
FFC6
FFBD
FFDD
0001
FFFF
FFD8
FFFC
FFCB
FFF7
FFF3
0001
0000
0021
FFE7
002A
000C
0007
0011
0035
FFF1
0021
001C
FFF7
0025
0030
FFE4
FFF4
FFE9
FFF4
FFF7
0036
FFC7
0014
0004
FFF8
FFEE
FFC4
0021
FFED
0004
FFDF
0010
FFEE
0008
0040
0007
001C
001D
FFE0
0004
0009
FFEE
0013
001A
FFF1
FFF5
FFC8
0020
FFF8
FFC8
0017
FFF7
0011
FFDE
FFD5
001D
0032
000F
0012
001F
000C
FFFE
FFE5
FFD4
000B
FFDC
000A
0007
FFFC
FFFD
FFD5
0018
001D
001A
0034
001C
FFCB
0013
001F
0006
001B
0025
0002
FFD3
FFE9
0004
FFCF
FFE4
FFBD
000A
FFC0
0026
0025
FFFF
0021
0007
FFF5
FFEF
FFE3
FFFF
0008
FFE9
0031
FFE5
001F
003F
0012
0020
FFD4
0020
0007
0007
0038
000B
000F
001B
FFE2
FFF9
FFE7
FFE1
0025
002B
0005
0020
FFF7
FFEC
0017
0003
0004
001A
FFDD
002A
FFFC
0005
FFF9
FFFF
0015
0023
FFE4
0009
FFCE
0019
0016
0014
FFE4
0009
FFD5
FFDD
0019
0005
FFCC
FFDD
FFEE
0000
0017
FFCE
FFE9
FFE8
001C
002E
FFFB
FFFC
FFEA
FFE6
000D
001F
0025
0022
0010
0001
0004
FFF8
FFF1
FFC4
FFDE
0003
FFF6
FFDD
FFEF
FFFC
FFFD
FFE7
FFF2
FFD7
FFF8
FFEF
002C
0007
FFCD
FFFE
FFF9
0026
0019
0019
000C
FFCD
FFD5
FFCE
FFEF
002C
0003
0005
0000
0023
FFE2
0003
0004
0007
FFD0
0019
0038
FFE5
0040
000B
0029
FFED
0033
0002
FFED
0006
FFFC
FFEF
FFF3
FFE1
0008
FFE7
FFF5
FFCE
0014
000B
000E
0019
0001
0007
0030
FFC9
001E
0030
0037
FFCD
FFF8
0020
FFDA
FFFF
FFF9
0023
000A
0031
001A
FFB8
0026
0002
FFFB
0000
001D
FFF8
FFCD
FFE0
FFFF
FFF1
FFF2
FFF3
0016
FFFC
0047
FFF0
0011
001F
FFEA
FFDB
000C
000A
FFBB
FFF1
FFE7
FFE8
0021
FFFE
0020
0035
000A
FFE2
FFC1
0018
FFB8
FFF5
FFE4
0018
FFC8
FFE5
0014
FFCF
FFCC
001A
FFD8
FFF5
FFE7
001C
FFD0
0011
0002
000B
0018
000A
FFF5
0045
0013
FFD5
0039
FFDC
FFD4
FFFB
FFFD
001D
FFE2
FFE0
FFD0
002A
FFC0
003B
0007
FFE9
FFFD
FFFC
FFF0
FFD3
003F
FFD4
FFEB
FFF4
001A
0023
0018
0017
003C
FFC6
FFE5
FFE9
0045
0008
FFC6
FFCC
FFD2
FFD6
0013
003A
FFF8
0029
FFD6
0005
FFC1
FFEA
FFE1
0002
FFDC
0006
000F
003C
000C
FFD1
002D
FFED
FFCE
FFFF
FFE9
FFC7
FFF5
FFED
000E
FFF7
0011
FFD5
0009
0010
0018
0013
0005
0002
0009
FFFF
0008
0006
0024
FFE5
FFFA
FFE1
0010
FFF4
FFE3
0025
0013
000D
FFFC
0002
001A
0011
000D
FFBB
0029
FFC6
FFEE
0030
000E
FFFB
000E
002E
FFCA
FFD1
FFC4
0012
0025
0048
0018
0019
0008
000C
0015
FFE0
FFF1
FFC1
FFEB
001E
FFCD
FFE5
FFDD
FFF9
FFE6
FFFD
FFBD
0017
0002
FFD6
000B
FFE2
0020
0008
FFC9
FFE8
0024
0032
FFB8
0031
FFF2
0039
FFF5
0001
0021
FFFA
0002
FFD0
FFF1
FFE5
FFE1
FFF9
000B
0022
FFF9
0001
FFF1
FFD9
FFBF
FFFE
FFFA
001F
FFF9
FFC2
0000
002A
FFF2
0009
0017
FFDC
FFDF
FFE7
000F
FFF7
FFF8
FFF9
0007
FFC3
FFFD
FFC5
0016
FFD3
FFD5
FFFD
0013
0022
0018
0028
001A
002A
000A
FFC4
0018
FFE2
0039
0005
FFF5
FFE1
FFFD
FFE8
0011
FFEC
0022
FFF5
0003
0033
0016
0030
FFFC
0004
FFE9
002D
0004
0047
FFEB
FFE1
000F
FFF9
0045
000D
FFD7
0009
0006
FFD9
FFF4
000F
000A
FFD6
FFF1
FFDF
003B
FFFF
FFFB
FFDD
FFFA
0027
FFFF
003C
FFEE
FFF1
FFF4
FFDD
000C
000E
FFD4
FFE1
0024
FFE8
0002
0012
FFF3
FFC9
FFEE
FFD4
0003
FFC0
0009
0035
0018
FFE4
001B
0015
FFF4
0012
FFC7
0011
FFE1
0009
FFCC
FFFF
000F
FFF9
FFEE
0003
FFFB
002E
0002
0016
001D
FFF8
000A
0005
FFED
FFFC
FFCC
001F
0034
FFD8
FFE3
0000
FFC6
0022
FFF7
0002
FFE4
0033
0029
0022
0001
0040
FFF9
FFDD
0024
FFE1
FFE3
FFE2
0002
FFFD
FFDA
0028
FFE3
FFF0
FFEE
0008
FFDF
FFF6
000D
FFFF
001F
0023
0026
003D
0024
FFFE
FFD9
0031
0007
000F
FFF0
0019
FFE7
000A
FFE7
FFEA
FFED
FFEC
FFEB
0037
0012
FFFB
000A
FFED
FFE8
FFEB
FFD4
FFD0
FFFF
003A
0021
0037
FFED
0019
FFDA
000D
0026
0024
0015
000A
0027
000A
000B
000C
0011
001E
0008
FFDE
002C
FFF5
0010
FFFC
000D
FFBA
0011
0046
001C
000B
001E
000C
FFF9
0000
002F
002C
FFDB
FFF9
001E
003A
0021
000C
001B
0027
0026
