FFFC
FFF5
0017
0018
0006
FFD6
001D
FFEA
0004
FFFF
FFE7
FFE1
000F
0026
0005
0008
000B
FFD4
FFE1
FFFB
000A
0007
FFFA
0017
0021
0008
FFF9
FFD0
0001
FFE2
FFF8
FFE0
FFF2
FFE4
FFE6
0019
FFDF
FFD2
FFDB
FFFC
FFF7
0014
FFF7
FFED
FFF8
0005
FFEF
0009
0012
FFF3
0003
FFD5
FFE2
FFE8
FFF6
FFEE
0011
FFE8
FFFF
000B
FFEE
FFF9
FFD3
FFDB
FFF1
0019
0032
0004
001D
0025
0000
0024
FFF5
0009
FFF1
001B
FFDC
0003
FFFA
FFFC
FFE5
FFF0
FFE2
0026
FFFD
000C
002C
0004
002F
0016
0014
0004
0029
FFDC
FFF6
FFFD
FFEE
FFD6
FFFD
000E
FFFE
FFEF
FFF1
0011
FFED
000D
0000
002A
000C
0005
000E
FFDF
FFEB
FFDE
0027
0009
FFE1
0028
001F
001C
000D
0004
0007
FFFC
FFEA
000A
0000
0015
FFD7
FFDC
0033
FFF2
0010
0011
000F
FFE1
0009
FFF1
FFE7
FFF0
FFEF
FFF2
FFF3
FFFA
FFE5
0003
001A
FFCF
FFEF
FFF5
0010
FFEA
FFF5
0022
000E
FFF2
FFDC
0004
0010
FFF8
FFF7
FFF1
0002
0016
0008
0004
000F
FFFA
0030
FFF2
FFE8
000C
FFFC
0009
FFE5
000E
FFDF
FFFE
0021
0000
000F
0003
FFF7
000A
0008
FFEA
FFE5
FFD9
0009
0001
FFF0
FFFE
000E
FFDB
FFE2
0011
0002
001D
FFF9
0020
FFFE
000B
FFD1
0003
000C
0008
FFE2
FFF3
0009
FFFB
0015
000E
FFCE
0021
0015
FFFE
FFEA
0024
0016
FFD7
001F
0003
0000
FFE1
0023
000C
0025
002C
0023
0014
FFFF
FFFF
0017
0019
FFFD
FFF0
FFED
FFFA
FFEC
FFEF
FFE1
FFD8
FFE2
FFFC
FFF4
001A
0001
FFF5
FFDF
0015
0003
001B
0017
FFF2
0020
0001
0004
FFED
FFD8
FFE2
001D
FFF2
0015
001A
0006
0019
FFFC
0000
FFEE
FFF2
FFEE
0020
FFE7
0002
FFFE
0003
FFF8
FFEE
FFE6
0018
000B
FFDE
0020
FFEF
FFFF
FFFE
000F
0028
FFE0
FFDC
0012
FFF7
FFF9
0022
FFEC
000E
FFF2
0017
FFE0
000F
FFF4
FFEF
0004
0010
FFE8
000D
0005
FFFC
FFF1
FFFF
FFED
0013
FFF0
FFFB
FFEE
FFEA
FFFD
0016
0003
FFE9
FFFD
FFFE
0010
FFD2
0020
0009
0014
0000
FFFE
0011
FFDC
FFE6
000C
0018
FFD8
FFD8
FFE8
FFF6
000A
0009
001E
FFF7
FFFC
0010
FFE0
FFE2
FFDA
FFFB
FFF9
0003
000E
0019
FFFA
FFE2
000D
FFF2
000E
FFEE
FFE3
FFDC
000B
0012
FFD9
FFEE
FFE1
0015
FFF6
FFF0
0008
000D
FFE0
001B
FFE6
FFEC
FFCE
FFF4
0026
FFE8
FFD7
0006
FFE9
000F
0008
FFEB
001D
001E
0015
FFE3
FFFE
FFEB
0006
000A
0004
0030
0003
001B
FFE3
FFF8
000E
002E
0010
0030
0009
0019
FFF5
FFFD
FFE9
0006
FFEB
FFE6
FFED
000A
000C
0013
0005
FFF5
0005
FFEA
0010
0028
FFF3
FFF5
0010
0033
FFDF
FFFF
FFF7
0016
FFEB
FFE0
FFD8
000D
0001
FFEF
FFE9
FFE5
FFDF
FFF6
000C
0008
0000
FFFC
FFE2
0026
0002
FFE5
000A
0000
001E
0006
002C
FFEE
FFF2
0001
FFE4
0019
0004
FFE1
FFE1
0010
FFFE
002A
001B
FFED
002C
FFF0
FFE1
0011
0003
FFDC
0019
FFE5
0010
0009
FFEE
FFF2
FFF1
0001
FFD3
0006
0014
FFFE
0005
FFFA
FFFE
0001
001B
FFE2
0002
FFEC
0019
0006
001D
FFFF
0015
0001
001E
FFCE
002A
0013
FFE6
FFFE
0003
FFFF
0007
FFF2
0025
0004
FFD8
FFF6
FFF0
FFDD
0002
FFF5
FFCE
FFEC
FFF9
001A
FFDB
FFEA
FFF1
000A
FFF9
FFDF
0010
FFE0
002B
FFFD
FFEE
000E
0026
0015
0015
001C
FFE5
FFFA
000E
001C
FFD8
FFD7
0013
FFD2
FFF0
FFF8
0008
0014
FFE2
000D
FFF1
0006
FFF3
FFF9
0001
FFFC
0013
0002
001F
0004
0019
0001
0003
FFE1
FFDE
FFF0
0023
0020
FFD3
FFEC
FFD9
FFEA
FFF9
0029
FFF3
0000
0002
001C
0005
001B
FFF5
0002
0005
0015
0003
FFF1
0008
001A
FFD9
000D
FFEE
FFFE
FFEE
FFE7
001B
FFEF
000C
000A
FFEA
002F
FFFE
0009
FFE9
FFEB
FFF0
000C
000F
0014
FFF9
001E
FFF7
FFFA
FFF9
FFF5
FFE4
FFF0
FFD0
FFF3
001B
FFF0
FFF8
FFE3
FFF0
FFF6
FFFD
FFE2
FFFE
FFE5
FFE1
002D
FFFA
0005
FFE8
FFFF
FFE6
FFD9
FFEB
FFD0
0019
FFFF
0016
0006
FFE5
FFD5
FFF1
FFEB
0008
FFFF
0014
FFF4
0006
001B
FFFE
FFCE
0005
0016
FFE6
0012
FFF0
FFE6
FFDA
0021
0008
001D
FFCF
FFF3
FFE5
000E
0010
FFF6
FFFC
FFF7
000D
0013
0007
FFF6
000D
0010
FFD9
0000
000E
FFF8
FFCF
000E
FFE0
FFF9
FFE7
0029
FFEC
0003
FFF2
FFF6
FFD4
FFFD
FFF5
000A
FFF9
FFFF
FFF1
FFFA
001D
0008
FFF3
FFED
0003
FFD8
FFFF
0015
FFDD
FFF0
FFFB
000A
0006
FFE2
FFF5
002C
FFF2
FFE0
000A
FFFA
0010
000F
0012
000F
0003
FFFB
FFFC
FFEF
0018
0001
000D
000E
FFD5
000C
FFDC
0010
0008
FFD3
FFEB
001B
0007
0018
FFFE
FFEE
0014
0009
FFED
FFFF
0000
FFDB
000B
0020
FFE1
FFE3
FFFB
FFF3
FFF5
FFEE
FFD2
0003
002D
0012
0016
FFED
FFD0
FFF9
0009
0012
FFE9
FFCF
FFE5
FFD8
FFE5
0007
0008
000B
FFFC
0003
002C
001A
0009
0010
000C
FFEE
FFF9
FFFD
000F
FFE9
FFF7
0003
FFF7
FFE6
FFFF
FFED
FFFA
FFFC
000E
0029
0013
000E
0017
0015
0000
FFF9
001A
000E
0000
000A
FFF0
0007
FFDB
000D
FFDF
0012
FFFA
FFE5
001B
0003
FFFD
0003
0003
FFD9
FFE5
0031
FFFA
FFE8
FFF9
0011
FFF6
FFF4
0015
0014
0001
FFE1
0008
FFF0
FFED
0017
FFFB
0021
001D
0007
FFF0
0019
FFE8
000E
FFF1
000B
0025
000D
FFF8
FFD8
FFFF
002B
000C
000A
0005
0019
FFFD
FFF7
FFFF
FFFC
FFE1
0012
FFFC
0025
FFFF
FFF5
FFFB
FFEE
FFE9
0000
FFE7
000B
0004
FFEA
FFEA
FFF7
0015
FFD4
000C
FFFD
FFF1
0012
FFFA
FFFF
0009
FFE5
0006
0019
FFFA
001A
FFF9
0017
FFEB
0011
001A
0002
0027
0022
FFE8
FFF8
001E
0008
0002
FFD3
FFFE
000C
0016
FFDF
0026
FFFA
002E
001A
0007
FFE4
FFDA
FFEB
0015
FFEA
FFE9
000C
FFDF
0006
FFF2
FFDF
FFE7
001A
000F
FFEC
FFE2
FFD7
FFE0
000E
0010
0016
FFFA
FFFA
FFEA
FFF9
0007
FFDD
FFCE
FFE1
000E
FFD9
FFFD
FFED
0001
002E
0010
0016
0007
FFFD
FFE0
FFF0
FFE7
0005
FFF7
0004
0009
0032
FFE7
0003
FFF8
0014
FFE8
FFF6
0015
FFF2
FFF0
FFF2
000D
FFF0
FFF9
FFD8
FFDE
0001
0006
001A
FFEC
001B
FFE3
0008
FFEB
FFED
FFF3
0022
FFE9
FFEF
FFF6
000A
FFF5
FFD4
000F
0008
0008
FFF4
000C
0026
0006
FFD6
FFF2
FFFB
0023
0013
FFEE
0016
FFF1
0017
FFF0
0010
FFFF
FFF8
FFE5
FFF5
0028
FFE6
001D
FFFE
000E
0014
FFCE
0003
FFF3
FFE6
FFD7
FFF7
0006
0002
FFE4
000D
FFE9
FFF7
0002
0008
0018
FFEA
0006
FFE9
FFF6
FFF9
000D
0004
0019
0025
000D
000E
FFFD
0004
FFF7
0018
0013
0010
FFF0
0014
0014
FFF5
FFFA
FFF0
000B
FFF4
002E
FFF3
000C
0011
0027
FFFD
FFEC
0017
FFDA
0018
000C
0007
FFDC
FFFD
0003
FFFA
0017
0019
FFD0
0008
FFEF
0013
FFEB
0011
FFF7
001C
FFF9
0025
FFF3
000D
0007
0001
FFEA
0011
0013
FFE2
0001
FFF5
FFE7
000F
002E
FFDC
0012
0029
FFFF
0011
0014
FFFD
FFF1
001C
FFE5
0009
0013
001F
FFEF
FFF6
000D
0010
FFE0
0019
FFF7
002F
FFEE
001C
FFE7
0023
FFF6
000F
0014
0024
0001
FFE3
0009
FFF6
0020
0017
FFE7
0007
FFEE
FFFF
FFE3
FFFE
000B
FFD1
FFEC
001D
0033
FFD6
FFF4
0028
000F
0012
001A
001D
FFDA
FFEA
FFF2
FFCF
000B
0001
FFFB
FFD5
FFE0
0023
0004
0005
FFE7
0009
FFD1
FFF9
001F
0019
0026
FFE7
FFFE
0003
FFE1
000B
001A
000C
0000
FFF8
0007
FFF8
FFDA
0005
FFFC
FFEE
FFFC
0020
FFD3
FFF0
FFF3
0015
0025
FFD9
0000
001B
000A
0020
0016
FFEB
FFEA
001B
FFD2
0011
FFEA
FFEF
FFEA
FFE5
FFCE
0016
FFF9
FFF9
0013
FFD5
001C
FFE0
000B
FFF0
FFE5
FFF9
FFEE
FFF6
0001
FFEA
FFF1
0021
FFF9
000D
000E
0024
0018
000C
FFD8
0018
FFD9
FFE0
FFE7
0028
000E
0012
0024
001B
000F
000A
FFFA
FFFA
002C
000B
000B
FFF7
FFFE
FFE2
FFDE
0013
0018
FFF7
0020
0009
FFF6
001C
0011
0026
001E
0000
FFF8
FFF3
000A
FFFB
FFFE
FFD2
0004
FFD3
FFF8
FFFB
0014
FFFE
FFFA
FFF6
0024
0002
FFE3
FFF6
0011
000A
FFF6
0012
FFED
FFDA
FFE4
FFE6
FFED
002D
0006
FFFB
0015
0014
FFE2
0001
0008
FFEE
0020
0030
000A
0012
0002
FFEC
001F
FFE6
000E
FFFC
0018
0026
0033
FFE6
0023
001A
FFF8
000D
0019
FFEE
FFD1
0028
002C
0009
0001
0025
0000
FFF7
0027
FFEE
FFEE
002C
0006
FFD4
FFE1
0021
FFF9
FFEF
FFFE
FFFE
FFE1
FFF4
000F
FFFA
001F
FFF8
FFF7
0013
FFF1
FFF0
FFEB
000E
0003
0002
FFFA
FFF9
0005
000B
000D
FFD6
0003
FFE5
FFF5
0005
001A
FFE7
FFE6
0020
0012
000D
FFF6
001B
FFE2
FFDD
0005
FFFD
FFFA
0007
FFED
0005
FFFD
FFDF
FFF5
001E
001F
FFF0
FFD9
0001
FFEA
0000
000C
0003
0012
0007
0008
0005
001C
000C
001B
FFFB
001B
FFF7
FFE8
0025
0010
0004
FFEA
000E
0004
FFDE
FFED
FFDE
0025
0021
FFE6
0015
FFE9
001B
0008
0000
0006
FFFB
FFDC
0015
0028
FFFB
001C
FFF6
0017
0011
FFFE
0022
FFFF
000A
0009
FFE5
0013
0015
0013
FFFD
0002
FFD7
FFEA
FFF3
0013
FFF9
0013
FFE0
000D
0026
001B
0002
0001
000A
0009
FFF6
0014
FFFD
FFF8
0009
000B
0022
0010
FFF6
0019
FFEC
0015
FFFC
0012
FFE0
FFD1
FFF8
0033
000E
FFF2
0012
FFF1
FFEA
0008
0018
0005
0004
FFEC
0002
FFE8
FFDF
FFDA
FFE0
FFFC
FFDB
0003
000C
000B
FFFA
0021
FFF7
0011
FFDC
0020
000A
FFF0
0009
FFF5
0000
FFF7
0008
0018
FFDD
0001
0013
FFE7
0009
0029
FFF2
0024
FFDC
0002
0005
FFFC
0013
002A
0026
0008
FFF0
FFE1
FFDC
000A
FFFC
FFD3
FFF8
FFEE
FFF3
FFF6
FFF6
FFF4
0016
FFEE
0000
FFDA
001E
0007
0011
0022
0015
FFFF
FFF9
FFE8
0010
FFEE
0032
000F
FFFA
FFDD
FFE5
0010
FFF9
001F
FFEC
FFFF
FFD7
0004
0001
FFEC
FFE8
FFE7
FFF4
000F
FFE0
FFDE
0016
FFF2
FFE3
000A
FFED
000F
FFDD
FFFA
FFF7
0006
001F
0004
FFEF
FFF0
FFEC
FFFD
FFF0
001D
FFD9
001D
FFF9
FFE5
0010
0003
002C
FFEF
FFE8
0013
0017
0017
0019
001E
0024
002E
FFF7
000A
001C
000C
001D
FFD6
0014
FFEF
0001
FFFF
FFF4
0001
0014
0003
FFFF
FFF5
FFF5
0005
0028
002D
0003
001A
FFFB
FFCF
FFF4
FFED
FFFA
FFFF
FFF2
FFFF
FFEB
0008
0009
FFF6
FFF8
FFF4
FFF0
0016
0009
0027
FFF1
FFE8
FFF2
002E
FFF9
0021
FFE8
000A
001D
0005
000B
0017
FFF7
FFEA
FFE0
0011
FFF0
001D
0030
FFEB
0000
0015
000F
FFD2
FFE9
000A
FFE3
000E
0003
0000
0018
0009
000D
FFFD
0000
0005
FFF6
FFEB
FFF5
FFFE
FFD2
000E
0000
0003
001B
FFFF
FFE9
0007
FFFD
002D
FFD7
000C
0017
FFFF
000A
0011
000B
0018
FFE9
0018
FFF5
0003
001C
0022
FFE2
0006
0013
FFD2
0018
000B
FFE7
FFF3
FFF7
0000
0027
0011
FFFF
FFDA
000D
FFEE
FFFF
FFD4
FFDF
0033
FFF3
0001
000E
000E
0005
FFEF
FFF6
FFE2
FFFE
FFEF
FFF5
FFDD
0013
FFDD
0009
FFCE
FFFB
FFE2
0002
001B
FFD3
FFF3
FFF8
0011
FFF6
0005
0027
FFF6
0017
FFD3
FFE8
0011
FFFC
FFD1
FFE9
FFFB
000D
FFEC
FFDF
0006
002E
0009
FFF9
FFFF
FFCE
0006
FFDC
001C
FFE0
0004
FFEF
FFDF
FFFA
FFE5
0021
FFCF
002B
000F
FFEC
FFEB
0011
FFF6
FFEE
FFED
FFEE
FFEF
0003
0014
0001
000D
0005
0009
FFF1
FFFC
FFD9
FFFB
0016
FFE9
FFF4
FFED
FFF0
002F
0013
001C
0018
0026
0010
FFE1
FFF0
0013
FFFE
FFFC
FFF6
0010
001A
FFFE
0017
FFEA
FFFE
FFF6
0019
0003
FFF8
0006
001D
FFFD
0003
FFE3
FFF9
FFD7
FFFB
0001
FFF8
000A
FFFC
FFE3
000E
0015
0009
0016
002B
FFFF
FFCF
0025
000B
001A
000B
0010
0021
0024
0001
0020
FFF7
FFED
FFF3
0028
FFEE
FFE3
0005
FFFD
FFEF
0015
000D
FFE9
FFED
001E
002E
FFF4
0022
001F
FFE3
FFED
0023
0024
FFF6
0006
0017
FFE2
FFF7
FFE9
0012
0017
FFF8
FFEE
FFF3
001F
FFE7
0022
0013
FFFE
FFF2
FFE4
0000
0016
0009
0006
FFF8
001C
001F
FFF6
FFF9
FFE4
001E
0001
FFEC
0017
0005
FFE2
FFD7
FFFD
0011
FFEE
FFF5
FFF0
FFFF
FFE7
FFFB
FFE6
000B
000D
FFEF
FFF4
FFFF
0024
0016
FFFF
FFEF
0013
FFF9
001B
0001
0003
0009
FFE1
0018
FFFC
0010
FFFA
0025
FFFE
002E
FFD2
FFDC
FFDA
FFF3
FFE8
FFFF
FFE9
000E
FFD6
FFDD
FFF2
FFF8
000A
0022
FFD6
0018
0028
0026
FFEE
0000
0014
FFF2
000F
FFEF
000B
FFF2
FFF2
0004
FFFC
FFDD
002E
FFDC
0009
000A
FFDA
001B
FFE6
FFE6
FFEE
FFF4
0014
0018
001D
FFF6
FFF5
FFEA
0021
0006
0012
001F
0026
0002
0002
0007
0029
000C
FFE1
FFF2
000B
000D
0001
0010
FFEF
0018
FFDF
0003
0016
0011
FFE7
FFFE
FFF4
0021
0024
0020
0033
002B
FFF9
FFFC
0002
FFE4
000D
0007
0005
0022
FFDC
002E
FFEA
FFF1
0022
FFE2
000D
FFEE
000B
001B
0008
FFEF
FFE3
0021
0001
0000
000B
001E
FFFE
FFF9
000A
0002
0000
FFEA
FFF8
FFD3
FFF3
000A
FFF4
0014
FFFF
0016
FFF1
002F
001A
0007
FFE4
0009
001E
000C
000C
0004
FFD1
FFF8
0003
0006
FFFD
002F
FFF0
001C
0027
FFE9
FFEF
FFEA
FFFE
FFFA
FFEF
FFF5
000A
0011
001F
FFF9
0030
FFD7
FFFF
0007
0019
0002
001A
FFF7
001E
FFF9
FFFD
0008
FFE9
FFEC
0010
000B
0003
0010
000E
FFFC
FFDF
FFE6
0017
0010
0008
FFF4
FFF7
0002
000A
FFF7
FFF7
002A
FFD6
FFE5
FFED
001D
0026
FFDB
FFFF
000E
002C
000A
0033
FFF2
FFF5
FFFA
FFF8
0019
000B
FFF3
FFF5
0012
0017
FFF7
FFF1
0009
0014
FFF7
FFE3
FFF8
FFE4
FFE8
0026
0027
FFD9
0008
0024
FFE7
FFF8
FFD3
FFFD
000B
0019
0000
0009
0027
FFEE
000A
FFD7
FFF9
FFE2
000C
000B
FFFC
0006
002B
000C
0023
FFE9
FFD9
0018
FFE1
FFF8
FFE6
FFFD
0001
000D
FFE8
FFFF
FFEC
0012
0003
0029
FFFF
000D
FFE7
FFF0
FFF5
0008
FFFF
0002
0031
0000
FFF0
0014
0021
000D
FFEC
FFF1
FFDE
0009
FFEC
0015
0008
FFF6
FFEA
FFF1
0001
FFE2
0008
0007
FFFB
FFD6
FFD8
000C
FFFA
0024
000A
FFFE
FFE9
0016
FFF0
0026
FFFB
0007
FFF1
FFD5
0018
000B
0014
FFE5
0019
0005
FFF1
0006
0000
FFF0
0012
FFE6
0021
001A
0001
FFF5
0001
FFE0
FFFB
FFD3
0000
FFF9
0007
FFF3
0015
0028
FFD6
FFF6
0016
0010
0014
FFEE
FFE2
FFFC
0016
FFFF
FFE7
000C
000B
0030
FFF1
0026
FFDA
FFE4
0013
FFEB
FFD0
000B
FFFF
FFF4
FFF5
FFE3
FFE8
FFDA
FFD0
FFD0
FFEB
FFE1
FFFA
0011
FFE6
0022
0009
0006
0003
0009
0001
0003
0021
FFCE
0004
FFF3
000F
0008
0008
FFE7
0005
FFFF
FFE5
FFEC
FFFC
FFDE
FFEB
FFFD
FFEE
FFF5
FFEE
FFF9
0002
FFFD
FFD5
FFF8
FFF7
0007
0011
FFE3
FFFD
FFEB
0020
001F
001A
FFF4
FFEB
001D
0014
FFF7
FFF1
FFE3
FFFA
FFE8
FFF7
FFF3
0010
0016
0003
0011
0011
000D
0027
0013
FFDF
FFEF
FFED
FFEB
FFF1
0017
FFFB
FFDE
FFFB
001F
001F
0016
FFFA
0007
0000
0017
0004
0000
0011
FFF0
000D
FFFD
FFE6
FFF7
FFEA
0013
001A
FFEB
0001
FFF9
FFEC
FFF4
000C
FFEC
FFF1
FFF6
0025
0003
002B
0008
002A
0004
FFF9
0003
0016
FFEE
FFFF
FFDE
0003
FFDD
0004
0010
0003
FFFC
0016
FFF5
FFF7
0009
FFF4
0012
000E
0021
0021
FFF6
FFDB
0018
002C
0001
FFF6
0011
0018
FFDF
FFF3
0003
FFEF
FFF2
001A
FFF5
FFF6
0021
0016
0014
FFD6
000C
0021
000D
FFEE
000B
0003
0005
0005
0029
FFF4
FFFA
0014
FFE3
FFF3
0023
FFEA
0016
FFD6
0003
FFDF
0019
000E
0029
FFD7
0010
0007
FFE8
FFD9
FFF9
0032
0033
FFE9
000B
0010
0017
0007
FFF9
0023
FFE3
002E
FFFE
0023
001D
0029
0005
001C
0020
FFF1
FFF1
FFD2
0008
FFEF
FFFA
FFEF
000C
0023
FFE9
FFEE
FFCD
001A
FFEC
0014
FFE7
0007
FFE7
FFE8
FFE7
000D
FFED
002E
0000
FFF3
FFF6
0016
002C
0000
FFE8
0005
FFEE
FFFF
FFEB
001E
FFD6
FFFE
FFFB
FFF5
FFF1
FFE9
0010
0017
FFDD
000F
FFF5
FFFB
FFF3
FFE6
0001
FFFD
001D
FFF7
FFE3
0001
0011
FFE4
FFF4
FFE9
000A
0007
FFEF
0000
001B
FFF3
0021
0003
FFF3
0017
0009
0012
FFE2
FFDD
FFE9
FFEB
0007
FFED
0005
FFF4
FFF7
FFF8
0024
FFE3
0007
FFF7
000E
000C
FFF2
FFFE
FFDE
FFEE
0008
FFFC
001C
FFEB
FFDF
0007
0002
001A
0012
FFD8
001A
0012
FFF0
FFD5
001D
0000
0030
0011
FFEC
FFF4
0014
000D
FFF8
FFF9
0000
0000
0026
0004
001A
FFE8
FFFD
001B
FFF4
FFFF
FFF7
0003
FFF6
0024
0002
FFE7
FFF4
0016
FFFA
0000
000B
000B
0003
0002
0001
0005
0001
000D
FFE7
0007
000E
000B
FFFA
0010
0009
000E
FFE7
001D
FFEE
FFDF
0007
FFFB
0001
0032
FFFC
0004
FFF2
FFF1
FFDB
FFF4
FFE1
0006
FFFB
0026
FFE8
FFD0
FFF7
0014
FFEF
FFD3
0018
0015
000B
0025
0025
0015
0008
FFD8
002C
0003
000B
0000
FFF2
FFF5
0005
0012
0004
000D
0004
FFFC
001D
FFF8
FFF6
001A
FFE6
000A
FFF2
0025
0007
0002
0016
FFFD
001B
FFD6
0013
FFFA
FFFC
002F
000C
FFFA
0000
FFDB
FFF2
0013
000E
FFF6
0011
FFFA
FFFF
FFF5
0011
0001
FFFA
001C
FFF8
000B
FFE3
FFE6
000B
0010
000C
0010
FFF3
FFFD
FFDA
FFF3
0002
0012
FFDB
FFE1
0014
000B
FFF0
0017
FFF1
0015
FFED
FFE1
FFD6
FFDA
0020
0008
002A
FFF8
001C
FFDA
FFE2
0008
0020
0030
FFFD
FFF2
FFEA
FFE3
FFCE
FFD7
FFF8
FFDF
0014
0017
001F
FFE5
000F
0005
0005
FFE1
0001
FFDB
FFE3
FFE8
FFFC
FFD2
0004
FFDA
FFE6
FFFD
000F
002B
001B
0019
0007
0018
000C
002F
0001
FFF4
FFE6
FFF6
FFD9
FFEA
000A
FFDA
FFFF
0011
0017
0004
FFEC
FFF3
0000
0012
0029
FFE7
0005
FFE9
0011
0020
0008
0017
FFF5
000B
FFFD
FFF2
0009
0012
FFF5
001E
000F
0015
FFFE
FFDB
001E
000F
001A
FFE4
FFE1
000E
0023
FFFE
FFFE
0010
FFF4
FFE6
001C
0018
FFFC
FFFA
0007
0006
FFE3
0028
FFCF
FFE0
0005
000A
FFF2
002C
FFFC
FFEF
FFF8
FFFC
FFF2
001F
FFF6
FFFE
FFE6
FFE2
0028
FFD8
0008
000B
0003
FFED
FFF3
0003
FFF6
0007
0004
FFF5
0029
FFF5
FFFD
FFD6
FFF9
FFED
FFE4
0028
FFFF
001A
0018
FFE4
0004
FFF5
0009
FFE7
FFEB
0012
FFEC
0006
0029
FFEE
0005
0010
FFDC
FFF0
0028
FFFD
0002
FFF3
FFF2
000F
000B
FFE5
FFE8
002C
002F
FFE6
FFCE
0020
0028
0013
FFF6
0007
FFF2
FFFF
FFE2
FFF6
FFD3
0024
FFF8
0018
FFF8
000D
0011
FFF7
0025
0030
0005
0002
FFFF
0009
FFDB
FFF4
0019
0002
FFFD
0011
FFED
FFFE
FFED
0007
000E
FFE9
000E
FFDC
000D
FFF8
FFF5
0012
FFDC
000F
FFD3
FFFE
FFF6
FFFA
FFD6
001F
0011
001B
0015
FFEE
FFEC
0006
FFF2
FFE4
000F
FFD4
FFEC
000B
0028
FFE1
FFE9
FFFC
FFF7
FFEF
FFEB
0030
0013
0022
0010
0012
0011
FFFA
FFF2
FFF7
0031
FFFE
0028
FFCF
FFFC
0020
0016
FFF4
0018
0021
000B
0014
0020
0003
0000
0000
0006
FFFC
0005
001D
0004
FFFE
0013
FFFC
FFE9
FFFA
FFF1
FFF6
0000
000F
FFF7
FFE2
FFF8
0003
0028
0024
FFD9
0005
0001
FFF9
0010
0010
0010
0015
001A
FFEF
0015
FFF1
FFFB
0014
0021
0003
002D
FFF1
FFF7
000E
0018
0008
FFEB
0005
FFE5
0001
FFD3
FFFA
FFFC
FFF4
0011
000A
0015
0004
0006
FFF3
FFFE
FFF1
FFFB
FFD1
FFF8
0019
002D
0016
FFFA
0025
0010
0019
FFF8
FFF5
0002
FFFA
FFF2
0006
FFF5
000B
FFE3
FFE7
0001
FFF4
FFDE
001C
0029
FFF1
FFFB
FFEE
FFF1
0020
FFE6
0018
000C
0030
000F
FFFA
FFFA
FFE3
FFF0
FFED
0021
FFFE
FFE4
0002
0012
0030
0009
FFF3
0004
0002
0018
FFF9
FFEA
FFE3
000B
FFF7
0011
FFE9
001F
FFD6
0012
002C
0020
FFFB
002A
0004
FFD3
FFD7
FFFF
FFD4
FFE6
FFFC
FFF5
001B
001E
0003
FFEF
0016
FFF8
FFD1
FFFF
FFDD
0009
FFEE
0000
FFF4
0018
FFF1
000F
FFF2
FFF2
0000
0003
FFFF
0005
FFE1
0021
0024
FFDB
0012
0006
FFFD
FFF5
000B
FFF3
002B
FFDB
0016
0008
FFF4
0000
FFF4
0006
FFDA
FFF4
FFE5
0024
0000
0005
FFEF
FFDB
FFFE
0007
002C
FFE1
FFDB
0029
FFF8
001F
0001
FFED
FFFC
FFFF
0032
0009
0011
001E
FFF5
FFF4
FFF2
000D
0004
FFD5
0021
0011
FFF1
0004
FFDB
FFF2
0014
FFFB
001C
0005
0003
001F
0000
FFEC
FFEE
0013
FFF5
000D
001B
FFFF
FFFF
0008
001D
FFE4
0004
FFE4
0020
0013
0006
FFEC
FFF8
0024
FFF2
001D
FFF8
0015
FFFF
001B
FFF4
FFF5
0000
FFF8
0001
0021
FFE9
FFF2
FFDF
0010
0002
0029
FFCF
FFDB
FFD6
FFF0
FFF1
FFE9
002A
0004
FFDF
FFEE
0023
FFE2
001E
FFF5
FFF4
FFE6
FFE2
FFF6
002C
0007
0005
FFF5
0029
FFF9
FFEE
0029
001E
0000
0008
0013
000B
FFFC
000D
FFD6
FFED
001A
FFF3
001C
0009
FFF7
FFF8
FFFE
FFFF
0028
000F
0011
FFE2
000C
0013
0005
0014
000A
000E
0000
0009
0018
0023
FFF4
FFFA
000C
001B
FFED
FFE0
FFE4
FFF7
0022
FFFF
FFF9
0004
0017
0013
0008
FFEC
FFE2
0009
001B
FFEC
0026
0002
FFEF
0002
FFFC
FFF8
0003
0025
FFD0
FFEE
FFF4
0017
FFDD
001B
FFF9
FFD9
FFF2
000E
0002
000D
0012
FFDC
000F
001E
0005
FFE5
0001
001E
FFF5
FFE0
000F
FFF9
000D
FFFA
FFD9
FFF1
0020
FFF4
000B
001A
FFF4
FFF5
0015
FFF3
0005
0016
FFF9
0001
FFD3
FFE6
0023
0029
FFEF
001B
000F
001C
FFF1
FFEE
FFF9
FFE7
FFED
002A
FFE8
FFFA
0001
000A
0029
000C
FFFA
0026
0029
0003
FFE9
0027
0015
FFE9
FFFB
0014
FFCE
FFF3
000B
0004
FFEB
FFD0
FFEE
0003
FFF5
000E
FFD4
FFE1
0013
FFFE
0004
0016
FFFA
0007
FFF3
FFF5
FFF2
0003
0009
FFF0
FFF3
002B
FFF2
0011
000E
000B
FFF6
FFDA
FFF8
FFFB
0011
0008
FFEC
000E
FFE4
0003
FFFF
FFF4
001C
FFFF
001E
001E
001E
0025
0028
FFD6
0017
001C
FFFC
0003
000F
FFED
FFFA
0018
000A
FFD5
000E
FFD0
FFDD
FFDE
FFFF
000A
001A
0020
FFE8
002E
FFE1
0018
FFDF
FFF1
FFE9
0008
FFFA
000C
FFD9
FFEE
FFFD
FFEE
FFEB
FFE9
0010
0018
001A
FFF2
001E
0003
000B
0020
0017
0004
000A
000C
FFD9
FFF4
FFD6
001B
FFF5
FFDF
0023
FFF4
FFF3
0009
FFE5
FFFF
FFF6
002F
FFDA
FFEE
FFE7
FFDB
FFD4
0019
0002
FFE4
0016
0005
0010
FFCD
0004
000B
FFF3
FFEF
FFF8
000D
FFF4
FFF5
0008
FFE8
0014
FFF8
000E
FFE9
FFE8
001C
FFF9
0013
0004
0028
FFFD
FFEC
FFFC
FFF4
002A
FFF9
0022
FFEE
0007
000B
001E
0011
0006
0021
FFFB
FFF0
0002
FFE2
FFF1
0012
FFF2
0024
FFDC
FFE4
0005
002D
FFE4
0024
0018
000D
0007
FFFB
FFD8
001C
FFFE
FFEC
0014
FFFE
FFFB
0024
0003
FFE6
001B
FFF9
FFF3
FFF3
FFF5
0014
0007
FFD9
000D
0026
FFFF
0008
FFFE
001C
0006
FFFB
0007
0026
0001
FFFD
FFF4
FFDD
0023
000C
FFDE
0001
FFFB
0019
FFE3
0009
FFDA
0008
001D
FFF5
FFFD
001D
0007
0008
001B
000D
FFED
FFF7
FFF1
FFDD
FFFD
0009
0000
0009
0006
001B
0019
0028
0015
FFD9
FFD8
0002
000C
FFF2
FFFD
0018
FFEE
0011
0002
FFEA
FFEC
FFEC
FFE4
FFF7
001F
001D
FFF7
FFEF
FFE0
000C
000C
FFF7
000A
FFFB
FFE2
FFEB
0010
FFF5
FFFA
0006
FFD8
002D
0015
0018
FFEF
001B
FFF3
001A
0006
0009
FFE5
FFF3
0010
FFF7
0030
FFE8
FFFC
FFEE
FFFA
0003
0016
000D
FFFF
FFE9
FFFF
FFFD
FFEA
FFFD
FFD9
FFF1
FFE4
FFF6
FFF6
FFDA
FFE0
FFF4
FFF3
001C
002C
FFE7
0008
0006
FFE4
0000
FFFE
FFFF
FFE6
FFE9
0027
0006
FFE5
0003
FFFB
0033
FFF4
FFF1
FFF2
0024
0014
0003
0013
0001
FFF0
FFD1
0016
FFEB
FFD1
0007
0004
FFF3
FFFA
0013
0008
FFF9
FFD3
0009
0010
FFDA
0027
001C
0016
FFED
FFFF
0004
FFFD
FFF1
0018
0012
FFFB
000B
FFE4
FFFC
FFED
FFFE
000A
FFEC
0013
FFD1
0014
FFE3
0014
0009
FFF7
FFDD
FFF4
001D
001C
FFE8
0014
FFD8
000F
0010
0014
FFFA
001D
FFD9
0004
0030
FFCE
FFF3
0020
000E
000D
001C
0000
FFF0
FFDC
FFF3
0013
000C
001A
FFDC
FFD3
0022
FFE4
FFF9
FFFA
FFF9
001F
0020
0016
FFF2
FFD3
FFD6
FFF3
FFD4
FFDB
FFFE
FFF4
0008
0018
FFEF
FFCF
0021
FFF0
FFF4
FFFB
FFF8
FFF8
FFE7
FFF2
0029
000F
000B
FFE7
0007
FFFA
FFFB
0006
000A
0029
FFF8
FFD8
001C
FFF9
FFF4
0014
0003
FFF6
FFED
FFF4
FFDE
FFF3
FFFF
FFF5
000D
FFEB
FFFB
FFE4
000B
0025
0007
FFF6
0028
0019
FFEB
FFCD
0008
0010
FFDF
FFCF
FFDD
FFFE
0005
002A
FFF1
001F
FFFF
000B
0002
0024
0009
000B
FFF1
0001
FFD2
001F
0003
FFDB
0007
0002
0000
FFEE
FFE3
FFD4
FFDC
FFF2
001D
FFFA
FFEF
0013
FFE1
FFDC
FFCD
FFE7
FFFB
FFD2
FFFB
001A
FFE9
FFFF
FFF0
002B
FFEA
0002
FFE4
000E
0005
FFEB
FFEF
FFF6
FFF5
FFF5
FFF9
FFED
FFEF
FFF9
000A
FFEE
FFFE
0009
000B
0000
FFDA
0010
FFE7
0028
0003
FFFB
FFF3
0009
0011
FFF6
0006
FFF6
0014
FFCE
FFE6
000F
FFD6
FFE0
FFD9
FFF3
000A
0022
001A
FFF1
0019
0024
0015
001A
0009
0027
FFEE
001A
0019
000E
FFE2
FFF0
FFE8
0008
001C
0003
0007
FFF5
001B
000E
FFEB
0027
0003
001B
0022
FFEC
FFE1
FFF4
FFF9
0029
0001
FFDB
000B
FFE7
002C
FFED
FFFF
0004
FFE8
FFF3
0003
0029
000E
FFE8
FFED
FFEC
0027
FFFD
0007
FFDC
000D
0015
0021
FFFD
FFF0
0011
0010
FFDA
FFF4
0018
0032
FFE3
002E
0005
FFCE
FFD7
0001
FFFC
0025
000B
0004
0002
0021
0005
FFF3
FFF4
FFCD
FFEF
0023
FFFF
FFFD
FFF6
FFE4
FFD4
FFDD
0017
FFFC
FFFA
FFE5
FFFC
FFFC
FFE1
FFF2
001E
FFE0
002A
0019
FFE8
FFFD
FFD8
000E
FFFF
0012
000A
000B
001F
FFFA
0027
FFDB
002F
001A
FFFC
001E
0019
0024
000D
0030
000A
FFF6
FFFC
0003
0025
FFEF
0007
001E
0005
0028
001C
0000
002D
0006
0016
0012
FFFF
FFED
FFF8
0005
0018
0023
FFFD
001F
000F
0000
FFF4
0007
FFF9
FFFF
FFF3
0006
0010
0001
001A
FFFC
FFD8
0000
FFD9
FFD9
FFF7
000A
000F
FFFA
FFFD
0028
001C
FFFE
002F
000C
0016
FFDE
FFF8
0003
0000
000B
FFDF
001F
FFF4
001C
0028
0024
0018
002E
FFE3
FFF7
0007
FFF0
FFE3
0007
0002
000A
0013
FFEA
0000
FFE8
000F
0003
0011
0012
FFF6
000C
FFFB
0009
FFEC
002C
FFFE
0001
0012
0001
FFE3
0012
0013
0018
FFF3
0014
FFF9
0016
FFD0
FFF4
FFF7
0027
0020
FFF7
0016
FFF5
000C
0007
FFF8
FFFE
FFEB
0016
FFE8
0005
0013
FFF8
001D
0028
FFF9
FFF7
0029
0004
FFE8
FFE1
000A
0001
000F
0013
0002
0004
FFF1
FFDC
0009
0012
0015
FFFA
FFDE
0003
FFE5
FFDE
0016
FFDE
FFF5
FFFC
000D
FFF0
FFE8
0005
FFE0
0004
000D
0004
FFF1
0012
FFF9
FFF5
FFDB
FFFD
0014
0019
FFFC
FFCF
FFFC
0004
0019
0002
FFE5
FFEA
FFFD
0029
0020
FFE8
FFF9
FFF1
0007
FFF9
FFF5
FFEB
000E
0009
FFDF
FFFA
0014
FFD2
0006
000C
FFEF
FFF8
FFF4
FFDC
FFCD
FFF0
000E
FFDC
FFE5
0010
FFF4
000A
FFF9
0010
FFF5
FFFC
FFFA
0026
FFF7
0031
FFF8
0006
0018
0000
FFFD
000C
0009
FFFE
FFF9
FFE9
0020
FFD1
0013
0011
0028
000D
001F
0012
FFE8
0004
FFEA
FFEA
FFFF
0010
FFF1
000D
000B
0002
FFF0
0032
000A
0016
FFF9
000C
0018
FFDF
0019
FFE6
002C
FFED
FFE5
0017
0011
0004
001B
FFFA
001A
000A
0025
0021
000A
0008
0016
FFED
FFD1
001A
FFF9
FFDB
000E
FFE5
FFFA
000A
FFCF
001D
FFFB
001A
0009
000B
0033
FFFB
FFF4
FFE6
FFE1
000A
FFD5
FFE1
0028
0002
FFEA
FFF9
0000
FFE4
0004
FFFD
FFE5
FFF2
FFE5
FFF0
0027
FFF1
FFFE
FFE9
0014
FFE4
FFDF
FFEC
FFF7
FFF8
FFFA
FFEE
FFF1
FFFC
FFDB
FFEC
0015
FFF2
FFF9
0004
FFE4
FFF5
FFF1
001E
FFF2
001E
FFE8
FFF9
FFF0
000D
001D
FFF6
FFEC
FFDB
000B
0014
FFF0
0004
FFED
FFE7
0006
FFDC
0002
FFEA
0012
002B
FFF4
FFEC
000A
FFDE
001C
0011
000C
FFEE
001A
FFFA
0005
000D
0018
FFDB
FFDF
0012
FFF9
0013
FFEB
0032
FFE9
0014
0025
0001
FFFF
000A
0015
001F
FFEA
0005
0006
001A
000E
0003
002E
FFE8
0010
FFFD
000F
FFD8
001F
001F
FFE9
000A
FFF5
0006
FFE8
FFF2
FFDD
FFF4
0011
0019
0016
FFEA
FFF4
0017
FFE6
FFE6
000C
0031
FFE8
FFFE
0003
FFF4
000D
002C
0008
001C
FFF9
FFF8
FFE0
FFF3
000E
0002
FFF0
000B
FFD9
FFFF
FFF8
FFE8
0024
001C
FFFB
FFDF
0020
FFEB
FFFC
FFEE
FFF1
FFFD
0013
0008
FFE8
0030
001E
000D
0010
FFED
0001
000A
FFFA
FFDF
0005
FFEB
002E
FFFF
0007
FFF3
FFFA
FFE2
0033
000A
0013
FFE8
0001
0000
000D
0005
0029
0012
FFEE
000F
0002
0005
FFF5
0012
FFFE
002B
FFEB
0005
FFEC
0008
FFF9
0010
0004
0021
000D
FFF3
FFF6
0010
FFE9
0013
0001
FFF4
0007
FFE7
0012
FFF5
FFF6
FFDC
0018
0009
FFF7
0011
FFDA
FFD7
0013
0018
000B
0011
0019
0002
001D
FFF2
FFF9
0005
0007
0012
0014
0015
FFE5
0008
FFF5
FFE3
FFF4
FFE7
0019
0013
0015
FFEB
0003
FFF5
0006
FFEE
FFEC
FFD9
0011
FFF7
0011
0011
FFF9
FFEA
0010
0010
0010
FFDF
0029
FFEE
0012
FFD5
0010
0007
FFF3
0006
FFF2
FFF3
0013
FFD8
0011
FFEB
FFE4
FFF2
0018
0012
000E
FFE7
FFEC
FFF1
000B
FFDC
FFF9
FFEC
FFE0
002C
FFF9
FFEF
0004
FFFC
FFEF
FFD4
0012
0000
0016
FFED
FFF2
0008
0008
0020
0018
0013
0011
FFF3
0016
0010
FFD4
0018
FFFE
FFE1
0002
FFEF
000C
0016
0019
0002
0024
002E
FFF7
FFE0
0002
002F
0017
FFEF
FFF3
FFF8
0014
0009
FFF9
FFF0
FFD5
0016
002B
FFE7
002F
FFD0
0002
0006
0018
FFFD
FFF8
FFFD
FFF1
002A
FFE2
000F
FFF8
FFF5
FFE3
000B
001E
FFEF
0004
002E
000F
0010
002D
0028
FFD3
FFF1
0004
0018
002F
001F
0013
0004
0001
FFEA
FFFE
FFCD
0012
002F
0010
0025
0027
0027
0014
FFF1
001D
FFE8
0001
002D
000F
002E
0007
FFDA
FFEE
FFD5
000C
FFE7
0018
FFDB
FFFE
FFD5
FFFC
0011
002F
000A
0016
001A
FFE8
0002
FFE6
FFFF
FFF9
FFED
0029
FFE7
FFFB
FFFD
0022
FFF2
0018
000E
001B
FFE9
FFFA
0006
0000
000B
FFFF
0006
000C
FFE0
FFFA
000C
0000
001C
FFE1
0014
FFEC
002A
0001
0021
0006
FFD8
0008
FFDF
0005
FFDD
000B
0000
0011
FFF9
0004
000F
FFDE
FFEE
0029
FFF6
0008
FFF4
FFEF
0009
FFF2
0008
FFEA
0019
FFEF
000C
0002
0024
0019
0027
0017
000E
001A
000C
FFEC
0021
FFF9
000B
FFF4
000A
FFED
FFDA
FFEA
FFFF
0013
FFEF
FFD6
0029
FFF6
FFF5
FFD6
FFF0
FFDF
FFE6
0001
0012
002F
0006
0010
001D
000F
FFD9
FFF0
0001
000E
000D
FFF9
0011
FFDC
000E
FFEB
FFD5
FFF1
0025
000E
000B
0004
FFE7
0007
000E
FFED
001B
FFF1
0007
0004
0004
FFF9
001F
FFF7
0009
FFF7
000D
FFEB
FFEC
FFEB
FFED
0011
0001
FFFE
001E
0002
0003
FFDF
0010
FFF3
001B
FFF2
FFF2
FFF8
002F
FFF7
FFDA
FFFB
0007
0004
0009
0014
0022
0001
FFDB
FFFC
0021
FFE6
FFE9
FFE2
FFE2
002F
0012
002C
FFFA
0016
0013
FFEF
FFEC
0011
000C
002B
0004
FFE9
001E
000F
FFDF
FFEF
0019
000E
0008
FFFA
0012
0017
0025
FFD4
0008
FFEE
0002
FFDD
001D
0032
0004
FFDD
FFEF
FFE3
0001
FFE8
0013
0010
0007
0003
0008
000A
002F
FFFD
0001
FFEF
FFEB
FFF8
FFE8
FFD2
FFE3
002B
0020
FFDF
FFF4
000D
FFF8
FFFE
0007
FFFB
000B
FFDA
0008
001B
0009
0011
FFE4
0009
FFEB
FFF9
FFD6
000C
0019
FFEC
0023
001D
FFDB
0033
FFD4
0028
0004
FFD0
000C
0013
0010
FFF1
001B
0000
000A
FFF6
FFF5
000A
FFEC
0018
FFDF
FFF9
FFF6
FFEE
FFE6
000B
0017
FFF6
FFFD
FFF4
0018
0025
0033
FFD9
FFDE
FFE9
FFD3
001B
FFF1
FFE8
FFCE
000F
FFFD
FFF5
FFFA
FFED
0013
0001
000A
0013
0006
FFDB
000D
0024
FFEA
FFF2
002D
FFFF
001E
0015
FFF7
FFDF
0008
FFD3
0000
FFEE
0004
0020
0009
0012
FFF8
0020
001B
FFDD
FFFE
0033
FFF4
FFEF
000E
FFF4
0029
000C
001E
001B
0017
0004
0010
0007
FFE4
FFD9
FFF1
0026
0016
FFF0
0007
0004
000D
0010
FFF8
001E
FFEC
FFE9
0012
0009
FFDB
002B
0018
FFE9
FFD5
0002
FFEA
FFEB
0010
0020
FFEC
001B
0018
FFE9
FFED
0010
FFEB
001B
000B
0016
0013
0009
0008
FFF5
000A
FFF5
000D
000C
FFD7
FFE0
FFE8
FFE9
FFDF
0025
FFEE
0018
0028
0008
FFDD
FFF1
FFE8
FFE4
0027
FFF1
FFE0
FFFB
FFFD
FFDD
000D
0008
FFE5
FFDF
0012
0012
FFED
FFED
0008
0027
0015
FFE5
0010
FFFC
0007
0009
000C
0002
FFE5
0017
0024
0003
0021
0005
FFF7
0008
0003
001F
0006
FFF5
0007
FFFE
0008
FFE8
FFD3
FFCF
0009
0010
FFFF
0001
FFDF
FFEC
FFE2
000D
000A
0018
FFF7
FFEA
0021
002C
000C
001C
FFEA
FFEA
FFD2
FFCF
FFED
FFE3
FFFD
FFF9
FFF4
FFF1
FFD1
0004
0007
0020
0008
FFE0
FFF4
0017
FFF2
000E
FFFA
FFF0
000F
0002
FFE6
0000
FFED
0003
FFD7
0013
FFDD
001F
FFFE
FFE8
FFFC
0007
0015
0001
FFF6
0021
0006
0009
FFE7
FFD0
FFEF
0007
FFDC
FFD6
FFFC
FFF2
0011
FFE1
FFE8
0000
0018
FFFB
0001
FFE7
0002
FFFA
FFF2
000A
0003
FFFE
FFF0
0003
0021
FFEF
000B
FFE5
FFEF
FFE0
001F
000A
FFF7
FFE8
0002
0002
0004
FFE7
FFF2
0010
FFFA
0003
FFF3
000B
000F
FFEF
FFFB
0004
FFF6
0004
FFFB
002E
0005
FFEA
0021
FFFA
0010
FFF5
0004
FFF2
FFE2
FFDD
0017
0003
FFD7
000C
FFF9
000C
FFD2
FFDC
FFFD
FFF5
FFF7
0012
FFDC
FFFA
FFF7
FFE9
FFFF
0027
000A
002C
0001
001E
FFD7
0003
0006
0009
FFE1
FFF6
0023
0019
FFEC
FFE6
FFFD
0001
0017
0012
0007
001C
FFE8
FFED
FFF5
FFD1
FFFA
0017
FFE4
0000
000C
000B
001C
FFEE
FFF5
0008
001E
0017
FFF4
0006
002D
0025
FFEB
0028
0005
000F
FFE9
0019
FFF2
0007
FFD9
FFF8
0029
FFF2
FFE9
0013
0029
0019
FFEE
0016
FFCE
FFEE
0002
FFFD
0008
001C
0011
0014
0026
000C
0017
FFF8
0020
0013
0012
0007
0000
FFF8
FFFE
0000
FFE7
FFFD
0012
0011
FFEA
0015
FFD2
0014
0020
0017
0008
FFE3
FFD2
FFEE
FFF0
FFEF
0023
0004
FFEB
0008
FFFB
0017
FFFD
FFFD
FFFD
0008
000C
FFDC
0008
FFFF
FFF1
FFF8
FFFC
FFE0
FFF9
001B
FFFC
0000
000C
000D
0013
001E
FFF7
0009
FFD1
0014
0008
FFF7
0032
0014
FFEA
0001
FFFA
0026
0003
FFF2
FFDE
FFF7
000A
FFEA
0010
0022
FFF6
000E
0003
FFE9
0023
0017
0003
FFD2
000B
0011
0004
0025
0014
FFD6
FFEC
0009
0007
000C
FFF4
0009
FFD2
0013
FFF4
FFEC
0009
FFFA
FFDF
0002
FFEC
0008
FFD4
FFD8
FFFA
FFE9
FFF6
FFEE
0010
FFF7
0017
000F
0022
FFD5
FFEC
0017
000E
0022
FFF0
FFEA
FFF5
FFD4
000C
000A
FFF5
FFFC
FFF8
FFF5
FFF2
000F
000D
000A
FFF8
0008
FFEE
FFF1
FFFF
000A
000D
FFF8
FFD7
FFF8
0018
FFD0
FFE5
0009
000A
FFE2
0028
FFFA
FFE1
FFFD
FFCE
FFF9
0009
0009
FFE8
FFF0
FFE1
0006
0010
FFF5
FFDA
001C
0000
FFFF
FFE7
FFCF
FFDA
FFF1
000A
0018
0000
FFEA
FFF6
0010
0007
FFF5
0014
FFF3
000E
000E
FFE0
0008
FFF6
0003
FFF9
FFFF
0027
FFFF
000B
FFE1
FFFC
FFDD
FFFD
0005
FFF1
000E
FFF8
FFEF
FFFA
000A
0025
FFF4
FFF2
FFE5
FFE5
FFE4
0004
FFF6
000F
001D
0019
001A
FFFD
FFE0
FFF8
0025
000D
000C
FFD3
0030
FFFE
0007
FFFC
FFEB
FFD8
FFE3
001F
FFF2
0029
FFE7
001A
000E
FFCF
FFF3
FFFF
0016
0028
0014
000A
FFE1
FFF0
0009
0011
0008
FFE7
FFEF
0012
FFE3
000C
001A
FFE5
FFFF
FFF8
000A
0014
FFF4
FFDC
0027
0027
0015
FFE0
FFF0
0017
0003
0015
FFCD
FFDF
FFFE
000F
FFE5
FFF4
0012
FFE6
FFF4
FFD3
FFE8
FFD9
FFFB
FFF2
FFEE
000C
0016
000C
0019
FFEF
FFE1
FFF6
FFF9
FFF6
001B
FFDB
FFFC
0002
0000
0021
FFE3
FFE6
0019
000C
FFFB
000E
0007
0007
0016
0020
000A
FFF5
FFFA
0003
0010
FFF7
0012
FFE3
FFFF
0005
0032
FFF8
0025
FFF5
0016
FFEE
0004
000D
000B
FFF5
000E
FFFB
000E
0006
0017
FFEA
FFF8
0005
FFEE
FFD2
0010
0007
FFF5
000B
FFCD
FFE7
001A
0004
001B
000C
0018
FFE2
0013
000D
FFEF
FFDF
000E
000E
0027
FFEE
001C
FFF4
0013
0027
0013
FFE8
001A
FFED
FFE9
0017
0000
001F
FFE8
FFEE
000F
FFE1
FFDE
FFE9
FFFE
FFE8
001A
FFE4
FFEA
FFE7
0007
0027
001C
0008
0022
0010
0009
FFEB
FFFF
FFF7
FFEE
002D
000D
FFCD
0008
FFF1
FFF7
FFFB
FFEC
FFD9
0004
000C
FFF4
001F
FFE4
FFD9
FFDA
FFDE
000A
001B
FFF3
FFFA
0008
FFEF
0001
FFD5
FFEF
FFF5
001D
FFFB
000A
FFED
0002
FFD5
0005
0026
0025
FFFB
0002
0022
000C
0018
000C
001A
000B
0004
0022
FFEA
FFF1
FFD2
0014
000E
FFF1
001A
FFF7
0001
FFE9
FFE0
001D
0016
FFED
000B
0023
0019
FFF1
FFCD
0015
0015
FFCD
000F
FFF0
FFEF
FFEE
000D
FFD3
0006
0016
000B
FFFF
FFEB
FFFC
FFEF
0016
0015
0008
0024
0015
FFFC
FFF7
002A
FFE1
000A
FFF4
001F
000D
FFFC
FFEB
FFE9
0031
FFE5
0014
0001
FFE9
0004
0004
0020
0004
FFE9
0004
FFFD
0014
0009
0004
FFD8
002B
0016
0006
0002
FFE8
FFFA
000F
0013
FFFD
0003
000D
001E
0030
000D
FFF1
FFF3
FFE2
FFFE
FFF2
0027
FFE3
FFF4
FFFF
0032
0002
000F
FFFB
0026
0019
FFD8
FFFF
0016
0009
000B
FFEC
0009
FFEF
0027
FFFF
FFE0
FFEB
0023
0011
000E
FFE4
FFE6
FFD1
FFF6
0003
000E
0024
FFE4
FFE3
0017
000C
0021
0023
0007
FFF7
0007
FFF3
001E
FFE5
FFF5
0011
FFFB
FFD5
FFF4
0015
0014
FFF6
0004
0015
0019
FFD9
0003
FFD8
FFE3
001A
0017
0003
000E
0011
FFE3
0017
FFEA
FFF1
FFE9
0005
0008
FFFE
FFE3
FFE4
FFEC
0005
FFDE
0016
FFF3
FFE0
0017
000C
0009
001D
0005
001F
0019
000A
FFE7
0022
FFEB
0002
000A
002F
0004
FFF4
FFFB
0022
FFE9
FFE4
FFFD
FFD4
0031
FFFE
FFFF
0008
FFE9
FFF1
0015
FFE3
0012
0032
0003
FFD3
FFF3
FFEA
FFEA
0022
002A
002A
FFE2
FFF0
0007
000D
FFF8
FFF0
FFEC
FFF7
0008
FFDD
001E
0008
FFE9
0020
FFF7
FFFF
FFE2
FFEC
000A
FFF3
0011
FFF9
FFFC
FFD9
FFE5
FFE9
000A
FFF9
0027
FFFC
0017
FFEF
000D
000C
FFF6
0026
FFE5
0007
0026
FFFD
0021
0006
FFEC
0005
001B
0009
000E
000F
FFED
0014
FFE8
0016
FFE8
0001
FFFF
0019
001B
FFFE
0007
0024
FFF7
FFFE
FFFB
0004
FFE8
0019
FFEB
001A
000E
FFDC
0011
FFF8
FFF2
000E
0001
FFEC
FFFD
FFED
000F
0024
0000
0019
FFFB
0024
FFFD
FFE5
0003
0001
002D
FFCD
FFFD
0013
001D
000D
FFF9
0019
FFDB
002A
FFFD
0005
0029
FFFF
0001
FFFA
FFDF
0029
FFF2
0028
FFF4
0013
FFEB
001F
FFFB
FFF8
000E
FFE8
FFF3
0008
0001
0014
FFDC
0005
0006
000A
FFF4
FFDC
FFE1
FFD6
FFE4
FFF4
0016
0010
002A
001A
000C
FFFC
001C
000C
FFE9
FFF3
0024
FFEE
000A
FFF0
0016
0031
FFFA
001D
FFF7
0019
0006
000C
FFEA
0029
FFFD
0003
FFDB
0024
FFE1
FFF7
FFEF
FFFA
0004
FFFC
FFEB
0011
FFD3
FFE3
FFF7
001D
000C
0015
0007
000C
0007
000B
0001
FFE3
000E
FFF9
0018
FFE1
0000
FFFB
FFD3
FFE7
0016
FFDC
0024
FFF6
FFFC
FFFC
000E
FFFB
FFEF
000B
0015
0024
002D
000A
FFF6
0007
FFFF
FFED
FFF6
002C
FFEF
FFDE
000A
FFFF
FFF0
FFDF
FFDD
FFFD
0027
FFEF
000A
000B
0004
0011
FFEF
0016
001B
0018
000F
000F
FFFE
FFF4
000B
FFF9
FFD7
0001
000C
0007
0015
0017
FFFF
FFF3
0003
FFFF
0010
0033
FFD9
FFF9
FFFA
0006
FFE8
0002
FFF5
FFFC
0006
FFE6
FFFB
0001
001D
0012
FFF9
0007
FFDC
FFF1
FFE8
0000
FFFD
FFE5
0013
FFDB
0026
000F
0000
0015
FFF4
FFD8
FFF1
0000
0018
001A
FFE7
FFDD
0002
000D
0012
0006
FFED
0002
FFFB
0021
FFF8
000E
0004
0006
000B
FFF5
0016
0007
000A
FFED
0002
0005
0008
000C
FFDC
FFEE
0013
FFE7
0004
000E
0015
0020
FFFF
FFE7
FFD2
FFF3
FFFF
FFD5
FFFA
FFE2
0004
0007
FFEB
0008
0008
0001
0005
0001
0008
FFF0
0026
0001
FFFD
FFE9
FFFF
001F
FFDB
FFE3
002D
FFED
0023
FFEA
0000
000D
0020
0011
FFF6
000E
0004
FFFD
FFE0
0004
FFFB
FFF4
000B
001E
0017
0010
FFE7
001C
FFF3
FFF0
FFE2
000D
001F
FFFB
000F
000C
FFDA
FFD6
0001
FFEA
001E
0004
FFE3
0008
FFDD
0000
FFF2
FFFE
FFFD
0020
FFDF
FFD0
FFE9
0022
FFFA
0012
0000
FFD7
FFFC
FFDA
0001
FFE0
FFE6
FFD1
FFE8
FFD7
0024
FFE4
FFE5
0014
FFE5
0005
002C
FFE5
FFD5
0003
0014
FFEE
FFEA
FFE7
FFD7
FFEF
0022
FFF5
FFE2
FFE9
FFFF
FFE2
0013
0023
001C
FFCD
FFE4
0018
FFD8
FFF4
0002
FFFB
FFF0
FFE1
FFF7
0002
0008
FFE1
001D
0027
FFF4
0013
0009
FFFB
0019
FFFF
FFD4
0018
FFF3
FFDC
FFE1
0010
0008
0020
FFF6
002C
0011
000F
0021
FFF2
FFD8
002B
0013
0010
FFF3
0014
0012
FFE9
FFE8
FFF4
FFF9
FFE6
FFF1
FFF8
0016
0000
000A
FFE3
FFFC
0014
0001
FFE8
002C
0009
FFEB
FFDB
0009
FFF9
FFF6
FFF0
001D
FFD0
002B
0004
FFDE
000E
FFF2
FFF0
0002
FFFD
000D
FFF5
FFE6
FFFC
0003
000B
0008
FFE5
002B
FFFC
001C
FFD4
0006
001D
0008
0004
0013
0001
FFE5
0000
FFFD
FFF5
FFFB
000C
0019
FFF5
FFF1
0013
000D
FFFA
0009
001C
FFE4
0027
0013
0008
FFD0
FFE5
FFF4
0001
0026
FFE7
FFFE
000D
0001
FFDC
0026
FFD1
FFD1
0025
FFFE
0006
0016
FFF3
000D
0004
FFE5
0027
FFFC
FFF0
FFF3
FFE9
FFCE
FFE9
0021
FFFE
FFD5
FFF3
FFF1
001A
FFF3
0018
FFD9
002A
FFF9
FFE8
FFEE
FFF8
FFFE
FFF6
FFE9
0028
0018
FFE8
000D
0002
0020
002E
FFE7
0017
0002
0019
001E
0026
000C
0006
FFE3
FFDB
001F
0006
0024
FFFE
001D
0025
002D
0004
0007
0000
0017
FFD8
001C
FFFF
FFFE
FFE6
0027
FFED
0026
002E
FFD7
0026
0008
0004
FFDE
000A
000B
0015
FFFC
001D
FFE8
FFF5
0005
0004
FFF1
001B
0020
000D
FFDD
0010
0000
FFE4
FFDF
000A
FFD1
FFF6
FFF8
000D
FFE2
FFD5
0015
0005
0010
001A
FFE6
FFE7
FFD3
FFD3
FFCD
0008
FFF2
FFD3
FFE9
FFDC
FFFD
FFE6
FFE6
FFF4
0008
FFF0
FFFD
0000
0012
FFF6
002D
0006
001F
0012
FFEB
FFE5
FFED
0000
FFF6
FFEB
FFE0
FFE1
FFFD
FFE6
FFFE
FFFC
0011
0028
000E
FFFF
0005
001A
FFF8
0000
000D
FFFD
0003
FFD7
FFF6
FFDB
FFDE
0005
FFEB
000A
0016
0014
0008
0003
FFFF
FFFF
0002
0012
0012
FFF8
001E
FFDC
0017
000C
001B
FFEA
0006
FFEC
FFF6
FFD6
FFFD
000C
FFEA
0011
0008
FFFA
0011
FFE9
0002
0005
000A
001B
0019
000D
0012
FFED
000F
0000
001A
0000
0006
FFED
0011
FFF4
FFF1
FFFA
0000
FFE8
FFDA
FFFC
001B
0015
FFFD
0003
001F
FFFF
0008
FFE7
FFD8
0014
FFD0
FFD2
0012
0019
FFF7
FFD4
FFEE
0002
0002
0001
FFDB
FFF4
0004
FFF8
FFF2
000D
FFE9
002D
0020
0001
FFFD
0010
FFF6
0001
000D
FFDB
FFFF
0000
001A
FFF9
FFEF
0010
FFF9
FFFC
FFF7
0003
0009
0008
FFEB
001B
0028
0011
0010
0013
0010
FFE4
0026
000C
FFE1
FFDE
000C
0016
0007
0018
0010
0033
FFEB
0001
0011
0008
002E
FFFC
0009
0012
FFE1
0016
FFF0
001C
FFFA
FFDD
FFF0
FFF6
000F
0014
0014
0025
0003
FFFA
0005
001C
FFD9
001C
0004
FFF6
0010
0005
0007
000C
FFE7
0002
0024
0019
FFDC
FFF6
FFE0
FFD7
002A
0012
0009
000A
0033
000F
FFF2
000B
FFD4
FFEF
FFF3
FFF0
FFEA
0019
FFFE
FFD9
FFDD
FFE8
002B
FFFD
FFFA
FFFF
0024
0017
FFDA
0007
0021
0025
FFFE
FFF7
FFF7
0006
FFF6
0013
FFFE
FFFC
000B
FFED
0026
FFE2
FFF5
0014
000B
0014
0017
0029
FFFC
FFF2
FFF9
0028
FFEF
FFFF
FFEC
FFD3
0018
0029
FFDF
FFF8
FFE9
000A
FFEA
0003
001C
0022
000A
FFEF
0004
FFFA
0010
FFD2
FFFE
002D
FFE9
FFEF
0000
0012
FFFB
001E
000A
0003
FFF6
FFF9
FFDC
FFFF
FFCD
0024
FFE4
FFFC
0003
FFE7
0019
0006
FFF6
FFDA
FFF6
0013
FFF6
001E
FFFB
0003
000B
000D
FFFB
0027
0027
FFFD
0015
FFFA
FFE7
000F
0000
001A
FFF4
FFD3
0007
FFFC
FFF3
FFF9
001B
FFF1
0003
FFED
0005
FFFA
0011
0033
0014
FFEB
0023
FFFC
FFFE
001D
FFFB
FFF3
FFEB
000D
FFF8
0007
FFF7
FFFF
0013
FFFD
0003
0017
FFF7
0002
FFFB
000A
0022
FFEA
002E
FFD6
FFF2
000A
0013
0003
FFEF
FFF8
FFF7
FFED
FFF2
000B
FFDA
FFFC
FFE2
FFF1
0017
FFEF
0002
0021
0005
FFF0
002C
0010
FFEE
FFF8
FFEC
0011
001C
0012
FFFF
0012
0001
0021
FFF6
000C
FFE3
FFDD
0016
FFF0
0006
0028
0000
FFED
0019
FFE8
0012
FFE8
FFF7
FFD5
FFE1
0016
FFE7
FFF4
0006
0016
0018
0003
FFD2
000B
FFD6
000B
001B
FFE5
000B
FFF8
000F
FFE6
FFF1
0002
0015
002A
FFDC
0023
0014
FFFA
FFFD
FFE3
0006
FFE6
0022
0003
FFF4
001F
0022
0002
FFFA
FFE9
FFEB
000F
001C
FFCF
001F
FFF4
000A
001F
FFE5
FFDB
FFF7
FFFF
0005
FFFC
000D
FFFE
0006
0005
0028
0002
0011
0024
0018
FFF8
FFF6
000D
000B
FFE8
FFFF
0033
001E
0010
0014
0017
FFD2
FFD7
FFF0
FFDB
FFFE
0002
000F
0008
FFEE
FFE6
0017
FFDA
FFF4
FFFE
FFD8
FFF0
FFF7
0019
0029
FFF0
FFFB
001A
0005
FFF8
FFEB
001F
0007
FFF8
FFEE
0010
FFE9
002A
0005
0016
FFF1
001F
001F
FFDD
000A
FFFA
FFDC
0019
FFF8
FFE8
0015
0029
FFF7
FFFC
FFFD
FFFA
0002
000B
000A
FFEF
0002
FFD6
FFE4
FFDA
FFFA
0020
0000
0004
0010
000B
000B
FFF1
FFFF
0015
FFF4
FFF4
FFF0
0016
FFE1
0001
0011
FFEA
FFEC
0009
001D
FFEF
0006
0004
001F
001E
001B
FFF4
0008
FFE2
0003
FFF8
001B
FFF8
0005
001E
0030
FFD2
FFE6
FFFB
0033
FFE0
FFFD
0016
FFE8
0017
0006
FFED
FFEF
0019
0012
FFF4
FFF5
FFF1
FFDB
FFE2
FFE7
FFF6
001A
FFEA
FFE9
FFE3
0018
000E
FFD0
0001
FFEA
FFDE
FFD7
002F
001A
0027
FFFF
000B
FFE7
FFFF
FFEF
0015
FFD5
0009
FFD9
FFF8
FFF0
0019
000A
FFF6
0022
0004
001B
0012
FFF3
0006
FFFC
FFEA
FFEB
FFF7
0011
002F
FFF7
FFDC
FFEB
0012
FFF7
001A
0010
000C
FFEE
002E
FFED
000E
001D
FFE2
FFE4
0002
FFF2
FFE7
FFDC
001F
FFDE
0023
FFF6
FFE7
0027
0011
0008
000C
FFF4
000A
FFE7
0024
000F
FFF7
FFD3
FFD6
002C
FFF8
FFEA
FFE0
000B
FFDB
FFDE
FFDA
001C
FFDD
000A
FFDF
FFFF
FFEF
0003
FFDD
000B
001C
001F
002E
FFED
FFD3
FFE7
000A
0005
FFFB
000A
FFF6
0019
000C
001C
FFF8
000F
0012
FFE6
FFF7
0028
0004
0019
0021
0006
0007
000E
FFF6
FFE1
0000
0013
001F
0000
001A
002D
0011
0003
FFEF
FFF8
FFE2
FFFC
001C
FFFE
0001
0004
0007
000D
FFFA
0010
0019
0011
0008
0006
FFFB
FFEF
001F
0004
0000
001C
0016
000E
0033
FFDA
000B
0019
FFF6
FFDD
FFF7
001D
FFFD
0008
FFF6
0008
FFF0
FFF2
0009
000A
FFDF
FFEF
002C
0031
0001
0005
0000
FFE1
0002
FFF0
0007
0004
FFEE
FFF5
0005
0030
0012
FFFE
FFDF
0033
000B
0004
FFF3
FFEF
FFFE
0013
0008
0018
001C
FFD9
001E
FFE5
FFF5
FFF7
0007
002E
001D
FFE7
0010
001B
000D
000C
002C
000A
FFFA
002D
0001
0026
FFD9
FFE4
FFF8
FFFA
FFE1
0011
FFEF
0011
FFFB
000A
FFF3
FFFD
0018
0008
FFFF
0006
FFF5
FFDB
FFFB
0000
0004
0014
0008
001E
FFEF
FFDD
0020
FFF8
FFE7
FFD6
0026
0017
FFF0
FFE3
FFED
FFF7
FFFF
FFF1
0007
FFD6
FFE1
0016
FFE5
FFDA
0022
0004
FFD2
0028
0017
000F
000A
FFF5
FFDF
FFFC
0028
FFE8
001A
0030
FFE5
FFF5
FFF1
001F
0013
FFD4
0013
FFEF
0009
0005
0023
0007
FFE9
FFF0
FFE3
0004
FFDD
0001
FFF1
FFF1
FFE1
0005
0000
FFF9
FFE6
FFD3
FFD4
FFE2
0008
0019
0006
0014
0030
001B
FFE7
001E
FFED
FFFC
FFE6
0029
FFF6
0027
0020
FFF7
FFD6
FFFB
FFF3
0010
FFDB
0003
0014
FFF0
FFF4
FFDB
001E
FFEE
0003
001E
0018
FFF9
FFEA
0017
FFDC
FFE5
FFE8
0000
FFFF
FFE9
FFD8
FFE3
0003
FFF8
FFF9
FFED
0009
FFE7
FFF1
FFF4
000F
0011
0011
FFF8
FFEE
FFDF
0017
FFD0
FFE1
0016
000D
FFFE
000D
FFF2
000F
0004
0009
0002
FFFC
000B
FFEA
0007
FFF7
FFEB
001E
0008
FFED
000A
002D
FFE6
FFED
0012
0010
0007
0019
FFCE
0019
FFD9
FFF3
0002
FFF2
0010
FFF8
001B
0011
FFF5
0009
FFE3
001A
FFDE
FFF5
FFF1
001C
FFEB
0016
0029
000B
FFE2
0022
FFF3
0000
0010
FFDD
FFEB
FFF6
000F
FFFA
0011
FFFE
000D
FFD3
0010
0009
002B
FFF4
FFDE
0004
0005
0013
0010
FFE4
000D
FFF0
001B
FFEE
FFDD
FFF5
FFEA
0007
0026
001B
0004
0017
0010
0023
001D
FFF1
0018
FFE3
FFF8
0003
FFF4
FFE1
FFFF
FFEB
0004
FFEA
FFFA
0022
002A
000D
FFDC
0022
FFE5
0013
0029
FFEB
FFF5
0015
FFFB
FFD8
FFFB
FFFA
0016
FFE0
FFD2
0015
001C
0000
FFFD
001B
0000
002B
FFE2
0005
000E
000A
002D
FFDE
FFF8
0007
FFF8
FFDE
002D
FFD5
0020
FFE4
0020
FFE4
0003
000B
0012
000C
FFED
FFF9
FFE5
FFFD
000F
FFFF
FFEB
001A
0022
FFF0
000C
0015
FFFA
0016
0019
0006
FFF7
0022
FFFF
FFDB
FFE8
0014
0025
FFE6
000F
001E
0004
FFDF
000B
0010
FFE8
0015
FFDD
FFF5
FFF9
0026
FFF6
FFE0
0019
000A
FFEC
FFF4
FFF9
FFF9
FFE0
001C
FFEA
0029
000C
0027
FFDE
FFFF
FFD2
FFFC
0017
FFF1
000C
0014
FFDD
FFF6
FFEF
FFDB
0031
0025
FFEC
0015
000E
0021
000A
FFEE
0009
0008
000E
0010
0019
FFEA
0013
FFCD
FFEB
0005
FFEF
FFEC
FFEE
001F
FFFD
FFFD
FFDE
0007
000E
0008
FFFB
0007
001E
0014
FFE4
FFD5
FFE3
FFED
0020
000B
FFF4
001B
0007
001F
FFEA
FFEA
FFD2
002D
0002
FFE7
FFF1
FFF0
0028
FFF7
FFFD
FFF2
FFF6
FFF1
FFF8
FFFC
000E
0007
000D
001F
FFF4
FFE8
FFFD
000C
FFE9
FFF1
0007
0017
FFDC
FFE9
0003
FFE6
FFE6
FFEF
002C
FFE6
0008
002C
FFFA
FFF8
0017
001E
0006
FFE3
0014
FFEB
0013
FFE4
FFFA
FFFC
FFE3
FFDB
FFE4
0019
0009
FFEF
0007
0011
FFE2
0013
FFF1
0006
0002
FFFC
0010
FFE4
FFE9
0030
FFE2
FFDD
0002
FFFA
0020
0026
FFF9
0033
001D
0023
FFE9
0009
FFEB
FFFC
0014
000E
FFD5
FFF4
FFFB
001C
0011
FFFF
0002
001F
0004
001B
FFDF
FFF7
FFEA
FFEF
FFF7
000B
FFF7
FFFA
0010
0020
FFFD
0006
000B
FFF6
FFFF
FFF8
FFF2
FFF8
001E
FFF2
0021
FFDC
002C
0014
0004
FFF6
0006
FFD8
0009
000E
0019
0004
FFEC
0006
FFFE
0003
FFDB
FFDF
000C
001D
002D
002E
0001
FFF4
0031
001B
FFD6
0008
000C
0007
0004
FFF1
001E
FFFD
001E
FFF1
0004
FFF6
000E
0017
0005
FFF0
0016
0018
002B
FFFE
0032
0016
0010
0009
FFE5
001C
0021
000C
FFCF
0006
FFE9
002E
FFF0
FFDE
FFDE
0031
0005
FFFF
002F
FFFE
FFDC
0011
FFDD
000E
FFF1
000B
FFFF
001F
0015
001A
FFEA
FFD7
FFEF
FFE7
FFFE
FFFF
0017
FFCF
FFE9
002E
001A
FFE4
FFFA
FFE3
FFFF
FFF9
0003
FFF5
FFEA
FFF2
FFFC
FFF8
0024
FFF3
FFD9
FFF9
0011
FFD7
0025
0000
0012
000C
0007
FFF4
0003
0001
0003
FFD7
FFFB
FFFA
0012
FFDA
FFF1
0006
FFE2
FFF8
FFF3
000F
FFF5
FFFE
FFFE
FFF7
FFDA
0004
FFF3
000F
0005
FFF9
FFE7
0018
FFF2
FFE7
FFF2
0017
000E
0014
001B
001E
000E
FFFD
FFD7
0026
001F
000A
0001
0000
FFE8
FFFF
FFEA
0014
0003
FFFB
0014
FFFB
000E
0001
FFF5
FFF1
FFF6
FFF5
0032
0010
FFF4
FFDE
0025
002E
0002
FFFE
FFD5
FFEE
0012
0017
FFF3
0001
FFD7
0007
001F
0007
000A
FFF7
001D
FFF8
0000
FFF1
0004
FFF8
000F
0000
FFDF
FFDF
000A
FFCF
0019
FFE1
FFFC
0022
FFF9
0010
0012
FFDA
FFF9
FFED
0003
FFE8
000E
FFF5
FFF0
000E
FFE2
FFF1
FFDF
0009
0029
FFCD
0014
001A
FFF8
0022
0024
FFF4
FFEB
0006
FFE5
000A
FFEA
000E
001E
FFF5
000C
FFE5
0028
FFFD
0021
0008
002D
FFF9
FFE8
FFED
0009
FFF5
FFDC
000A
FFD7
FFF0
FFE8
FFF8
FFF2
FFD6
0031
FFF7
FFDC
FFF6
FFEC
FFEB
FFF1
000D
000B
0011
0008
0004
0014
0013
FFE5
0006
FFF3
FFFF
0001
0018
FFE7
FFEA
FFDE
0000
FFF0
0024
FFDB
0005
FFF8
FFFC
FFF9
FFFC
FFDF
0019
FFE7
FFEF
FFEF
FFFA
0005
0012
FFF0
FFF2
FFFA
FFFA
FFFF
0009
FFEE
FFD1
FFF6
0011
FFD7
000F
001A
0018
0004
0026
FFF5
FFE8
FFF1
0014
0013
0015
0006
FFF3
FFF7
001B
FFF6
0003
0002
0015
0008
002D
0030
002C
002C
0000
FFDF
0018
FFDF
002A
FFF3
0009
0013
FFFF
002F
FFFF
0018
000E
FFEE
FFFA
0006
FFE1
FFFC
FFF8
0000
FFFD
0003
0018
0023
0000
FFFA
0003
0009
0027
FFF0
FFF2
0004
FFEA
0013
FFFE
FFEB
0014
000A
000B
FFEB
000D
001F
FFD4
0011
001E
FFD6
FFF3
FFFD
000E
002A
FFF3
FFFC
FFED
0007
0010
FFF4
0017
0005
FFFD
0004
FFF9
FFEB
0025
FFF0
0011
FFEC
FFE7
FFED
FFE3
0003
FFFF
0008
0026
FFFA
FFD0
0016
FFFC
FFE0
0017
000D
0024
FFDA
FFF0
0010
FFF3
000B
FFE3
0014
0026
FFEF
0013
001D
FFFB
FFFD
0001
0017
FFFE
0006
FFF7
002C
0018
FFF7
001F
FFD6
0012
FFEF
001A
0007
0029
0008
FFE4
FFF8
000C
FFEE
FFF2
001E
FFF1
FFF1
FFED
0006
0014
0023
FFD8
0011
001A
000E
FFEE
0020
FFFD
FFE7
000A
FFFE
0003
FFED
FFD1
000E
002D
000E
FFF9
FFD5
0002
FFFA
FFF0
001D
0019
FFF2
FFE2
0032
0010
FFF3
0014
FFE0
002B
FFFA
FFFE
FFE5
0002
FFF5
001B
0001
FFDE
FFF6
FFFB
000E
FFD5
FFF8
FFE2
0024
FFE9
FFDA
FFE2
FFE5
001C
FFEE
002F
FFE1
000B
0004
0013
FFF4
FFDA
0014
0029
000B
0009
0011
FFEC
FFFB
000A
FFF5
FFFF
FFEB
FFE5
000A
FFF1
FFE1
FFF8
FFF5
FFD1
001B
FFD2
FFF7
0018
FFF5
FFF3
FFF6
FFCE
FFE4
FFE4
FFF9
0015
FFED
000D
0008
0031
FFEC
001C
FFF5
001B
0008
000B
FFF1
0001
0019
0005
FFEE
0001
0008
FFEF
FFCD
0019
FFF7
0015
0001
FFF8
FFFE
FFE5
FFE7
FFEF
FFF6
FFF6
FFE7
000E
0006
0007
0006
000D
FFD8
001B
000D
FFFB
0014
FFE1
FFFC
FFE3
FFFC
0013
000C
FFE4
0002
0019
000E
000D
0001
FFFB
002C
FFDE
FFE8
FFDA
FFF1
FFE3
000B
0026
0006
FFEC
000B
FFF5
002E
FFE4
FFE3
0001
0026
0005
002A
0009
FFF4
0005
FFFD
FFEF
FFF9
0007
FFF5
001E
0024
FFFC
FFEE
0008
001D
0003
0018
FFFF
FFE9
FFFC
FFF3
FFF9
0026
000C
0008
FFF3
0018
002D
FFFF
002C
001D
001B
000D
FFFA
0030
0001
0006
FFE3
0000
FFF9
000A
0014
FFE1
0012
FFF2
000E
002A
0029
0008
FFED
FFED
FFFA
000C
001B
000D
0007
FFED
FFE1
0033
001C
000E
FFF6
0002
FFD5
FFFF
FFFA
000F
000B
000D
FFE0
000A
002B
0005
FFF5
0013
0002
FFF9
001F
FFF0
FFDF
FFDD
FFEB
FFDE
FFEA
0016
0012
FFED
0030
FFD5
FFE1
0007
0007
FFED
001E
FFF1
FFD7
FFFA
0008
FFFE
0009
FFCF
0005
FFF5
FFF9
FFFD
FFD5
000B
0004
000F
FFE0
FFEA
0002
FFF0
FFDE
FFFE
FFEE
FFF0
0001
FFD4
FFEE
0025
0010
FFE9
0003
FFF6
0014
0019
0005
FFF8
000B
FFEF
FFDE
FFF3
FFE3
000A
000D
0016
0019
0015
000C
0010
002E
000A
0014
FFE8
FFE3
0003
FFFF
FFFF
FFF5
0006
FFEF
002E
0008
FFDE
FFDC
FFEE
FFED
FFF8
FFEB
000D
002E
FFEA
FFE9
FFF2
000A
FFF2
0001
FFDF
0001
FFF5
0013
000D
FFD4
0016
0007
0000
FFD4
0002
FFD4
FFE0
0010
000D
FFF0
FFEF
FFDE
000E
FFE1
FFD9
000F
0001
FFF2
FFD6
FFDF
002F
0018
0018
FFF3
FFDD
FFD6
0008
FFD1
FFE2
FFF8
FFFD
0011
0008
0019
0000
001A
0015
001A
FFF5
FFE7
0008
FFE6
000A
0008
001C
FFDE
FFEA
0019
FFF8
001B
001C
0032
FFF1
000D
000C
FFE6
0003
0002
0012
0025
FFE3
0014
0001
0020
FFF8
0004
0003
001A
000A
0018
FFF3
0006
0015
0021
FFF2
001C
FFF3
FFF6
FFE3
FFE7
FFE5
0014
FFED
002A
FFF4
000E
002F
FFE4
001A
000E
FFF9
FFE0
FFE9
FFE2
FFEC
FFF3
FFFF
FFFD
000F
002C
FFFA
000F
0026
0005
0017
FFEC
FFFA
FFF9
0002
0009
FFD7
FFED
0003
FFF6
000A
0008
FFE0
0012
0014
0002
0010
FFFE
0001
FFE7
000B
FFEB
0005
0026
FFF0
FFE1
0016
FFFA
FFE4
0024
001D
000B
000B
0006
0000
FFF2
0001
0000
FFD3
0002
000B
FFE8
0022
0008
000F
FFF2
001C
000E
0005
0026
FFE9
000A
001B
0012
FFEA
FFF1
FFE7
000F
FFF4
FFEE
0000
FFF2
0020
FFF3
FFFE
FFE7
0022
0026
000B
000E
0010
FFE7
000E
FFF9
0007
FFFD
FFF9
FFE9
0002
FFF2
000E
0000
FFF2
0021
0004
0012
000F
FFDF
FFE5
001B
0013
FFEE
0003
FFEB
0007
FFE8
FFFB
0015
FFEB
0012
FFEF
FFE8
FFE9
FFED
FFE4
FFD5
FFF2
FFDC
0027
001A
001F
000E
FFE4
FFF3
000C
FFF4
0009
000C
0014
0013
0002
FFFC
001B
FFE8
0011
0017
FFE2
0007
0026
FFE1
FFEC
0009
FFE9
FFF2
001C
FFE1
FFEB
FFED
0006
FFED
000B
001E
FFE1
FFEA
FFF8
FFE1
0016
0002
FFFE
0022
FFEC
FFFA
0010
FFEC
FFE8
0022
0028
0018
0014
FFE6
FFEE
0013
0007
000D
FFDD
FFFF
FFD2
FFFD
0000
0016
0026
FFE8
FFF0
0033
002C
0004
FFEF
0000
001F
FFF5
FFE5
0017
000B
FFF0
FFFC
0016
0016
0010
0007
FFFC
001B
0010
0029
FFD8
0002
0005
002F
0003
FFF1
FFEA
0005
FFEE
0009
FFFF
001D
002D
FFEC
FFFC
FFFF
FFD2
0027
0022
FFF4
FFF8
FFDB
000F
001E
FFF5
FFCF
001C
002E
FFDF
000B
FFF4
000A
FFFC
FFF5
FFE7
FFEC
FFD9
000F
0012
FFED
FFDF
FFFB
FFE3
0009
FFFB
0000
FFEA
FFF1
FFF1
001B
FFD1
FFF5
FFF5
0013
0012
FFF6
0008
FFE4
FFF8
FFEC
0004
FFF2
FFE3
000C
0006
FFF8
FFF1
000B
FFFB
FFE2
FFFF
0000
0027
0031
FFFD
FFED
FFEB
FFF4
0005
FFE3
FFE3
002E
FFF1
FFE5
FFF7
001B
FFFF
FFFD
FFFA
FFE1
FFE2
FFFC
0000
0027
FFD6
FFED
FFE4
0012
FFFA
FFF2
FFD6
0023
000C
0019
0004
FFDC
FFF3
FFF8
0003
FFED
FFFD
FFFA
0002
0000
FFD6
FFF5
0001
000D
FFCD
FFEF
FFDE
000B
0030
FFF6
FFEC
0001
0016
0011
0022
002C
FFEB
001A
FFF7
0020
FFF5
000A
FFF6
0022
FFE2
000B
0008
002A
0022
FFF9
FFE8
0005
FFE3
FFE9
FFF3
001E
0015
FFFC
FFE1
0009
000C
FFED
FFE1
FFEC
000E
002A
0024
FFE9
FFDB
0010
000F
FFD3
FFF4
FFE4
FFD2
0002
0014
0015
FFE2
FFFA
FFF4
0025
000B
FFD3
000D
FFFC
0016
FFDE
FFF7
FFFC
FFF4
FFFA
FFFB
0029
FFF5
000A
FFD0
0005
0018
000A
FFF6
001B
0001
FFED
FFE3
FFFF
FFF6
0018
FFFC
FFFC
FFF7
FFF1
FFD6
FFEA
001E
FFF3
FFFD
0017
0008
FFF7
0019
FFEC
0016
0018
FFEE
0019
002E
FFE8
FFE6
0009
0015
0007
FFDE
000E
FFF3
FFF9
FFFE
0001
FFD8
0001
FFDC
FFFD
FFFC
FFF0
0015
FFF5
FFD6
0022
FFFE
001B
FFF4
0023
0019
FFF1
000D
001D
FFD4
FFE9
0010
FFF1
0002
001A
FFE1
FFE3
000B
002C
FFF4
FFD1
0013
0028
FFED
FFF1
FFE2
0000
0001
0015
002D
FFF1
0028
FFE7
0029
001F
FFF0
FFD7
FFDA
FFE6
FFFE
FFEC
FFE7
FFF4
0010
FFEB
FFEB
000C
0025
FFF5
0000
FFED
FFE8
0021
FFF9
FFD2
0003
0012
FFFD
FFF3
FFF6
002A
FFFA
FFE7
0007
0006
000F
000F
FFFF
0009
0015
FFF7
0012
0002
FFCF
0002
FFD9
FFDA
0014
0002
FFF6
FFF2
FFD0
FFF3
0020
FFE8
FFCF
FFF4
0019
FFE2
FFF8
0002
0006
FFD3
0026
FFF8
0005
0013
FFEE
002A
FFFD
0010
0013
FFF9
FFDD
FFF0
FFF4
0017
001E
FFDD
FFE7
0003
FFE9
FFEF
0012
FFF8
FFEB
FFFD
FFEE
0008
FFFE
FFEF
FFD4
0021
FFF0
FFF5
FFF4
FFFE
FFFD
0020
0003
002A
0001
001C
FFF6
FFFD
0005
0007
000A
FFE8
0013
000F
FFF5
FFF7
FFF2
0029
FFDB
0012
001D
001B
001B
FFFD
001D
FFFF
FFF9
FFEE
FFF5
FFEF
FFEE
0002
FFF9
FFE5
0006
000A
000A
FFF8
0026
FFF6
0000
FFEB
0006
FFF6
FFF5
001B
FFFD
FFEB
FFF8
000B
0016
0007
FFEA
FFF6
000C
FFFB
FFF1
FFD8
0012
FFDB
0031
FFE5
FFE2
FFE9
FFFF
FFE5
0012
001D
0005
FFF2
0006
FFD0
0001
0015
FFD6
FFDC
FFF0
000C
FFF5
0013
FFF6
FFFF
0016
0021
FFE7
000D
001A
FFF8
FFE4
FFE3
FFDA
FFD4
FFF4
002E
001E
FFEC
0006
0011
0002
FFDB
FFD8
FFE0
FFEB
002A
0014
FFF5
FFF2
0014
0004
0005
FFE1
000B
0005
FFE2
FFEA
001A
FFF4
FFF2
FFF7
FFEF
FFF4
0000
0007
FFEC
0011
FFE9
FFE2
FFE3
001A
FFF1
0019
0006
FFFF
FFEC
FFEE
0024
0006
0025
000D
0014
FFD9
FFEC
FFF0
0004
001E
001B
FFED
0010
FFF4
0025
FFDA
0017
0022
0000
0014
FFD9
FFE2
001F
FFF6
FFEA
000F
0019
FFFF
0013
FFF8
000A
001C
0007
FFFB
0008
0014
001B
000E
0012
000B
0014
FFD9
0004
FFE3
001B
0020
0013
0023
0000
001E
0010
FFEC
FFF8
FFF1
0026
FFE8
000F
0022
FFE8
000D
FFED
FFEA
FFFF
FFF0
FFFC
FFF5
0010
0004
FFFB
FFE0
001D
0015
FFF3
FFFC
002B
FFE6
0010
0018
000E
FFE5
FFFA
0005
0007
FFDA
001D
0026
FFF2
0011
FFFF
FFF8
FFFB
0026
FFD2
0013
FFD4
FFE2
0006
FFE6
FFF2
001B
FFF6
0001
FFE4
0015
FFF6
FFEF
FFF3
002A
0002
0008
FFF7
000F
FFF4
FFE1
0001
0012
FFE3
0001
000F
000D
0026
FFCD
0010
000D
FFE6
001C
0027
FFE7
001F
0002
FFEB
FFFE
FFD6
FFF4
0022
FFFB
FFF1
001F
0023
FFE3
FFFC
FFF1
0019
0001
FFFD
FFE5
0015
0022
FFDF
0001
0004
0010
FFED
FFFF
FFFF
FFE4
FFF0
0020
0014
000D
FFFA
FFE5
FFCD
FFEA
FFEC
0025
002D
001F
FFE0
FFFD
0005
001A
0031
FFE5
0017
FFED
0001
FFE3
FFD9
FFF8
000C
000D
0018
0000
FFED
FFD6
001F
FFEB
FFE7
FFE8
FFD6
FFFC
FFFE
0025
0018
FFE8
0015
0010
001A
FFE4
002B
0019
FFED
FFD9
FFDC
FFDD
0005
0025
000E
0010
0014
FFDD
FFE6
FFD7
0011
FFF9
FFFC
FFE2
FFF5
0006
0008
FFEE
0002
FFDB
FFE2
FFEB
002A
0001
001A
001A
0012
000A
0021
001D
001F
FFFF
0010
000C
0006
0021
FFF9
FFE3
FFD7
000F
FFF6
0005
0003
0001
FFED
FFF1
0001
FFF8
FFE3
0014
FFD4
FFFE
FFFC
FFEC
0031
0001
FFF0
0008
FFEC
002D
0008
0000
FFF9
0015
FFF4
FFFF
FFDE
FFF5
FFDC
000E
001A
001A
0005
FFF4
FFE4
FFE2
FFFB
000E
FFF5
FFED
0012
FFFF
FFF7
FFE2
000B
FFFB
FFFC
0012
FFFE
FFE6
FFF7
FFF7
FFEC
FFEE
FFD7
0015
0016
FFF7
FFE0
0014
FFF0
FFEF
FFEC
000B
FFF3
0016
FFF8
FFDB
001A
0005
0013
0004
FFFB
FFD0
FFD9
FFD6
0003
FFFF
0017
FFEE
FFF0
FFFC
0031
0022
FFD7
0009
001E
FFFF
FFD8
000E
FFDE
FFCF
0006
0000
0015
0005
FFEE
FFFB
0024
0014
000B
001F
FFE9
FFFE
001D
0004
0005
0029
0026
FFD9
FFF9
FFE7
FFFF
FFDF
FFE6
000C
FFCD
FFF4
001E
0014
000B
FFFF
FFF6
0033
002F
0020
FFDE
FFFF
FFF9
0001
FFF8
0019
FFD9
FFE9
FFF2
002C
002D
FFFF
000C
FFE6
FFEC
0025
0023
0003
000D
0006
0031
FFF6
FFE6
FFD2
FFE5
FFFE
001E
0001
FFF9
0008
0000
0008
000D
FFFF
FFF3
0003
002E
0004
FFE1
0002
FFE9
0033
FFE9
0024
FFF7
0016
FFD5
0009
FFF1
0007
FFF1
0012
002A
0001
0008
000A
FFE9
001A
FFF4
0001
0005
0005
002D
000F
FFFD
FFE9
FFFC
000B
0018
FFE7
FFFE
0027
0016
FFD1
FFF1
FFE1
FFE6
000A
0026
FFE4
FFF7
FFF2
0001
FFD0
FFE9
FFDC
FFF7
FFF4
FFF0
0006
FFE8
0013
FFFF
FFF4
0018
FFF3
FFF4
0011
FFE6
002A
0007
FFDE
0003
FFEE
0010
0017
FFF5
FFEA
0006
000C
FFF5
0002
0025
FFF4
FFE8
000F
FFE4
001C
0019
FFF0
0017
0018
0011
FFE7
FFFB
0002
FFFC
0008
FFE5
0028
0000
0001
0007
0029
001F
000C
0023
0011
FFCE
0003
FFED
FFF7
FFE6
FFF9
0012
0005
000A
0031
FFFD
000B
0004
FFF8
FFF2
FFF3
0005
0006
0001
FFDD
FFEA
0002
0007
FFF8
0009
0001
FFEE
0007
0008
FFDB
FFF7
0005
0004
0002
FFD6
001A
0027
000A
001A
0007
0003
FFFF
FFF4
FFEA
000E
FFF3
FFD7
FFDC
FFF5
FFD8
000C
FFFC
0012
0029
FFF6
FFFC
0004
0001
FFD2
FFE9
0003
FFCD
FFCE
001A
0002
FFEB
0004
0023
FFD6
FFD3
0011
000A
0005
0002
0031
000A
FFF7
0009
000A
0014
0021
FFFD
0004
0011
FFFE
FFED
FFE2
000E
0007
0003
FFF3
FFF0
0011
FFFE
000A
FFF3
FFEB
002E
0008
001B
001A
FFF7
0021
FFF7
000F
001A
000E
FFF0
FFFE
000D
FFD0
0024
FFE3
001F
FFE3
FFFC
FFEA
FFFF
0032
0015
000E
FFE6
FFCF
001E
FFEC
FFFE
0010
FFDF
0005
0033
0006
0000
0005
001A
002D
000A
FFE6
0008
000F
0000
001B
FFED
002A
FFF3
0025
0023
FFD9
FFE5
FFF5
FFDD
0006
FFE0
FFD7
0014
0012
0015
FFF0
FFE0
FFE6
0003
FFE6
001D
001C
0023
000C
0032
000D
000C
FFF2
000E
FFDF
000A
0011
0025
0009
0002
0000
FFE9
FFEC
FFF8
FFFB
0019
FFCF
0024
0000
0015
FFF9
FFF8
FFDC
001F
001C
FFE4
FFEE
FFFA
0016
FFFB
0000
002F
0021
FFF0
FFF3
FFFD
FFDA
FFF8
FFCE
FFEB
0003
0013
0000
000F
FFFC
FFF5
0008
FFEC
FFF2
FFEE
FFEE
000E
0009
002B
FFF4
FFDE
FFE7
0029
FFFF
0013
FFF9
FFF7
0007
000F
000E
0003
0002
0003
0000
001C
FFCF
0001
0012
0017
FFD6
0002
FFFF
FFE5
0004
FFE9
0002
000A
0012
0001
FFEA
FFDB
000F
0014
0008
0005
FFD5
0008
FFD3
FFFA
000F
FFF0
0018
0025
001A
000B
0026
FFE4
FFE8
FFD0
FFF0
0015
FFFC
0018
FFE8
000E
0006
FFF1
FFFE
FFFC
FFE9
FFF4
0011
FFF8
FFD1
0002
0001
FFDB
0020
002E
0017
FFEA
0002
0014
FFEE
000E
FFF7
FFFE
0031
000B
000C
001A
FFF1
001A
0005
FFEA
0017
0014
0005
0009
001F
FFD8
FFEE
FFDD
FFD5
FFF1
0004
FFF1
002C
FFEA
001C
0000
0018
0021
FFDD
0003
FFDA
FFE2
0007
0009
000E
FFE7
FFFF
000D
0009
FFEB
FFD7
FFE2
001A
FFFA
0011
FFF6
0005
000D
FFFB
FFF0
FFF0
0023
FFE5
0005
FFE9
0010
0003
FFDB
0026
FFDF
FFFC
000D
FFF3
000F
0003
0027
FFEC
FFE2
FFE8
FFD1
0004
002F
0000
FFE7
FFFF
FFFB
FFEC
002C
0008
FFFE
000C
FFF1
FFE2
0024
FFF1
0011
0001
0004
000C
FFF8
FFE1
0013
0001
001B
FFF3
FFEB
FFFB
FFDE
000E
FFED
000B
FFFE
002E
0001
FFF3
0016
FFE8
0012
FFE0
0030
FFF1
0005
FFE0
0015
0006
FFFB
FFD8
000E
0009
FFFB
000C
FFEC
FFF4
0021
FFFD
0013
002F
FFF5
FFF6
FFF9
0018
001D
FFF9
0014
FFFB
0010
FFE9
000E
FFE4
FFF1
0018
FFDF
FFE9
000D
0002
001B
0020
0018
0003
0014
0008
0022
000F
FFD3
FFF8
0001
FFF6
FFFF
FFF0
0007
FFFC
FFF6
FFDE
0005
FFE6
FFE8
FFE9
0002
002D
0029
0012
FFE4
000D
FFDA
0009
0022
FFF0
0014
0024
FFE1
FFF1
000C
FFF4
000D
FFF5
001B
0012
FFFE
0012
FFE5
0026
001A
FFF8
001B
0000
000C
0003
FFCE
FFEA
FFD6
FFE5
0002
000C
0029
FFF2
FFF5
FFF7
FFFE
FFD8
FFF4
0018
FFED
0018
0013
FFDF
FFE8
000E
FFDE
0033
001A
0013
FFED
FFF6
FFF3
FFD7
FFEC
0025
0006
FFFF
0015
FFF3
FFE6
FFFE
0011
FFF4
FFF9
0004
0013
0011
000B
FFDB
0006
0005
FFD6
FFFE
002A
001B
0009
FFEC
FFE5
FFE6
FFF7
FFEA
FFE3
FFF4
0013
0007
FFD7
000C
FFFC
FFFB
FFEF
0010
0000
FFFF
000B
0006
FFD3
002B
0000
FFF5
FFD1
FFF1
FFF3
FFF4
0005
0004
0020
0001
FFCF
FFFA
0026
0002
0005
FFFD
FFEB
0013
FFE4
FFCD
0019
0002
FFF6
0004
0027
FFED
FFD4
FFFD
FFFF
FFE3
FFDF
002D
002A
FFF7
0020
FFD4
0008
0007
FFE2
FFE9
0001
FFF5
FFFA
FFF6
0007
000B
000E
0016
FFE4
000E
FFF7
FFD8
000B
000C
002C
FFF4
0003
FFF4
001B
0016
FFF6
0025
FFF4
0006
0021
001A
FFE0
0028
FFFB
0006
FFF7
FFE8
0023
0016
FFEE
FFDD
0005
0006
FFE5
0005
0008
0026
0017
0025
FFD7
001A
001A
0025
FFE0
FFF4
0014
0006
FFF0
FFFA
FFEE
FFF4
FFF4
0007
0010
FFD2
FFFB
FFE8
000C
FFEF
FFD6
FFE2
FFE8
0015
FFD3
FFDA
0005
FFEF
FFE3
001A
FFF5
001D
FFF1
000E
FFEE
0023
000F
001B
FFD9
FFE0
0023
FFED
0004
0007
0027
0006
FFEF
0033
0006
0012
0000
FFD9
0016
FFE5
0005
FFFD
FFD1
FFD7
FFDC
FFE4
0019
001B
FFEB
002F
FFEE
000C
0005
FFD5
FFFC
000D
0022
FFD3
001F
0004
001F
FFEE
0028
000B
FFF9
FFF2
FFE9
0021
FFE4
001A
FFEB
0007
0002
FFF4
FFFB
FFF5
0014
0002
FFE6
0020
FFE7
FFF2
0006
FFEF
0009
0012
0007
FFD9
FFDD
0031
0024
001E
FFEB
FFEF
FFF7
0003
0013
FFFD
0003
001B
0011
FFF3
000C
0018
FFF2
FFF1
0013
FFED
0007
FFEA
FFE2
FFFB
0019
000F
0005
FFEE
001B
FFF6
000B
FFEF
FFD5
0009
FFF3
0003
FFF2
FFEE
0002
FFE9
FFFD
FFDE
FFE7
FFD7
000D
000D
0027
0000
FFF9
0001
FFF1
0014
0005
001B
0003
0024
FFDA
FFFA
0026
FFF9
FFE9
FFF8
FFFB
0030
FFFA
FFE6
FFF2
000F
0012
FFF8
0009
0005
FFF8
0008
0017
FFEF
FFE5
0003
0007
000B
0016
0012
FFFE
FFF6
FFDD
0011
FFDA
FFE4
FFF2
FFFA
0015
FFDC
FFFD
000B
0033
0012
0033
0006
0023
000A
0018
FFF0
0003
000D
002E
FFF5
0008
FFFC
FFE8
0023
0001
0000
FFE9
FFEA
0009
FFF9
0003
000F
FFDF
FFDC
001D
FFF9
FFD7
000C
0011
000C
FFF4
FFF2
FFE2
FFD5
FFF4
FFFF
001B
0005
0019
FFFC
000C
001E
FFFB
001A
0003
FFF6
FFD7
FFF7
0002
0021
0010
001E
000F
FFF4
000D
FFEB
FFD7
FFF9
0010
0024
FFEA
000F
FFFA
001E
0015
0008
0032
FFF8
FFE7
FFF7
FFCD
FFED
000C
FFFB
FFE7
000C
0009
FFF0
0003
001D
0021
FFFF
000B
0004
0010
000A
0011
FFE8
FFF8
FFCF
FFF1
FFEC
001B
FFE7
0010
0011
0018
0005
0016
000A
0004
001F
FFF8
001A
002F
FFD6
0019
0011
FFEA
0006
0016
FFF5
0016
FFE9
0008
FFFC
FFDF
0019
001E
FFE0
000D
FFD4
FFF5
000C
0007
FFF3
FFEE
0024
0028
FFEF
0003
002F
0030
FFFE
FFFE
001A
000A
001A
FFF3
FFE3
FFF5
FFEE
FFEE
FFDF
FFF8
FFF5
0016
FFFB
FFFC
FFFE
0014
FFFD
FFED
FFDD
000C
0029
FFEC
001B
FFEB
FFE4
FFD6
001A
001D
0008
002A
001E
FFEA
0016
FFDE
FFFE
0010
FFFF
0001
FFFE
0014
000F
FFEE
FFE5
FFF0
001B
000D
0005
FFE4
0010
0005
000A
000F
001F
FFDC
FFE0
000A
FFD9
FFEA
0001
0002
0008
0003
FFEB
FFFF
FFF7
0002
FFEF
0001
FFFD
0012
0019
FFEB
FFF8
0017
001A
FFF2
0003
0021
000A
FFD5
FFE4
001D
FFF6
FFF5
FFF1
FFFB
FFF6
FFDD
001F
000B
0011
001B
FFF8
FFF2
FFFB
0009
FFEC
FFEB
000B
FFD6
FFDF
FFF5
0023
FFF4
FFFC
FFEA
FFFD
FFF5
0006
FFE5
0000
FFE1
0011
0010
0012
000B
0023
0010
0023
0000
0000
FFFF
0031
0012
FFF9
FFFC
0024
0017
000D
0008
0018
FFFB
0004
000A
FFEA
FFF8
0004
0013
FFD8
000B
FFFE
FFEE
FFF8
000C
FFF6
0007
0014
0015
0001
FFE9
FFFE
0007
FFE2
FFF8
FFDB
FFF8
FFE6
0024
0000
FFF7
FFF0
FFEF
FFDA
FFEA
FFE9
0005
FFDE
0003
001E
000A
FFDA
FFEE
0028
FFF7
FFFC
FFF1
0011
FFEF
FFE5
FFE5
001C
FFD9
0013
000D
FFF2
001E
0017
FFF6
0006
0006
000C
000B
002E
FFFC
0005
FFE2
FFF7
0018
0017
0021
0001
0013
000E
0023
0000
FFF0
FFF4
FFE6
002D
FFE1
001F
0016
FFE1
FFF8
0031
0017
000C
0016
0001
FFF0
FFF1
000E
002D
FFFF
FFE8
FFEF
FFF4
FFFF
FFE4
000E
000E
001B
FFE4
FFF0
001A
0008
000E
0032
0023
0009
0015
0022
FFF0
0026
0008
FFF5
001B
FFF3
000D
FFDC
FFF7
FFFC
0010
0002
000B
FFF1
FFE6
FFF1
001B
000F
FFFA
0001
FFD7
FFDB
FFE6
0001
FFDE
0013
FFF7
FFFF
FFF0
001C
0019
0019
0018
001A
FFFC
FFCF
000E
001F
FFEB
FFF1
0028
FFDF
FFFE
FFF1
FFFA
0019
0003
001A
0015
0007
FFF4
000E
0008
FFF4
FFF1
0002
FFDF
FFFD
FFFA
FFE1
FFF1
000D
FFEB
001F
FFD5
0022
FFE5
0001
FFFA
FFD9
FFFF
FFF5
0016
0029
0009
0005
FFF1
0007
0024
FFE5
0000
FFE5
0016
FFE8
0007
FFFD
FFEB
0003
FFF7
0006
001F
000A
FFED
FFE0
000C
FFEF
0008
FFED
FFF8
0008
000D
0002
0020
FFFC
000D
0004
0001
0000
0025
0006
000E
FFF5
FFE6
FFF8
0003
FFFB
FFFF
000E
FFF2
FFFB
0009
001B
000C
FFF2
FFE7
FFE7
FFEA
0018
0025
000D
FFE1
FFF5
0013
FFFC
FFD6
0002
FFF5
FFF3
001F
FFFA
0021
FFF1
0000
000A
0018
001E
000A
0010
0010
000A
FFD3
FFEB
FFF5
FFF5
001C
0011
0000
FFE1
0004
0027
0004
0001
0029
000D
FFFE
FFFF
001C
002F
0006
FFF9
0004
0002
0003
0007
FFFE
FFD4
0007
001F
FFEB
002E
000D
0012
FFF5
0009
FFE5
001D
0009
0002
000C
FFD0
FFE0
0013
001A
FFF4
0002
FFE2
FFEF
FFEC
0014
000A
FFDB
FFF3
0024
0009
FFFB
0015
0009
000C
0018
0003
FFF4
002B
0009
0003
0013
FFD8
0002
0005
FFFB
0007
FFD4
0018
000A
0006
000E
0026
FFEC
001C
FFF6
FFF4
0017
FFF1
0014
0022
FFFD
0006
0007
000B
FFD9
0019
FFFE
0010
FFF6
FFED
FFE8
0026
001A
0026
FFE4
FFED
0010
FFF0
0011
FFFF
FFF2
0000
FFED
0014
0003
0002
0001
FFFE
001D
FFF4
0011
FFF6
000C
FFFC
0004
FFE1
FFD4
0017
001B
001D
FFF3
0032
000A
FFFC
001C
0014
FFE9
FFE9
0016
FFF2
FFE7
FFD3
0005
FFE8
0016
FFDE
0009
0000
000E
FFFF
FFED
0002
0004
FFF5
FFF1
FFEC
0012
FFFF
000E
000F
0001
0005
FFEE
FFEB
FFFD
001A
0000
FFF1
FFED
FFFF
FFFF
0010
0000
FFEB
000D
0030
000E
001A
FFF9
FFF7
FFE3
0010
0017
FFD9
0020
FFE5
FFF2
FFE2
001D
FFE9
FFF6
0016
FFFB
FFF6
0000
0006
001B
FFEE
FFEA
0019
000E
FFE5
FFDE
FFFB
0006
FFE6
0014
001C
000A
0021
FFFD
0001
FFF1
0014
0012
0007
FFEE
0006
FFF0
FFFC
001E
FFE7
0001
FFEB
FFE7
FFF2
0012
000E
0029
FFEA
000E
FFF5
0023
000E
FFFA
FFF7
0005
FFE3
0007
FFFC
0003
FFED
FFF6
FFF4
001B
0026
0003
FFF3
FFEB
FFF4
000E
0032
FFF0
001B
0012
FFFC
FFF2
0005
FFDE
0004
FFFE
FFD9
FFD3
0020
002A
FFF1
000E
0000
FFE5
0025
FFDF
FFD2
0007
0009
0017
FFF6
FFFB
FFEB
0015
002A
FFDF
001F
000F
FFF4
FFFC
002F
0011
FFDE
FFEE
000E
000A
000A
FFF8
FFD9
FFFE
FFE6
0023
000E
FFFB
0013
FFFA
FFF1
FFD0
FFF8
FFF0
0000
FFE6
FFDA
FFF3
FFF0
0010
FFE3
0020
FFF4
FFFA
FFE5
FFFC
FFEF
FFF4
0013
0008
FFF0
0004
FFDC
FFF0
0009
FFF1
0010
FFFF
FFFA
FFE2
0001
000B
0005
FFE1
FFF4
0010
0024
FFFF
0012
FFE5
0016
001F
0012
FFF4
FFFD
000F
FFE7
0000
0018
FFF7
FFF9
FFEE
FFF4
000A
FFE2
FFDD
FFF3
FFF2
FFFE
0016
FFF6
000C
0014
0002
FFFB
FFFB
000B
000F
0014
FFE8
FFFF
0016
0027
0011
FFFE
FFF6
0030
FFF1
FFFC
FFE5
0007
0013
0003
0008
0003
002C
FFCF
FFF5
FFE6
FFDF
FFFF
001A
FFF0
0018
0019
0016
FFED
0019
0032
FFE8
FFF1
FFFB
FFF7
0020
001B
000A
000E
FFF7
FFEB
FFFA
FFDE
0027
0013
0001
0019
FFF1
0012
0027
FFF7
001B
FFF2
0002
FFF9
001F
000C
0016
FFDA
0004
0001
FFFF
FFF0
FFEA
0002
0002
0001
FFDE
002D
FFF7
000C
0022
FFEF
0014
FFFA
FFE8
FFEB
FFFB
FFFC
002C
FFE6
FFFF
0013
0010
0003
0001
FFE5
FFFE
0009
FFF7
FFE1
0004
FFF4
000C
FFE4
FFEE
0003
0001
FFFA
FFF0
001E
FFF9
0021
0020
0016
FFF5
FFFF
FFEF
000A
FFEA
002C
FFEF
002C
000A
0000
FFFD
0021
002C
0010
0005
0017
FFF4
0003
FFF4
FFD4
0015
0008
000E
FFFD
FFFE
FFEA
FFEF
0019
0015
FFF6
000A
0000
000D
FFE9
0025
001C
001D
FFE1
0007
FFEA
FFDC
FFDD
001A
FFFB
FFEC
FFE5
000C
FFD5
0008
FFE5
FFE4
FFF3
FFFF
FFFB
FFF0
FFFE
FFEF
0026
FFDF
000D
0017
FFD6
FFD9
FFF2
0010
FFED
001B
FFE5
000B
FFE6
0004
0019
0002
FFEC
001D
FFE0
000A
0020
001D
001A
000F
0003
FFEB
0023
001B
0010
0018
FFF9
0004
0002
FFF3
FFF0
FFF1
0005
FFF9
FFF9
FFF1
FFFD
0016
0016
FFEF
001D
0010
000E
FFEA
0001
FFDE
FFEA
FFF0
000F
FFF9
FFE7
0019
0020
FFF1
FFFD
FFFE
001A
FFFC
FFE9
FFFA
0009
0013
0010
0010
0002
001C
FFE1
002C
FFF8
0000
001C
FFFB
000D
002B
000C
000B
FFD1
001F
0004
FFF7
FFF5
0009
0008
0020
FFF4
FFFE
0020
FFF0
FFF6
001F
0020
002E
FFE3
FFEB
0017
FFD0
000E
0027
0017
FFF9
0014
0013
002C
FFF0
FFED
FFD9
FFEE
000E
FFDD
FFEB
000A
FFEE
FFE0
FFE8
FFEB
0022
FFFE
FFFA
0005
0006
001B
0006
000C
0006
0026
FFFD
FFDB
FFD0
001B
0028
0012
002C
0027
FFFF
FFEF
0016
FFDA
FFFF
0002
FFFE
FFFE
0001
FFE5
FFF5
FFEF
0003
000F
FFF1
001D
FFE4
000C
0014
0000
FFED
FFEB
0027
0012
FFCF
0014
0006
000C
FFED
002C
0012
0001
FFEE
FFFD
001F
000D
FFFF
0012
0003
0001
FFF6
0002
FFF2
FFE9
FFF0
0002
002A
FFEE
001E
0004
0014
000B
FFE8
000C
002E
FFE9
FFED
0005
0004
FFF5
FFE2
FFDF
FFFB
0022
0002
0005
FFF2
0002
0022
FFFB
000B
FFFE
0010
0004
FFE7
0009
000D
0013
0015
FFF9
0014
FFF5
FFF6
0013
FFE0
FFFA
FFFD
0010
0021
FFF4
FFEC
FFEF
FFE9
FFEB
000A
FFEC
FFDA
0019
FFED
0015
FFFA
FFFA
FFF6
FFF1
0018
FFF7
FFE9
001C
0003
0013
000C
FFF1
000C
FFF6
FFFC
0017
FFEA
002E
FFF8
FFF2
0007
FFD6
FFD3
0023
FFF5
FFF4
FFF7
FFF4
0026
0023
FFFF
FFF1
001A
0001
FFF3
FFFF
FFD4
FFEE
FFF4
0013
0012
0025
FFF4
0003
001A
002B
000E
000A
0001
FFDB
FFFC
0000
0006
FFFA
FFEB
FFDF
0024
FFF6
FFE7
FFFA
FFE7
FFDF
0004
FFEC
0012
0000
0012
FFF2
FFF5
000B
0009
FFFD
002D
0008
0009
0005
FFFA
000E
FFF2
FFF6
FFF9
FFD1
FFD5
0020
FFF4
FFFB
0015
0015
0019
FFF9
001F
FFEF
0003
FFEF
0017
FFFC
0015
0011
FFF3
FFF7
0013
0010
0008
0007
0017
FFF2
002A
000E
FFFB
FFF4
001B
FFE2
0013
FFF8
FFE6
FFDB
000E
FFFF
0002
0005
FFF8
0029
FFEE
FFD9
FFD5
0014
FFEA
FFFA
0001
FFF9
0018
FFEE
FFF0
FFF2
FFF8
0012
002A
0006
0026
0002
FFDE
FFE7
0018
FFFE
000E
FFF4
FFF4
0000
FFE5
FFF6
000C
FFE5
0021
FFFC
FFE4
FFFE
0021
0012
001D
FFDD
0005
FFED
FFFD
FFFF
FFD6
FFF8
FFF2
FFF6
FFFD
0003
FFED
000E
0015
FFF9
0014
FFEF
FFDA
FFEE
000A
0018
002E
0017
001B
001B
FFF9
000A
FFF7
FFED
FFF1
0005
FFF8
FFE8
001F
FFD7
0020
FFF9
0001
FFDC
0010
0000
FFF9
0008
0009
0018
FFEA
FFFB
FFEF
FFE5
0002
0022
FFE1
FFDB
001F
FFE6
0000
0012
FFF9
FFF7
0015
000C
000D
0003
FFE4
0016
0004
FFEF
FFEE
001F
0015
0023
FFEC
FFEC
FFE8
FFE1
0027
FFFC
FFF8
FFF2
FFFA
FFD6
0026
0001
FFEF
FFE9
FFEA
0016
FFD1
0007
000E
0027
FFDA
0012
FFE3
0011
0011
001D
FFE0
002D
FFFF
000C
FFEE
001F
000D
0002
FFF2
0022
001D
FFF7
FFD6
000C
0003
FFF0
0004
0021
FFE4
FFFA
FFFE
001A
0006
000B
FFF8
FFF9
000F
001D
002B
FFFE
0000
0007
000E
FFE5
000F
0011
FFFA
0009
FFF1
FFDE
0025
FFFC
0004
0002
FFE4
000B
FFD8
001C
0015
001F
002B
001E
FFFD
FFE7
FFEE
0018
FFEC
0007
0021
FFF4
FFF4
0012
FFF0
FFE0
FFEA
000D
FFE2
000E
FFF0
FFEB
FFF8
FFE1
000D
001A
000B
FFF5
000A
FFD8
FFF2
FFFE
001E
FFF7
0005
000D
FFE7
FFFA
0003
FFF4
FFEB
0008
0001
0022
FFD6
FFF3
FFFC
002A
FFF5
FFDB
FFF5
0018
0004
0005
FFEE
FFDC
0001
FFD1
FFFB
FFF7
FFD2
0020
FFDE
000B
FFEB
0004
0002
FFE5
000F
000B
FFFA
0032
FFF9
FFEE
0017
0006
0009
FFFE
FFFC
0010
FFFD
0020
FFF8
FFDC
0001
FFF0
001E
FFF4
0003
FFF8
0003
001E
FFDD
FFD8
FFF3
FFF5
FFEF
FFEF
FFF9
FFFC
0004
0011
FFEB
FFF8
FFF6
FFF8
0020
0017
000A
0012
FFE1
000D
FFDF
FFDE
FFF4
0028
001B
0008
001B
0013
0021
FFE6
002F
FFF1
FFDF
0004
FFDE
FFEF
0010
FFF9
001D
FFEC
FFD9
FFF6
000B
FFFF
0001
0011
FFE7
FFF8
FFEE
FFEF
FFED
FFF4
000E
0008
002B
000E
FFD6
0023
FFE3
FFE3
000B
FFEE
FFF9
001F
FFE2
0016
FFEB
FFF6
FFEB
FFFC
0021
0000
FFFC
0025
FFF6
FFD6
FFEC
0000
0019
FFFC
000F
FFFD
FFCE
0012
FFFF
0015
000E
FFF2
FFF4
000F
FFEE
0015
FFEB
0007
0027
FFED
0006
0013
0011
0017
001A
0003
0000
FFEF
FFFF
0024
FFFF
0010
FFFD
FFF0
001E
0006
001F
0004
0020
0008
000D
FFFA
FFEF
FFFF
0024
FFF5
0032
0000
FFEE
FFE6
FFD0
000C
0010
002F
0013
001F
FFFA
0016
FFEE
0022
0010
0011
0003
FFF3
FFF6
FFF7
FFD2
0012
0033
000A
0018
000F
0004
FFDF
0011
FFE9
FFEE
FFDB
FFF3
FFE2
0003
0013
FFFE
FFF6
FFFD
FFF0
0031
FFE4
FFF0
0002
0013
001B
FFF7
0018
0010
FFDF
FFFE
FFEE
002D
FFCE
0019
FFF5
0018
0012
0007
0009
0002
0013
FFF6
0005
0005
FFFE
0009
001A
FFDD
FFF8
FFFF
FFD9
FFDF
FFFD
FFF0
0017
FFEB
FFEE
001F
FFF0
FFF7
0023
FFFE
0006
FFED
FFDB
000E
0003
000F
FFD9
0004
0002
0007
FFE4
0029
000C
FFFF
FFD8
FFCD
FFCD
0009
0015
000A
0019
FFEE
001F
0004
000E
0010
001F
FFDC
0028
0020
FFF2
0005
0011
0008
FFFD
000F
FFFC
0001
001C
FFD4
0024
FFDC
FFE7
FFF6
FFEB
0020
FFF5
FFFC
0024
0012
0016
0012
FFCF
002B
FFEF
0003
FFFE
001A
FFDF
FFDC
FFF0
FFFE
001A
FFFE
0019
001F
0005
0010
FFFC
0000
FFE3
000B
000C
FFF7
0021
FFDD
0006
FFF9
FFF8
001A
FFF3
0023
000E
FFFE
FFF8
FFF9
0003
FFCD
FFE4
0002
FFE1
FFF4
FFFD
000C
0019
FFE0
FFF9
FFE3
FFE8
0002
FFF4
001D
FFF9
FFF2
0005
FFDA
FFEF
FFDC
FFFE
0000
0024
0009
FFF9
FFED
000A
002A
FFE3
0025
FFE6
0015
FFE9
FFFD
0018
002E
FFFA
FFF1
FFDE
FFFB
FFFF
0012
0004
000A
FFFA
0006
000E
001D
000E
0032
FFDF
FFF0
0004
001B
FFEF
FFF6
FFFC
FFF9
FFFD
0015
0009
000E
001E
FFFE
001F
0025
FFFB
FFED
000A
0003
000A
0016
FFFE
0013
FFFC
001B
000A
FFEF
FFF9
002D
0014
000B
FFF0
0024
FFEF
0006
0007
FFF8
FFD5
FFF8
FFEF
FFF8
FFFB
FFE4
0012
0002
0025
FFEE
0012
FFFB
FFE8
FFF5
0001
002A
0014
FFF3
0017
FFD8
0021
FFD6
0031
FFE3
FFDE
FFFD
FFE1
0005
000D
FFFE
0011
FFF2
001E
FFEA
0020
FFFA
FFF7
FFFE
0003
FFF4
0017
FFFE
FFE1
0017
FFFF
000C
0017
FFE2
000E
FFE1
FFF4
FFF1
FFFF
FFEE
FFE1
FFEF
FFE5
0007
FFF1
0016
0020
FFDD
FFF9
FFEF
000B
FFFB
FFE9
FFED
FFD8
001F
0005
FFFD
0017
0000
000D
FFF5
FFE1
0008
FFE2
0014
0015
FFFF
FFF6
0003
001C
0031
0015
FFFF
0033
FFEA
FFFB
FFFE
0006
0020
FFFB
FFFF
FFF3
FFF3
0030
FFDD
002E
FFDA
FFFE
002F
FFFF
FFF5
0018
FFEE
FFEF
001B
0025
FFEE
0004
FFE8
FFFE
FFF2
0027
000E
FFEC
001F
0005
002E
FFE2
0000
0032
FFE9
000A
FFF6
FFF6
000E
FFE7
0013
0006
FFEE
FFFD
FFFD
FFF6
0004
FFE2
0023
FFE8
001F
0010
FFF8
FFE3
000D
FFE2
FFF6
001D
FFFB
FFFC
FFE1
001B
FFEA
FFED
FFE9
0003
FFE2
FFEF
FFE8
0022
FFEA
FFFB
FFF9
FFD5
FFFA
0010
FFFA
FFE8
0001
FFD9
FFF8
FFE9
001A
FFF7
FFEA
FFF9
002F
FFE7
FFEA
0005
0023
FFFB
FFD8
FFF4
FFDB
001B
0008
FFF5
0020
FFD6
0019
FFF8
0010
0011
FFF8
0009
FFEA
FFF1
001B
FFED
FFEE
000D
0007
0013
FFFA
001F
001C
0022
000F
0015
0012
0017
FFFB
FFEB
0029
0011
FFE3
0006
000B
0018
002B
000C
FFD7
0006
0004
0005
0006
FFFA
0008
0006
FFFD
001E
FFFC
FFED
FFF4
0006
FFEA
FFF3
0019
0007
FFD8
FFDE
0024
FFE2
FFF8
FFDE
FFFB
0007
0008
FFE8
FFEB
0017
0015
FFEE
FFFB
FFF5
000E
0019
FFF8
0009
FFFD
0006
FFED
FFD4
001E
FFD0
FFF9
FFD8
FFF3
FFFC
000F
001E
0007
0004
0019
FFF3
FFDB
FFCE
FFFF
FFF9
FFFE
0003
0006
FFEE
FFDC
FFFA
0028
FFFF
FFD2
001A
0002
FFF0
FFD7
0005
FFF5
0014
FFFC
FFE3
000F
001D
000C
FFE1
FFF3
FFFB
FFE3
FFFC
FFEF
FFE1
FFE5
FFD4
0005
000D
002A
001E
001F
FFE1
FFF5
002D
000E
0003
000D
0017
FFE7
FFF5
0004
0007
FFF1
FFF7
0005
0005
0006
FFF9
FFF8
FFFD
FFE2
0009
000A
001B
000A
0025
0010
FFE1
0011
FFD9
FFDD
FFE4
FFE2
FFF3
FFFC
FFD8
FFFD
FFF8
FFE8
FFE2
FFEB
FFF1
0009
000C
0002
0009
0026
002C
000D
FFE5
0019
001A
0009
FFEF
FFFA
FFFF
000B
FFFA
FFF9
FFEA
002D
FFF1
FFF1
FFF1
0020
FFFA
FFFD
FFE0
000C
0016
0006
0026
001B
FFE2
0016
FFD7
FFE0
FFF2
0005
001F
FFF9
0000
0028
FFF1
FFFE
0010
0019
FFF4
FFDB
0009
FFE6
0005
002A
FFF3
0016
000B
FFED
0011
FFE2
FFE7
FFFD
FFFC
FFF5
FFEF
FFDE
0000
001B
0015
FFF5
0015
000C
0023
0017
FFE9
FFD0
0012
FFF1
FFDE
0017
FFF4
FFE7
FFF4
0011
0019
0010
FFF5
002E
000F
0017
FFE2
0005
0001
0025
FFF8
000C
FFF2
0019
FFF2
FFD4
0010
FFE9
FFF9
0006
FFDA
0012
FFF5
0019
0007
0006
FFF0
0003
0005
0001
FFF2
FFDD
0017
0029
FFFE
FFF9
FFF8
0021
0003
0012
001B
0022
0024
FFEA
0015
0018
FFED
FFF5
0011
0033
FFFF
0012
0015
0007
0006
FFE2
FFF7
001C
0015
FFEC
FFFB
FFF4
0018
0005
FFE8
FFEE
FFFF
0010
0015
0011
001B
0019
0003
000F
0007
FFED
002E
000A
0006
0013
FFE4
0014
0005
0005
0016
0007
0009
0031
0002
FFED
FFF5
001D
0013
0025
FFF4
FFF3
FFEC
FFE1
FFF1
0008
001E
001D
000D
FFCF
FFFD
FFF6
000D
0010
001E
000A
FFEE
000C
FFE6
000F
FFF8
0001
0001
FFDB
FFF9
FFF4
FFFB
0000
0007
0012
FFFD
FFEC
0005
0007
0008
0002
0024
0009
FFE6
FFE0
0011
0009
0001
FFFA
FFDC
0006
0015
000F
0013
FFEF
FFF2
FFED
FFE7
FFEF
0005
FFEE
FFF1
0003
FFD5
000C
FFFC
0014
FFF8
002B
FFEF
FFF8
FFF5
002C
FFFC
0000
FFFC
0010
002C
FFE5
FFEE
FFF4
0019
FFE4
FFE0
FFF0
000A
0001
0010
FFD2
FFF5
FFFC
FFF3
FFEB
FFF3
0012
0012
0023
FFDD
0016
001F
000A
FFD7
FFE5
FFEE
0032
001A
FFF7
0023
FFF9
0023
0010
0018
FFF4
001F
000D
FFD7
001B
FFF2
FFF9
0021
0016
FFF0
FFE9
FFF3
0025
FFE2
0012
0004
FFE3
0010
FFFD
001D
FFEF
0014
0020
0005
FFE0
001A
001C
000D
FFE5
FFF5
000C
000D
0014
0030
FFE0
001F
FFEB
000D
000A
FFFB
FFEA
FFF0
0007
001A
FFFF
FFD6
FFF7
0016
0016
FFDB
0008
0000
0023
001D
FFDA
0026
FFE8
FFDC
FFE9
001C
0003
0020
FFFD
FFDF
0000
FFF3
FFDE
0001
0031
0000
0011
0006
0023
0008
0013
FFE1
000E
FFCF
0002
FFF2
FFF3
002B
0009
FFFD
0015
0011
0000
FFF9
FFDC
FFDD
FFE2
FFE9
0018
FFF0
FFF1
0000
FFD7
0010
0021
0015
FFF3
002E
000C
0000
001C
FFFB
0013
FFF4
FFEF
FFEC
FFFA
FFE9
0021
000F
0002
FFF6
FFEB
FFCF
FFDA
0010
FFF7
FFEF
0016
0008
0020
000D
0020
FFF9
0028
FFF3
000D
0014
FFE7
FFFC
FFFC
FFEE
FFE8
FFDF
0020
001F
0020
FFF8
001A
0009
0010
FFEE
0005
FFF4
FFED
FFF4
FFE4
FFF9
FFDC
FFEC
0018
FFF6
000B
FFF4
FFF6
FFEC
FFFE
FFFE
FFE2
0021
0027
000E
FFFD
FFD9
000F
FFEF
FFF6
FFDF
FFEC
0001
001C
000D
0018
0012
0013
FFFE
0007
0018
FFDC
FFFE
0003
FFF7
FFED
0009
FFDD
FFF5
0004
FFFB
FFF7
002F
000F
FFF3
0005
FFD2
FFE5
FFF7
FFF2
FFF9
FFD8
FFDC
FFF7
0010
FFFF
FFF3
000A
FFF2
FFD5
002B
000F
000D
0020
000C
FFFB
0010
0009
0005
0019
0012
0023
FFD8
FFE7
FFEB
FFEA
0016
0014
FFE1
FFD4
FFF9
0013
FFFE
FFFC
000C
FFE6
0018
FFED
0027
0000
002C
FFFC
FFD5
0008
FFD3
0013
FFF0
0001
FFFC
0003
FFF8
FFFF
0016
FFD4
FFF3
000A
FFF4
0009
000D
FFEA
FFEC
0003
FFF2
FFEC
0028
0013
FFEA
FFF9
0027
0033
FFE4
0007
FFF3
0005
FFEF
FFF0
001D
FFD7
FFEA
0019
FFCF
FFFB
FFEA
0009
0021
FFDE
FFFC
0014
001A
000F
FFFF
FFF2
000A
0010
FFE9
001C
FFE7
0013
FFFA
000A
000D
FFFD
FFF8
FFF3
FFEC
0002
FFFE
FFF6
FFF2
0019
002E
0024
0000
FFE4
0022
0012
0001
0000
001E
FFF6
000F
001C
FFFF
0003
0001
000A
FFFD
000D
0011
001B
FFF5
FFF8
0004
0032
001D
001B
0018
FFFD
0031
000B
001E
FFD8
FFDB
FFEE
000F
0021
0023
FFF2
0004
000D
FFE8
FFE6
FFF9
FFD1
002B
000E
0006
0029
FFDB
FFF8
0008
FFE5
FFE8
FFF3
0016
FFF4
0001
FFDE
000E
0001
000F
0026
002E
FFEE
000C
0005
FFF0
0005
FFF7
FFFF
0011
FFF5
FFD0
001B
0026
0028
0001
002C
0015
FFF4
FFE9
FFDA
0011
FFFD
0015
001F
0000
0027
0026
FFE9
001E
0020
0001
0016
000F
FFD3
001D
0011
FFFE
000E
FFCF
FFFD
FFE3
0033
0013
0007
0012
0010
0023
000C
0013
0004
0002
FFFD
FFF6
FFEC
0003
000B
FFEF
0025
0010
FFD8
001F
FFDA
0013
FFED
FFF5
FFE2
000C
FFE4
0003
000A
FFE0
FFE3
FFF0
FFEC
0006
FFE7
0003
FFEE
0000
FFFA
FFF8
0023
FFE1
0028
FFF7
0007
FFD0
0015
FFFD
FFEB
FFD3
0003
0006
0006
0023
FFED
FFFD
FFF3
FFFF
FFEE
FFDB
FFFE
000D
0000
001F
FFFC
0010
0010
FFF8
FFF3
000B
001C
FFEE
0018
FFF3
FFDC
000F
FFD7
002E
0004
FFF4
0018
001A
000E
FFF8
0001
FFF6
002A
0004
FFF9
FFE1
000D
0008
0021
FFFF
FFE8
FFF9
0027
FFED
0002
0013
001D
001A
001C
0014
0014
0020
0005
0023
0027
FFF4
0000
000B
FFFF
FFF4
0007
FFCF
000D
FFED
FFFD
0001
FFF6
000C
0006
001B
0001
FFE5
000F
FFE4
FFF6
0012
FFFD
FFEE
0003
FFFA
0001
FFF9
FFE9
001E
000C
FFE6
000E
0001
FFDF
FFF8
FFE8
FFEC
FFF3
FFE0
FFE7
FFE0
FFFE
FFD9
FFE3
FFE3
FFDC
FFF0
FFF0
0006
FFF3
FFFE
000D
FFE7
FFD7
0012
000A
FFD9
FFDF
FFFE
0021
0007
FFE7
FFDD
FFED
0002
FFF4
FFE4
0002
002B
FFFB
0005
0018
FFF3
0012
FFE6
000A
001E
0026
0013
002F
0013
FFF4
FFF9
000C
0003
0007
0015
0022
002E
002E
0002
0016
001D
0026
FFEE
FFF9
FFEF
0003
0023
002D
FFFE
000D
0008
FFFE
FFF8
FFE8
FFF7
001C
FFF4
0031
001F
0007
FFDF
FFD7
0003
0022
002C
FFEF
000E
0018
001C
0009
FFF3
FFEC
FFDD
FFE0
FFEE
0001
0011
0002
0018
FFDF
0006
0015
000F
FFE0
0027
001C
0003
FFE6
0020
0009
FFD0
0006
0014
FFEA
FFFE
0030
0001
FFE3
0000
002D
0006
FFF9
0013
0002
FFE6
0004
FFF4
FFF2
0025
000E
FFF6
FFE6
FFE7
0018
0023
0032
FFEE
0006
FFED
0018
0000
0009
001E
FFF3
0013
0005
0022
FFEB
002D
0017
FFF3
0026
0008
000A
FFF6
FFD7
0023
FFE1
0008
0008
FFFF
0017
FFF5
0017
FFF8
FFFE
000D
FFD9
FFF7
FFF8
FFE4
FFFF
000A
FFDD
0010
0022
FFEC
FFFB
000C
FFEC
0007
0026
FFF7
FFE4
0024
FFE7
0025
001E
0023
0019
0006
0032
FFF0
FFEE
0001
001B
FFD5
000A
FFFC
0028
000F
FFE3
0033
0005
0009
001B
0014
0004
FFE6
FFFF
000E
FFF7
0011
0008
FFD2
FFF5
FFD1
000D
FFCE
0008
0008
FFEF
FFF3
FFD9
FFE1
0004
0023
FFE4
001C
FFE1
0014
001F
0019
FFD6
002B
FFFC
0014
000C
FFFB
0008
FFE7
002B
0020
FFE4
FFE0
FFF2
002E
FFFA
0010
0024
000D
FFFA
FFFD
FFE7
0028
001B
0013
001E
FFED
0026
FFDB
FFF3
0003
FFD8
FFE5
0013
000A
FFF3
0010
0006
0012
FFEB
FFE4
FFCD
0014
FFE3
000E
000D
0011
001E
FFF6
0008
FFF3
0013
0013
FFE2
FFE8
FFF0
FFEC
FFE9
FFEF
0009
0003
0006
000B
FFD6
FFFD
FFFA
0020
0017
FFF3
FFF8
0019
0016
000C
FFD4
FFF6
0006
FFED
FFE4
FFF6
FFDA
0005
0008
0016
001B
FFF7
FFF7
FFFD
0001
FFE4
0005
FFEF
0009
FFE3
0001
FFEB
FFFE
000B
FFE6
FFEF
0010
0016
0032
FFFA
FFEE
000D
FFD1
001A
FFF8
FFEE
000D
FFF8
0008
FFEA
0019
FFD1
0011
0004
0026
FFE1
FFF4
0004
FFE0
FFF9
002B
FFFF
000E
FFE1
FFDB
FFF4
0008
FFEC
000A
0010
FFE8
FFE7
000D
001F
FFE7
0016
0006
0029
0010
FFE8
FFFC
FFF6
FFE5
0005
FFED
FFF9
FFF0
0007
0022
0008
0008
0018
FFFF
FFE0
0002
FFF0
0000
0019
FFE9
000C
001E
001B
FFE3
FFCD
FFF7
FFF5
FFFA
0001
000F
000E
FFFA
0008
FFE9
0006
FFFA
FFD9
0010
FFF1
FFF5
0006
FFEA
FFED
0026
FFF3
0001
FFCD
000C
000A
FFF8
FFE3
001B
FFFE
FFEE
000F
0024
002C
FFFA
FFF6
FFE5
FFEC
FFE3
001C
FFFB
FFF9
0011
0009
FFE0
FFF7
FFFF
FFEC
FFFA
001D
FFF0
0009
0002
FFED
0021
0025
0004
0022
FFF5
FFE9
000C
0007
FFF0
0009
FFE7
001D
001F
FFE2
0004
000B
FFF1
000A
000B
FFF2
FFD7
0002
0008
0014
FFED
0021
0016
0021
FFFF
FFF0
0010
0013
0004
FFDF
FFF1
001C
0017
FFF8
0015
0014
001D
0006
FFD0
0001
0003
0016
0023
0010
0020
0008
FFEE
000D
0013
000A
0008
FFFA
FFE7
0000
FFFA
0002
0004
FFFC
FFEF
FFE4
FFEA
FFD8
FFDD
FFDC
FFDF
0011
000F
FFED
000B
FFDB
FFF6
FFEA
002C
001C
FFF8
FFF0
0001
0003
000C
FFCD
FFEA
FFE9
FFFC
FFD6
000B
FFE7
FFE2
FFFE
FFF5
0012
0023
FFFE
FFFE
0001
FFF5
FFF9
002A
FFFB
0005
FFF1
0005
0007
FFF8
000C
0003
FFD3
0016
000D
FFEF
FFE5
FFEA
001E
000F
0023
0021
FFE9
0009
FFFF
0015
0003
000B
000F
0020
FFE4
FFE3
001B
0004
FFDF
FFD8
0001
0015
000E
0014
0017
FFE4
FFF3
FFF6
FFEE
FFDA
0005
FFFE
0002
0008
0029
FFFD
0000
FFFA
FFF2
FFEE
FFF2
0011
001A
0020
FFF4
FFE5
001B
FFD1
FFF9
FFF0
FFDC
FFF0
FFFF
FFF9
FFFF
002A
0006
000C
001E
0017
000B
0004
FFFC
FFF5
FFD1
000E
000F
FFF0
FFFB
0018
0007
000D
0031
000D
000A
0005
FFD7
FFFA
FFFA
FFEE
0016
FFFA
0014
0013
FFF9
000C
FFDD
0004
000D
FFFE
0028
FFE4
FFE4
0011
0021
FFF4
FFF4
FFEA
000D
0009
FFF9
FFF5
0024
FFFC
000F
FFE9
FFEF
0006
000B
FFE9
FFE1
FFEC
FFE6
FFEA
FFE3
0002
0009
000C
FFEA
FFED
FFFF
FFF5
0005
FFE3
000C
FFF7
FFE7
FFE7
FFD5
0028
FFFE
000B
001C
FFE7
000B
0007
FFE3
0029
0008
FFFE
FFD9
0018
0012
0014
001F
FFD2
0002
0029
FFF4
0000
FFF0
FFFE
0003
0000
0006
0011
FFE2
000C
FFFA
002D
000E
000D
FFF7
0007
FFFB
FFF9
0014
002B
FFDA
0013
002B
0008
FFE0
0004
FFFA
FFF7
0019
FFF9
0015
FFF1
FFFD
0013
FFFE
000D
FFF9
FFD1
FFF0
0018
0024
FFE1
FFE8
0004
0012
0021
FFF7
FFF3
FFF6
0000
0008
FFF1
0004
0003
FFEE
FFF9
FFDE
0009
FFFE
0017
000F
FFFE
0017
FFF5
0004
0013
FFF7
FFD7
0013
FFFF
002E
0009
0005
001B
FFEB
FFD9
FFF0
FFE0
0008
FFFD
FFE9
0004
0008
0009
0012
FFF3
FFF8
FFFC
FFFC
0000
002A
FFD7
FFF8
FFDE
001F
FFFB
0003
FFF0
000D
0009
FFF6
FFFB
FFCF
FFE0
0005
0029
0025
0009
FFEA
0006
0012
0009
0010
FFF2
FFD9
000A
FFFC
FFED
FFF1
0006
0016
0001
0006
0027
0012
FFEF
FFED
000E
0020
FFF0
FFE4
000F
0015
FFF4
FFEA
0022
0026
FFFB
000B
0007
FFF1
0019
0016
FFF1
0016
FFFE
FFEC
FFCE
FFF6
FFE9
FFFC
0008
FFE7
0000
000A
0012
FFFB
FFE9
0027
000A
FFD0
FFE7
0029
FFDB
FFFF
FFED
000F
FFFC
0001
0014
000A
FFF2
0003
FFF2
0013
0005
FFF6
0009
FFEE
FFFA
FFF0
0002
0012
000E
FFD7
FFF3
0008
FFFD
002B
0030
0002
0014
FFE8
FFE4
0016
FFF3
FFDB
FFED
001B
FFE4
0006
FFE1
FFF4
FFDD
002E
0019
0017
FFCD
FFF3
0004
FFFA
FFE8
0019
FFEF
001D
FFF9
001F
0017
FFE9
001B
FFD6
FFE1
FFFB
0013
0008
FFF8
FFFD
FFD8
0011
002B
FFF3
0014
0015
FFF0
000F
000A
FFF9
000A
0006
FFF4
0004
0027
FFE5
0018
002E
0000
001E
0016
0014
0002
FFEC
0011
FFF7
FFE8
FFE5
FFF8
000E
FFF5
FFF9
FFF7
FFD6
001C
FFE1
FFEB
FFF4
000E
001C
0019
0008
0012
FFE1
FFEC
0015
0005
FFF5
FFFF
FFFD
FFEC
0019
FFE9
001B
001B
0008
FFF3
FFEC
FFF6
FFFF
FFF5
0001
FFDC
0014
0009
0027
0010
FFE0
0027
FFF6
000D
FFFE
0013
FFEA
002B
0023
FFE2
FFF4
FFF3
0003
001B
FFF6
FFE7
000A
FFF6
FFE4
0011
FFF1
FFE6
0019
0019
0011
FFF5
FFDA
FFEA
0012
FFFB
0009
FFEE
FFFF
000C
FFEB
FFDB
FFF4
FFE2
000C
FFF6
0001
FFF3
FFFD
0032
000B
0020
0028
0009
FFEF
FFF6
FFEC
000C
0009
FFF0
FFF0
FFFA
001A
FFEC
FFEC
FFCF
0006
FFE8
0002
FFF6
0008
FFFE
FFFA
0023
FFF4
0003
000F
FFF3
FFF7
FFEB
0006
002F
FFE7
0006
0018
0004
0000
0022
000A
0011
0015
FFF2
FFFE
0000
FFF4
FFDC
FFF6
0006
0006
FFD6
001C
FFFD
FFFA
0005
FFEF
FFFC
FFF2
FFF8
FFE2
FFFB
FFF4
FFEC
FFD8
FFF5
FFF8
FFE1
000C
FFF3
0023
FFCD
FFE2
000B
0008
0000
FFEC
000E
0006
0014
FFF9
0009
001C
0026
FFDF
0009
000E
002D
FFE4
FFEB
FFF1
000D
000D
FFF2
0018
0001
FFF6
FFE3
0016
0000
FFFC
FFDA
FFFA
FFE7
0007
FFFB
FFF9
FFE5
FFF6
FFF1
FFFC
0028
0001
FFFC
FFF3
FFFB
000A
0027
FFF5
FFD5
FFED
FFF8
FFCE
0025
FFF3
FFE2
0012
0008
001E
FFF4
FFFB
0008
000B
001B
FFFB
FFEC
0018
0008
FFF2
FFFB
0016
FFF7
FFF9
0013
0015
FFE4
FFFB
FFE6
FFEB
0015
0004
0004
0023
FFE6
0001
0001
0019
FFCF
000A
FFFC
FFFB
0000
FFE2
001F
0009
0018
0033
FFED
FFFB
0007
0006
FFEA
FFDC
0000
FFE7
FFED
0001
0001
FFEA
FFE4
FFEF
FFE0
0016
000B
FFD8
000D
0012
002E
FFF3
001E
0015
FFD5
0022
0002
FFD1
0017
0021
FFF9
0020
0004
FFFC
0014
FFF1
FFF8
FFFC
FFCD
FFF6
0003
0024
FFFB
001A
FFFF
FFFA
FFE2
000D
FFF9
FFEE
0017
002B
0007
FFED
FFF9
FFE3
FFE2
FFE7
0011
000F
FFDD
0004
FFEE
0022
FFEA
FFD2
001C
0007
002A
0000
0002
001E
0019
FFD5
FFE9
FFE0
FFD6
FFE9
000D
FFEF
001A
002F
FFEB
FFDF
0033
FFD6
0014
FFF8
FFD3
FFFC
001C
001E
0004
FFFF
FFDE
001D
FFEB
0000
FFEB
0027
001A
0008
FFF5
FFE9
0010
0025
0013
0000
0007
FFF3
0002
FFF8
000E
0008
0029
001B
FFF2
000A
FFE3
FFE7
FFE0
0002
FFF8
FFF1
0010
FFE3
0005
FFF5
002A
0014
FFD1
FFED
FFFC
0006
0006
0004
0004
FFD1
FFDB
0009
0000
FFE2
0002
0022
FFFB
FFE2
000A
FFEA
0004
0006
FFE9
000A
0016
FFF2
000D
FFE9
0007
FFE8
0023
FFFC
FFF9
0026
FFF5
0021
FFF0
FFEE
0025
0023
000B
FFF8
0007
001B
FFEF
000D
FFDE
000E
0005
0015
FFD7
0024
0009
000A
FFFE
FFE1
0008
0023
FFFB
001A
FFEA
0028
000F
000B
0020
0019
0000
FFEB
FFFB
FFF8
0010
FFE4
0009
000D
0012
0033
FFF4
FFD5
0003
FFEA
FFF9
001C
FFF6
FFFD
FFFB
0017
000B
000B
FFF8
000F
002C
0023
0010
FFE0
0005
000C
FFE9
FFF4
002D
FFFF
FFFD
FFF7
FFD4
FFCD
0026
000E
0017
001E
000A
FFDF
FFF5
0005
FFF6
001E
FFF0
FFF9
0011
001D
FFDE
0018
0004
001D
FFDA
0001
0024
0011
0002
0016
0004
0012
0006
000C
0025
0008
0026
0006
0012
0005
0011
0006
FFEC
FFE7
FFED
FFE2
FFEB
FFE5
FFF6
FFFB
000A
0011
FFF8
FFEB
0012
FFFF
FFE2
0006
0006
FFD4
001F
0028
FFFE
FFF9
FFE8
001E
0013
0016
FFD9
0001
FFF5
FFE4
0018
0001
001D
FFE4
FFD6
0000
0019
000E
FFFB
0010
0011
FFF0
0022
0000
0023
0009
000D
FFD9
FFE5
FFD6
0025
0006
FFE3
FFFD
0014
FFEF
FFE8
0009
FFEE
FFFB
0021
0013
FFD2
FFF2
0016
001F
FFDD
0020
FFDA
000D
FFDC
FFFC
0004
FFE6
0000
FFF9
FFE0
FFDC
0007
000B
FFF4
0002
FFF6
0001
0028
FFF8
0009
FFE9
0006
FFFC
FFF5
FFE4
0005
0000
FFFF
0000
FFD9
0007
0015
FFD7
0000
FFEC
0029
FFD3
001F
002D
FFFA
0004
001A
FFFC
0027
FFE8
002E
FFDD
FFD8
FFF4
FFED
FFFF
0009
FFD8
FFD9
0006
001A
0013
FFEB
000B
FFCF
0011
FFEB
0023
FFE1
FFDD
0007
001D
FFF1
FFF2
000D
000B
0025
FFF9
FFE8
0009
FFEB
0024
FFF5
FFF7
002C
FFDA
FFEF
0015
000E
000D
FFE6
001C
0007
0007
0010
FFDA
FFEC
FFF9
0020
FFF4
0014
FFFA
FFF9
FFF6
0032
002A
0027
0008
0011
FFD4
FFE5
FFE9
0016
000B
000B
FFCE
0003
FFFD
0002
FFE6
0022
0017
FFDA
002D
0003
FFDC
0007
FFF9
000B
0009
FFEB
0018
FFED
000A
0008
FFDF
0005
000D
0004
FFFE
0007
FFEB
0007
FFE5
FFE5
0002
FFF8
0009
FFCD
000C
0025
FFF4
0003
FFDF
0005
FFFE
FFF9
FFF2
FFE9
001F
0000
001B
FFE6
FFEC
FFE2
FFF6
0020
0019
FFDB
0017
0000
0009
0006
FFF8
FFFD
FFE4
0005
0017
0016
FFE7
FFDA
FFEF
0021
0006
FFFB
0032
000F
0017
FFF4
0005
FFFA
0000
0013
0027
FFF6
FFF8
FFE7
002C
FFEC
0020
FFCF
0010
0022
0008
0022
0005
0012
FFE1
FFD1
FFE2
FFF1
FFE4
FFD3
FFE7
FFF3
0005
0016
000B
001F
0016
0001
0017
FFEC
0022
000E
0028
0013
FFFE
0004
000B
FFE9
FFFA
001E
FFE3
000F
FFF6
001D
FFE5
FFE1
000B
0018
FFD0
0018
002F
0001
0012
000F
0005
0005
FFF2
0012
FFFF
002C
001B
FFF3
0013
FFD3
FFFF
FFFD
0011
FFE7
FFDC
0002
0005
0018
0012
000F
0014
0002
FFEB
FFF7
0001
0006
FFF5
0013
FFF2
FFEF
0017
0011
0009
000E
0008
FFF4
000A
0004
FFCD
000B
FFDD
FFFF
0021
0012
FFFE
0008
FFE3
0019
0008
FFEB
0010
FFFE
FFD9
0012
FFF1
0008
0000
FFE7
0010
FFF6
0004
0001
0017
FFDC
FFFE
0021
FFF9
0002
FFF4
0003
FFDE
FFE4
FFEB
000D
FFEC
000B
001E
000C
0033
0006
0007
FFFF
0001
FFED
0002
FFF4
FFDE
0010
FFE6
FFFB
0019
FFEF
002E
FFF4
FFF1
FFEC
0007
0020
000F
FFEC
0004
FFF2
0014
0016
FFEF
FFF6
0011
0020
001B
0020
FFE4
FFE2
FFD4
FFE0
0019
0013
FFE6
0019
FFEB
FFEF
0000
0016
001B
000B
FFE5
0004
FFFD
0019
FFF8
FFF6
0010
000F
0017
FFE9
0014
FFFA
000D
0031
0015
FFFD
FFD5
0010
FFF2
0021
FFEF
0002
FFE3
0028
FFEF
000C
0030
FFF3
000F
0013
FFE9
0003
000E
FFFF
000F
001D
000F
0021
0023
0003
FFEF
000E
000B
0011
FFE6
0022
FFDA
000A
FFE7
0004
FFF5
0013
0010
0015
FFFB
0002
FFFE
FFE2
000B
FFEC
FFF9
0002
0021
0008
FFED
0025
000C
0015
0018
001A
0024
0027
000E
FFE1
0012
0002
FFE9
0010
FFF4
0010
FFEC
000A
0015
0023
0033
0016
0003
FFEB
FFDE
FFFC
FFE4
FFE7
0013
FFFD
000A
0006
0011
0014
FFF2
FFFA
0005
000C
FFEE
000F
FFF9
001E
FFF7
FFFA
FFE9
0011
0003
FFFC
000B
FFDE
FFF5
0018
FFFF
FFD8
FFDC
0018
000A
FFFC
0014
FFFE
FFF9
FFF4
FFE7
001A
FFF5
0015
0013
FFEF
FFE4
FFF1
FFE2
0009
000A
FFDE
0005
FFED
0026
FFF6
FFFA
FFFC
0016
0000
FFF4
000D
0006
FFF0
FFDB
001E
000E
FFF7
0022
FFFE
FFEC
FFFC
FFDE
FFD2
001B
FFE0
0001
0009
0028
FFF8
0014
0015
001E
0028
0016
FFE2
FFF4
FFEB
002D
FFF8
FFFD
0026
FFDA
0007
0010
FFE3
0009
0005
0024
FFED
FFFA
0011
0003
FFE9
FFE8
001E
0015
0000
FFF6
0006
FFEA
FFF7
001D
0006
0000
0017
FFF4
FFF1
0003
0000
0001
FFF0
FFE3
0029
FFF0
0016
0007
002A
FFF1
FFEE
0022
0026
0028
FFF9
FFFF
FFDE
FFDB
002F
0000
FFF7
0019
FFE9
000D
0016
FFEE
FFF3
000F
FFEF
FFD7
0004
002E
FFFA
0013
FFEE
FFDF
0013
FFFC
0006
002F
0013
FFFB
0016
000B
FFF7
001C
FFEC
FFD0
FFE1
FFE0
0003
FFFF
FFED
FFDE
001B
000E
FFEC
FFDD
FFEA
0027
0013
FFDF
FFF9
FFF0
001A
FFE1
FFFF
FFF3
FFFA
0022
FFEF
FFF8
0017
FFFB
FFF6
FFF4
0001
FFFB
0001
FFF9
0001
0020
FFFD
0024
FFF7
FFE3
FFEC
FFDF
FFFB
0003
FFF3
0029
FFF3
FFEE
FFFE
FFE6
FFF8
FFE3
0019
FFF0
FFDD
FFF9
FFF7
0008
002A
0029
0000
001F
0001
FFD6
001C
FFD4
FFEA
FFF2
FFEA
FFFB
FFDA
FFDC
0016
0020
FFF2
001C
FFFA
001E
000A
0004
FFE4
FFFF
FFEE
0009
0019
0015
FFFF
FFDE
FFFC
002A
FFED
0018
FFE2
FFF7
0006
002A
001F
FFF3
000A
FFFD
0025
0028
FFF4
0028
0028
0002
FFED
FFE9
000F
0008
0011
FFF5
FFE8
0007
FFFE
0023
FFE5
FFD9
0000
FFF1
0011
FFCE
FFFA
0000
FFEA
000F
FFE7
001F
001B
0003
FFD7
FFE1
FFE4
0023
FFDC
0016
FFF6
FFE1
0009
0007
FFE4
FFF3
FFEE
0007
000E
FFEB
0027
001B
001B
001D
0009
FFEB
000C
000B
FFEC
FFEC
FFDB
FFF1
FFE3
0007
0013
FFEC
FFFA
0005
FFF6
000E
0008
FFE8
0001
002E
FFD8
FFFA
0011
0005
FFFC
0009
0027
FFEB
FFD4
0010
0020
000A
000C
0017
001C
FFF5
0001
000D
0005
FFED
FFFC
0025
FFDF
FFFE
FFE1
0024
0004
0024
FFDF
0014
000B
FFEA
FFF9
FFF5
0003
0020
001F
0009
FFDF
000B
0009
0027
001F
000B
000A
FFEA
0009
FFE9
0005
0017
000B
FFF5
FFF8
0004
FFEB
000F
000E
001C
FFE6
0021
FFF2
001A
001B
FFED
0006
FFF1
FFE5
FFEF
0012
0027
FFFE
0003
FFF1
FFE0
0001
0005
FFF0
0005
000F
FFEC
0009
000F
FFFC
001A
0000
FFD2
FFE5
0002
FFFA
FFE2
FFEF
0005
0009
0004
FFE4
0023
0010
0007
0006
001A
FFD2
FFF7
0029
FFE6
FFE6
000E
001C
FFF3
0000
0022
FFF5
0025
0007
FFF9
0018
FFEF
0006
0018
001B
0028
FFE8
FFFF
0001
0009
0019
FFF7
FFEA
FFF1
FFE7
FFDA
FFFF
FFDB
0012
FFFE
FFFA
FFE1
FFF5
FFEA
000A
FFF5
FFDD
FFF9
0009
0019
0002
FFF4
002B
FFDC
FFEF
FFF4
FFEC
FFEC
0005
FFE1
000C
FFFB
0020
0009
000C
FFDD
FFE3
FFF0
FFFD
FFDB
FFDA
FFF0
FFD5
FFEA
001B
0020
FFF7
000C
0007
FFF2
0011
FFEF
FFD6
0001
0015
0013
FFF5
FFFC
FFFB
001B
0015
FFFA
0007
FFF2
0004
FFF8
FFE9
0029
0024
FFFE
FFD7
FFFC
0008
FFEA
FFDF
FFF2
FFCE
000D
0010
0002
000F
002D
0002
0002
FFEA
FFF8
FFE1
FFFE
0028
000B
FFD0
FFEA
FFFD
0006
0008
FFCF
0030
FFE9
0004
FFD4
0033
FFED
FFED
FFEB
000E
000D
0000
FFD3
FFFD
FFE0
0014
FFF6
FFED
000C
FFEA
0017
001E
FFCE
FFFD
FFF0
0006
000A
002C
FFE5
0001
FFED
FFD8
FFEA
FFFA
000C
FFFC
FFED
0008
0003
FFEF
FFE2
FFED
FFDD
0018
001A
0013
0013
0003
0013
0013
FFEC
FFDB
FFF8
FFF5
0016
FFFF
FFD7
0010
000B
FFD2
FFFC
FFFB
FFDD
0012
0033
FFEA
0018
FFCE
0002
0026
001A
FFF4
0000
FFF5
FFFF
FFF4
000A
FFE2
0026
000B
002A
0023
0012
000C
FFFB
FFF0
001F
FFEE
000C
000D
FFE8
FFCE
FFFD
002C
000C
0000
0004
0001
000D
000C
FFD9
0014
0017
001E
FFEE
000C
FFEA
FFE5
0003
0002
0023
FFFC
0016
FFDD
FFED
FFCD
FFD8
FFE6
0026
FFF8
0009
0030
FFFB
0021
0001
000B
0016
0018
FFFE
0027
FFF0
FFFD
001A
FFE4
002F
FFFA
000E
0018
001C
0011
FFFE
FFE8
0002
FFE6
001A
FFDD
FFE7
0000
0018
0000
0012
FFFD
FFEA
0004
0007
000A
FFE0
FFE9
0026
0014
FFE1
FFF7
000D
FFFD
FFF5
001D
FFEC
0004
FFD8
0014
FFEF
FFEF
0005
FFF8
0015
FFEF
0013
0000
0021
FFE8
FFEF
0016
000F
FFFF
0006
0004
FFFE
FFFD
002C
FFE7
FFFB
FFEB
0010
FFF9
FFED
FFFF
000E
FFF8
0005
000A
FFE0
FFFB
0013
FFFE
000F
0001
0000
FFEA
0016
0008
0016
0013
FFE0
FFD5
FFD7
FFFF
0022
000A
FFFD
0013
FFFB
0017
001C
FFDA
FFFE
FFF0
0017
0026
FFE1
FFFB
000A
FFFE
000E
000F
FFF9
FFEE
FFFE
FFEA
001D
0002
0003
0007
FFF3
000C
FFF4
FFF7
000B
FFE8
0023
0008
0019
000E
0004
FFFE
001F
0021
FFF4
001E
FFEE
FFF5
FFF3
002D
0015
FFFA
0020
FFE4
FFDB
0013
0005
0011
0032
002B
0030
FFD9
0017
000A
000E
FFE1
0008
FFEB
0002
0001
0020
FFFA
FFE8
FFE3
0010
FFEF
FFEE
FFF4
0029
FFDB
FFF7
FFF5
0007
0016
FFFF
FFE6
FFF9
001C
0004
0011
0010
0023
000D
FFF5
FFF2
FFF9
FFEA
FFD9
FFFE
FFF8
001A
FFFB
0025
0025
0010
0007
FFEB
0019
FFF4
002D
FFF3
FFE1
FFFC
000C
001B
FFD0
000C
0027
FFE8
FFD2
0009
0012
0033
FFF8
FFF5
001D
0001
FFF1
0030
0003
0019
FFF8
0005
FFE4
000E
FFF4
0001
0022
000B
FFF7
0008
0018
FFE1
FFE4
0011
FFEC
FFF7
0009
000B
FFEA
000E
FFF1
FFD3
0003
0024
0004
0009
0004
0006
0024
0006
0015
000E
0019
FFFE
FFD9
0001
0019
FFEE
FFE5
FFFC
000E
001E
0005
001A
FFE0
002E
FFEA
0001
0003
FFF6
0008
FFD2
000F
0016
000F
0012
0002
0008
0004
0004
FFFB
0020
FFE9
0006
0014
0020
0014
FFF3
0000
0003
FFD3
FFEE
FFF4
FFFD
000C
0003
0013
0000
FFE5
0012
0020
FFFE
FFEE
FFE9
0025
FFF1
000A
0012
000B
FFF3
0004
000D
0020
0023
FFF9
FFFF
0008
FFE0
000E
FFEF
000E
000C
FFED
FFFE
FFD6
0003
FFEB
0009
FFE8
FFE5
FFFD
FFD3
000E
0007
FFF7
0025
FFED
FFD9
0013
FFEA
FFFB
0011
FFD6
FFF3
FFFA
000A
000A
0016
0004
0012
FFF1
0009
0007
0007
FFEF
0000
0024
FFEB
0027
000B
FFF8
0016
0010
FFFC
001B
0031
FFF7
000B
001C
0033
001D
FFEC
FFF3
FFFB
0008
0012
FFF5
0001
0008
FFE8
FFD7
0027
FFEC
FFF2
FFE2
FFF2
FFF3
FFF8
0001
FFFC
FFDE
FFEC
001B
000A
FFEA
0010
FFF0
FFFB
FFEB
FFD5
000A
0020
FFFB
FFE5
0004
FFE5
FFDA
FFFF
FFF4
FFE9
FFF1
FFFC
0001
0005
FFEB
001F
0011
000B
001A
FFD3
0009
FFED
FFD7
FFF6
0000
FFEC
000B
FFFB
0000
FFFF
FFEA
0001
0011
FFF3
0000
0031
FFE8
FFE4
FFE6
0005
FFE8
0004
001E
0002
FFEC
0025
FFD4
FFED
001C
0021
0020
FFF3
FFE1
FFF7
FFE3
0006
FFE9
0000
0010
FFF0
FFE2
FFF0
0022
0010
FFEB
FFFA
001B
0017
001E
000E
FFE3
FFF7
001C
FFFF
FFFE
FFFC
FFF2
FFF4
FFDF
0025
FFD7
FFFC
FFE7
000E
FFDC
0010
000D
FFF3
FFFF
0009
000D
FFFA
000A
0021
FFF8
0005
FFF2
000B
FFE5
0015
FFF1
FFF5
FFEB
000D
0027
0001
FFE2
0009
FFED
FFF0
0004
0014
0018
0004
FFDF
0003
FFF2
0026
FFDD
0007
001B
0014
0008
FFFD
FFDA
0008
FFE0
FFEC
0003
0004
FFEA
0028
000F
0000
FFFA
FFE9
FFF4
0015
FFF3
FFDF
FFFF
0026
FFE1
FFF7
FFD9
000F
0016
FFE1
FFFC
FFF0
0002
FFFE
0025
FFFD
0018
FFF5
FFFA
FFF7
001C
0016
FFD3
FFF0
0019
FFEE
000D
0017
0011
001E
FFEF
FFF3
FFFB
0005
000A
FFF1
FFF3
FFEE
FFE8
FFD4
FFD5
0016
FFDA
000D
FFF9
FFEF
000F
0027
0007
0018
000B
0000
0002
FFF6
FFDB
FFD8
FFFE
FFFF
0008
FFF7
0004
0001
0012
FFEB
001C
0015
FFD7
0010
0017
FFF1
000A
FFFE
0003
0011
FFF1
001C
0006
002E
0005
FFD8
0028
0027
0029
001E
0008
FFDC
FFF1
FFE9
FFFD
0023
0008
FFFA
FFE1
000A
001B
0006
0001
0003
0014
0000
FFFB
0017
000B
0004
001D
000A
0014
0003
0016
FFD1
FFE1
001B
0017
000F
001C
FFFE
FFD6
0017
FFFB
0017
FFF8
0019
000A
0021
0005
FFDB
0010
000F
FFEE
001C
FFE8
0018
FFE0
001A
FFF1
FFCD
FFFE
0020
FFCE
000C
FFF8
FFFF
0011
0005
FFFB
0029
0013
0004
0031
FFE2
0012
001C
000A
0014
FFE9
FFF1
000A
000D
001A
FFE6
000A
FFF2
FFEE
FFD0
FFFF
000D
0011
FFEF
002E
FFCD
FFFE
0022
FFED
FFFD
FFDA
001B
0014
FFFA
0009
000D
FFF7
0001
0016
0003
002A
FFF3
FFDD
0007
0001
FFD7
0011
FFD7
000C
0008
0020
FFEF
0025
FFD4
FFEE
FFDF
0017
0011
0003
001E
FFF5
0000
000D
FFDD
FFF8
0011
000B
FFE2
0012
000D
0013
FFF8
0004
FFE9
FFF5
FFEB
FFF6
FFFC
0010
0019
FFE1
FFFC
0011
0009
FFF6
FFE2
0007
000B
FFFE
FFE5
002C
0006
FFFE
0003
FFEC
FFFC
0013
000B
0024
FFF4
FFF1
0005
FFF9
0008
0012
FFD4
FFE1
0006
0004
FFE0
0019
0010
FFF1
0017
002F
0002
FFF6
FFF6
FFFC
FFEB
002E
001A
FFF6
FFE7
000B
FFEB
0004
FFCF
FFF0
0028
FFF6
FFFF
FFCD
0003
0003
000A
FFFA
0017
0008
FFE5
0019
0008
FFE6
FFF9
FFF5
FFF8
0031
0021
0004
0013
002C
0014
0000
000B
FFEA
0024
FFF7
FFF4
001E
FFEF
0008
FFFB
0022
0031
FFFC
0023
FFEA
0025
0006
0007
FFE5
FFF6
000F
FFE0
FFEF
FFDF
0001
FFDC
0010
0018
FFE9
FFE4
000D
0010
000A
000D
0021
FFD8
FFF3
FFFF
FFE9
FFF7
FFFA
001A
FFF3
FFE8
FFD2
FFEC
FFFB
0011
0002
0008
0008
0003
FFFC
FFFC
FFFA
FFDA
FFD0
0009
FFFC
FFE3
FFF0
001A
FFFB
FFDA
FFFC
000D
FFFD
FFD4
FFF3
0008
FFF5
FFF0
FFE9
0006
FFFF
FFF0
0014
FFFE
0025
FFF7
0019
0017
FFF9
0010
0003
FFFA
0006
FFE3
000C
FFEC
FFD3
FFEC
FFF2
002F
FFDF
0013
0020
000D
0019
000A
0005
0012
001B
FFE3
FFDF
0004
000D
FFF8
FFD8
0010
0019
000C
FFE8
001F
0019
FFFE
FFE9
001A
FFED
FFEE
FFF5
0003
000E
0002
0021
001C
FFFE
0023
001A
000F
FFF6
001B
FFE1
FFFC
FFFE
FFFD
FFE9
FFE8
0008
000D
FFED
0008
FFEE
0030
0001
FFF4
002E
000E
FFD1
FFF8
FFD4
FFF2
0000
FFD6
0009
0002
FFE3
FFE7
FFF1
0028
0016
000E
0002
FFCD
000B
0013
FFF8
FFE5
0018
FFE0
FFD5
0012
0014
0029
0002
FFE1
001C
0006
FFEC
0012
001F
0010
FFF5
0019
0001
FFFC
000D
0006
FFF2
0005
0001
FFFA
0001
000D
0014
FFE4
0009
0018
001D
FFEC
FFF4
000A
000B
FFDC
0013
FFFD
FFDC
0001
FFFC
FFF9
0003
000A
0016
0012
FFD8
0012
FFE7
0014
000B
0012
0006
0015
FFF9
001F
0023
FFF0
0010
0007
000A
0004
FFE0
002D
0028
FFFF
0010
FFF8
FFDA
FFE0
0005
FFF3
0010
001C
001C
FFE4
FFF7
FFD8
FFDB
0001
0009
FFF6
001D
FFFA
0010
FFFC
0000
FFD4
000A
FFE4
0018
FFE5
0023
000E
FFF4
FFF3
FFDC
0022
000F
FFE8
FFE4
FFF3
0003
0007
0016
0023
FFDD
0001
FFF5
0004
FFFE
0001
000D
FFF0
FFF5
0001
0016
0004
000B
FFFE
0002
FFF6
0008
FFF0
000C
FFF3
FFDD
FFEB
FFE0
FFDF
0024
0003
000A
0001
0020
000F
0000
0001
FFE9
0019
0001
0019
FFD3
FFFD
FFD9
FFEA
FFFC
FFE3
001D
FFED
0004
001B
000B
0024
FFE1
0024
0025
FFEB
0021
FFFB
0017
0017
000C
0007
001E
FFE5
FFE5
0004
FFE1
FFD7
FFDA
FFCD
FFFC
001E
001D
FFFB
FFF1
FFDF
FFF3
0029
0013
000F
FFDF
0014
0008
000D
FFE3
FFD8
FFE1
002B
FFFC
FFF9
FFF7
0006
0000
FFF0
FFEB
FFED
FFF1
0011
FFF4
FFFD
FFF0
0014
FFEB
0020
FFEE
0003
FFEB
FFF9
0001
002D
FFFB
FFF7
000A
000E
0015
FFD6
FFF6
000C
0014
FFE4
0016
0008
FFF7
FFFB
FFE4
FFE3
FFFC
0004
FFF0
0028
0001
FFFE
0009
FFF4
FFF8
0001
FFF9
FFE8
000C
FFF6
FFFC
0018
FFFA
002D
FFFA
0004
0025
FFDE
0008
FFE9
0011
0007
0022
FFF7
FFF3
FFF6
000A
FFF4
0006
0006
0011
FFEB
FFD3
0008
000B
0006
0000
FFF5
0033
0009
001C
0000
FFE7
FFF3
000A
FFFB
0021
0005
FFFF
0008
FFFE
0006
0006
0009
FFFF
FFCE
FFE9
FFF4
000B
0005
000A
FFFB
FFF2
0028
FFEE
FFEB
0003
FFEC
FFFA
FFD2
000D
001E
FFFD
FFEC
FFE6
FFFD
0018
0003
0005
0013
FFFF
FFEE
FFD8
000E
001B
FFE3
FFCD
0004
FFFD
001D
0001
000B
0000
FFE4
FFF0
FFEE
0005
FFF2
FFD0
FFDD
001E
FFF3
0007
FFD7
FFE0
0006
FFE3
0024
FFEE
FFE1
002F
FFEB
FFF0
FFEF
0003
FFFF
002D
0018
FFFC
FFD4
FFFA
FFF3
FFE5
0009
0010
000E
FFE4
001C
FFF6
0024
0026
0002
FFE9
FFED
0028
0013
001C
FFFF
001E
FFEE
0000
000B
FFF8
0017
0005
0007
000F
FFF3
0001
001E
FFE0
0016
0000
FFFF
0008
0004
FFEF
0016
FFEA
FFFA
FFFE
0017
0013
0005
FFE4
000D
0006
FFD0
FFE4
FFE3
FFF0
002D
000B
FFFF
FFE6
0013
000D
FFFD
0002
001B
0018
FFE5
FFEB
FFDD
FFE6
FFE5
0013
001A
000F
FFE1
FFFB
0005
FFF0
FFE4
FFF0
0012
001F
0005
001E
FFE6
0019
0010
FFFC
0016
FFDF
FFFE
FFF3
FFD6
FFFF
FFEF
002C
FFF1
0011
FFFB
0013
001F
FFCE
0014
000E
FFE2
000F
0023
FFFA
FFE2
0018
001A
0017
0013
FFFF
FFD5
0017
FFD5
001C
FFEE
FFF2
000C
000F
0013
000F
001E
FFEB
FFFE
000A
FFE5
FFE2
0020
FFEB
FFF8
FFF0
FFE9
FFFE
000F
0006
FFEF
0012
0001
FFE1
FFE3
FFE8
0006
0029
FFE8
FFFE
0002
0004
FFED
FFFB
FFDC
0004
FFF7
FFF2
0015
FFFF
0011
FFFC
FFF9
FFEE
FFD6
000E
FFFD
FFFC
0013
FFEC
002C
0010
FFF4
0007
FFFC
FFFF
0002
FFF9
FFEF
000C
FFFB
FFED
0019
FFDD
FFE2
000C
000C
FFED
000B
FFE7
0011
0010
0014
000F
FFF8
FFDF
000D
FFD3
000D
0009
FFE3
FFEB
002C
001F
000B
0021
0003
0029
FFFD
0005
FFDA
FFD9
FFCE
0018
FFDB
FFEB
0005
000F
0005
FFEA
0016
FFEF
FFF5
FFF9
FFDE
000F
FFFD
FFF6
FFFD
000B
FFEB
FFF0
FFFC
FFF2
0009
0010
0023
002D
0021
0010
FFF7
000C
001E
0024
FFF3
FFEB
000B
FFEF
0015
0023
002B
FFFF
FFD4
0024
FFF3
001D
FFFC
0006
FFFA
FFE8
FFE0
000E
0014
FFE3
FFEF
0012
0004
FFE6
FFFB
FFD8
002B
FFF5
0009
FFFB
FFEF
FFDA
0009
0000
0016
0013
001D
FFF9
FFE5
0003
0001
FFE5
FFE5
FFF3
000D
0005
FFF3
0006
001D
FFE1
000A
0013
FFF4
FFF1
FFEB
0020
002B
0016
FFF2
0004
FFEC
FFEF
FFE8
000B
FFEB
000A
0009
001B
000D
FFFD
FFF9
FFE5
0006
0004
FFE4
0013
FFF1
0028
FFFE
001F
FFDE
002D
FFD9
FFEE
0008
FFF0
001A
FFFE
001F
0026
FFF1
FFF7
FFFC
FFDA
0009
FFED
0009
0028
FFF3
0014
0004
FFFC
FFFF
FFEA
0015
FFFF
0019
000B
FFF1
FFF3
FFF3
0011
0009
0004
0012
FFFA
000B
000F
FFF1
FFF5
0013
FFE5
0011
0003
000B
000C
0001
FFD6
FFFD
FFF7
FFDE
FFEA
FFED
FFEF
0004
FFF6
FFF3
0005
000C
FFE1
FFF8
000F
0005
0017
0003
0000
000B
FFF4
FFFC
0008
FFF1
FFF4
0025
FFD5
0013
FFF8
FFFA
FFFC
FFF4
0019
0013
FFE0
FFF8
FFFE
0003
FFF6
FFE9
000A
0022
FFCF
0001
FFE5
0001
000F
002A
002A
FFDD
FFE6
000A
000F
FFF8
0023
FFE6
0009
FFE0
000B
0026
FFED
001C
FFFB
FFDF
FFDD
FFFA
FFF3
FFE1
000E
0006
FFDE
FFFD
0005
0000
000D
FFF2
000D
000A
0008
0009
000C
FFFA
0027
0001
FFEC
0000
FFF2
000A
000E
000A
0022
0002
0027
FFF5
0001
000A
FFE7
0001
FFE7
0002
001E
0000
FFEF
FFD4
0027
FFF3
0007
FFD4
002A
001C
0003
FFFB
FFE5
FFF4
0019
0011
FFFF
FFEE
FFDC
000F
FFF1
000A
000E
FFF4
FFE1
FFE7
001A
FFD8
FFFB
000A
FFE8
0000
001F
FFFE
FFE7
FFD3
FFD9
0005
001D
0009
001D
0001
FFFA
001B
0006
FFF6
001A
0016
FFE4
0019
002F
001E
0015
FFE8
0004
0019
FFDC
0014
0005
000E
000D
FFD3
000C
000C
FFFD
FFF5
0030
0000
0010
FFF3
0027
FFEF
FFE3
FFFD
0000
FFDF
002E
FFF9
000F
FFED
FFFB
FFF7
FFEC
0009
FFF4
0033
0023
0009
FFF4
0013
0011
FFFA
0019
FFFB
FFEE
000F
0004
FFF0
0013
0009
FFFD
FFF5
FFF4
FFD6
0001
FFE8
0022
0008
0004
FFE4
000C
FFE7
0027
001E
FFE6
FFF5
FFDB
FFDF
FFE6
FFF1
001C
FFF3
FFDB
0033
FFFC
0015
FFDE
000B
FFF6
001D
0007
FFF3
FFF9
FFFA
0025
FFE1
FFE9
0000
0011
0004
FFE8
FFCE
FFD4
FFF2
000B
FFF3
001E
FFEC
FFFE
0013
FFE6
0028
FFFF
000E
0015
FFED
0001
001C
FFF4
FFE3
FFDE
FFF9
FFD1
FFD8
FFD9
FFF5
FFF7
FFF9
001A
FFF8
FFEB
0007
0008
0010
0022
FFCE
000B
000C
FFFE
FFF6
0011
002E
0020
0003
0000
FFD8
0004
FFED
0012
0033
0019
0005
0003
FFF0
0022
0010
FFFF
FFEF
001C
FFFF
FFF1
FFF0
0005
0014
FFE9
0003
FFD9
FFFF
0021
FFF2
FFFC
FFF2
FFF0
FFF7
FFEF
0004
FFDB
001A
0015
FFFF
FFF7
0005
FFEF
FFF9
000C
0010
FFE1
FFE2
FFED
FFFE
002B
0013
FFFA
0028
FFF3
FFE7
000E
FFF7
FFD8
FFDF
0010
FFFE
FFE4
FFE3
FFEF
000A
FFF8
FFEB
FFF7
FFE4
FFCF
001A
0010
0018
FFF0
000B
FFF1
0022
0015
FFDE
0029
FFF6
FFF5
0006
FFF6
0015
0009
001D
FFE9
FFE3
000D
0009
FFDE
FFF5
0019
0019
FFF2
0018
FFEC
FFFA
FFE1
FFE3
002A
0009
FFDA
FFE5
0002
FFF7
FFFF
002F
FFF9
0023
0024
FFE5
0008
FFF6
FFF3
FFF1
0011
0007
000A
0012
FFE2
FFE2
FFF7
000F
FFFC
FFFB
0015
0008
FFD7
FFD7
FFFA
0030
0012
FFF9
FFE0
FFD6
0010
FFEB
FFEC
FFE9
FFE5
0013
0020
FFE8
0005
0026
0006
FFFF
0003
FFF6
0015
FFDE
FFDE
FFE5
001A
000D
FFFB
000A
0003
FFE5
0010
0000
FFF7
0002
FFF9
0024
0006
001D
0020
0026
FFFB
FFFF
0004
000A
001F
FFFF
0005
FFF1
FFEF
000A
FFF3
FFF4
0003
FFE9
FFFD
FFFE
FFDE
0020
000F
001F
FFF5
0006
000B
FFE2
FFD8
0001
0011
0000
000B
000A
000C
FFED
FFFD
0018
FFF4
FFF9
FFF9
0004
FFD8
FFD9
FFD1
FFF6
FFFC
FFD5
0014
0028
FFE7
001D
0013
000C
FFE4
0020
0000
FFF7
FFFF
FFE2
0009
0018
FFD1
FFEC
FFEA
0010
FFFA
0006
000A
0002
0012
0012
FFFA
FFE9
0005
FFD7
002B
FFF9
001A
FFEB
FFF2
FFDE
0009
000A
FFF8
0009
000E
FFFF
0029
FFFF
FFEB
0007
FFFB
FFE0
FFE7
FFDD
0021
0019
FFDE
FFE2
FFEE
0005
FFFB
0003
FFD1
0001
0019
0001
FFEE
000A
FFFB
000C
FFE5
0000
FFE9
001D
FFE4
FFE9
0000
0013
FFFF
0003
0005
0002
0008
000E
FFF3
000B
FFF8
FFE3
FFFE
FFDD
0022
0022
0018
FFED
FFE7
FFE0
FFFD
FFEE
FFF6
0011
FFE9
0005
FFEF
FFD9
FFD7
FFDA
FFE8
0012
FFEC
0015
FFFD
001A
FFEB
0002
FFF6
001F
FFE7
0005
FFFF
FFDE
0010
FFF6
FFE9
0009
0015
FFF1
000E
FFE2
0010
000E
FFF7
FFF4
0019
0028
FFFC
0014
FFFC
FFD4
001D
FFEA
001A
0006
FFFF
FFFA
FFCD
002B
0000
002D
000A
FFDF
0019
FFF3
FFF0
FFEF
FFCD
FFF1
FFFD
002B
0009
000A
0005
0013
FFFA
0004
0033
000D
000A
002A
FFF5
FFF3
000C
FFE7
0008
0032
000B
000F
0020
FFF7
0004
0009
0018
FFF7
FFFE
FFDA
FFFA
FFE7
0006
0020
0016
FFF4
001F
FFDA
FFE3
FFE7
FFF7
0021
0008
0019
FFEA
FFFD
0001
0009
0028
0021
0000
0020
0019
0019
0001
002A
0025
FFDE
0002
0022
FFEA
FFFD
FFED
0005
0000
FFEE
0011
FFD2
000C
FFE0
FFE2
FFF7
0020
002F
000E
FFFA
0004
FFE9
001D
0003
FFF8
0006
FFF0
FFD8
0022
0005
000A
FFE8
0013
FFFC
FFF8
FFEA
FFEE
FFCD
FFFD
FFED
0003
0024
FFED
FFD8
FFD1
FFF2
FFD9
001B
000F
FFE3
0008
001A
0017
FFD6
FFD7
0003
0022
FFF6
FFF5
000A
0016
FFD8
FFF1
0008
FFFD
0031
FFFD
0008
FFDB
0004
FFF3
0002
0005
FFF3
0001
FFEE
000B
FFEF
FFFF
000C
FFE7
0014
000E
0002
0025
001A
000E
002C
0014
0009
0004
000E
FFF9
0015
0013
0004
0014
FFEB
000C
0014
0003
FFD5
FFED
001D
0015
0010
FFEC
FFEE
FFF6
FFF9
FFDC
001F
0002
000C
FFFF
0016
001A
0007
FFFA
FFFC
FFDC
0015
FFD0
FFEF
FFFF
FFE9
FFF9
0016
0005
FFDD
0001
FFED
0008
0006
000E
FFF3
001C
FFEF
0029
000E
0004
0008
FFE6
0025
0015
FFE0
FFFC
001F
FFED
FFE2
000A
FFDA
FFE8
FFEB
FFE2
0008
0023
002A
FFF7
FFF6
002D
0016
0006
0014
0001
0027
FFF1
FFFB
FFFF
0023
000D
0012
FFD5
FFE9
FFE9
FFF6
FFEB
FFE3
001F
0001
FFDE
0003
0001
FFCE
0023
0007
FFEF
FFF0
0010
001C
FFFE
FFF4
0012
FFFE
0007
0001
000A
FFE7
FFE8
FFED
000F
FFE8
FFD0
FFE9
0014
FFFB
FFED
FFDD
FFE7
FFED
001F
0016
FFE5
FFD9
FFF0
0019
0019
0007
0020
FFFA
000E
0009
0001
0029
FFCD
0019
FFF2
FFDC
001E
0011
FFF6
000B
FFF1
0010
FFEE
FFF1
0025
FFFE
FFFF
FFD8
0001
FFEF
FFF0
FFD4
FFF2
FFF4
000D
FFFE
FFFC
0004
002B
0029
0025
FFDD
FFDD
0016
0001
FFF4
0016
000B
FFFF
0014
FFE7
FFFB
FFDD
FFE9
FFF9
FFF4
FFF8
002B
0019
FFF7
0008
0032
0007
FFE1
000D
000F
0003
0006
FFF3
001A
0028
001F
FFFB
0018
001A
0009
0008
FFFB
FFE9
FFE7
0011
FFE1
001D
000D
001C
FFF2
0005
0032
FFF7
FFEB
FFFA
FFF3
0015
001A
FFF3
FFDE
000F
FFF5
0009
0022
0017
FFFF
FFDF
002B
FFFB
FFEF
FFD1
FFE2
FFFE
FFD7
FFFD
FFFE
FFE2
FFF8
000D
0009
0002
FFFF
000F
000E
FFD1
001F
0009
0010
001D
FFD0
0004
FFDF
001E
000B
000C
FFEC
000D
0000
0017
0004
0013
0010
FFD3
000E
0010
001C
FFD2
FFE3
0017
FFF9
FFF2
000A
0006
0015
FFE1
FFFA
FFDD
FFF6
0000
FFEF
0007
FFEE
001A
0022
FFFC
000B
FFFA
0021
FFEC
FFF6
FFFE
FFFA
FFF1
FFE6
FFE6
0005
0005
FFE9
FFFB
0007
FFE6
FFE6
0000
FFFD
FFF1
0033
FFF2
FFD9
FFF2
0025
FFFD
0013
FFED
001B
0005
FFDE
FFF6
FFE7
0030
000A
001A
FFE9
000F
0017
FFDB
000A
FFFC
FFE5
FFDF
0017
0006
FFEB
FFFB
0029
000A
0013
0023
FFF8
000B
0007
000B
001D
0032
FFD1
0006
0027
000F
0004
002F
0001
FFE8
FFF7
FFE0
0020
0013
FFF5
000F
FFE1
0013
FFF9
0013
FFFF
0003
FFCE
FFE0
0005
000C
0022
FFEC
0016
FFF5
FFF7
FFD9
001A
FFD6
0024
FFF9
FFF2
0001
0002
FFF2
0033
FFFA
FFFD
FFE7
002A
FFF4
0027
0027
0021
FFF5
FFFA
FFDC
0017
0017
002E
FFE5
FFE7
0024
FFED
FFEA
0011
FFFF
0001
000F
FFDD
0005
FFFD
FFEE
0001
0023
0001
FFF9
000A
0003
001A
FFE8
0023
FFFC
FFF2
0028
002D
0000
FFF9
0016
FFD7
FFEE
0019
FFF9
0029
FFF9
FFFA
FFE2
FFFA
0016
0022
FFD6
0013
FFEE
0000
0016
FFFC
FFF7
FFEE
FFFF
0000
FFFD
FFF8
0008
FFE1
0007
FFFB
0019
FFDE
0010
0026
FFF6
FFF8
0005
FFEC
0013
FFE8
0002
0015
0030
FFF0
0002
0015
FFDB
000A
FFF8
0010
FFE3
0008
0022
001C
0004
FFD0
FFE8
FFE9
0009
0002
FFDD
0000
FFE0
0002
FFF3
FFEA
0000
0002
0018
0015
FFF4
0002
FFE9
0001
002E
0022
001A
FFF6
000F
FFF2
000D
001B
FFEE
FFE2
0001
FFFF
FFE6
002C
0028
0029
FFF0
FFFF
0010
FFDE
0009
000F
FFE3
FFF5
FFE4
0007
000E
0027
000F
0019
000E
FFD4
000D
000F
FFE7
000C
001D
000F
0019
FFF2
FFED
0010
0013
000B
000B
0012
0001
000A
FFF2
0012
0018
0000
FFFF
0003
0011
FFD7
0010
FFE4
000A
001A
FFE5
0014
FFF5
FFF1
FFFF
FFE8
0012
000F
0008
FFFB
000E
0024
0006
0000
FFEE
FFF8
FFFE
001E
000A
FFEF
FFDF
0020
FFFD
FFE9
0029
0002
FFE9
000F
0007
001F
FFE3
FFD5
FFF4
000E
0019
0010
FFD2
000A
FFF5
FFDB
0004
0003
FFE6
0018
0027
0016
000B
0010
001E
FFD8
FFEC
FFE3
FFFB
