FFDE
000C
000C
FFFD
FFF1
000B
FFE8
0019
FFFB
FFF6
FFF2
000F
FFEB
0020
0004
FFCE
FFFC
FFD9
0003
0028
FFD9
FFFE
0039
001E
FFBD
FFE3
FFD1
FFF5
0011
FFFA
0025
FFE6
FFF6
0046
FFE6
FFF8
FFDD
FFE1
001B
FFF7
000D
000A
FFCF
FFF0
000F
0010
FFBB
FFF9
0045
0015
0004
000A
FFFF
FFEA
0012
0007
FFC4
0016
0024
0043
FFF2
FFE7
FFCD
000D
0002
FFFB
FFF5
FFCF
000F
001A
FFE6
000B
FFE5
0001
0011
FFF4
FFEC
FFDE
FFFA
FFC8
000B
FFFD
0015
000C
FFFC
000C
001F
0000
FFFF
FFE6
000E
FFFB
0002
0018
FFD9
0039
FFCB
FFEB
FFF2
FFDD
FFC4
FFF8
0000
0014
001D
0002
FFD0
0006
FFD5
FFD7
0010
FFD3
001E
FFCB
FFFB
000B
002C
FFF4
FFD2
FFFD
0022
0004
FFF6
FFF7
0025
FFFF
FFF3
000A
000E
FFE6
FFE0
FFE2
FFF6
0011
FFFC
000F
0024
001F
FFFB
0001
FFC3
FFF0
FFCD
FFCA
FFC0
0001
0005
FFF0
001F
FFE9
FFDC
FFFB
FFF9
FFFB
FFE9
FFC5
0004
0030
FFF1
0019
FFC1
FFE4
0013
0020
FFF8
FFF8
0044
0039
000E
0021
FFE2
0014
000C
FFE6
FFF6
FFE0
0005
002C
FFF8
FFB9
0000
0016
0041
FFE2
0021
0007
0009
FFDF
001A
FFFA
FFF5
0032
002B
FFD1
0023
FFE1
0000
0041
001A
0035
FFFA
FFEC
FFF7
0003
FFDD
000A
FFF5
FFE5
FFCF
FFC7
FFEA
FFF8
FFE6
000B
0010
FFE9
0019
0010
0016
002C
0015
000D
FFF2
FFEB
0006
0007
0031
0035
FFEC
002C
FFCF
FFE5
0033
002F
FFE8
FFFF
0014
FFF2
FFEB
FFF1
0001
003C
0016
0020
0015
0003
0021
000A
FFCC
FFFA
FFC1
FFD7
0013
FFFC
0017
0002
FFBF
FFD9
FFF3
FFE1
FFF3
0021
0019
FFE7
FFF7
001B
FFCD
FFCC
0014
002D
0005
FFD0
003F
FFD0
FFEB
FFF9
FFC2
000F
0018
0009
0034
FFF8
0021
FFFF
FFC6
002F
0011
0008
FFE6
0029
FFC5
FFBF
0022
0014
0006
FFDF
0036
0005
0019
0001
FFEB
000A
001B
001B
0003
FFDE
FFE3
000A
FFF7
0014
002B
002E
0008
FFE0
FFF8
FFBB
0033
0024
0036
0010
000E
FFE9
FFD4
0021
FFDB
FFEA
0012
FFD0
FFC1
001D
0017
0019
0004
FFF3
FFF8
FFFC
FFFD
003E
000B
001B
FFDF
001B
0030
0016
FFCB
FFDF
001C
FFFB
0022
FFEF
FFF4
FFF3
0005
002A
FFF6
FFCA
FFDE
0013
FFD6
FFEA
001C
FFEA
FFED
0022
FFF1
FFF1
001B
FFD4
0013
0014
0041
0022
000D
000E
FFF8
001D
000A
FFF8
FFEA
FFF1
0018
0039
0005
000B
FFE0
0006
000F
000A
FFE9
0021
003B
000E
FFCA
0001
FFE1
0018
0028
0006
FFC1
001F
FFE0
FFF3
002C
0048
0009
FFE6
0023
0033
0013
FFC4
FFCE
001C
FFC2
000A
FFEC
FFE6
FFF0
0004
000F
0032
FFFB
0010
FFE8
FFE4
FFF3
0016
001C
FFE8
0021
FFF3
FFE3
FFC4
003E
FFD2
0003
FFFA
FFFC
000B
0043
FFEE
FFD1
0019
FFF7
FFDF
0007
0028
FFD9
0010
0034
FFF1
FFC0
000B
FFF6
FFFB
FFD5
0036
FFD2
003A
0000
FFB9
FFFE
FFD3
0016
FFBE
FFB7
0000
FFF8
0006
FFF1
0010
FFF4
0022
0016
FFED
003C
0004
0009
0026
0025
FFED
FFF4
FFFF
0016
0007
0013
FFF1
FFE7
FFED
0041
000C
000E
0019
000E
0010
FFC1
FFED
002F
0009
FFEC
0023
FFED
FFD4
0006
000D
FFE1
003A
FFF3
0024
0017
0006
FFF2
FFFD
0006
0001
FFF7
0010
0037
002F
FFD2
FFFB
FFEC
FFE6
FFC3
FFE1
000E
FFC0
FFD6
0000
0037
003D
FFE9
0013
FFCF
0020
FFC3
FFCE
0000
0009
FFF3
FFF0
FFF2
0007
FFD4
FFD1
0003
FFF0
FFC9
0005
FFF2
0027
FFD8
0039
FFDD
003F
0010
FFDF
0005
0019
FFF5
0026
0011
FFE0
0020
0004
0021
FFE7
FFF3
FFD5
0018
0009
FFFF
FFD2
FFF1
FFCB
0009
FFD9
0040
FFFC
000D
000E
FFEA
0009
FFEB
FFFF
0039
0015
000E
0006
FFED
FFC6
FFF0
FFF1
FFE1
FFF7
0013
FFE3
0007
0016
FFE9
0027
000F
0005
0009
FFE4
0000
FFDC
FFFC
FFC6
FFE5
001B
FFFB
000F
FFC7
0024
0022
FFE2
0033
FFDA
001E
000D
FFF7
0001
0019
001A
0037
000B
FFF7
0001
FFE6
0006
003B
FFE9
0005
0013
FFF0
FFD3
FFD0
FFFC
FFE6
0007
0018
FFDF
000C
FFC3
FFEF
FFF7
FFE5
FFE7
FFF2
002C
0015
0029
FFCF
0018
001B
FFC6
0026
FFF7
0003
FFF5
FFBB
0024
000C
FFD6
FFE4
FFC8
FFB9
0007
FFFC
0018
FFED
FFE4
FFFC
FFFE
000F
002B
FFBA
0015
FFF7
000A
FFDD
FFC5
FFD2
FFD8
0020
0019
FFE7
FFF4
0018
0005
FFDC
FFFA
FFE4
FFF5
001C
0013
001E
FFF1
FFED
FFE8
0005
FFF6
FFF6
FFFD
FFF7
FFEC
FFE3
FFFF
FFE0
002B
FFE7
FFFA
001B
0004
0036
FFC4
FFED
FFCB
FFD0
003B
0014
0034
0021
FFE9
FFD4
0002
001A
FFFC
001F
FFE1
0021
0003
0009
FFE8
000A
0013
0046
FFFE
FFF5
FFC8
0015
FFBF
FFE0
FFD9
FFF5
0005
0014
001A
FFFA
FFDA
001B
0045
FFE7
0017
FFF5
000E
FFC3
FFFB
FFFD
001F
0010
000F
0035
0014
FFE0
000F
0003
001C
FFE0
FFE1
FFE9
002B
FFF5
0010
0019
001A
FFF7
FFE0
001F
0041
FFDA
FFF8
FFE6
0013
0020
FFFD
FFEB
002C
FFCB
002C
001C
FFC7
0015
FFCF
000F
002C
FFC9
0004
0001
001F
0019
0028
000C
FFD7
0006
FFED
000E
0012
FFD3
0008
FFE7
001F
FFD2
0023
FFD1
000D
0000
FFBC
002F
0007
0001
FFF2
0022
002F
003B
FFEE
FFF2
002F
FFD2
FFDE
FFE7
0014
000E
FFCC
0014
FFF8
FFE3
FFFE
0008
FFF6
0022
FFF2
FFEA
0004
0018
0025
FFFA
0042
FFEE
FFED
FFE6
003E
FFF2
FFE7
0004
FFE4
FFF0
0002
FFFD
000F
0029
FFF0
FFE4
FFE7
001B
FFEF
000D
0015
0047
001E
FFDD
000A
000F
FFBC
001E
001E
0006
FFF9
000C
0000
000D
FFCA
FFFF
0005
FFCE
FFFE
FFDE
FFD1
FFE3
0020
FFDA
FFC8
002B
0018
0035
FFF1
FFCE
FFE4
FFEB
0012
0026
FFD7
FFEF
FFFD
001A
FFDA
0012
FFDF
FFCD
FFF0
0017
0005
FFBB
FFEA
FFE4
FFDE
FFE1
FFCC
FFE0
FFDE
FFBA
001C
0029
FFCC
FFFB
0013
FFCD
FFDB
0005
0001
0009
0005
0045
FFF3
FFE2
0003
FFF1
0007
FFFB
0011
FFFA
FFD7
FFFD
FFF9
FFE9
0021
0018
FFC8
FFD6
0002
0039
FFE6
0026
FFE9
FFD8
FFFC
000B
0010
000D
0001
001F
FFD0
001F
FFBE
FFE0
FFF8
0024
000B
FFE1
FFF5
FFDD
FFDF
FFC8
0007
FFEA
FFE6
FFE3
0030
FFF3
FFEC
FFE9
0011
0013
FFFD
FFDB
0017
FFEC
000A
0042
0020
FFD3
0003
0035
FFD0
FFFA
002B
FFBF
FFD7
0024
0036
000C
0011
FFE7
0002
FFCF
000A
0020
FFD9
000C
FFC8
0019
FFFD
0017
0046
FFF0
FFED
0000
FFF1
FFF1
FFF2
0025
0008
FFCB
0009
0001
FFEE
002A
FFC2
FFC5
FFFC
000B
0021
FFD1
FFCD
000A
001E
0015
0003
000F
FFF9
FFEA
FFFB
FFED
FFEE
FFF2
FFDE
0025
000F
0015
FFC8
FFE6
002F
FFC9
0008
0018
FFFD
0004
FFF9
0011
FFD4
0017
0028
FFC6
0012
FFCA
FFEC
FFF5
FFD2
FFC4
FFF3
FFE0
FFDC
0009
FFE3
FFE3
FFFA
FFE7
000F
FFF2
0006
0025
FFF3
FFD0
0004
FFFA
FFF8
000A
003D
FFF6
001B
000F
002F
FFF2
FFD7
FFFC
0002
0015
FFD4
FFE7
FFFC
0034
FFFB
FFFA
FFDA
0015
0031
FFEE
FFDE
0000
0007
FFD4
0033
0010
FFE4
FFED
000A
001C
0037
FFBA
FFF5
FFD4
FFFB
FFD4
FFBE
0013
FFEB
FFF6
FFF7
001E
0023
0017
0010
FFF5
FFDE
FFE8
0030
0043
0041
002D
000B
0017
FFE6
002F
0020
0029
001E
0012
0009
FFFF
FFDE
FFF7
000C
0012
FFD1
FFE8
FFF8
FFE3
0019
003E
FFFB
0007
FFDB
FFF6
0007
FFCA
0042
0034
0016
FFF2
002F
0015
FFE3
000E
001C
FFD9
0005
FFEC
FFED
001E
FFE6
0040
000C
0034
002D
FFF6
FFEB
0044
0000
0043
002B
FFD1
FFDE
0030
0012
FFD0
FFD3
FFFB
0010
002B
0024
FFDC
FFEB
0021
FFF6
FFCE
000E
0034
FFE0
FFCA
0014
FFE0
0022
0022
001A
0028
FFEE
FFEE
0002
FFDB
0005
0028
0005
003E
FFEC
FFD9
0013
003A
FFE1
0021
0006
FFE5
0000
0036
0011
002B
FFE1
0026
002B
FFFA
FFF4
FFD1
FFDE
FFF5
FFF3
0003
FFF0
FFE5
FFE9
0003
0015
0017
FFFA
FFFD
FFF5
001F
002B
0047
FFE9
0027
0008
000B
FFE1
FFFB
0001
0002
000C
FFF0
FFD8
0000
0020
0006
0013
FFF6
FFFB
0036
FFE6
0015
FFCF
000A
FFBC
FFD1
FFFC
FFE7
0037
001B
FFD3
0022
FFE9
0019
FFC9
FFF6
003B
FFE2
FFC7
001E
001A
FFF9
FFF1
FFEA
000F
FFCD
FFD9
FFD7
FFBB
FFC5
0037
0027
001B
000C
0021
FFCF
FFDA
FFFF
FFEB
001E
001B
0000
FFDB
FFF5
FFDA
002D
0004
FFC8
0014
0013
001D
FFF8
0012
FFF8
FFE3
0034
FFEB
000B
FFE0
0024
0011
FFFE
FFFE
0032
0012
FFF3
0017
FFFB
0010
FFF8
FFB8
FFE2
0019
0005
FFC3
000F
002C
FFEC
FFF4
0000
FFF9
FFCE
0004
FFB8
0010
FFF2
001F
0024
0008
FFE0
002D
FFE7
0005
FFCC
000E
0007
FFD3
FFFE
FFEB
001A
0023
FFDE
FFBF
003A
0019
002E
FFDA
0030
0034
0019
000C
FFD4
0021
FFED
0002
FFE3
FFF1
0013
FFFC
FFB8
0032
0017
0005
FFEE
0004
0007
FFE6
FFDF
FFF7
000F
FFFB
001C
0029
000D
FFE4
FFED
FFF8
001E
0026
FFC3
FFF3
FFF3
000E
0029
001D
FFF2
0020
0006
FFD6
000A
FFCD
001D
FFF0
FFDA
0002
FFD8
000B
FFD3
FFD3
FFF1
FFD2
0004
FFE1
002F
0004
FFF8
FFDD
003D
0044
FFF2
FFE2
001E
003A
FFF1
0043
0034
FFC6
FFFD
001C
0023
FFF3
FFF6
0013
0029
FFFE
001B
FFF9
000B
FFF0
FFDF
FFF2
FFE0
FFE0
0023
FFED
0032
FFFB
FFEC
0012
FFD5
003A
000A
FFFD
0022
FFE8
0023
0017
0038
0023
FFD7
0042
FFDF
FFFC
FFE1
FFE4
0003
FFDE
FFCA
FFC1
FFEC
FFFF
FFD5
000C
000B
FFD5
FFF6
000C
FFF3
0029
0007
0012
FFF5
FFFF
FFDD
002C
001E
001C
FFEF
FFCF
0017
0034
FFF5
000E
0024
FFEA
FFD3
0023
FFDE
FFFF
FFC8
0001
FFEF
FFD9
FFE2
FFFA
FFCC
FFDC
0014
FFC3
0035
0027
0012
0031
FFF2
000C
FFD2
FFEF
0034
001F
0047
000F
FFF1
FFD1
0018
0020
002F
0014
FFF2
000A
0024
0002
0018
FFF6
FFB8
FFD8
FFFB
0002
001E
FFE2
FFC8
0013
002A
FFBF
FFCE
FFEA
FFFD
FFD0
FFED
0012
FFCB
FFF9
0023
003D
FFD4
0013
0007
0013
0012
0021
0027
FFFD
FFC1
FFFB
FFC5
FFF0
000C
003C
000B
FFDD
FFE5
FFEE
FFF3
FFD9
0019
0009
FFEE
0011
000A
FFFA
FFF0
FFBA
FFEF
FFE0
FFF9
FFF1
FFE4
000B
0019
0041
FFE4
FFF3
FFF4
FFDE
FFE1
0013
0005
0016
FFF1
FFF3
FFDB
0024
0016
FFE8
FFD9
FFDB
0015
FFFE
FFF9
0015
0018
FFDE
001A
FFF7
0009
002D
FFDA
FFF0
0024
FFE4
FFE5
FFE0
0003
0016
001F
FFC0
FFEF
FFCB
FFFA
0006
FFF1
000D
0010
FFCA
0008
FFD6
0014
FFE2
FFF9
FFC8
0007
0001
FFDF
FFF6
000B
FFE0
0023
0000
FFF3
FFE7
0000
FFED
0034
001A
FFDB
002B
FFCB
0013
FFD7
0007
001A
FFCD
001D
FFF4
FFF1
FFD0
001E
0007
FFFB
0036
FFEE
0024
0032
0022
0021
000D
0002
FFF1
FFBD
FFFA
0021
FFE6
0022
FFEE
0014
0015
FFFD
001F
0040
FFC9
0032
FFE8
FFEC
FFE9
002C
0012
FFBD
FFEA
FFE4
0011
FFF3
0017
FFE1
002C
0003
0018
FFF5
FFFE
FFE0
FFBF
FFDE
0014
FFEB
0006
FFFF
0017
0009
000F
FFE2
0002
000B
FFFF
FFE3
FFD5
0009
000E
0012
FFED
FFFB
FFFE
FFF6
FFE1
FFB9
FFFF
FFCE
001F
FFEC
FFE5
0021
FFF0
FFF7
0011
FFD7
FFF3
001B
0007
0015
FFE5
002A
FFE8
FFF7
0018
0026
0005
000C
0029
002B
FFD9
0048
0013
0048
0005
FFEC
FFFF
FFF5
000A
FFCA
FFF4
000D
0000
0012
FFE6
0000
FFE3
0025
0038
0000
000F
FFFE
FFEB
FFD1
0027
FFF5
FFCA
FFF9
0017
FFCE
FFD6
0036
002F
FFF1
0038
FFC7
FFE2
FFD6
FFBB
0029
0019
FFF0
0000
FFFB
FFDD
0026
FFE1
FFF8
0000
0006
FFB8
FFE6
0013
FFCF
0006
0007
FFD4
FFFD
FFD5
FFFA
FFE3
FFFB
FFEA
FFFB
0014
FFF6
0024
0004
0010
001B
000F
0004
0031
FFF9
0005
FFD2
002B
FFEF
FFF1
0010
001A
FFC9
FFFF
0000
0028
0031
FFD6
0003
FFEC
001D
FFE4
FFF5
0014
0006
0022
FFD6
0032
0008
0030
0043
0001
0007
0008
000B
0000
FFF2
FFE3
001B
FFE1
FFEA
001C
FFD9
FFC1
FFDE
0026
0010
0040
FFE1
0033
0034
0025
0024
FFC4
FFF3
001D
0018
0002
001A
0021
0008
0012
0031
FFE8
FFF0
0010
002C
FFF3
FFC5
0022
FFDF
0011
FFC5
FFC5
0012
FFDE
FFE9
0024
FFF9
FFDB
0025
FFD5
0006
0045
FFEF
FFDF
000B
000D
FFF7
FFBA
0036
001B
FFED
FFF3
FFF0
FFD9
0026
FFEC
002B
FFD6
0002
0011
0024
000C
FFC8
FFF4
FFF9
FFF4
FFED
FFED
FFFE
FFF9
FFC4
FFEC
001D
FFF8
003F
0013
0007
FFD5
0035
FFFC
FFBE
001E
FFBB
FFC8
FFFD
FFF2
0003
FFD0
001F
0031
FFCA
000E
000C
0001
FFD8
0015
FFC6
FFF1
FFF3
002B
FFF6
001D
FFE5
002C
FFDB
FFFF
FFFF
000E
FFE2
0008
FFFB
FFF5
0004
FFF5
FFF9
0043
0005
FFC0
0015
0001
FFF9
0004
FFF2
FFDB
FFBE
0008
FFBE
FFE6
0005
000A
FFD7
FFF0
003A
FFFE
0007
000D
FFF0
0007
FFDF
FFE7
000C
FFF8
0029
FFE5
0010
FFD9
0000
FFCB
FFF4
FFE7
0038
0006
FFD9
FFF8
0011
000A
FFDA
FFE5
0011
FFFA
FFF4
FFDD
0005
FFD7
FFCB
0027
FFE5
FFC6
0033
0013
FFFD
0029
0006
0008
FFD7
0017
002C
0016
FFF5
FFDE
000B
000E
FFF0
001C
FFD2
0043
0030
001D
0002
003C
002F
0024
0016
0019
FFF7
002B
003C
FFFD
003C
FFEE
0016
0045
FFEB
FFE4
FFFA
FFCC
FFE1
0023
0031
001B
FFF1
FFF8
0010
FFF3
FFC4
0022
FFC0
0008
FFBC
0044
000B
FFCF
FFE6
0012
0020
FFCC
0003
FFC4
0001
0022
FFEF
FFFF
FFE8
0021
FFDE
FFE8
FFD3
0011
FFFF
0017
0041
FFF9
FFF9
FFD5
000D
FFE2
0026
FFDE
FFF4
FFFF
001E
FFF4
FFE0
0012
FFC3
002B
0032
001E
0019
FFE6
FFF9
FFEB
FFF6
0008
FFF4
FFE5
001E
0002
FFF2
0027
0001
FFD9
FFFA
0001
FFE6
0018
0039
001D
0034
000D
0001
000F
0008
FFE7
001D
FFD8
FFC7
000D
FFC0
FFF5
FFEE
000E
FFCE
0009
FFF6
0004
FFEB
0040
FFEC
FFEA
FFCB
000B
0012
001B
FFE0
FFF2
FFE5
FFE3
0022
FFD9
FFF5
0016
FFF0
0013
0017
0035
0017
FFE6
FFD7
FFFD
FFDC
0004
FFF7
FFF3
FFE5
FFE3
FFE1
FFDD
0031
FFEC
0021
FFE8
FFE6
002C
FFEA
FFEC
FFE1
FFF9
002A
003B
FFEA
FFD3
0005
FFE6
001A
FFD3
0013
0027
FFDA
001F
0014
FFDF
003A
001B
FFF2
FFE5
0009
FFEF
FFDC
FFFC
FFFF
FFE7
0018
0033
0003
001A
FFEB
0031
0026
0014
002F
FFC4
0021
001E
000F
FFF8
FFF6
FFF8
FFF9
000D
0033
0024
FFE7
0035
0002
000A
FFE2
000F
0020
FFD8
0013
FFD3
0017
FFE3
0018
0037
FFE1
001C
003F
FFFE
FFDA
FFFB
FFD9
0008
0011
FFE2
000B
FFD1
FFF7
0019
FFF3
0010
FFF3
FFFE
FFFC
FFF6
0006
0004
0002
0012
FFEC
0032
0008
FFE4
FFFF
FFC3
0047
FFEC
0011
FFF4
0024
FFEF
0039
000B
FFFA
0019
0005
FFF9
FFE5
0030
FFE2
FFEB
FFE6
FFC8
FFEE
0032
001E
0017
001E
0002
FFFD
FFE7
FFDA
0008
0000
FFE3
0008
000E
0042
0008
FFEF
FFD8
0016
0015
0029
0005
FFCC
FFF4
FFBE
FFE4
0009
0013
FFF0
0026
0017
FFEA
FFE7
0011
FFDC
0036
FFE3
FFDE
001A
000D
FFE6
0017
FFED
0013
FFE0
002D
000E
0031
0016
FFBA
001E
001A
000D
FFEA
0005
FFDD
FFCE
003E
FFE2
0017
FFEA
FFE2
0019
0039
002C
0006
0015
0013
0022
FFB9
0016
0007
FFBC
FFBA
FFF6
000A
0025
002C
0016
FFBE
FFF2
FFDF
FFD2
FFEC
FFEA
0005
001B
FFFE
FFFE
FFF7
FFF3
001E
002D
001F
FFE3
002A
FFF8
0020
000B
001F
000A
FFDD
FFDB
FFCD
FFC6
FFD0
FFFC
0004
0015
0004
FFE5
FFD6
FFFE
FFFC
000F
0001
0027
0006
0025
FFFB
0023
000E
FFFA
0020
FFCF
001D
FFD3
FFF8
0010
002C
0014
FFE3
0039
FFE5
FFEE
FFE6
FFFB
FFF9
FFE0
0008
FFEC
FFFA
001F
FFDB
FFE6
FFE7
FFE6
0008
0047
FFFA
001D
002F
0004
FFCE
FFFF
FFE6
FFDE
0016
0003
000E
FFE7
FFD7
001A
FFFC
FFFD
000A
FFF5
000A
FFEE
0011
FFEE
FFF5
002C
FFDF
0035
0000
000E
FFF5
FFDB
FFBE
FFFA
0003
FFFC
FFD7
0011
FFE0
FFEE
0007
0039
FFC3
FFF7
0030
0001
FFF6
FFBD
0007
0007
FFBC
FFFF
003A
FFE9
FFF0
0007
001D
FFFE
FFFE
FFE7
0011
FFE6
0022
FFFF
000C
002B
FFFE
FFF5
0026
FFDA
002A
FFCA
002B
0020
0004
FFFF
FFE5
FFF8
FFC5
FFF5
FFD5
FFF7
FFF7
0005
0019
0014
FFF4
0018
0025
FFD3
FFC0
FFD7
FFD6
002A
FFF9
FFCD
FFF4
001C
001B
FFB8
0013
FFDC
FFF6
FFEB
FFBF
0004
FFFE
0018
FFF5
FFCE
001F
FFF0
002D
003C
002F
FFD8
0020
FFE3
FFEA
0004
003A
FFD9
002B
FFFD
0004
FFDB
FFDD
0006
FFBC
FFF3
0026
003B
FFDC
FFEC
FFC0
FFBD
FFCF
FFE5
0028
FFF9
0009
FFFE
0000
001C
0010
FFBF
FFDF
0005
FFFA
FFEF
0019
0007
0004
FFE1
0035
FFD2
FFED
FFDD
0018
FFF9
FFFF
FFEA
FFBF
0014
FFFA
000D
0034
FFCC
FFDB
0000
FFF0
FFBE
FFD2
FFEA
FFF4
FFFB
0003
000E
FFEC
001D
FFF2
FFE7
0011
0036
FFDF
FFEA
0014
0019
FFCC
FFE9
002B
FFD5
FFFE
002C
FFD2
001F
0000
0013
001D
0018
FFD7
FFE1
002F
FFED
FFF6
FFD6
FFC6
0014
0029
FFE3
FFCF
0007
001C
FFF9
FFDF
FFD9
FFEF
FFD4
FFFF
0037
FFF9
FFCA
FFF3
0027
FFF9
0021
0007
FFE1
FFFA
FFE6
0011
0005
0011
FFC4
FFEC
FFED
000C
0040
FFD7
0049
0002
FFE2
0014
FFD5
FFBB
0022
0023
000F
0005
FFCD
0009
FFDD
FFD4
FFE4
001C
FFD6
FFEC
0023
FFDE
0023
0005
FFC5
000E
FFFB
FFF0
0044
FFE4
0021
0002
FFE2
FFC8
FFBE
0038
FFC0
0010
0042
0047
FFFC
FFF8
FFFE
000D
FFEB
FFD1
002E
FFC4
0004
0024
FFF7
FFCA
0013
0032
FFF7
002A
FFEE
FFFD
FFE8
FFDB
0032
FFD9
001D
0031
0023
FFF3
000D
FFD1
0012
FFE5
0008
FFEE
FFEC
FFDC
0027
FFCC
0014
000F
0022
FFFC
000B
FFD3
FFBC
0000
0008
0006
0046
0018
0013
FFC8
0038
FFF3
0021
0020
0002
FFF0
FFEB
0001
FFC0
FFE0
FFCC
0019
FFE1
FFE3
0001
FFD2
0015
0015
FFDA
FFFA
000D
0001
FFF0
FFF5
FFC5
0018
FFE3
0016
FFF8
FFFD
FFFF
FFD7
FFF5
FFFF
FFE3
FFCA
0011
FFE6
FFED
0000
FFD4
001A
FFF3
0014
0003
FFD9
0034
FFFE
FFE6
FFE2
FFCD
0024
0007
FFE3
FFD5
FFC4
0003
0001
FFEE
FFEC
FFF8
0028
FFF6
001D
0012
000E
0014
FFD3
FFFA
FFE8
FFE9
0001
0013
FFE4
FFF6
FFEC
FFD9
FFCB
0005
001D
000B
FFD3
0039
FFE8
FFCF
0024
0019
FFCA
0032
0019
FFF3
FFE9
FFF3
0001
FFFB
0012
000D
FFE2
FFD4
FFE8
0028
001A
FFF6
FFDB
FFEB
FFF6
FFE2
FFFE
0003
FFE7
FFED
0014
0002
FFD4
FFC7
FFDB
FFCF
000F
0013
FFF0
FFBF
FFBF
0028
FFC9
FFF2
FFCD
0000
0026
003C
FFFA
FFF3
FFF8
FFE3
0031
0034
FFF4
FFE8
FFE1
0031
0009
FFE9
FFEF
FFE4
0013
0004
0009
FFED
0028
0048
0025
FFFA
FFE2
FFE5
FFF1
FFDA
001F
000D
FFEC
0015
0033
FFF8
0029
0010
FFCC
0047
003A
0002
FFE8
FFE9
FFFC
002C
FFCA
001F
FFED
002B
0000
FFCF
FFEA
FFEC
FFDB
0025
0013
FFFA
0022
FFDF
0022
FFD7
FFE3
FFC6
0017
0004
0008
0021
001D
FFC6
0022
FFFD
FFC7
FFE4
FFF3
001A
FFBD
0029
FFE6
FFD6
FFF3
FFEF
FFC5
0022
0015
FFE8
FFE1
0042
0002
FFE5
FFB8
0009
001E
000F
0019
FFD8
FFEE
FFFE
FFD9
0015
FFF2
0030
000B
FFE7
FFBE
0015
0000
002A
FFFE
0014
0013
FFE7
001E
0018
0000
FFE2
FFFA
0022
FFF3
0001
FFF0
001E
FFCA
0000
FFE9
FFDB
FFED
0022
FFE3
FFF3
0040
FFCB
0025
FFC3
0014
0019
FFF3
FFF8
0000
FFE9
0007
0008
0015
0007
0027
0037
001B
FFBF
0015
FFCE
FFD5
FFF0
001E
FFD7
003F
FFFB
FFF0
002C
0037
FFBB
000C
FFBC
FFF7
FFF3
FFFC
FFF6
FFCF
0021
0041
001C
0034
FFB9
FFC2
FFE8
FFF2
0015
FFF5
0002
000D
FFD2
FFC8
003C
0017
000F
0019
FFDA
FFE7
0017
0016
000C
FFD4
FFFD
0028
0013
FFFE
FFFB
FFF4
FFFA
FFDE
0036
FFEE
0011
FFF2
FFFF
FFE9
FFD9
FFE9
FFE7
0000
FFDF
002D
FFEB
001B
FFEB
001E
000F
FFEC
0015
FFC4
FFDA
FFFC
FFE4
000A
FFE5
FFE1
0002
0008
FFE3
0013
FFF6
0028
FFFE
0013
0033
FFEA
001C
003C
FFE4
0006
0000
FFE8
FFE8
FFEF
FFE8
FFD6
FFEB
FFF6
0021
FFEE
002F
FFE7
001E
FFE8
FFFF
FFDA
0012
002A
FFFE
FFF7
FFFA
001A
003F
FFD0
FFF3
0005
FFFE
0001
002A
0021
001A
0024
000D
FFE3
FFC9
0045
FFE6
001B
FFE2
FFE7
000F
0008
001F
FFF8
FFD2
FFE8
0014
0029
FFE1
0008
0002
001F
0038
001D
0006
001A
FFD2
FFE9
0008
FFD8
FFF2
000C
0017
FFE6
001B
0019
FFE6
0003
FFB9
FFF7
FFC1
FFD0
FFF4
0044
0025
0022
FFE7
0030
0027
FFDF
000D
FFEB
FFE1
002D
FFD7
0028
0024
FFDE
0034
FFFF
FFE9
FFEB
FFCF
0023
0006
FFED
0003
000D
003B
0034
FFC2
0019
0002
FFEB
0019
FFCA
FFBA
FFE4
FFEE
001F
002C
0007
FFE7
0000
FFEF
0006
FFEE
FFBC
FFE4
0008
0025
FFCD
FFE2
FFE6
FFF7
FFE2
FFEA
001B
0021
FFFB
0000
FFF6
FFFA
FFE7
FFF4
FFE2
FFF1
0032
FFE7
FFDD
0010
0010
0014
FFFA
0015
0041
0033
0026
FFDC
FFDB
FFE8
0020
0002
FFFF
FFF7
0011
0007
FFE4
FFF1
FFFA
003B
FFE6
FFE2
000F
FFC0
FFF6
0005
FFD3
0018
FFD1
FFF1
0006
FFF9
0002
FFF4
0004
FFF3
FFDF
002E
FFC4
FFEC
FFCB
FFF0
0016
FFF8
FFFC
001F
0006
0037
001A
0038
0029
000E
0043
0017
FFBF
0024
FFEF
FFC6
0016
000F
0021
0025
0014
FFD0
0021
000A
001E
FFF8
FFF0
FFEE
FFE7
FFF4
000A
FFE5
0034
0015
FFD8
0010
FFE7
FFEA
FFEE
FFFC
FFE2
001F
0026
0027
0015
FFF8
FFFF
0021
FFE3
FFC9
FFBB
0006
0001
0007
FFFC
0004
0012
000A
FFDA
001E
FFE6
0014
FFF2
0028
FFEE
FFD9
0003
FFDC
0011
0039
002B
FFEB
003D
0025
FFD3
002B
FFCB
FFCC
FFF8
0007
FFF9
0007
FFF8
0019
FFEC
0027
001C
FFE2
FFF7
FFB9
FFDA
FFD1
FFE7
001E
FFFE
FFEA
0017
0007
0005
0018
FFE9
0000
FFEB
FFFD
FFFF
000C
FFF0
FFFB
0024
0001
0034
FFEA
FFE9
0007
0011
000E
0033
FFEE
FFDE
003C
002B
000B
000A
FFED
001E
FFC2
FFCF
0004
0009
FFFE
FFEA
FFF3
FFE3
0027
003A
FFF7
0011
0016
0001
FFEC
FFF0
0019
FFE7
FFD2
000C
FFD0
000D
0031
0016
001D
0007
001B
000F
FFD1
FFC6
FFEB
003B
FFFD
FFE3
001F
FFF7
0000
0007
FFDF
0025
FFC4
FFEE
FFF0
FFC6
FFE7
000E
000E
FFEF
FFC7
0027
FFFB
FFE7
000B
001F
0016
FFC3
FFE6
FFEB
FFEA
002A
FFEE
FFF6
FFFD
0006
FFF4
003A
FFF5
FFCE
0002
FFD1
FFD8
002B
0028
0000
0012
FFE6
FFEE
FFF5
0025
000E
FFF7
0041
000E
FFFD
FFFD
FFE6
FFF8
0030
FFE0
0002
FFFC
FFDA
FFE8
FFBB
001D
0004
0010
0008
FFF6
0019
FFEE
FFF4
0004
000D
001B
FFDA
FFEF
FFF5
0024
FFD6
0026
001C
0025
FFDF
0013
FFD6
0021
FFE0
FFE8
FFF5
0004
0008
FFFF
FFFC
FFFE
FFE3
FFFF
0012
0009
0028
FFE9
FFEA
FFCD
003E
000F
0046
003B
FFFD
FFE3
001C
002B
0017
0022
FFF5
FFFC
FFFA
FFDF
0017
FFE5
FFE0
0002
FFEB
0015
FFF9
FFEF
FFFC
FFE0
FFF5
FFCD
FFF3
FFE0
0028
FFD0
0025
FFF8
000A
000D
001C
FFEE
FFE6
0031
0001
0006
0018
FFC7
001A
FFEC
FFD7
001C
0008
0006
0021
FFE0
FFFE
0016
0015
FFE3
0013
0038
0009
0030
0009
FFED
FFC2
FFE8
FFF8
FFBC
0014
FFE1
0035
FFD7
000D
FFF2
FFE9
0026
001E
0018
FFE1
FFEB
002D
000C
FFE2
FFD9
001A
FFE2
FFED
0020
FFD8
FFC5
FFFA
0002
FFE3
001B
000B
0009
FFCE
001E
FFF7
FFC5
0029
FFCB
0037
001B
FFDC
FFF0
FFE0
FFE2
FFEA
FFEB
003E
000C
0039
0002
000A
000F
FFC6
0012
0021
FFFF
0036
0028
0015
FFF9
FFFB
FFF0
001A
FFF8
0004
003F
0005
0040
FFE7
FFFF
0018
0018
FFF2
FFD9
FFE7
0003
0032
001E
FFE7
0029
FFFE
FFFD
0020
002E
FFF5
FFDD
FFBD
FFFB
FFE4
0017
0015
FFDD
FFEB
001B
0012
002C
0022
000D
FFD5
0001
0004
FFE2
FFDD
0000
FFFF
000E
0023
FFFE
FFE1
002E
0037
FFF8
0032
0009
001E
FFE6
0006
FFDB
FFE5
FFE3
0032
0013
FFD7
0000
FFEF
FFD7
0020
FFE8
0002
0015
002A
000F
FFE0
0017
002D
FFFB
FFEC
FFFB
FFC6
FFDE
003E
FFF7
003F
0006
0017
0027
FFEA
0014
0004
0042
0009
001E
FFF0
0006
000D
FFC3
FFDB
FFE3
FFFD
001F
001C
001D
FFE7
0037
0003
0004
FFCF
0023
FFCD
001D
FFF0
FFF3
0004
FFBA
0008
0031
0024
001D
FFF3
FFFD
FFBC
0024
FFE7
FFFB
001B
FFF4
FFCC
FFED
FFFD
FFEB
FFFF
0021
FFC6
FFEF
0004
000E
001F
FFE6
001E
FFFE
FFF7
FFEC
0010
FFF2
FFFE
FFEA
0044
0015
002B
000E
FFED
000B
002C
FFE4
0006
FFDF
0021
0009
003D
FFFD
000F
002A
000C
0014
FFF1
FFDD
FFFD
002D
0015
0010
FFF9
FFEF
000E
0002
000C
002C
FFD4
FFE1
FFD2
FFDE
0015
FFDA
0023
FFDF
0032
FFD0
FFF5
FFB8
0011
FFF9
FFEA
0003
FFFE
FFFF
FFEE
FFDB
FFF8
FFCE
FFF9
FFCF
FFEB
FFF4
000B
FFEF
FFD4
FFE9
0026
FFDC
0026
FFDD
FFE4
000F
FFCF
FFF2
FFE6
0008
FFF8
0008
FFF5
0034
FFEA
FFEE
000F
FFF9
0014
FFF8
FFFC
FFFC
0017
FFF9
FFDE
FFF8
0013
0016
0000
FFF9
003D
0032
FFD9
FFEB
FFF3
0038
0005
FFC4
000B
FFCF
FFC8
0000
001A
FFFB
0028
0027
FFC5
FFE5
0033
FFD5
001C
0017
FFFA
FFE8
FFF8
FFDE
FFF5
0015
FFE6
0040
000F
FFEA
FFED
000D
FFF0
003D
0033
0017
0000
001D
0016
FFD9
FFE3
FFE3
0019
0002
FFDA
0019
0013
0002
FFFA
0030
FFCA
FFFF
FFEF
001D
001C
FFEC
0006
001D
0015
FFCE
FFDA
FFE0
0016
0015
FFE3
0003
001B
000C
FFF3
0022
001E
FFDF
FFF6
0014
FFFC
0017
0028
FFE6
003A
FFDB
0036
000F
FFDF
FFC2
0013
FFC4
001A
FFE5
FFF9
FFE6
0012
FFC8
002C
0038
FFF3
000B
0036
000C
001A
FFF2
000F
FFD7
0011
0025
0045
FFC4
0000
002C
FFFB
002E
FFCA
000D
FFD8
001C
FFFA
FFDF
0005
FFE9
FFDC
0033
FFF9
0019
003D
