0005
001E
FFEF
FFCF
0009
0002
FFF9
0008
FFC8
0029
FFEC
FFE1
0018
0034
0022
001C
0022
001B
FFF2
0004
FFFD
FFF1
FFE2
002E
FFE8
FFF4
0012
002B
FFE4
000C
0012
0004
FFDB
0009
FFFD
FFF9
0033
FFCE
0004
0045
002A
FFFA
FFD6
FFF6
001F
FFF7
002F
000D
0012
0013
FFD8
FFEB
0002
002C
FFF5
0012
0013
0035
0018
002F
FFE7
001F
FFFC
001E
002A
FFD2
FFF8
0026
FFD2
0013
0003
FFE8
FFC1
FFD7
FFF8
0023
FFFB
002B
0002
001F
0020
0004
FFE3
002D
0045
FFCF
FFFC
0015
FFF3
000F
FFF7
0013
FFE8
0035
FFF7
0014
FFF8
FFD1
FFF1
FFFF
FFF4
FFF6
FFD2
FFF1
FFEF
FFF6
002D
0040
0026
000F
FFF5
0025
FFC8
0024
000C
FFED
FFF1
0013
000C
0032
0018
001F
FFCC
001F
FFCB
0018
FFEE
FFD1
FFE4
FFE3
FFFF
0022
FFE0
0036
FFD2
FFFD
0021
FFEC
FFEF
FFEC
FFDB
FFC1
FFD5
000E
FFFE
0015
003C
FFED
FFFC
FFD4
FFFC
FFFB
FFF1
FFE8
0001
FFEF
0041
FFED
FFDA
FFFE
0024
FFF5
FFE9
FFF0
FFDF
FFE7
FFF9
0015
FFBF
FFFD
FFF3
FFDE
FFC0
FFF5
FFE0
FFFB
FFCF
0023
002A
0037
002E
FFE6
0049
FFFF
FFF5
FFFD
FFEC
FFD0
FFDA
FFD1
FFFB
FFBB
0000
FFFD
FFDF
FFF5
FFF5
FFFA
0018
FFD3
0033
FFFA
003E
0033
FFD9
0011
0032
0023
0015
FFF6
FFCF
FFF1
0009
FFE4
FFC0
0014
FFD6
FFB9
000F
FFF6
FFFD
003B
FFD7
0000
002F
002D
0005
000E
FFF7
0003
FFEF
FFF7
FFF3
FFFA
FFD6
FFD3
0017
FFDD
0039
000B
FFE0
FFE2
FFE8
FFF3
000B
002A
FFF2
0022
FFE1
FFD9
0005
0000
000E
FFF9
FFDD
0013
0035
0011
0005
0001
FFF6
0021
FFE2
FFE0
FFCE
0009
FFFA
0036
FFDA
003A
000C
FFE2
FFED
0008
0018
0009
0029
001A
FFE1
FFC7
FFF1
FFFF
0012
FFFB
FFE9
FFED
002B
0013
0005
0001
FFD0
0004
FFED
FFE8
FFC5
0028
FFC2
0010
FFC2
0018
001D
FFE0
FFE1
FFFB
FFE5
FFE1
FFD2
FFC5
002F
0030
FFFA
002A
FFCA
FFDB
001A
FFF0
0008
0010
0002
0021
FFF2
0006
001E
003E
0027
FFC0
0017
FFEB
0034
0010
000D
000A
000E
FFC1
002C
000E
FFD0
0031
FFF2
FFF0
002F
0009
0010
003A
FFE8
0014
FFEE
FFF0
FFF6
002D
000D
0003
FFC5
0025
0020
0005
FFE9
FFE3
001A
0008
0027
0016
FFCB
FFFF
FFD4
FFE0
0046
FFF0
FFD8
0010
FFEB
FFDE
0015
0035
0002
0044
0030
FFD1
0038
001F
FFCD
0031
001C
0006
000F
0012
FFD7
001A
FFD5
0003
0043
FFF9
0010
FFF7
FFD6
FFCC
FFDC
FFC2
FFEA
000C
0013
FFDD
0001
FFCD
FFFE
001B
0013
0016
FFBE
000C
0011
FFD5
000C
000C
0014
0001
FFDD
001A
0031
001D
002C
FFFB
003F
FFF8
002C
0028
FFFA
FFE4
FFE1
0023
FFF3
FFDA
FFD7
FFF8
0031
FFF4
001B
FFE4
0032
0036
FFF7
FFE3
FFFD
FFCD
0002
001E
FFEA
0027
0032
001D
0048
0004
FFF2
FFFC
FFF8
FFED
0011
FFFD
001A
FFF1
FFCF
0006
0025
0018
0018
0005
0007
0020
0010
001E
0013
0015
FFD7
FFF1
FFDC
0005
0000
0009
0014
FFFD
FFE6
FFF0
001A
FFC9
FFCE
FFF9
0014
FFD9
0032
FFFD
FFF3
FFE3
FFFA
0021
0024
0010
003F
001C
0004
FFFF
0035
001A
FFF8
0023
FFBB
FFFC
FFF8
FFFB
FFEA
000A
0034
FFEE
0030
FFDF
001C
FFE0
FFD5
0001
FFFF
000A
0011
FFF2
FFD7
0024
0022
0004
001B
002F
FFCB
0036
FFFB
002B
FFFD
FFDD
0011
FFD4
0018
0002
002B
0014
FFCB
FFE9
002C
FFF1
FFE3
0007
FFC3
0042
0032
FFE1
FFEE
FFE5
FFEC
FFE8
FFF7
0024
0019
FFC3
0036
0003
FFEE
FFD5
FFE4
FFD6
0004
003A
0018
000E
FFE5
0024
FFF2
0013
000D
FFE2
FFE0
FFD8
0014
FFEA
001B
FFF4
0011
FFEC
0011
FFCF
000C
000A
0013
002C
0024
FFC6
FFEC
FFD8
FFF9
0027
0009
000E
FFEF
FFE6
FFE7
FFE9
FFF6
0017
0010
0025
FFD4
FFF4
FFFF
FFFC
FFE7
0005
0018
FFF5
FFE4
FFED
FFF8
FFEC
0009
FFF7
000E
FFFD
0028
0001
0029
0039
0021
FFF2
0018
0038
FFE1
0040
FFDA
0035
FFF2
FFF7
0013
0022
0026
0027
001B
FFEC
0013
0040
0020
0011
000B
FFF3
0007
FFF7
0012
002E
0025
000E
0003
0000
0046
000F
FFFB
000C
FFD7
FFF6
003D
FFF0
0011
FFE6
000F
FFDB
000A
FFBF
FFC7
002E
FFD4
0032
0024
0007
0016
FFD4
0002
003F
0014
FFF5
FFE3
FFD2
0020
FFD3
0018
FFB8
002A
FFF6
0048
0022
FFD6
FFF7
0014
002F
0018
0029
FFE4
FFCD
FFFE
FFC3
0026
FFDC
FFDF
FFF6
FFE6
0033
0000
003D
0025
0013
FFF5
FFF6
002B
FFF5
FFD3
0042
0008
000F
FFF6
FFD4
000A
0011
FFC7
FFCB
0024
0002
0012
002B
FFEF
0032
FFED
FFFE
FFE4
0001
FFFD
001E
002B
0005
000A
FFFE
0013
000D
0000
0009
000C
FFF1
FFF7
0002
FFF9
FFEA
FFF6
0022
FFE4
FFE4
FFDD
FFEC
FFBD
FFEC
0016
FFF7
0012
FFED
001F
FFDB
001C
FFEA
FFFF
FFBC
0009
FFEA
FFE4
FFFD
FFEC
FFD1
0020
001D
FFFB
FFDA
FFF6
0008
0019
0014
0022
FFE9
0003
FFF4
0018
0001
001E
FFD6
000E
FFFB
0013
FFF7
FFD0
001C
FFCF
FFD7
FFDF
FFC5
0011
0010
000D
000D
FFFB
0017
FFBD
FFCF
FFD8
FFFB
FFF0
FFD2
FFDD
FFC2
FFF4
0024
0035
FFE7
000D
0010
0009
FFF7
0009
0004
0017
0041
0006
FFC3
0014
FFF0
FFFF
0009
FFD7
FFE8
000B
FFEF
FFD3
FFD1
0010
0012
FFD1
FFF3
FFF3
FFFE
0002
FFF7
0003
000D
0007
FFF9
0020
FFF1
FFE4
001D
FFFF
FFDA
0036
FFF7
FFD0
0024
FFF6
FFEB
0021
0020
FFCD
FFF4
0017
FFF6
000E
002B
0000
0008
FFFE
FFF3
FFD0
0000
0021
FFE6
FFFF
FFF1
FFE2
FFCA
FFEE
000A
FFFF
FFEC
000D
FFE6
0001
FFF9
0017
FFFE
0029
000B
0031
FFF2
0038
0012
FFDA
0024
0004
003F
0011
FFE3
FFE1
FFD2
FFF4
FFF5
0019
0010
001E
FFCA
FFEA
FFCF
0029
0024
0037
FFDB
FFBF
0037
FFEF
000F
FFF6
FFF9
FFC4
0024
FFE2
FFF4
0005
FFF1
0019
0009
FFC8
FFFA
FFF2
0016
FFDC
FFDC
FFBD
0028
001B
002C
0035
FFD9
FFE6
0017
0022
FFF2
0001
0040
FFC6
FFBC
0013
000A
0020
FFE9
0013
0034
0006
001B
0028
FFD8
FFE2
0022
FFEE
0000
FFFE
0035
FFFE
FFDD
0003
000A
FFDF
0041
0005
0017
002D
0000
FFBA
FFDC
FFF2
FFF0
0011
0003
0000
FFD0
0028
0015
001B
0002
001E
001B
FFEC
FFF3
001A
FFE3
0039
FFF3
FFBE
FFE5
FFD2
000E
FFEB
FFFA
FFD8
FFEB
003F
0004
FFDE
001A
000C
0011
0014
FFF2
FFD4
0023
FFFD
000C
001A
FFD7
0019
FFFE
FFDF
FFC6
0042
FFCD
0009
FFE8
FFE7
FFE0
0012
FFEF
FFE5
FFD6
0026
FFE6
0025
FFE7
0007
0012
0010
0040
0010
000D
001D
FFE9
FFD5
FFE9
0026
0004
FFE4
FFF3
0000
FFBC
001E
0005
0026
FFFD
0015
FFD7
FFF3
FFDF
0019
0009
FFE6
FFDB
0030
FFF8
0024
FFC5
FFF2
FFF1
000E
FFFE
0025
0027
0028
FFD9
FFF6
000D
0000
0015
003C
0004
FFEC
0012
FFCB
0026
0033
FFCC
FFBA
0049
FFEF
003B
001F
0022
003F
FFD9
FFE7
002D
000C
0007
FFF4
000B
FFE6
FFFB
FFF6
FFF0
FFE2
FFE8
0038
FFD0
FFEC
FFF4
000E
FFDB
FFFD
0032
FFF4
FFD6
0007
000B
FFD6
001C
0010
FFFE
0012
FFFD
FFDE
0011
FFBB
FFD6
003C
0031
0022
0006
0033
FFF5
FFE6
000A
0008
0001
0008
0035
0002
0008
0021
FFFC
0021
001D
0031
0014
0021
FFDA
FFFA
0021
FFED
0033
0018
000A
003A
000C
0009
FFCA
FFF6
0000
FFF8
FFF0
FFF0
0040
0005
0013
0002
FFF3
0008
0015
FFF8
FFE0
FFF4
FFD0
FFF4
FFDE
0015
FFF9
0004
0022
0016
0021
0010
FFF8
0001
002C
002C
000C
0025
0005
0014
0005
FFDA
FFE4
001B
001F
FFF9
FFD1
002A
FFEE
0011
FFD3
FFE9
FFED
FFFE
0008
002D
FFEA
000C
FFE7
FFDF
FFFF
0019
0011
0026
FFDC
0006
FFD0
FFF1
FFD1
FFC3
000F
FFDA
0005
FFF9
FFF7
FFF1
FFE5
000E
0023
FFF6
0014
FFE7
FFE0
0015
FFE1
001E
FFF8
0002
0032
FFCB
FFCC
0043
0036
000A
002F
FFE2
FFDA
0021
FFCA
0007
0010
001B
002F
FFFE
0012
FFBE
FFE9
0007
FFE5
FFD7
FFFD
FFD2
0007
FFFD
FFF1
0000
0014
0015
FFF9
0002
0008
0012
0008
0049
0022
0016
FFBF
FFE7
002F
002C
001A
FFE8
002E
0012
000F
FFFD
000B
FFFE
FFE0
FFDC
FFE8
FFE2
FFBB
FFD9
FFD9
002C
0029
FFF1
FFF3
0016
0009
FFFB
FFCF
001F
FFFB
0005
0010
FFF2
0023
FFED
0008
0006
FFF1
002A
FFEE
0015
FFD8
002A
FFD9
FFF4
FFD8
FFD3
FFCC
FFCA
FFD0
FFC9
000B
0000
FFF0
0016
FFCC
FFF9
0029
FFDA
FFEC
FFC2
FFDF
FFCA
000C
001F
0002
FFD1
FFB9
FFE8
0011
0010
FFFD
0001
0007
FFE3
0002
002C
0029
FFD5
FFCD
FFCD
FFD0
FFDB
0001
002E
0030
FFCF
FFD8
0013
0038
0027
FFE3
000B
0032
0047
FFFC
FFFB
FFD0
FFEE
FFC5
FFD6
0021
0010
0023
FFF5
0006
FFB8
FFEA
001D
001C
0005
FFE6
FFEB
FFE1
FFE2
FFD6
0030
FFD2
FFDE
001C
FFE7
000A
FFFC
0027
FFF8
003C
FFFE
FFFC
0032
001E
FFDB
FFEA
FFFB
0004
000D
FFD1
0000
0020
0021
0032
FFF0
FFFA
FFCF
FFEE
000B
0007
0025
FFF6
FFF0
FFF8
000A
FFDA
0001
FFD7
0025
FFFF
000D
FFD9
FFF5
001D
0009
002F
0023
000E
FFD6
0007
FFF0
FFF4
FFFD
002F
FFF9
0019
0011
FFC9
FFF7
FFF9
FFF7
FFFC
FFEE
001A
000B
FFBA
0023
000F
002F
0023
FFF0
FFFA
FFE2
FFE3
FFD2
FFDC
FFCC
0006
001E
002B
FFD6
FFEC
FFE0
FFE6
FFD7
001A
0011
FFD6
0037
FFF6
001F
FFE4
FFFB
000A
0009
FFCC
0037
0028
0018
002B
FFF2
FFEA
0014
FFF5
FFC9
0010
0021
FFEA
001A
FFD1
0023
0005
FFE9
0020
003A
0015
FFE8
0006
0003
0019
FFFF
000D
0011
0033
0019
0034
FFE8
FFCE
FFE0
0004
0039
FFFF
002F
FFFC
FFF2
0013
FFEE
0010
FFFB
FFEC
0035
FFC5
FFE6
001D
003D
0014
FFF3
0033
FFE9
FFEC
002F
FFF6
0009
0018
FFEC
FFC2
FFEF
001E
FFF0
FFFE
FFD4
FFD7
FFE8
0036
0009
0025
001D
FFC3
FFD6
000B
FFD5
FFC8
FFDB
003A
FFE3
0041
0017
002A
001C
FFF9
002F
0010
001F
FFC6
FFFF
0029
FFEA
0025
FFF6
0015
FFD2
FFFE
000E
001B
0020
FFD0
000D
002D
FFC5
0007
0001
FFE8
0034
000B
0018
FFE9
FFF1
003F
001C
FFDE
0033
000C
0025
0046
FFDA
002A
000C
FFE8
FFF4
FFC6
0001
FFCF
FFDA
0014
0007
0003
0006
FFFD
0013
003A
FFD2
FFF7
FFF3
FFFA
0009
FFEB
0022
0018
FFFC
0005
FFE5
FFD1
0009
FFEF
0036
001D
FFE3
001A
0015
0000
000D
0001
FFFD
FFDA
FFD9
0023
003A
FFED
FFE2
FFD0
0020
0048
FFDA
FFC3
0005
0030
0047
FFFE
0029
FFE8
0035
0010
FFE9
0021
0016
0007
0030
FFD5
002E
FFEE
002F
FFF5
001E
FFEB
000A
FFF8
FFF6
FFBB
FFE2
FFF9
000A
FFF5
FFD3
FFD3
0021
FFCF
0013
FFE7
0015
0018
0010
003F
FFFC
000B
FFFD
0017
FFF3
FFFE
0028
FFFC
0001
002C
0001
0013
FFDA
FFF8
0006
0035
0003
FFD0
FFE4
000F
FFBF
FFED
0042
FFDD
FFE9
0024
000A
002F
FFEB
FFEC
0002
FFE0
FFEC
0017
FFFA
FFE1
FFEB
FFDB
FFD0
FFF5
FFC6
FFC5
0025
FFF6
0000
FFFD
FFE8
0027
FFDB
0035
FFF9
001B
FFCD
0008
FFFE
0010
0003
003A
FFEF
0026
0021
000B
FFF7
0045
FFFF
0011
0000
FFF5
000B
002D
000B
0000
FFB9
0013
FFEC
FFEE
0007
0015
FFFA
FFF5
FFDF
FFBE
003C
0045
FFCC
0016
0000
FFF0
FFE4
0028
000A
FFD7
FFEE
FFCC
FFF0
FFFC
000C
0008
000C
FFCB
FFEE
0038
0000
0000
0001
0012
002F
0025
FFDF
0040
FFF1
FFFA
FFFC
0005
0003
0018
000D
FFDE
003C
001F
FFE8
0047
0009
0019
FFDA
FFCA
FFE6
FFC7
FFE4
FFCE
0013
0038
0036
002D
0009
0004
FFDC
FFF6
FFC3
FFEB
001B
FFD7
001B
FFDC
0015
000B
0025
0036
FFF8
FFEE
0002
FFF8
000D
FFDF
FFF7
0017
FFC1
FFF9
0021
0025
FFED
FFDE
FFE2
FFE3
0029
002D
FFFE
FFEE
FFF7
0007
FFC1
0002
FFDA
FFF3
0036
0000
FFF6
FFE3
0004
FFBC
FFE4
0010
FFF2
0026
0012
0005
FFE2
FFEB
001F
FFE6
FFEB
FFFE
0013
0006
000C
FFF5
FFCA
0006
FFF4
FFF8
0026
0003
FFE2
FFDA
0023
0000
FFF0
0003
0025
0017
FFFA
FFE8
000B
FFFD
000D
FFC2
FFD9
FFEC
0031
0013
FFEC
FFF7
0010
FFFE
0021
0045
000E
0012
0039
FFE5
0015
0013
0043
FFD9
0015
FFEE
002A
FFD9
0024
FFF4
FFCB
FFE0
000D
0026
FFF6
0011
0021
FFC1
FFC9
0010
0025
0027
0002
FFEB
001D
0019
FFFC
0044
FFCA
002A
0000
002A
0048
FFE3
FFE6
0005
001D
0006
FFD2
FFC6
000C
FFDA
FFC3
0012
FFFA
FFFB
FFDB
FFE1
0006
0001
0012
FFD0
FFEE
FFFD
FFE6
0013
0018
FFE6
0041
FFD3
FFD0
000C
FFE8
0024
FFE4
001E
FFCD
0019
0015
FFCA
FFCB
FFDB
FFFF
003F
0010
FFF7
FFE8
0012
FFFF
0022
FFE1
FFDE
FFD9
FFE9
FFFF
000C
FFC4
0005
001A
FFF7
0019
0002
0015
FFF3
FFFF
FFDC
0030
FFD2
FFD4
000B
FFF0
0019
FFE6
0024
001E
0017
FFFF
0011
FFF1
FFFD
FFEB
FFE1
0039
0001
FFFF
FFFA
FFFB
FFD6
0038
0013
FFE2
FFD2
FFDE
FFD1
FFF9
FFF9
001C
002D
002C
FFC5
002E
FFFE
0038
002B
0025
FFF1
FFE6
0009
FFE0
FFDF
FFEA
FFF8
FFED
0002
002D
0046
000B
0021
000F
FFFA
0029
000B
0048
FFFC
0012
FFDA
FFE4
0032
0027
FFF6
000A
FFC9
0031
FFC4
FFEE
003E
0015
FFCC
001F
0007
001C
001F
FFD8
000F
FFCC
000B
FFFB
FFFB
000D
FFF5
FFCD
001B
FFD3
0023
FFD5
0025
0038
0014
0025
FFF8
000D
FFED
0015
002A
FFF2
FFE1
FFE4
FFE4
FFCF
FFBB
0021
0003
FFE9
FFDA
FFEB
001A
0002
002F
FFBC
FFFB
0046
FFF7
FFE5
003F
0024
000A
FFFF
0019
0024
000B
FFFF
FFF3
FFB8
0018
FFE4
0015
0025
0008
FFE6
0024
0009
FFE4
FFED
001E
FFFA
FFD9
FFF9
0024
FFE3
0004
0006
FFE7
FFF3
FFF6
FFC7
FFCF
0000
FFE9
FFC5
0032
0014
003B
000E
FFFC
FFE8
0008
0011
FFB9
FFF5
0006
0000
FFED
FFEA
0015
FFC8
0002
0031
0024
000D
0047
FFF1
FFF2
FFF5
0018
0037
0014
0001
000D
0028
FFF7
0029
FFF2
FFC5
0019
003C
000B
FFD5
FFDF
0032
001D
FFDF
0048
0004
FFEA
0046
0009
0013
0002
FFEE
FFD1
FFF0
0023
0030
FFEB
FFEF
0029
FFC6
FFDB
FFBC
FFBC
FFF4
0014
0035
FFD9
FFE6
FFF5
FFF0
FFE8
FFF6
0028
FFE0
0005
FFF9
000B
FFF4
FFE1
0014
0026
FFFE
FFDE
FFE5
000F
0001
003E
FFF0
FFC9
FFC0
0035
0026
0009
0005
FFF0
0005
FFF8
0009
0015
FFCA
0014
FFEC
0019
FFFC
0001
0018
0025
0002
0023
0017
FFD8
FFF5
0002
FFDC
FFC9
0046
FFFE
000A
001E
000E
FFFE
FFEB
000A
FFEB
FFEE
FFDD
FFF3
FFEA
0027
FFD9
FFC3
FFFA
FFFC
000F
0006
0038
002B
0042
FFE9
FFE1
FFF2
001A
000D
001D
0027
FFF4
0023
0013
FFED
FFF2
0007
FFD6
FFEF
000F
0024
FFCD
000D
0015
0016
0004
0013
FFE2
FFF9
0002
FFED
0032
0013
0033
002D
002A
FFF9
FFF6
000A
003F
FFD5
FFB8
FFF5
001A
FFD4
FFFA
0007
FFF0
FFF9
FFEE
001D
0037
0006
0001
FFF0
002F
001B
0006
FFDC
0006
FFD7
FFFF
0015
0007
FFC3
FFC2
FFE9
FFE3
FFF4
FFD1
0019
FFF0
0018
0011
0015
0000
FFE6
0003
FFCE
FFE4
001F
FFF8
FFED
0005
FFFC
FFF6
0044
0012
FFEB
0004
FFF6
0042
FFE1
FFF2
000E
FFDD
003A
0018
000B
FFF2
FFF8
0006
002B
FFDA
0011
FFD7
FFE9
FFF7
FFFF
0016
0030
0027
0029
0006
0000
FFF6
FFEF
0037
FFEF
0037
0000
0002
FFD3
0033
FFD1
000A
000D
FFD2
FFC9
FFEC
0014
0010
FFEC
FFFA
FFDE
FFCC
000A
0019
FFC7
FFF5
FFC8
0004
FFBF
001C
FFEC
0021
FFFB
FFF0
0025
FFFB
001C
002E
FFF7
0017
001A
FFF6
FFE8
0036
0006
FFE2
FFCC
000E
0003
0014
FFFC
0006
0033
FFFF
FFE0
003A
0019
0007
0001
FFE8
FFF6
0026
FFD7
FFE7
0016
002D
FFE5
003F
FFFC
002C
0002
FFE9
0026
0025
FFE2
FFC2
0008
FFDF
002C
FFF3
FFEA
001A
FFFE
FFF4
FFBA
0027
FFDD
0010
0013
0032
FFEF
002E
0015
FFE8
0023
001B
FFDA
0008
FFF7
0003
FFDA
0012
FFCD
FFF6
FFCF
FFCE
FFE8
FFD9
FFF7
FFD4
0021
000A
FFFD
FFF6
0003
0000
0005
FFFC
FFDD
0013
002F
FFE9
0013
003D
0028
0038
0020
FFDE
FFFF
0005
FFEF
001D
FFFA
000B
000B
FFC5
FFF2
0001
0037
FFF4
0016
FFFD
FFE6
FFFD
0019
FFE8
FFFB
FFF5
002D
0005
FFF0
0021
FFE9
0000
0004
FFF4
FFCB
FFF4
FFE4
FFD0
FFC5
FFFC
FFFB
0008
0010
FFDB
FFC4
FFD6
FFFD
FFEC
FFD0
0027
0001
FFFE
0027
0033
FFFB
0014
0014
001F
0033
001C
FFE8
0001
0040
0021
0009
FFFD
FFD6
FFC3
000A
0021
FFE2
FFE3
FFD1
002C
FFD1
0025
001B
FFFC
FFED
0002
002D
0022
0001
0002
0008
0023
FFDF
FFF6
0029
001B
FFEE
002F
FFED
FFDF
FFCF
FFE2
FFE8
002E
FFFE
FFE8
FFFE
0015
0011
000A
0004
001C
FFF9
FFDF
0016
FFED
0020
FFFE
FFF1
FFFF
FFEB
FFCB
FFE5
FFDB
0023
000F
0013
0021
0014
FFDA
FFDF
FFC6
0008
FFDE
FFE3
FFE5
0019
0038
FFFA
FFCD
0002
FFF1
000C
0000
000D
FFDF
001D
0012
FFF1
0019
0001
0012
FFE1
0000
002B
003D
FFFD
FFDC
FFEE
FFF9
FFE7
FFF5
003F
FFBA
002D
FFFE
FFF9
001F
0004
FFD4
FFFF
0011
0000
FFFB
0008
FFEE
000F
FFE5
0017
FFD0
FFF7
0000
FFE6
FFEB
FFFB
FFBA
0018
0032
FFD0
FFFC
FFDD
0028
FFCA
000E
FFDE
0021
0005
002D
FFF9
0006
FFCD
0030
FFD7
FFDF
FFD8
000C
001E
001F
FFC1
FFF6
002A
FFF5
0016
000D
0025
FFE7
0005
001C
FFF9
000B
0010
0010
000A
0003
FFFA
0011
FFEF
FFEB
FFF3
FFFA
FFE0
0001
FFDB
FFC9
FFDB
000E
FFE1
FFED
FFC1
0001
000B
FFCC
FFD5
FFE4
0018
FFC6
0011
FFBD
0008
FFE7
FFF0
0008
FFED
FFDE
0003
0018
0002
0026
0038
FFF2
FFF5
FFE7
002B
0032
0017
FFC0
FFFC
002A
0006
FFE9
0020
0000
FFE1
FFF0
002B
FFCC
0035
002A
FFFA
001B
FFCD
FFE9
FFF6
0017
0015
FFE9
0016
FFF2
001E
0018
FFE5
0014
FFCD
000F
FFF7
0006
001A
0037
003D
FFC9
FFFC
FFD1
0005
0006
0006
002D
002B
FFDF
FFD7
0014
FFE7
0010
0001
0018
FFE0
0007
FFCE
0010
FFF7
FFF9
0005
000B
0033
0037
FFD2
FFC4
0012
0017
000C
000D
FFD5
0010
FFE0
FFD4
0037
0013
FFE0
FFE0
0011
0008
0011
FFF0
FFF1
000D
0014
002E
FFEC
0024
0041
001E
FFF8
0044
FFF1
000A
0016
FFFE
FFFC
000D
003D
FFD7
FFF6
FFC1
0036
FFFB
FFCC
000F
FFF4
0009
0032
FFFD
0019
FFE7
001F
0013
FFDB
0004
FFF2
0010
001A
FFC8
0022
FFE7
FFFD
FFE9
0037
000A
FFFC
FFDB
FFC0
FFEE
FFE9
0011
FFFA
FFC0
0033
FFD9
FFF9
0040
0014
FFEF
FFEF
0031
0019
FFF2
0038
0026
FFE1
0002
FFD6
0029
FFF5
FFF5
FFF3
FFF8
0010
FFFB
0041
FFFC
FFED
001A
FFC8
FFD7
FFBF
0028
FFEF
0019
000B
FFEC
000A
0036
FFF2
002F
0035
FFF9
0019
FFF3
FFF3
FFEC
002D
FFEE
FFF6
FFC7
0030
FFC9
0023
FFC2
FFFF
FFFD
FFF5
0015
FFE0
FFE7
002F
FFCC
0017
001E
FFDC
0005
0000
FFDE
003F
0014
FFD5
0019
FFFD
0019
FFE3
FFE5
0020
000B
0004
FFC3
FFF1
0029
0036
FFF3
0031
0012
0022
FFF9
FFEB
FFF0
FFBD
0012
0014
001A
0019
FFFF
FFDA
0000
002B
FFED
FFFB
0025
FFED
001C
0013
0000
000C
FFEA
0019
0012
FFF0
0021
FFF0
0009
FFF4
FFDE
FFBA
FFBD
FFE4
FFFF
FFEB
0013
FFF6
FFDA
0017
0012
0019
FFC0
0011
FFFD
FFE4
0000
FFF4
0004
002C
001D
0010
0027
FFD1
FFED
001B
FFE8
FFE5
000D
0045
FFF9
000A
FFE3
002F
0017
FFE5
FFEE
0026
FFDF
0018
FFF2
FFE2
FFE2
FFF0
000A
000A
0018
001A
FFD9
0007
FFE3
FFDF
0016
FFFC
000A
FFFF
0036
FFD4
FFF3
FFE3
0033
000E
FFFB
FFF4
FFCA
FFF9
FFCC
0040
000D
FFE5
FFFA
FFFF
FFF2
FFF9
0012
FFFC
0003
FFFF
0019
003B
FFF9
000C
FFED
FFE8
0024
FFDA
FFD2
FFEB
FFCF
0012
FFF7
FFE6
0025
FFDF
0016
FFEC
FFEF
0005
FFF7
0045
001F
FFEC
FFEE
0013
FFC6
0016
0005
FFF0
0016
0024
FFD0
FFBC
FFF1
FFF5
FFEC
0043
000E
0015
000F
FFC3
0024
0015
0018
FFE5
FFED
0003
0028
FFBE
FFE9
0011
FFFC
0008
0020
0029
0000
0009
FFC2
FFEF
002D
000E
FFF7
FFF7
0039
0014
0029
FFD7
FFF6
FFF5
0027
FFE3
000C
FFD0
001C
FFC3
FFDB
FFC3
FFD6
0018
FFEC
FFDD
0023
FFCF
FFDD
FFDA
FFFE
0003
FFDC
FFCC
FFDF
000D
FFCB
FFF4
0002
FFD6
FFE3
0021
001A
0006
FFD7
FFF6
FFD3
002F
0007
FFE8
0017
0004
FFFD
FFE9
FFE9
0002
0012
FFCE
0006
000B
0013
FFE1
FFE0
FFED
FFEE
FFDD
FFE6
FFE5
0007
FFEC
FFFE
0018
FFE0
FFDD
0012
FFF2
FFCB
FFEE
0044
0038
0028
0011
0009
0005
FFF1
FFD6
FFE0
001F
FFDD
0018
0033
FFED
0015
000B
0037
003E
FFCA
FFFB
FFEF
0014
FFFD
0001
002D
FFEA
FFE4
0033
FFE8
FFFC
FFE3
FFF8
0002
FFE3
FFEA
002B
FFBB
FFCB
FFE8
0004
FFBA
FFF5
FFDC
0000
0006
0012
0005
0036
0003
0025
FFFB
FFFC
0015
FFBE
FFD9
FFD7
0000
FFCA
FFD6
FFF4
001A
FFFE
0009
000F
FFED
FFF8
0015
000D
0006
FFE1
FFDB
FFF9
0018
FFF5
FFEA
0023
002D
FFE2
0030
001A
0025
FFDF
FFE5
FFEE
FFEA
FFDB
0025
FFFE
FFE5
0019
FFEE
001F
0015
0000
001C
FFDE
0022
FFE5
FFE9
FFFD
FFEF
0002
0029
001A
0023
0040
000E
0007
001E
FFEA
0012
FFFE
0010
0031
0015
0028
FFF3
FFF9
0014
FFE4
FFD6
FFF2
001F
0018
FFFE
001C
FFC8
0026
FFEB
0021
FFC0
002E
000B
0036
003F
0007
000D
002A
FFC6
FFEF
FFFA
FFF7
002B
FFC2
000C
0017
0017
FFFD
000E
FFFB
001B
FFEA
0021
FFD7
FFDB
FFFB
FFDE
000B
FFEB
FFEB
FFBC
FFEE
0006
0047
FFBA
0002
FFF6
FFF5
002A
FFE7
FFF7
0027
0010
FFF3
0006
FFD6
0000
FFE9
FFD1
FFF9
0009
FFF4
003B
FFFE
0008
FFF8
FFE9
FFEE
003E
FFF2
0001
0026
FFFE
000D
FFBD
FFD9
001D
0005
002C
FFF0
FFFE
0003
003C
001A
0039
0013
0034
000F
FFE1
0022
0014
FFFC
FFDE
0002
FFF3
FFCC
001A
001A
FFF5
0001
0047
0036
FFCB
0004
FFF5
FFE7
002A
0003
0026
0015
0007
003F
000F
0011
FFE6
001E
0012
FFDE
FFF0
002E
FFC4
0038
0003
FFD6
FFF2
0004
001F
FFD0
0012
FFEE
FFF5
FFE6
FFE2
FFC4
001A
001C
FFC8
FFF9
FFDA
FFF7
FFE2
001B
FFCB
000F
FFED
FFF6
0029
0016
0001
FFEF
0014
FFB9
FFD2
0001
0002
0035
FFF5
0019
0042
000C
FFF1
0011
FFF7
FFE5
FFD4
FFC3
001C
FFDD
FFFA
003A
FFF3
FFC7
002C
0014
FFDE
FFF8
FFE8
0019
FFFA
0019
002D
FFFC
FFE9
0029
FFF8
0033
FFCE
FFF6
002D
0030
FFD7
000F
FFD7
0002
0014
0028
FFFF
FFDE
0015
0047
0014
0022
FFD9
000E
FFFB
FFFB
0040
FFEC
FFD9
FFEA
FFFA
0019
FFFB
FFF6
FFF4
FFC2
FFF2
0008
FFE8
001B
001D
FFE8
FFCE
FFFF
FFF0
0015
0023
FFFF
FFC4
FFE1
FFE8
000F
0012
001C
FFDE
FFEF
0044
FFBF
0018
FFFD
FFF3
0011
0013
FFBD
FFF6
0039
0025
0026
0037
001F
FFEC
FFBA
FFD4
FFC6
0029
FFF1
0026
FFFE
FFF1
000A
0012
002E
FFFD
0028
FFD7
FFDA
001D
0018
0039
0008
0022
FFEA
FFDA
0025
FFCE
0048
FFD8
001C
FFF8
FFF4
0013
FFDC
FFE3
FFC6
FFFA
000D
FFC1
FFE8
FFF7
0017
FFF2
FFFF
FFFE
FFFD
0021
FFD3
000A
0028
FFBB
FFF4
FFF1
0028
002A
FFD9
FFE9
001E
0029
FFEB
000B
001E
FFE7
FFE8
0000
000D
0043
FFFD
FFD3
0023
0022
001E
FFDF
FFCA
001F
FFCB
0000
0015
FFD4
FFD7
FFFA
FFE9
0035
FFDC
FFD5
0013
0029
0023
FFE5
FFFC
0004
0013
FFD9
FFDD
0013
FFC0
000B
FFBE
FFDD
002C
FFCC
0006
003E
001F
FFF6
001F
001B
FFE5
FFD2
FFDE
FFEF
002E
FFE4
FFBE
FFF5
FFE8
0000
001B
0011
002E
FFE6
001F
000F
002D
FFE1
FFDF
FFE5
0018
002E
FFFE
FFF1
0024
FFE4
0037
0026
FFF6
FFF3
FFCC
FFD1
FFFE
0035
FFF8
FFFB
FFD2
FFFD
FFEE
FFF8
FFE5
0008
0029
FFD6
0002
0007
0002
FFD4
FFE0
FFF4
0027
FFE6
FFE3
FFE0
0028
0007
0002
0034
FFD8
FFF7
000F
000A
000D
FFFC
0005
FFE0
FFEF
0033
0044
002C
003A
FFEA
FFEC
FFE9
FFEE
FFEB
001E
FFF8
0015
0029
FFDE
000F
FFDB
FFE7
0028
0040
000B
FFBE
FFE7
000D
000F
FFFD
FFDE
FFFA
FFC5
FFF7
0026
000D
FFE0
0029
002F
FFEB
003D
0000
FFD0
000D
0039
FFCC
0016
0037
0005
FFEE
0024
0005
0023
0010
001D
FFCC
FFF7
FFCF
0003
FFEF
0020
000A
FFBE
FFF9
0000
003C
FFBD
FFDC
000D
FFE9
FFF0
FFE7
FFDE
002A
FFD4
0032
FFD3
FFF5
000B
001C
FFE4
0018
000B
FFDC
0003
000A
FFDC
FFFA
0028
0018
FFDD
FFCF
0036
FFD9
FFF0
FFEC
0018
0010
0031
001B
FFD4
FFF2
FFFD
0023
FFC5
002C
002A
FFF9
0004
FFC5
FFE3
FFCE
001E
FFE8
FFD1
0012
FFF3
FFF8
0031
0025
FFFC
0033
0021
FFD6
FFF8
FFE3
FFFB
0013
FFE7
0008
0020
0038
0019
FFE2
0037
003F
0007
FFF3
FFF4
FFE6
FFC3
FFFA
FFFC
FFCF
0013
000B
0000
0008
FFF1
0023
FFD5
0013
FFE4
FFD8
0017
FFED
FFF1
FFEF
FFFD
FFC5
FFC4
FFD0
0000
0043
0016
FFED
FFE9
FFC8
FFE0
001B
FFF6
0025
FFFC
0008
FFFF
FFD3
FFE9
0012
0045
0025
0020
FFE1
000F
FFFB
FFFD
FFE7
FFF2
FFEE
0017
FFFD
FFE7
FFCE
FFBA
0029
0044
0037
FFBB
FFEB
FFE6
0013
0002
0025
000F
002B
0016
FFF4
0010
FFF6
FFC7
002F
FFF1
0037
001C
FFE7
001B
FFBB
FFFF
0028
FFFF
0000
0031
FFE5
0000
0028
0019
0020
0024
FFF5
0003
0000
0010
000F
FFE2
FFF4
FFE7
0000
0002
FFED
FFF6
0002
0020
FFC7
FFE5
FFFE
FFEF
FFF3
0002
0007
0004
FFFF
FFFF
001D
0022
FFE4
FFF6
FFED
FFDB
FFF5
0011
FFEE
FFD0
0031
FFC1
0021
0022
0028
001C
0041
FFC9
0033
0006
0006
FFFC
FFCC
0012
FFDC
0029
FFF3
001C
0029
FFDE
0028
000E
0010
0037
002B
001B
FFF5
FFE9
FFDC
FFDC
FFE5
FFD7
FFC1
FFDA
000F
FFFA
002E
FFCD
