0003
FFE4
0002
001E
000A
FFF4
FFF6
FFFA
0011
000C
FFFB
FFE8
FFF9
FFF9
FFFC
FFE6
0000
FFE2
FFF6
001E
FFFF
FFEB
0016
0014
FFF3
FFF7
000F
000D
001A
FFF9
0029
0004
FFF0
0007
0022
FFE6
0012
FFFA
0001
001E
FFF4
FFE4
FFFD
FFD9
FFF1
FFE8
0000
FFF6
FFE7
FFE5
FFCE
0015
FFFE
0005
FFED
FFF9
0029
0011
0027
0002
0021
FFE6
0018
FFDB
FFFD
FFEB
0004
0010
000F
FFDB
0016
0012
0033
FFF5
FFE2
0008
FFE8
0006
FFE2
0030
002B
FFFF
0000
0020
0006
000C
FFFD
FFF6
FFE4
FFF5
002C
FFF6
0000
FFE2
0019
0019
0027
0000
FFF0
FFEC
FFF7
0004
FFFB
FFDB
FFF9
FFDA
0016
001C
0001
0003
0019
0008
0010
FFF0
FFE3
0006
FFEA
FFEA
FFE3
FFE6
FFE1
FFD5
FFFB
FFEC
FFFA
002A
FFE4
0024
000D
0003
000B
0010
0009
FFEE
000F
FFE3
0020
000C
0005
0016
0011
FFF3
0008
FFE6
FFE8
0017
FFFA
FFEF
0019
FFF8
FFFD
000C
FFE2
002B
0019
FFFD
FFE8
0010
000F
FFF9
0003
FFE3
FFFF
FFF4
0008
FFFF
0003
0007
0004
FFDB
FFEE
0030
0003
0014
0008
FFF4
0016
FFF5
FFF3
FFF5
FFF8
FFFF
FFFD
FFE3
FFEC
0006
0000
0018
FFF8
FFDC
FFF6
FFFE
000D
FFF0
000C
0002
0004
001C
FFE6
001B
FFE9
0012
0006
0001
0028
001B
0005
000B
0027
FFFB
0005
000C
FFFA
000A
000E
FFF0
FFF4
FFFF
0012
FFF3
FFFE
FFFD
000A
000D
001B
0003
FFF4
000B
FFDF
0011
FFF2
0016
001A
0000
0013
FFFA
FFF7
0003
FFF5
FFF6
FFFA
FFFE
FFE0
FFEF
FFEF
FFF8
FFEE
FFD7
0007
002D
001C
002A
FFF9
FFDF
FFFE
002B
0006
0007
000F
FFF8
002E
001F
0003
000D
FFFE
FFF8
FFD6
000E
000B
FFF0
0011
FFF9
FFEE
FFFD
0028
FFFD
FFFC
FFF4
FFE7
FFF8
FFDE
FFFA
FFF4
0006
001B
000D
000C
0005
FFE5
000C
FFE4
FFFC
FFF7
0016
0008
001D
0006
FFF2
FFE1
0017
0012
FFF6
0017
FFE3
FFF6
0003
0023
FFF5
FFF0
FFDD
FFDD
FFED
0028
0015
0000
001B
FFDC
FFFA
0017
FFF2
FFD9
0012
FFF0
0016
FFDF
0007
0001
FFF1
0013
0009
0001
FFED
000A
0006
0026
0026
000D
0012
FFE8
FFF7
FFDA
0015
FFFF
001E
FFE9
FFDB
0013
0003
FFD4
FFD9
0010
000B
FFD5
FFF3
FFD7
000D
0007
FFED
0024
FFF6
FFD4
FFF4
0002
FFD0
0013
FFD8
FFE0
0029
000F
0028
0027
FFF9
FFEB
000C
0010
FFD9
FFEA
000C
000B
0021
0000
FFFA
FFE0
000A
FFE0
0022
FFD3
000B
FFF0
000A
0016
0000
0004
0004
FFEE
FFEC
0018
0020
000C
000A
FFF4
000D
FFE5
FFF6
FFFE
FFFB
FFFD
FFED
000F
0027
FFEB
FFFD
FFF9
FFFD
FFF1
FFDD
FFFF
0004
FFD8
FFF9
0022
FFE6
000C
FFF4
FFEF
FFEF
FFED
FFFA
0008
0019
0011
0012
FFE6
0005
0020
0005
FFED
0027
0024
FFFF
FFDC
FFE1
FFFE
0021
FFE5
FFE9
FFEA
FFEA
0024
000A
FFEE
FFFC
FFD2
FFD4
FFFD
FFFA
0006
0021
0007
FFE4
0029
001E
000E
0000
FFF4
0006
0007
FFF0
000C
FFF9
0012
0012
FFEB
FFDB
FFD6
002F
001D
0003
0011
FFFA
0001
FFEC
FFFD
0016
0011
0017
FFF5
0001
0002
FFEA
0006
FFF0
FFE2
FFE5
0015
FFDE
FFDE
FFE9
FFEC
0023
0004
FFF2
FFFA
FFF6
0009
0015
0029
000D
FFEF
000B
FFE2
0005
FFCE
0033
0026
FFF3
0011
FFFE
001A
FFDD
0009
FFE9
0021
FFE4
FFD6
FFDF
FFE4
0013
FFDF
FFF7
001A
FFDB
FFEE
FFD1
FFFD
FFF9
0020
FFFA
FFE4
0016
FFEA
FFE6
FFE3
FFDC
FFFB
FFF9
000A
0006
FFE8
FFF5
FFE1
FFF9
0009
001F
FFF5
FFFC
FFFE
002F
FFFF
0022
0012
FFFC
FFEB
001D
0012
FFF1
FFF4
0018
0030
FFF6
FFF0
FFFA
FFFF
0018
0030
FFDE
FFF8
0018
FFF3
000C
001F
0007
FFF9
0018
FFF3
FFDE
002A
0003
FFF2
FFFB
002A
0006
FFEC
FFE2
0020
001D
FFE9
FFD9
FFFE
FFFF
FFFF
FFE8
0000
FFEA
0015
0010
0021
000B
0011
FFE2
0009
FFF9
FFF1
FFF5
FFF6
0008
0014
FFF5
001C
FFED
FFF4
FFF7
FFD3
0019
000A
000A
0005
000F
FFF3
FFDE
FFFE
0005
0016
FFE4
FFE9
002B
FFF6
FFF1
FFFD
FFD7
FFF3
0021
FFE9
001B
0001
0005
002B
0012
0029
FFFD
FFF0
0017
FFFE
FFF4
001D
FFD9
FFFC
FFF0
FFFB
FFEA
0015
0006
002F
002A
FFDC
FFF6
0006
FFEC
FFE2
FFDF
0022
0026
FFF5
FFF8
FFF0
FFF7
0030
FFE2
FFED
001E
FFD9
0006
0011
FFEC
000A
FFE7
FFED
FFFF
FFCE
0002
FFEE
0009
FFF3
0027
FFFE
0007
FFF9
0005
FFE8
FFFD
0002
FFE7
000F
FFD5
0002
FFF3
0003
FFDF
0019
FFFC
0010
FFE8
FFED
002F
0021
0014
001F
FFF0
FFE4
FFDF
000B
0024
FFF7
FFEE
0010
FFD2
0014
FFF6
0004
0009
FFDE
FFFD
FFEC
001F
FFCE
FFEA
FFF4
000C
FFE7
FFF7
0006
FFFA
0000
FFF5
FFF6
FFE5
0001
000B
0018
0016
000D
0003
000B
001D
0007
0005
0005
000D
FFDB
0005
FFE3
002E
002D
FFDF
FFFE
FFE5
FFEB
FFF8
0011
0016
FFFF
FFF0
FFE8
0003
0006
0019
FFF7
FFF8
FFEE
FFD2
0010
001C
FFFB
FFF5
FFEF
FFF5
000D
FFD6
0003
FFF2
FFE3
0023
0023
0000
001C
FFF6
0025
FFE3
FFEB
FFFF
FFFD
000D
FFF8
FFFC
FFFA
0001
FFE9
FFE2
FFFE
002F
FFEB
FFE6
0013
FFFF
FFF7
002A
FFFE
000B
0003
FFF5
FFEC
0008
0018
001D
0005
FFE4
FFFA
FFFC
001A
002A
FFEB
0001
FFEB
FFE2
FFE4
FFE5
0001
000A
000A
FFE3
0002
FFE0
0005
0018
0018
FFE9
0005
FFF7
FFDD
0001
0004
0001
FFFD
FFE4
FFDB
0003
0012
FFDE
0025
FFF7
000D
FFF8
FFE5
FFFB
0022
0017
0012
0006
000E
0026
FFE6
0015
0001
FFFF
FFEC
FFF0
0011
FFF3
000C
0009
0006
000E
0028
0008
FFFA
FFF4
0018
000E
000B
FFF7
001B
0015
0007
0001
0027
000A
FFE3
0023
000E
FFDA
FFED
FFEB
FFFE
0031
FFDB
0001
FFF1
FFF7
FFF4
0002
0025
0015
FFE5
FFF6
FFFF
0011
FFFE
0015
0019
001F
0010
0023
000A
000F
FFE9
0012
FFF1
FFF6
0029
0003
0012
0006
FFE3
0013
001F
FFF5
000A
0011
001A
0020
0030
FFFA
FFD9
0013
001A
FFFF
FFDD
FFD9
FFE5
000E
FFFA
FFF1
0006
FFF8
FFE7
0016
FFF0
0018
FFFF
FFE8
FFFC
0018
FFE0
000E
0011
FFEB
FFE7
FFFD
FFE9
FFDC
0002
FFFA
FFD9
000D
FFDE
FFFE
FFD0
0011
FFE2
FFF2
0020
FFDF
FFF8
FFFC
FFF3
FFF1
FFFD
FFEE
FFDF
FFFB
FFDF
0017
FFEF
0028
0028
0000
FFF6
FFFF
000F
0011
FFFB
0008
FFED
FFFC
001F
0004
FFFB
0005
000B
FFFC
0000
FFF9
FFE8
FFEC
0020
FFFE
FFFD
0012
000E
FFF7
FFF3
FFF7
FFF8
FFE9
FFF6
FFD9
0005
FFED
FFFE
0015
0003
0014
0005
0004
0016
001D
001D
FFEE
FFF7
0023
0013
FFE1
FFF7
FFFB
0013
FFE3
FFD4
000D
FFF2
FFF6
FFFF
001B
FFED
FFED
FFFE
FFEC
FFDD
000A
0025
0002
001D
0019
FFEB
001E
FFE6
0010
0022
FFE4
FFEA
0021
001E
FFE3
FFFE
FFFA
FFFF
FFE6
0014
FFDC
FFE2
FFFD
0023
FFE0
FFFA
FFE5
0003
000D
0008
0004
FFEC
002B
FFF0
FFE3
001D
FFE4
0029
FFF5
002F
FFFB
FFF4
001A
FFD0
0032
002C
FFED
0001
0018
FFE3
0002
000D
FFED
0028
002B
FFF8
FFF7
0006
002F
0004
FFFB
FFE6
002E
000F
FFDA
FFEE
FFE5
FFED
FFF5
0014
001E
FFE9
FFF9
FFF9
FFF0
0013
FFFE
FFE2
000A
0002
FFF4
FFEC
FFD4
0016
002D
0000
FFDA
FFEC
0008
0002
0017
0031
0009
000C
0007
000E
FFFB
FFFA
FFEB
0010
0024
FFF4
0018
FFD9
FFE6
FFF0
FFFE
FFE7
FFFA
0031
FFEC
FFED
0010
001B
FFE8
0019
FFFB
FFE1
FFF1
0009
FFE5
FFE9
0004
0005
0000
000E
0022
FFE6
FFF7
001C
FFF1
000C
FFE8
000C
FFFA
FFE5
FFDE
FFFB
FFD3
FFF5
0001
FFFA
0016
FFF3
0000
001A
FFF6
FFE2
FFFA
FFEB
0005
FFFD
FFEF
FFFF
0009
000D
0005
FFCE
0005
FFFB
FFE6
FFFE
FFFE
000E
001C
FFFE
000A
FFDB
FFF2
001B
FFFF
FFFC
0003
001D
0030
FFF1
001D
FFE6
0009
FFE2
FFEE
FFF2
0009
FFF8
FFF6
0005
0003
0000
FFE2
0005
000C
FFDE
0015
0021
FFE9
0006
0010
000C
FFE5
0009
0006
FFEA
FFE1
FFE9
001B
0006
000C
0006
FFF4
0001
FFCD
FFEB
FFF6
000A
0008
0006
FFDE
FFD2
FFE6
FFE1
0005
FFE4
0019
FFF7
0009
FFFA
0018
0011
0004
0013
0005
001F
001E
0013
0005
FFED
FFE5
FFFB
FFF3
001A
FFE0
000A
FFE6
0011
FFE9
FFF6
0009
001B
0020
FFE3
001F
FFFE
0019
0027
FFF9
FFF8
FFF2
FFF0
FFFB
0010
0000
0002
000E
FFE3
001A
000F
001E
FFF1
000D
FFD6
FFFD
0015
0008
0009
FFF4
FFDB
0022
FFEF
001A
FFED
FFE5
FFF4
0003
0025
0006
0002
0005
FFE0
FFE0
FFEC
000D
FFEB
FFF4
FFFA
FFEC
FFFF
0006
000F
FFEA
FFEF
0026
0018
0033
FFF8
000E
0005
FFE3
FFF9
0013
0026
FFE1
0010
FFF4
FFFC
0012
0009
0013
FFF6
000A
FFE1
FFF7
FFF4
FFED
0000
FFDF
FFF7
FFFD
000A
0016
0010
0004
000D
0017
FFE6
FFE9
FFE8
0020
FFFB
0024
FFEF
0019
FFDD
0014
FFE8
FFE1
FFF7
FFE3
0001
FFE3
0022
000C
000C
000E
0005
FFE2
0009
FFE9
001B
FFDB
0000
0011
FFED
0009
0003
000B
FFEE
000E
FFF5
FFEF
FFE2
0008
0009
000C
001F
FFFC
FFF9
000E
FFFA
FFF5
0008
0007
FFEB
FFF5
FFE5
FFF1
0017
0026
FFD4
FFEE
0012
FFF0
FFD4
0011
FFF6
000A
001F
0017
FFFA
0001
FFF5
001A
FFEF
FFED
FFF6
FFD8
0030
FFDF
FFF3
FFF3
FFF0
0025
0004
0009
FFE3
FFF0
FFF3
0014
FFD8
0001
0004
001A
001E
FFFC
0017
FFF6
002F
FFDE
FFFB
0017
0006
FFFA
FFF6
FFF9
FFF7
0018
FFF2
FFF0
FFD5
0003
FFFC
FFE9
FFE9
0022
FFD9
FFD3
FFFF
FFFE
FFF4
FFF2
FFFC
FFF6
FFF3
FFF7
FFFF
FFF2
002B
FFF6
FFE2
0004
0008
FFFB
0005
0022
0025
0019
FFE8
FFE4
FFFD
0002
FFEC
FFE3
FFE8
FFEF
FFED
FFF7
0001
0011
0016
000C
000E
FFD8
FFF3
002E
FFFA
FFED
FFF5
000D
FFF4
FFEE
FFF9
FFFB
000E
FFF6
FFE9
0009
0003
FFF5
0007
FFE8
FFE5
FFDE
FFF8
FFD0
0020
FFF3
FFDF
000E
000F
001F
FFE7
0007
0017
FFFD
0031
000D
0007
FFFB
0012
FFE9
0014
FFE9
0021
0008
0017
FFF6
FFE0
0011
0010
FFDC
000F
0000
FFDB
FFD7
0020
FFF6
000F
000A
0029
FFEC
000A
0016
0008
001D
001B
FFFB
FFF0
FFFE
0008
0015
000F
0022
FFE5
000C
001E
0016
0018
002F
FFFD
0002
FFF5
0006
000A
FFF5
0014
0006
FFEC
002E
0007
000A
0006
0014
FFDA
FFFF
FFFD
FFEA
FFE1
FFEA
0007
FFED
FFFD
FFF9
FFFD
0001
0012
000D
0021
0002
FFEE
000D
0023
000D
0014
0008
0032
0011
FFEC
000F
FFEE
0005
0005
FFF5
0023
FFFC
FFF6
FFCF
FFFC
0000
FFDB
FFDB
FFE1
FFF3
002A
0001
0002
FFD6
FFDA
FFFC
000B
FFF2
0014
FFE6
FFFB
FFD7
FFFD
FFF6
0022
FFFF
0027
001F
FFF8
FFF0
FFF5
FFFE
000F
FFD4
0005
FFE5
FFFC
002E
0004
FFEB
001E
000A
FFE6
FFF8
FFFE
0021
FFF9
0029
0028
0017
FFEB
FFD5
FFE2
FFF0
FFEC
FFEE
000C
FFFE
FFF6
0020
001A
FFE8
0017
0009
FFFA
000D
FFF0
FFFA
FFE7
FFF1
0014
000C
FFFD
000A
FFFC
001A
FFF1
FFEC
0003
0021
FFFA
0009
001C
001D
001D
FFD3
0006
FFF6
FFF9
FFDD
000F
FFFC
FFDD
001B
0007
FFF3
FFF7
FFE9
FFFA
FFEC
FFFD
0004
FFE5
FFCE
000E
FFF1
0004
FFD4
0012
FFE3
FFF8
0002
0005
0003
000C
FFEB
001D
0019
FFF8
FFE1
FFD5
0008
FFF7
FFFF
FFF3
FFE5
0024
FFF4
0002
001A
002C
002A
FFE6
0021
FFEB
FFF4
000D
FFF4
000C
000C
0017
FFEE
FFFD
FFCF
000F
0001
FFDF
000E
000E
FFE9
FFEC
FFEB
FFF9
FFED
FFD8
FFEC
0000
001F
0015
FFF1
0001
FFF5
FFED
FFFD
FFEB
FFD8
000A
0018
FFE5
FFD4
0010
FFED
FFF3
0020
FFEE
0000
FFDB
FFF2
FFF1
000F
0020
FFDE
FFEC
0002
0009
FFF2
FFEF
0001
FFFD
FFD6
0004
0014
FFF4
FFED
0003
FFD3
FFFB
000F
FFE3
000F
0002
0001
FFE1
FFDC
0011
FFE1
FFE7
0013
0008
0012
0019
0004
001B
FFE7
0012
FFE3
000F
0030
FFEE
0030
FFFC
000A
FFEA
000F
0000
FFFC
FFE8
0017
FFE8
0001
FFF1
001F
0002
001D
FFE9
FFE7
001B
000F
0006
0021
0006
FFDC
002B
000B
002E
FFFC
002B
FFDA
FFF3
FFF5
FFDE
FFF1
0022
FFE4
FFE5
FFFD
0012
0019
FFE6
FFE6
000D
0002
000B
0004
FFE3
FFDE
000A
0033
FFE1
000A
000C
0006
0008
0011
FFD1
0014
0000
000A
0004
0009
0006
FFFE
FFF4
0003
0009
0028
0018
002A
FFD6
FFD1
0009
FFE9
FFF5
FFFD
000E
FFF1
000A
FFEF
000C
0000
0009
FFFD
0000
001C
FFFB
FFFC
0026
FFE1
FFF0
FFF3
0004
FFEF
FFF9
FFE7
0005
0021
0018
0007
FFD4
000A
000C
FFD2
0014
0010
001D
000B
FFF3
FFF0
FFF9
001F
0004
0012
001D
FFF9
FFF8
FFE0
0012
0026
0012
0015
FFFC
FFF3
FFD2
FFDF
FFEA
002D
FFF4
FFF0
FFFC
FFE7
FFE5
002E
FFF5
0004
000C
0006
0025
000F
000F
FFF0
FFFA
000E
0019
000A
FFE7
FFF0
FFD0
002A
0011
001F
0004
FFE7
0015
0004
0003
FFF1
002C
0006
FFD2
FFD1
FFFE
000F
0006
000A
0007
002C
000B
0022
000C
0019
FFFC
FFE2
0026
0023
FFF9
FFDA
FFEE
FFE6
FFEF
0002
FFD9
0013
FFE6
FFFB
0013
FFF3
FFFE
0009
000C
FFF3
FFEB
0012
FFDF
FFF2
FFEC
0015
0016
0012
0013
FFD5
FFF1
0008
0009
0011
002A
FFE6
000D
FFEB
FFF5
FFF1
002C
FFF9
000C
001A
FFF2
FFFC
0018
000C
0018
0013
FFF0
0009
0019
0001
FFFD
FFD9
0001
FFE4
000F
000C
000C
0019
FFEB
FFFA
FFFC
FFE6
FFEF
FFFF
0026
0011
FFDC
0008
0003
002B
0007
FFCD
000C
0007
000D
0003
FFDC
0007
FFF4
002E
000B
FFE4
0012
FFFE
FFFB
000E
000A
0001
FFFB
FFD8
FFD4
FFDE
000C
000C
FFF4
0015
FFF4
0031
0012
FFD8
0027
FFD7
0022
FFF5
FFFF
FFF0
FFFA
FFE7
FFDD
0031
0011
FFEB
0015
002F
FFFB
0004
000F
0000
001D
0014
FFFF
000B
0025
000F
FFFF
000F
0023
0007
FFF6
0015
0012
000C
0005
FFE4
0004
0002
0016
FFEB
FFF9
001B
0022
FFCE
0003
FFF3
FFD5
0012
000A
FFFE
0004
FFFA
FFF2
FFFC
FFF0
FFE1
0015
0012
FFF9
0007
FFFA
FFF1
FFFD
0029
FFDA
0024
000D
0000
0009
0006
FFF0
FFE8
0025
FFE3
FFF8
FFEB
0009
FFEF
FFF1
FFFA
FFEB
0002
FFED
FFEC
FFE0
FFFC
0013
FFDF
001E
FFFF
FFE6
001E
001B
FFFE
FFF2
0019
0009
0002
FFD4
FFFD
FFE7
FFF1
000E
FFE8
FFCD
001A
FFFB
FFD1
0016
001C
FFF4
0014
FFE6
0007
FFD5
002F
FFD2
002A
000F
FFF8
FFE6
FFCF
FFF4
FFE9
0011
0010
FFFA
0004
0007
FFDF
FFFF
000B
FFE1
0000
0011
FFF4
FFE9
0013
000A
000E
0016
000D
0022
FFEA
0009
FFE2
0013
0005
001E
FFF3
0016
0029
FFCF
001A
FFE3
002D
0019
FFFF
FFFD
0021
FFF9
FFDE
FFE6
FFDF
0022
FFF8
FFFC
FFE8
0016
FFD9
0023
FFF0
FFFD
001E
000A
0006
000E
000D
0009
0008
FFF8
FFFD
FFE5
0017
001E
0014
FFF0
001B
001E
0003
0023
FFDC
0009
0006
FFEC
FFF6
0013
0001
0006
0015
FFD3
FFF7
FFE8
002A
FFEB
0004
0010
FFEF
FFEA
000B
0013
FFE2
000C
FFF2
FFD6
0020
0008
0012
FFEF
0008
0007
FFD6
FFDB
000B
0028
FFF9
FFF0
0011
001F
0012
FFFB
FFF1
FFF5
0000
0008
0001
000E
002E
FFFF
FFD4
0013
FFEA
FFFD
FFEF
FFEF
FFFF
FFFC
0007
FFF2
FFE7
FFF7
FFEE
0001
FFFD
FFE6
0010
0002
FFF3
000C
FFDA
0010
0004
FFEC
0000
FFED
FFFA
0008
FFDD
000A
FFE6
0015
FFE3
FFF5
FFFF
FFFB
FFEF
0016
0029
FFEA
FFFF
FFE3
0027
FFEF
0007
FFED
FFFE
000D
FFEF
000F
FFF6
FFDA
FFF9
FFEB
0007
0015
FFF1
000A
FFFE
0000
FFF9
FFEF
FFD7
0009
FFF3
001A
000F
002B
0020
0001
0014
0012
0015
FFDD
002A
001A
0002
FFE9
FFF3
FFFE
FFEF
0000
000F
000A
FFCD
0010
FFEB
001B
0014
FFF9
FFD7
FFCD
0013
FFD5
FFF3
0026
FFD9
0028
FFEF
FFFC
0009
FFFA
FFF4
FFE8
FFFB
0009
FFDB
FFD0
000C
FFF1
000B
FFF7
FFFB
FFF8
0016
001E
FFE8
FFF7
0033
000A
FFDA
0014
0009
0012
FFFB
FFDA
001B
FFF7
0007
FFF6
FFFB
FFF1
FFD0
FFE9
FFF4
0002
001A
FFF7
0017
000C
0004
0028
0006
0019
FFD5
FFDC
FFE5
FFF6
000C
0008
FFF1
FFF9
0023
FFEE
0008
FFFF
FFDF
FFE0
FFE1
0002
0018
000F
FFE9
FFD4
0025
0000
0021
000F
FFF7
FFE0
001C
000D
002B
FFDD
0001
FFD5
FFE0
FFD1
FFF7
FFF5
0018
0018
000B
0022
000D
FFEF
FFED
0005
FFDB
0014
0004
FFFE
0007
FFF2
FFF0
FFD4
0005
0000
FFE8
FFD4
0031
FFFA
001B
FFF7
0021
0002
FFD1
000C
0022
FFDA
FFF5
FFEA
FFDE
0021
FFD4
FFE1
FFFD
0019
FFEB
000A
FFFD
FFF8
001F
FFDF
FFEC
0007
001B
0003
FFF1
0007
FFE3
FFE2
0018
0001
FFFE
0005
0023
0008
0003
FFDC
FFDF
FFFB
0026
FFFA
FFF3
0002
FFFF
0005
000D
FFFE
001B
FFF9
FFEB
FFD9
001F
FFF4
FFF1
FFDC
0016
000E
0011
FFF9
0000
0026
000D
FFF5
0006
FFFE
000D
FFFC
FFF7
002D
FFE4
0016
0011
FFDE
FFD8
FFD6
FFFD
0002
0008
0004
0004
FFE4
0003
FFE9
0003
000C
0002
FFE7
FFE4
0022
0004
0015
FFE9
0010
0017
0007
FFEC
0001
FFEF
FFF7
000E
0022
FFF9
FFF2
FFF2
0025
FFE3
FFE8
FFF0
0002
001D
0001
FFF8
0026
FFE7
FFFD
001C
000D
0017
0005
0017
FFF8
FFEB
FFFA
FFFB
FFDD
FFEE
FFF9
001E
FFFD
0007
FFFF
FFE7
FFF3
0022
FFDC
FFF3
0017
FFE6
0006
FFF4
FFD5
FFE2
FFFC
0018
0019
0007
000F
FFF4
FFF5
000C
FFD8
FFF8
FFF3
000C
FFFC
FFFD
FFD1
FFE9
0004
0013
0003
0005
0015
000B
0014
FFFC
0011
002C
001B
0028
0017
FFF3
FFDD
FFE5
000D
001F
FFEB
FFE6
001C
FFF6
FFEB
FFF1
0033
FFF8
0001
FFE3
FFDA
FFEC
002E
FFD8
FFD6
FFF3
0022
000D
0010
0018
0033
FFE7
FFF4
0017
FFE6
FFE9
0008
FFFE
000B
FFFF
0008
FFD1
000A
0004
000D
FFF4
0003
002D
FFF3
0005
FFEB
000F
0008
FFEE
0011
0016
000D
000A
FFE6
0011
0019
001E
0004
0021
FFE9
0030
0026
FFD5
FFF8
FFE7
FFF8
FFE4
0003
0009
0001
FFD7
FFEE
FFD1
0023
001A
FFFB
001A
FFF9
FFEB
000C
FFFA
FFDF
0018
FFE8
0012
000C
001F
FFF5
0014
0002
FFEA
FFFC
000F
0012
001D
0033
001F
FFF7
0008
002A
FFEF
FFEA
0008
002A
FFE6
0004
0013
000E
FFF0
FFE2
FFED
FFEB
0011
FFE8
FFF6
0000
0009
0029
FFF6
FFE7
000D
FFED
FFDB
0031
0011
0016
FFF4
FFFF
0001
0025
FFF7
FFF0
0017
001E
FFD9
0019
0005
0003
FFFB
001C
0000
0014
FFE8
0012
FFE2
0007
001A
FFF0
0013
0002
FFEA
FFE4
FFE4
FFF6
FFF9
0019
000B
0014
FFFB
FFFD
001A
FFE9
0018
FFEF
000C
0008
FFFA
0017
000A
0004
0010
0003
0001
000F
FFED
0011
0001
FFDB
FFEB
0026
FFFF
001B
FFEB
FFF4
001F
FFDD
FFD7
002C
FFFF
0018
FFD4
002C
FFEA
FFCE
FFEC
0017
0003
0025
0019
FFD0
FFE1
0022
FFF1
0027
FFF5
0029
FFE1
FFFA
FFD4
FFE2
000B
FFEA
FFF1
FFF6
FFFE
0024
0011
000A
0007
FFF2
FFE4
FFCF
FFE4
FFFE
FFE9
FFD7
0028
FFDC
FFF9
FFD6
0018
0011
001B
0025
FFEF
FFF2
FFEF
0001
FFDF
FFFB
000D
FFE4
FFED
FFE5
000C
FFE4
001C
000C
FFFC
0021
0006
FFF2
0024
FFFC
0001
0009
0011
FFFF
FFFB
0002
FFF9
0025
000D
0016
0007
FFE5
0006
FFEF
FFFD
FFEF
FFD7
0002
0019
0007
0003
0005
FFE6
0000
FFF7
001D
FFF7
FFE1
FFF1
0012
FFE4
FFDF
0006
FFD0
FFF3
FFE3
0022
FFF0
FFFD
FFD3
FFF9
0022
0017
FFF4
0012
FFCD
001C
FFED
FFD8
0022
FFEC
FFF2
FFFF
FFF5
0001
FFF3
000B
FFF5
0015
FFE4
0021
FFD9
FFF1
000F
0010
FFFE
0007
0003
FFEE
0000
FFD8
FFDB
000D
001C
0011
FFF4
FFF5
FFFA
FFEF
0014
FFE7
FFFD
FFE9
FFFA
FFFC
0012
001D
0015
000F
0014
0016
FFDC
FFEA
FFDA
000B
0016
FFCE
0018
0020
FFFF
FFF8
0013
FFDC
0027
001D
000C
000A
0008
FFEC
FFEF
0020
FFFD
FFF0
FFD3
FFE7
FFE7
FFD7
001D
FFFC
001A
FFD9
0019
0018
0011
000B
0012
0023
0004
0026
FFEC
0029
FFFD
0003
FFFD
000A
0001
FFFB
000B
000F
0009
0003
FFE6
FFE9
0014
0004
001B
0003
FFF3
0004
000F
0014
FFF1
0020
002C
001E
0000
0005
000F
FFFA
0012
FFF6
0023
FFE4
0001
0012
000A
0000
FFDD
FFE8
0004
0005
FFE0
0012
001C
0005
0012
0002
001E
0000
FFE1
0017
0006
0021
0000
0013
0001
0000
0027
FFEB
FFF0
0033
FFD5
FFE5
FFF0
0001
FFF0
0011
0013
FFFC
FFD7
FFE9
FFCD
FFDE
0029
FFF6
FFF4
0003
FFD7
0025
FFF3
0003
FFD5
000D
FFD5
FFF9
0019
FFFB
000A
0012
FFD0
FFEF
0013
000F
FFF7
0032
000B
000B
FFF2
FFEB
FFD2
000A
0007
FFEA
FFFF
0003
0009
FFF6
002A
0015
FFD6
FFF3
000E
000C
FFEE
0006
0006
0015
FFDE
001F
000E
FFD6
0002
0015
0000
0014
0009
FFF4
FFF8
FFD2
0014
FFD1
FFCD
0029
FFE1
FFE0
0007
0013
0004
FFED
0002
FFFF
FFD5
FFE9
FFDC
0002
0007
001A
FFF7
001E
FFE4
001C
FFFA
FFFB
0012
0010
FFE0
FFE6
FFF2
0013
FFF1
FFE2
FFD7
FFFE
FFEE
0026
000D
FFF0
FFF6
0019
0017
0017
FFF3
0008
FFE0
FFEF
FFFC
0024
0016
0018
FFD6
0007
0001
0011
0012
FFF1
0032
FFFC
0011
0000
000D
FFE0
FFEF
FFEF
001B
0023
002B
FFFC
000E
002E
0033
0021
0010
0014
FFE8
0010
0021
0008
0021
FFEB
FFE1
FFFC
001D
FFE0
FFF5
FFFF
FFE9
0009
0001
0017
0032
0009
FFF6
FFF7
FFFA
FFDE
0026
000E
0002
001C
0000
FFDF
0000
0006
0016
FFDB
FFF5
FFF9
FFDA
0003
0001
FFF7
000F
0011
FFDB
FFE8
FFFB
FFEC
FFFC
FFF4
FFDA
FFF8
000C
002C
FFDE
001A
001D
FFEB
0021
FFFF
0006
FFFC
0007
001B
0014
FFDB
0012
FFFE
FFE1
0011
0011
0023
0007
FFE8
000E
FFCE
FFD1
000F
000B
0000
FFEA
FFF8
FFF4
FFFF
0006
FFDE
FFF7
FFF7
000C
0026
FFD8
FFFE
FFE3
FFE1
0000
0003
0021
000D
FFE1
000F
FFF9
FFFF
0008
0019
FFFD
FFE2
001E
FFFB
FFF1
0020
0008
FFEC
000F
001D
0008
FFE0
FFF3
0018
FFFB
0007
0021
0012
0018
FFE0
0002
0001
FFE5
FFD3
0014
0004
FFF8
001A
FFF3
0009
FFF5
001E
FFD8
000C
FFD4
FFE9
FFF6
FFEA
FFF4
002E
0002
0005
FFFE
0016
0012
FFF1
FFF9
FFEF
000D
000A
FFE4
0031
0018
FFDE
FFFC
000E
0005
FFF0
0008
FFFF
FFF5
0019
0015
FFE8
0001
0006
0000
FFF3
0014
FFE6
FFEB
0004
FFFD
FFF1
FFEC
FFE0
FFFC
FFE1
FFEE
001B
000A
0004
FFD5
FFE3
FFF6
0013
FFFE
FFFC
001B
0006
0007
0018
FFF4
FFDE
0001
FFFB
FFE0
001D
000E
0022
0006
FFFB
000F
001E
FFF0
FFCD
FFFA
001E
002E
0007
0005
0003
000D
FFE0
FFF6
FFFA
FFEA
FFFE
FFFD
0011
0020
FFF9
FFF3
FFF6
FFE2
001D
FFED
0018
FFE9
FFE3
FFED
000B
FFFF
0010
0021
FFEF
0012
FFE9
0004
001A
FFFB
FFF4
0018
FFEA
0009
0002
0003
0005
0008
0030
0001
001B
FFD3
0006
000A
FFEF
000D
FFEB
FFF2
FFFE
FFFD
0006
0019
0017
0014
FFF5
FFF9
FFE0
0022
002A
FFE3
FFFF
000F
000E
0004
0000
FFF9
FFDF
0017
FFF9
FFE9
0020
0013
FFE0
FFE3
FFE4
0005
000F
0017
FFF2
FFF0
0021
0003
0024
FFDF
0019
001A
0000
0006
FFF7
0006
FFE8
0016
FFDD
0010
FFF3
FFF4
FFDF
0011
FFFA
FFEB
FFE2
0017
0012
002F
FFDA
001A
0004
0008
FFEE
001E
FFF7
FFE7
FFFE
FFEA
FFEB
000A
0012
FFF5
FFFC
FFD1
001B
FFE1
FFE7
0013
FFF1
FFE2
FFFF
0027
0009
FFEA
000B
002C
000A
FFF9
0011
0002
FFEA
0000
0011
FFF4
0011
FFE7
FFD3
002D
FFF0
FFFB
FFF1
FFF8
0015
0007
FFF6
FFFD
FFF9
0003
FFFF
FFDC
FFF8
001C
0021
FFED
FFF9
FFDE
FFDE
0004
000C
0033
FFD4
0005
000E
0012
FFF2
0004
000B
FFE0
0005
FFF7
0017
002B
FFE0
FFF4
0017
FFE4
FFF4
0020
FFF7
FFE0
FFF6
FFDE
0023
FFF9
0023
0014
FFFB
0005
FFE5
FFF2
0000
FFF3
000B
000C
0000
FFFD
FFE3
FFF2
000B
000D
FFDE
FFCF
FFF8
FFFA
0000
0023
FFF3
FFFA
FFFC
000A
0007
FFF8
FFF1
001E
0003
0007
000B
0008
0010
0002
FFEA
FFE6
FFF3
000C
FFEC
FFF5
000D
0013
0001
0011
001E
FFF3
001B
FFE1
001C
FFF5
000C
FFDB
0008
FFEF
000E
0004
0007
FFED
FFD1
0026
FFDE
000B
FFE4
FFF2
000C
0001
000D
0012
FFDE
FFF6
FFE2
0022
FFF0
0016
0021
FFD0
0007
0004
002C
FFE6
FFF1
FFF5
0015
000D
FFF4
FFFC
001A
FFF3
FFE3
FFCD
0013
FFDE
000B
000A
0006
FFFC
0021
0000
FFE5
FFF8
FFF3
FFE0
0022
FFF9
002C
002D
0007
FFE4
001A
FFE7
0015
0010
FFF7
000B
001B
0006
000F
0027
FFFE
000E
000B
0026
FFFB
0003
0009
FFE3
000B
FFE7
FFF5
FFE6
FFD2
FFE6
FFD8
0017
002F
0001
0018
0012
FFFA
FFF3
0001
FFFB
0025
FFDE
0015
0013
0015
FFCF
0009
0009
FFEA
FFEC
000A
FFF1
FFE1
000D
0031
0012
001E
0002
FFF5
FFF2
FFFA
0009
0002
000C
FFD2
FFF1
0012
FFEF
0018
FFE7
0001
FFF8
0002
0017
001E
0001
FFEB
0014
FFF8
FFCF
FFFA
FFEC
FFF9
FFF0
0008
0006
0008
FFD3
FFF2
0029
0024
FFF1
0006
FFEC
FFE1
000A
FFDE
0015
FFFF
FFF8
0016
0022
FFF0
0014
0021
FFE5
0016
002E
FFE0
FFE7
FFE1
FFED
000D
FFF9
FFF5
FFD8
FFFC
FFFA
000B
0017
FFF9
0018
000A
FFFF
FFDD
0020
0004
0011
0005
FFF2
0002
FFF2
001A
FFEA
000C
0006
FFDC
FFED
FFF5
FFFC
001A
FFE8
FFDF
FFF2
0025
0017
0006
FFCD
0006
002B
FFFF
0003
FFEC
0020
0005
FFF9
0009
0002
002D
0011
001C
FFE6
000F
FFF3
FFD8
FFF8
FFF4
FFED
FFFB
0032
FFE9
0006
0006
FFF8
0008
0006
FFDC
0011
FFDB
FFF6
0017
0004
FFFA
FFF9
000B
000D
002D
FFE2
0012
001D
FFDF
0022
FFEC
0002
FFF8
FFF5
0008
000D
000B
FFDF
FFF2
FFFA
0003
FFF6
FFD7
FFEF
0014
0025
0018
FFDF
FFE8
FFED
0019
FFEF
0001
FFFF
0027
FFDF
0020
0001
FFF3
FFFA
0019
FFE8
0007
FFEC
FFF3
0000
0004
FFD5
FFFF
0011
000A
0023
0009
0020
FFE4
FFEF
0011
FFE4
0003
FFE0
000E
0008
0004
0019
FFF2
001E
0001
FFFF
0020
0011
FFF5
0030
000B
000C
0011
0018
FFF1
FFF6
0004
000F
0003
000A
FFFE
FFE9
000B
0002
FFFA
000C
0009
FFFE
FFFC
000F
0021
FFF0
FFFA
FFE7
FFF3
002A
0006
FFEF
FFEC
FFEF
0000
0007
0002
0010
FFD4
FFE1
FFDE
FFFF
FFFF
0000
FFE9
002F
0007
0032
002E
FFFF
0005
0007
000F
000C
0000
001B
FFF0
FFF0
FFE1
0009
0009
FFF2
FFE8
0009
000B
0028
0018
FFFE
0011
FFED
0025
0003
FFFC
FFEE
0015
FFFA
000E
FFFE
000D
FFF6
0011
FFDD
FFF6
0003
0023
0003
0008
0006
001C
FFFC
0019
FFF4
FFEE
FFFE
FFE8
FFDC
FFEB
FFDD
000C
0030
FFE3
FFF9
0009
000A
FFFB
000A
000A
0001
FFF7
0004
000F
FFF5
0016
000F
0009
FFFC
000B
FFF7
0002
FFEA
0009
FFE5
0002
FFEA
FFEE
FFEC
FFD4
FFDC
0019
0029
0013
001E
0008
001D
001E
FFF5
000A
000A
FFDB
FFE2
FFDD
0008
FFF5
0015
0018
FFFD
0025
002D
000C
0007
FFF3
FFFD
000D
FFE9
FFF1
0020
0010
0003
0014
0007
FFE4
FFF3
0008
FFFD
FFEE
FFDE
0008
FFF7
FFD3
0012
0003
0007
0015
FFEB
000C
0008
FFEE
000D
FFFB
FFD3
FFFD
FFD0
001C
0018
0001
001E
FFD5
FFFD
FFE6
0027
FFF7
0003
0004
FFFA
0021
FFE7
FFFE
FFEC
000F
FFE1
FFFC
0009
FFFC
0016
000B
000B
0003
FFE9
FFEB
001E
0001
FFE0
0029
0000
0009
FFF5
FFEA
001B
FFFC
FFFD
0018
FFE3
0025
FFF0
FFEE
FFE1
001F
FFE4
0002
FFFF
FFF4
FFE5
0003
FFF8
FFEA
FFEF
0000
FFE3
FFEF
FFEF
FFCF
FFDC
0016
FFD9
000C
0011
FFDB
FFE0
FFEA
0000
FFE0
0004
FFCF
0003
FFD9
000C
FFE7
FFF6
FFF5
FFF6
001B
FFED
000D
0007
0005
FFE2
FFFB
001A
FFDB
FFFA
0006
FFF1
FFDA
FFF7
FFF4
0009
001D
0012
0004
0010
0015
FFFF
0019
000D
FFE8
FFE8
FFCE
FFF2
FFF9
FFE9
000D
FFD0
000D
001A
0011
0015
FFFD
0026
0011
FFFE
FFFF
0001
FFEE
0012
FFF2
FFD3
0014
0008
FFE8
FFFD
FFFF
0011
0003
0007
FFF6
001D
000A
0029
FFF2
0006
0020
FFFF
FFEB
FFF8
000D
0013
0005
0002
FFFA
000A
FFF2
FFE7
000A
FFFC
000F
0023
FFFD
FFF1
0008
0027
000B
000F
001C
0014
FFF4
FFF2
FFEC
0001
FFE7
FFE3
0018
FFDC
0019
0012
FFE5
0002
FFFD
0014
FFD1
001E
FFF1
0008
0000
FFEF
FFE7
000D
0007
FFD7
000A
0001
FFD5
001A
0008
000A
FFF4
FFE0
FFFB
001B
0006
0007
FFDD
FFE7
FFE9
FFF1
0001
0001
0024
0008
000B
0015
0025
0014
0011
FFFF
0020
000C
0011
000F
0022
001E
000C
FFE1
FFE2
0018
0000
FFF9
FFFA
0025
0011
FFF0
FFDA
FFEC
0000
0000
0018
FFF9
FFFE
FFFC
FFFC
FFF1
FFFB
FFF3
0017
FFD3
FFF3
0018
FFDA
0023
0027
FFF9
0013
FFE8
002F
000A
001C
FFF2
0006
FFF4
0008
0001
0019
0011
FFE7
FFD3
FFF2
0029
FFF6
FFEA
0012
FFF5
FFEF
0012
FFDC
0008
0000
0003
FFFD
0012
FFF3
0009
001F
FFEB
FFDD
FFD7
FFE3
000A
000F
FFFD
FFED
0024
FFE9
0012
002D
FFF4
FFE3
FFCF
FFF6
FFDB
FFE3
FFDC
0029
000D
0026
0016
000A
000A
FFFC
FFFE
001A
0007
0015
0002
0003
000D
FFE8
0004
0025
000A
0020
FFF7
000A
0014
0011
FFEC
0021
FFD5
FFFB
0016
FFE9
000E
0001
000A
0012
FFED
FFF1
0000
FFE6
001B
FFF4
FFEC
0001
FFE0
FFF7
0028
FFCF
FFEB
FFE6
001D
0002
0014
FFFE
0017
0001
0019
0005
0000
0013
FFE9
0015
0031
001E
FFDD
FFF1
001F
0015
FFE9
FFE4
0003
FFE7
FFF5
FFFF
FFF7
0019
0008
FFF2
FFD2
0015
0021
000E
0009
FFF4
FFFA
001B
FFFF
FFE6
FFFC
000C
0004
FFE5
0001
FFFD
FFFA
0021
FFF9
001D
0003
0031
0014
0000
FFE2
FFFB
FFFA
000D
0001
000B
0006
0007
0014
0002
FFEB
FFF9
0003
001B
0011
FFF7
002C
FFFD
FFF5
000A
0003
0012
FFFE
0002
000B
FFF2
FFEE
000C
FFE0
FFD6
FFD8
000E
FFE9
FFFE
0018
0018
FFF7
FFD4
0008
0008
0015
FFE0
0002
001C
0010
0004
FFED
0018
000B
FFEF
FFFC
0030
0022
001D
000D
0011
002F
0013
0014
000D
001B
FFF9
0013
001F
000C
0030
002C
FFF2
0006
FFD7
FFDE
FFDF
FFD8
FFE2
0011
FFF6
FFF4
0007
0019
FFF2
000D
FFF8
0011
FFF0
0030
0004
FFFE
FFDC
0009
FFF6
0013
FFE1
0002
FFF4
FFEA
0005
000C
001A
0002
FFF6
FFF5
0008
FFFC
FFF2
FFFF
FFFF
0016
FFEE
0019
000E
FFDD
000D
FFEE
0013
0028
FFF9
FFF7
001A
FFDD
FFF6
0024
0017
FFF5
FFE9
0019
FFD3
001F
000C
0023
FFF9
001F
FFF7
0006
FFED
FFFE
FFFE
0007
FFDC
0005
001E
000A
000B
FFFD
FFF9
FFE7
FFEF
0003
0006
FFF9
0017
000F
0010
002C
0008
FFE1
0011
0011
002A
0007
FFE6
0001
0003
FFFD
0006
0015
FFFA
FFF0
0018
0006
000E
0018
FFF7
FFEC
FFFF
0023
FFF5
FFF9
FFED
FFF8
FFE2
FFF0
0003
FFF3
FFD7
000B
FFEF
FFF9
002C
002B
FFFF
FFFD
0019
0006
FFFA
FFD1
0001
0015
FFF8
001E
0014
0025
0002
0001
0004
FFF8
0014
001F
FFEC
FFFE
FFFE
0000
FFD9
FFF4
FFF7
FFE7
0014
FFFC
0015
001C
FFF4
FFFA
0002
FFFA
0002
0014
FFE7
FFE1
0001
0014
000C
0010
FFD5
FFE2
FFEC
FFF9
FFF1
002E
FFEB
FFE6
FFF8
001B
FFE6
0011
0015
FFEB
FFE9
FFD4
0012
0011
0004
0022
FFEA
FFFC
000D
FFEA
FFF5
FFF5
FFF9
000F
FFEF
0025
0022
FFED
0001
0024
0019
0002
000A
002D
000F
FFE6
FFE6
FFF2
FFE8
0014
0016
FFD4
0000
0017
FFE5
0002
FFE7
FFDC
FFE8
0001
FFF9
FFFC
0021
0001
0002
FFFB
0007
FFED
0009
FFDA
FFCF
FFF0
FFEF
FFE2
0001
0021
0014
FFE9
FFF2
002F
0012
001B
0012
FFFA
001A
000E
FFF2
FFFE
000E
FFF1
0006
000C
0003
FFE2
0021
0023
001C
0013
FFEE
0019
000B
002F
000C
FFED
001C
0009
FFF1
000F
0010
FFED
FFDC
0005
FFDD
FFEF
0007
FFF6
FFFE
001B
FFE4
0022
FFF0
0012
FFF5
000F
FFF4
0008
FFF0
FFE3
0023
FFD3
002E
FFD7
FFD4
0004
001A
0003
FFF7
0008
FFFA
0001
001F
FFFB
FFEC
FFF6
FFEF
0018
0000
FFE6
FFD9
0016
FFE4
FFEE
FFF0
000D
FFF2
001E
FFFD
FFF9
0016
002D
FFE5
0002
002E
0003
0019
FFDE
0004
0011
FFD1
FFEC
FFEE
001C
0006
0004
FFE0
FFFF
0031
FFE1
001D
FFE5
000E
FFDC
FFE1
FFD8
0032
FFF1
0005
0003
001C
0017
0003
0010
FFEB
002D
FFF4
0029
001A
FFEF
FFF9
FFFD
FFFE
FFFB
0032
0018
0015
FFFB
FFEF
0006
FFDC
FFFA
0023
FFE3
0018
FFE5
FFE8
FFDC
0008
0002
FFE3
FFEF
002A
0020
FFEE
0014
FFCF
000D
FFFD
FFFB
0015
FFFC
FFF6
0032
0033
0006
FFE5
0013
0010
FFE2
000B
FFD7
0025
001A
0002
0023
0006
FFEB
FFE0
FFE2
FFDB
FFDD
0001
FFF3
FFF4
002B
FFFF
FFF7
FFEC
0013
0014
000C
FFF2
FFEE
FFDB
0017
0002
0009
000B
FFF5
0003
FFFD
FFFC
FFF1
FFEA
FFF2
0009
FFE5
0010
0006
FFEF
000E
0018
FFE9
FFE4
FFF4
0007
0001
0012
0022
FFEC
FFFA
0016
0019
FFE4
FFDE
0005
FFF4
FFE9
0020
0016
FFFB
001D
FFDB
FFF8
0004
001F
0010
FFD0
0029
FFE9
FFFC
0016
000D
0001
FFEC
FFE4
FFE8
FFEE
FFEE
FFD2
0022
000F
FFE8
FFE5
002D
000C
FFFB
FFE1
FFFA
FFEF
FFF1
000A
FFDD
FFD9
0009
0013
FFDC
FFFB
FFE2
0018
000C
FFFB
0029
FFFA
0007
0028
FFD5
FFD3
FFDD
FFE7
FFD9
FFEC
0018
FFF5
FFF7
0020
0002
FFFB
FFF1
0003
FFF9
0012
000B
001A
FFE4
FFF4
000B
0002
0016
FFD1
FFFF
FFD3
002B
FFE6
0010
0019
0017
FFFE
0022
0007
0028
0010
FFF9
FFF9
0023
0000
0005
001C
001F
0014
FFFA
FFFF
0011
FFE8
FFEE
FFE0
FFD7
FFDD
FFF8
0013
FFF6
FFE6
0011
FFDE
FFEE
FFE9
0011
FFE2
0028
FFF8
FFF5
0009
0002
FFF4
0018
0014
000C
FFE7
FFEA
0008
FFFF
FFE4
FFE3
FFEA
001C
FFFC
FFF3
FFF0
FFD5
001B
FFDF
FFF0
FFF0
FFED
FFF6
FFFB
FFF1
FFF7
FFEB
FFF2
0008
001C
000E
0028
FFDE
FFFD
FFE4
0000
FFFF
FFF4
0028
FFFB
FFE1
0006
0003
FFEA
FFE0
FFEC
000E
0002
0006
0017
FFFC
FFDA
0012
FFE6
0029
FFE6
FFF9
FFEB
002F
FFED
FFDD
FFE9
FFFD
FFEE
0017
0029
0007
FFEA
002B
FFFA
0016
000F
FFE2
FFEE
001B
FFF5
0008
0014
0001
FFFE
FFFC
FFE4
0016
002A
FFD6
FFDD
001A
0025
0002
0017
FFF0
FFD5
FFF3
0005
0006
0000
FFE0
001C
0012
0017
FFED
0016
FFFE
FFF2
FFFB
FFD5
FFFB
0028
FFED
FFEB
0002
0012
0008
FFE2
FFF5
FFE3
FFF5
002C
0018
0006
FFF7
001A
0001
000C
FFFB
0010
FFF3
001C
FFF4
FFDF
FFE3
0005
0006
0009
FFE3
FFFE
FFEC
0018
FFD8
002D
000C
FFD2
FFE8
0016
0023
000A
0013
000A
FFDF
FFFA
FFFD
FFFD
FFE0
FFF3
0031
0003
FFE8
001E
0031
FFEF
FFFF
0004
0003
0011
0012
0011
0008
0023
000E
FFE3
000D
FFDB
0016
000C
001A
002D
0000
002F
FFE8
0007
FFFC
002E
FFD3
FFF7
FFF5
FFEB
0000
000F
FFE0
FFE9
0002
FFF9
FFF8
000A
000C
000E
FFFD
002E
FFF4
FFF3
001B
FFDE
FFE1
FFF5
FFDE
FFEE
FFFB
FFF7
001F
FFD5
FFDB
FFFB
FFFC
0005
FFFE
FFFB
FFE4
000C
0003
0010
FFF8
FFD5
0011
000E
0010
FFE5
0006
FFF7
0002
FFE7
0009
FFF2
FFEB
FFEE
FFF5
FFE0
FFEE
FFF2
001C
FFF8
0024
FFF3
FFEB
0000
0009
FFEC
FFDC
0000
000B
0023
001A
FFE8
000B
0022
0015
FFF9
0001
FFF6
FFEC
0022
0006
001F
FFF0
000B
001C
0008
0008
FFE6
000F
002D
FFF3
FFEC
FFEA
0000
FFDF
0003
0004
000D
0011
001C
FFF9
001F
0007
000B
0031
FFD8
000C
000A
0008
002A
0027
FFF7
0020
FFE9
001E
0026
001C
0027
0009
FFF2
0002
0007
FFFD
FFE6
0024
0006
0002
FFFD
FFCD
000B
0004
FFEF
0000
0011
0028
0005
0000
FFFA
FFF0
FFEC
FFEB
0015
FFF3
002A
001F
0000
000A
FFEF
FFF8
000F
0001
0023
FFFC
FFFB
FFF2
FFF9
0017
FFED
0026
FFF5
0004
000E
0006
FFE2
0028
FFF9
0004
0002
FFE7
FFFC
FFF0
FFEE
0012
0014
0002
0003
FFF6
FFEA
0029
FFEF
FFE6
0026
FFF6
0014
002C
FFF8
0027
000A
000C
FFEB
0012
0007
FFFE
FFE7
001C
0010
0028
0011
0001
001B
0001
0025
FFF5
0008
0021
0015
FFD5
0001
0017
0015
FFE8
FFCF
001C
FFFA
0019
000E
001D
FFEE
0001
FFFF
FFFB
FFF1
FFF1
FFEA
FFF9
FFE0
0003
FFDB
0008
FFCF
FFDB
0013
FFE5
FFEA
FFD8
000A
FFFB
FFDD
0027
FFEA
0009
FFE0
0018
FFED
FFEE
0007
0016
FFFD
0012
0001
0008
0023
FFE7
0000
0017
FFDA
0009
FFE8
0004
FFD2
0009
FFE0
0010
FFF3
FFEB
0003
0008
FFEF
0011
0008
FFFA
0008
0004
001C
0019
000B
FFEB
000E
FFFE
FFDA
FFEE
0006
001B
FFF6
0010
0009
FFED
FFF9
0015
FFDA
0028
001F
FFF4
000A
FFE5
000E
000F
0018
FFF7
FFE7
000B
FFFF
0004
0008
0011
FFE7
0026
0004
0002
0024
FFFD
0027
000C
0014
0007
0008
FFE0
0001
FFD2
FFEC
FFFB
000F
FFDF
FFF0
0009
FFFA
FFE7
0017
0019
0009
0027
0026
FFFE
0027
0011
FFE3
000B
FFE1
0002
002C
001C
0010
0011
000E
FFEA
FFF2
FFD0
FFF3
FFE8
000B
0029
0029
001B
001E
001B
FFFC
FFFB
0028
0017
FFFA
0008
002B
0016
FFE4
000F
000F
0005
FFFF
000E
FFED
FFF5
FFF8
FFF9
0012
0026
FFDF
FFE5
FFF6
0009
0013
FFE7
000B
001F
0002
0010
FFF5
0000
FFFD
0009
FFF9
0020
001A
FFE5
0014
002F
FFFA
FFFA
0003
0017
FFF9
0000
000F
0006
0003
FFEC
0010
0008
FFF6
FFF1
0009
FFED
002B
0001
0009
FFEF
FFF0
FFEE
0025
FFEC
000B
FFF1
FFFF
FFED
FFF7
002D
FFF7
FFE6
FFDA
FFFC
FFFC
000A
000F
000D
FFE7
000E
FFEF
FFE7
FFF0
0003
000A
002B
000E
001A
FFFC
0013
0006
0014
FFCE
0018
001F
0014
FFE2
0027
FFD4
001B
0012
000A
0028
FFFF
FFCE
FFE2
FFEB
FFE2
FFFB
FFD7
FFEA
FFF7
0016
001A
0011
0009
FFF4
FFFA
FFE5
0002
FFEE
FFF5
0002
FFE3
0009
FFDB
FFEE
0015
FFF8
0019
FFEB
0006
0018
0018
FFEA
0015
0007
FFD3
FFEB
000A
FFE3
FFEB
0006
FFF8
FFE6
FFF6
0017
FFFB
000D
0015
0012
000A
FFFA
FFDF
FFE6
0006
FFF0
FFF9
FFEE
FFF9
0023
0018
0002
0001
001C
FFE6
0001
FFEC
0016
0000
002C
001D
0022
0012
FFED
FFEE
000E
002B
0028
FFF6
FFCF
FFF4
FFED
FFFC
FFED
FFEE
0027
001B
002A
FFEA
0014
0000
002F
FFE0
FFEF
0000
0012
0007
0001
FFEE
FFE7
FFD1
FFFA
FFEC
000F
0009
FFEA
0003
FFD8
0010
0002
FFD2
0001
FFEC
FFF7
0007
FFF6
0005
0015
0000
FFE3
FFFD
FFFC
0009
FFF7
001C
001C
002A
FFF3
0011
FFF0
FFEC
FFD6
FFE7
FFF6
0018
0013
FFF8
FFE5
FFF9
0014
0003
0022
FFE2
FFED
000B
FFE3
FFFF
FFEE
FFDA
0000
0023
FFFA
0026
0016
FFF9
FFDD
FFFD
0009
0004
000D
0012
0006
001C
FFFE
FFD4
0005
FFD5
0012
0009
0001
0014
FFDF
0007
FFF0
000C
FFFE
0018
001B
0015
0011
FFDF
000A
FFFA
FFD9
FFF0
0000
0011
0012
FFDB
FFFE
000A
000A
FFE5
FFEA
FFEA
002D
FFFB
0011
0000
0002
0011
FFF6
FFF7
FFFB
FFF5
FFD8
FFE9
0027
0029
0016
FFF9
FFE2
FFE3
0001
FFD5
0020
000C
0003
0005
0009
001E
FFF6
FFF9
000E
001A
FFDB
0015
FFF6
0015
0016
0010
FFEA
FFD7
0019
FFE2
0004
FFE6
0016
0025
0026
0018
0029
0006
FFF2
FFF6
FFFE
0010
0021
000F
FFEE
0012
FFFE
0029
0005
FFE8
0005
0010
001B
0009
0023
0005
0011
0018
FFF0
FFF5
0000
000A
0001
0028
0008
FFEA
FFED
000D
FFFD
0002
0006
FFFC
FFDD
001C
0012
FFDC
0012
0026
FFD7
FFDD
000A
0005
FFD9
000E
000C
0030
0013
FFF2
0003
0000
FFEA
FFF4
0002
000B
FFE6
0025
000B
0018
000A
FFFC
FFE5
FFFB
FFFE
0021
001B
0014
0006
0022
0002
0007
000B
FFEF
0006
000A
001A
FFE6
0020
FFD7
FFD2
FFF3
0002
FFEA
FFD3
0014
FFF9
0001
000D
FFFA
FFFC
0007
FFFA
FFFD
FFDF
FFE6
FFF7
FFD9
0017
FFE7
FFDD
0008
002D
FFE2
FFEB
FFF4
0024
FFEB
0004
FFFA
0013
FFED
0003
FFE0
0014
0024
0004
0002
FFF6
0011
FFEC
FFEB
FFDC
FFF0
FFFD
FFE3
FFDB
001F
FFE9
0020
0011
FFF2
FFDE
FFFE
FFEC
002B
0006
0001
FFF4
FFFE
FFF4
FFF6
0011
FFF9
0006
0009
001E
0004
FFE2
FFF9
0002
0009
0006
0005
FFE1
0004
FFF5
FFE1
001B
FFF7
0005
0024
001A
FFEE
FFF7
0002
FFEF
FFE4
001C
FFD0
0027
FFFA
000C
FFF2
FFFF
0013
0018
001D
FFE2
000F
FFEB
FFF0
0021
FFF2
0018
FFF9
001C
000F
001C
FFF2
000C
000B
0005
0012
FFEC
FFDD
0011
0000
001B
0017
FFDA
0010
FFED
FFDE
FFFB
FFDC
FFF7
FFF4
0017
0015
001A
0008
FFED
001A
001E
FFE1
0022
000C
FFF0
FFE7
002E
0007
FFE4
001A
0019
0010
0032
FFF7
000E
FFF2
0017
0022
FFF1
FFFC
0028
001B
000B
FFE7
0001
0020
0006
002A
FFD6
000F
FFFA
FFF6
0008
FFFF
0029
FFF5
FFE6
0005
FFD3
FFFE
0006
0002
0001
FFCE
001E
FFF1
FFF6
FFD4
FFDB
0001
0004
FFFE
FFCE
FFF4
FFF8
0027
0002
0001
0021
0002
FFD4
0011
0012
FFF5
FFFD
FFE8
001F
000B
FFE6
FFEF
002E
FFDC
0005
FFFF
000D
0008
0024
FFFA
FFDB
0029
0006
FFE2
0018
0011
FFEE
0006
0010
FFFE
000D
FFEC
FFEE
0002
FFFE
0001
FFE3
0016
0021
FFD4
FFCE
001C
000F
0001
0012
0022
0023
FFF6
FFE7
0021
FFCF
FFEA
0011
0001
FFDF
FFDA
FFEF
FFEB
0003
000E
000C
0002
FFE1
000B
FFF3
0010
0015
0008
FFEC
FFFC
0027
FFDF
001B
FFE9
FFF5
0019
000A
0011
FFFA
FFFA
FFE0
FFF5
0022
0010
FFFF
FFFF
0020
000C
FFFE
FFD5
001E
002B
000C
0004
002D
000D
FFEF
0007
002B
0002
0008
0011
FFF4
0030
FFD9
FFEE
FFEF
0005
FFE4
FFF6
FFF9
0016
FFFF
FFF4
000B
002B
0011
FFD4
FFDD
0017
000A
FFF7
0017
FFFC
FFF5
FFE2
0017
FFE6
FFEF
FFDE
FFEB
0021
0004
0001
0004
0007
000A
0006
FFEA
0022
FFFF
FFF6
FFFA
001B
0002
0025
FFED
FFF2
FFD6
0011
FFD1
FFF5
FFDF
001E
001B
0002
FFE5
001B
FFE8
001B
002A
0011
FFFA
FFFD
FFEA
FFFF
FFE7
FFF5
FFE8
FFE0
FFEB
FFE1
0024
0027
0021
0014
000E
FFEA
0012
0017
001C
0019
FFF5
FFFF
0023
FFFE
000F
000D
FFE8
FFFB
0022
FFE8
000E
FFF8
FFEE
0020
001C
000F
001E
FFE1
FFE9
FFEA
001E
000D
FFE2
001D
0006
FFE1
FFF6
0001
FFF8
FFEB
0026
000B
FFE9
FFE6
FFEE
FFF5
0000
FFF5
FFF2
FFF2
0011
FFE8
FFF7
0024
0020
FFF4
0020
0015
FFE7
0002
0019
FFDF
FFFE
FFF3
001E
FFFF
000F
FFE5
001B
FFEC
FFFB
FFE2
FFD1
FFFB
FFD0
FFFD
0027
0014
FFF2
001B
FFEF
FFE3
0003
FFE4
0011
001C
FFF6
FFE9
FFEC
FFEF
0007
FFE6
0008
FFE0
0000
0005
000B
FFF4
FFEF
000D
002F
FFF1
FFFE
0028
FFFE
0001
FFE2
FFD5
FFF2
0004
FFEE
0013
0024
0026
0006
0004
FFE6
FFEE
0006
0004
FFF1
0015
0007
FFE6
FFE9
FFEA
0005
001D
0001
FFF3
FFF4
0006
FFF6
FFEB
0006
FFFC
0031
0002
0013
FFF9
000B
FFFB
0008
001C
FFDE
0003
FFEA
FFF2
FFF1
FFEE
FFF9
0008
FFFE
000A
000A
FFD7
FFE3
000F
001D
FFDB
FFF9
0000
0019
FFE2
FFFB
FFF7
FFF0
000C
0015
0003
0002
FFF9
FFFE
000F
FFEC
FFD9
FFFB
FFF1
FFF0
FFF7
FFDD
0021
FFEF
FFF2
0017
FFE8
FFFE
0008
0014
FFE3
FFFB
FFEB
0019
FFFE
FFEC
0030
FFDD
FFF8
000B
FFDE
0007
FFE6
0013
FFF1
FFF1
0000
0010
FFF7
FFF7
FFFE
FFE7
FFE1
0011
FFEF
FFF3
0022
0019
0010
000E
FFF8
0013
FFD8
FFFF
FFF5
FFE2
FFF0
FFF6
FFDC
001A
FFE3
FFFB
FFFA
001F
FFED
001D
0007
FFD2
0022
FFD2
FFE9
0015
FFF2
000B
FFF8
000D
0010
FFF3
FFD6
FFE2
0016
FFF0
FFFA
FFFA
0027
002D
FFE9
FFDF
0018
FFF8
FFF2
000A
FFF0
FFFC
FFF2
FFD4
0004
001D
0012
0008
FFF6
001D
FFED
FFFA
0000
FFF0
001A
000E
0017
FFEE
FFE5
0005
0019
FFF1
0002
0017
FFD8
FFE2
000A
0006
FFFB
FFF2
FFF8
FFF5
0017
0026
0006
FFF1
001C
002F
002D
0011
FFFF
0002
002E
0028
0003
002B
0018
0006
FFF4
0016
FFEF
0021
000E
0015
0016
FFF6
001D
002B
000B
FFDA
FFD5
0000
002F
FFFA
FFD4
0017
FFFB
0003
FFFA
FFF6
FFF1
0001
FFF8
0010
FFDF
FFF6
FFE2
0008
FFEA
FFFC
FFE6
FFEE
FFEE
FFF4
FFDB
FFFC
000E
0002
0004
FFF7
0012
0017
FFFE
FFE0
0011
FFF4
FFFD
FFDA
002A
FFFC
FFF0
001B
001E
0001
FFEE
001D
FFF8
FFEB
0000
0007
FFEB
FFDB
0006
001E
0003
002C
0014
0019
0022
FFFE
0017
FFEF
0011
0011
FFE5
0003
FFE2
0007
FFFB
0002
002F
FFE5
0026
FFD8
0011
0014
000C
FFFC
FFEF
0002
FFF5
0008
FFF3
FFFB
FFEF
001C
0001
0001
FFF0
001B
FFFC
FFEE
0011
FFF5
FFF4
0013
002D
FFDD
FFF1
0006
FFDB
FFED
0003
0015
FFF6
000A
FFFE
0006
0007
001A
001B
0023
0004
FFF7
FFE6
0004
FFF7
0010
FFDB
0000
0009
FFFD
0030
FFEA
000B
0005
FFF0
000A
FFF0
0006
0015
000F
FFE6
0008
0017
FFFD
FFFD
0018
FFDC
0008
001B
FFF1
FFFB
0016
FFF5
0014
0025
0006
FFED
0023
0012
FFEE
FFD2
FFE0
FFF8
FFFF
0005
FFFD
FFF1
0003
FFF9
FFF1
FFE8
000E
FFFC
0000
FFF3
FFF7
FFF3
0007
FFF5
FFFC
002C
FFD3
FFF1
FFF0
FFDD
FFF5
0025
0005
FFF6
002A
0002
FFE7
FFF6
0014
0022
FFFB
FFD5
0020
0003
FFFF
000A
0005
FFF2
001C
FFFA
FFFC
0006
000C
FFFF
FFE8
FFF4
FFEF
000E
000A
000A
FFF5
0007
0016
0010
000A
0006
FFF8
001B
000C
FFFB
001E
0006
0007
FFF5
FFDE
0031
FFF2
FFE2
FFE2
FFF0
FFFF
000B
FFF3
002F
FFFC
FFD5
FFE7
0019
FFDA
0001
002C
FFDF
FFF5
0018
FFF1
0007
001E
0015
FFF7
0011
FFF6
FFD6
000F
0019
FFF8
FFF5
001E
0008
001B
000B
FFF4
FFFF
001A
0007
FFF8
FFEB
0006
FFEA
FFFF
0011
000B
FFE9
FFDA
FFE7
000E
FFD0
0026
0007
FFE0
FFDA
FFFB
0000
0013
FFF4
FFF9
001F
0014
0019
FFFB
0012
FFE1
0015
000E
0014
FFFA
FFF8
001B
000D
0020
0022
FFF6
FFF7
0003
FFF5
0002
0009
FFFE
FFED
FFD2
0009
0017
0015
FFFF
FFE8
001B
0005
0033
FFE3
0013
0007
FFD3
FFE0
0021
FFEB
0005
000C
0019
000B
0012
0026
0000
000C
FFE9
FFEE
FFFA
FFF3
FFF7
0010
0015
0007
FFE1
FFED
FFEE
FFDD
0009
0024
0033
FFFD
001F
FFF5
FFE6
FFFB
FFFD
FFFE
FFF3
FFF6
FFF5
FFE3
0006
FFDF
0005
FFF6
FFFD
FFFF
0028
001C
FFFB
FFF0
FFF6
FFFF
FFF3
FFF5
000B
002C
000D
0025
FFE3
0015
FFF6
0015
FFEC
0027
FFF3
000D
0014
FFFA
0005
FFF5
0027
001C
FFF5
FFF8
0001
0007
000E
FFD2
FFEE
0003
FFFE
FFF5
FFF0
FFE2
0023
FFF5
FFE0
0004
FFEA
0002
000B
FFFE
FFFC
0016
0013
FFF5
FFFC
FFFE
0016
FFE6
000D
FFED
FFE1
0017
FFDC
001D
FFDE
FFF6
0002
002B
0002
FFEB
FFF4
000B
0009
FFF2
FFF6
000B
FFF4
001E
FFE7
002D
0005
000C
FFF8
FFE3
FFFA
001B
FFEE
FFDE
FFFF
0000
0003
FFE9
0018
001C
FFFA
FFF6
FFFB
FFEE
FFEE
FFF4
FFE1
FFEF
001F
FFF2
0002
FFFA
FFFB
FFE9
0000
FFDD
FFFC
0006
0023
FFE6
FFEA
0011
FFF8
FFF0
0010
FFFE
FFF6
FFF5
FFDC
FFEF
001E
001E
000E
0011
FFF5
FFFC
001E
001A
FFEB
FFE3
FFF9
FFD3
FFF7
FFFC
0008
FFD4
FFFB
FFEC
FFF2
FFFE
0006
0010
0016
001D
FFED
0004
FFEA
0007
FFF4
000B
0029
FFD4
FFF6
FFFF
0013
0015
FFF5
0007
000D
0016
FFEA
FFED
FFF1
0014
0026
0028
FFF6
0004
0008
0001
0017
FFEC
0013
FFD1
0027
0015
002A
FFFF
FFD9
000D
FFF6
0012
002D
0019
FFF3
FFDA
FFEF
0002
FFFA
0001
0006
FFDC
FFEE
FFED
000A
0000
FFE9
FFEF
0002
0008
000D
0016
000A
0019
FFE5
0020
FFFF
0002
000B
000F
0025
FFE1
FFE1
FFFF
0007
0010
0011
000B
0026
0006
FFEC
FFE6
FFEE
FFFF
FFF0
FFE6
FFE9
FFF9
0005
0000
FFFD
0013
FFE9
FFF8
FFFC
000C
0001
FFE3
000D
FFE9
FFE2
0001
FFDC
FFEC
FFFE
002B
FFFF
0015
0018
0007
FFF9
002C
0010
0003
FFF3
0012
0015
0007
0013
FFF6
002A
000F
0007
FFFF
FFF6
FFFF
0013
0014
FFEB
FFFA
FFF2
0018
000D
FFF5
0001
FFF9
FFF9
FFEE
FFF6
FFCE
0000
FFD3
FFFE
FFF4
FFF2
FFE6
000E
0009
FFFD
FFE3
0018
FFE4
0002
FFF6
FFFA
0020
000B
FFE5
FFFF
0013
0025
FFF7
001B
0007
FFCF
0021
0012
FFF8
FFD5
0027
000C
0008
FFFC
FFE9
0031
FFFA
0018
000A
FFF5
002C
FFFF
FFE7
FFD9
FFD6
0016
0011
FFFC
000F
FFE4
FFDF
002E
FFD7
FFE2
0002
FFF4
FFFF
FFFB
FFE2
002A
FFF7
0012
FFF0
0008
0029
0021
000C
FFFD
FFE0
FFE0
FFE6
0003
FFE5
000B
FFDD
FFF6
FFEF
0009
0014
FFF3
FFF7
001F
FFE7
FFE7
FFF7
001E
0005
0004
FFF8
FFD4
0011
0014
0020
FFFF
FFFF
0002
0015
0006
FFEB
FFFB
0001
FFEB
FFE8
0031
0005
001A
FFE2
0007
FFFE
0020
FFEC
0002
FFDC
FFF7
FFFB
000E
FFD9
FFE0
FFE5
FFD7
000F
FFE1
0008
0001
0002
0024
0003
0000
001C
FFD9
FFF5
0013
0007
FFFD
FFFB
0009
FFE9
0002
000B
FFD3
FFDA
FFE8
0027
0019
FFF0
000F
0008
FFE2
FFE3
0003
FFFF
0016
FFF7
0001
FFF2
0010
000B
001F
0024
FFF1
FFEC
FFF1
FFE7
FFE6
FFDA
0003
0008
000A
0012
FFD9
000E
FFE9
000A
0009
FFEB
FFFE
FFF3
FFEB
FFE2
FFE2
FFE8
FFDC
FFF0
0000
FFDA
001C
0010
FFFE
000A
FFFF
FFFC
FFDA
FFE4
000A
FFF8
FFEC
0014
0018
001B
FFEF
FFDE
001A
0028
FFDC
0014
FFF0
FFE5
FFF2
FFF0
0009
0027
002A
FFFA
0020
FFFD
FFFA
000B
FFE9
FFFB
0022
FFCD
FFE4
FFD9
0020
0001
0000
001D
0030
FFE5
0014
FFF9
FFFA
0001
0002
FFE2
FFF4
0030
FFFB
002A
FFD6
FFF6
FFF2
0009
FFF2
FFFA
FFE8
FFF8
0004
0008
0026
FFDF
FFF3
0000
FFDB
FFF8
000C
FFE5
FFFA
FFFF
0006
0017
FFF3
FFFB
000E
FFD2
0007
0013
0019
FFFF
FFF3
0016
FFEA
FFF1
000A
FFF8
FFDD
FFF7
FFF1
FFFC
FFF2
FFDC
FFF6
0015
FFF5
FFF8
0023
FFFF
001A
FFDF
000A
0011
FFD7
0014
FFE3
FFF9
FFE0
0029
FFF8
FFE8
0004
FFF2
FFF5
0027
0018
FFF7
FFF3
0005
FFFF
0026
FFF0
FFF8
FFFF
001A
FFFD
0004
0004
FFE6
FFF8
0019
FFE8
FFE2
FFFA
FFFF
FFED
0001
FFDD
FFD7
0012
000B
000D
FFE7
FFF4
FFFB
0007
FFF7
0008
0008
000A
0014
0009
0022
0010
FFD9
FFE8
0019
FFF6
000C
0012
0005
0023
0008
0014
FFFA
0003
FFFC
FFDA
0007
FFDE
FFE7
0005
001A
FFEA
FFE4
0003
FFD3
0011
FFEF
0009
FFDF
0009
0024
FFEB
FFDF
0020
FFF9
0012
0023
FFF3
0005
000D
FFFB
FFE4
001E
0008
FFE2
0002
0031
0005
FFFB
0004
FFF6
FFED
FFEF
FFF7
001F
FFEE
FFE9
FFFE
FFFE
FFF0
FFF8
000F
0016
001D
001C
FFFD
FFE0
FFF4
FFD5
FFD0
001D
FFF3
FFFC
0007
0007
0016
0033
0028
FFF5
0009
0024
FFF6
FFFF
0018
000A
0003
0012
FFD2
FFD7
0003
FFEE
0019
FFF3
FFF8
FFED
FFFB
FFF9
FFF5
FFE5
FFDB
000A
000A
0000
0008
FFF0
FFE5
0006
000F
FFF1
FFE4
FFEE
001B
FFF0
0010
0020
000B
0021
000D
0000
0001
FFF8
FFDA
0000
0003
FFEA
FFD1
0010
0020
FFEB
FFF9
0008
FFF7
FFF2
0021
FFE9
0000
FFDF
0011
0012
FFF9
FFF3
FFD5
0010
FFF0
FFED
FFF9
FFDE
0012
0005
FFE1
FFE5
000B
000C
0017
FFFF
0009
FFDE
FFD8
0029
FFE8
FFF9
0030
001A
0000
FFED
0008
FFF6
0014
0013
0017
0016
0000
FFEF
0029
FFE0
000B
FFFD
FFE8
FFE3
FFE7
0022
0003
0005
0033
FFF5
0008
FFF7
FFF2
FFEF
FFFF
FFF2
FFFB
000F
FFD4
0003
FFD8
FFFD
0009
0027
0015
FFF2
000A
FFF4
0005
0019
FFF1
FFFB
0007
FFEA
0021
FFF5
FFFF
FFE0
FFFF
0014
FFDE
000F
0018
0014
0007
0009
FFF2
FFF4
FFF3
0012
FFF5
002D
001D
0024
FFF7
FFFC
FFE9
0003
FFFD
001F
FFFF
FFF3
FFF6
000E
FFE9
0007
0028
FFD6
001F
0001
0022
0011
FFF6
FFD8
FFF9
0002
FFDA
FFDD
FFEA
FFFA
FFD2
0029
0018
FFFE
000B
0008
001B
FFEA
0008
FFF0
FFFE
FFFD
FFCF
0019
0015
FFFF
0013
001C
FFFA
0017
0008
0009
FFFF
001C
0006
FFF8
0011
FFDF
0033
FFF4
0017
FFFA
FFE0
FFEE
0007
FFE4
FFE9
FFFC
000E
0018
0014
0004
000D
FFEC
FFF6
0012
FFED
FFEB
0009
FFEF
0007
FFF1
0010
FFD9
FFE5
000C
0010
0004
0010
0000
FFEB
0029
0026
FFF6
0003
000F
FFF9
FFF8
000F
000D
0005
FFE3
FFE5
FFFB
0010
0000
0005
FFF1
0023
FFEF
0001
FFEC
FFF5
FFFE
0003
0022
FFF7
FFEC
0018
FFF9
0016
0008
0006
0018
0001
FFE5
0023
0021
0001
FFD6
0024
FFEF
FFD1
0005
FFF0
FFEC
FFE4
FFFD
FFDC
FFF4
001E
0020
FFFB
0018
0005
0009
0018
0019
001C
FFFD
0007
000D
0006
000E
001C
FFFD
000A
FFE5
001C
FFF7
FFF4
001A
FFE6
0004
0013
FFE9
FFD4
001C
FFE1
FFFC
0018
0000
FFDC
0017
0008
0019
FFFF
000C
FFE4
0018
0026
000C
FFF4
002D
0009
FFE2
0005
FFF9
FFF8
0005
FFF3
000B
FFF1
FFF2
0025
FFD9
0009
FFD7
FFF9
FFFB
FFFD
0012
FFFC
000B
0014
FFF3
0012
FFDA
001D
FFED
FFEB
002C
001C
FFE2
0006
0008
0003
0018
FFFD
FFDC
001E
FFF1
FFDF
0001
0012
FFFA
0013
FFFD
FFED
0012
FFDF
FFFE
0016
FFF8
000A
FFE8
FFFE
001E
FFE4
001C
FFD0
001E
FFEE
FFEA
FFF9
0008
0009
0006
FFF8
0022
001C
FFF2
0003
000C
0002
001D
0012
0022
0008
0004
FFF7
0007
0000
FFD4
FFFC
FFF5
FFF1
FFF4
001C
0021
0016
FFF1
0025
001A
FFE2
FFF8
FFE4
000F
0018
000D
FFE7
001F
0008
0004
FFE8
FFD4
002D
FFEC
FFF4
0012
0002
000F
000C
0012
000E
FFE4
0028
FFEC
FFFD
FFFE
FFE0
0017
002E
0014
FFEE
FFEE
FFD0
0001
0010
FFEA
0028
0018
0007
FFFE
0025
0011
0018
FFD5
FFE7
FFFC
0023
0014
FFED
000E
FFF9
0016
FFFD
FFE0
FFE1
000A
FFD4
FFE8
000A
0016
0026
FFE0
FFFB
FFF0
FFF5
000A
000D
FFED
0005
000A
000B
0015
FFE7
0009
FFF8
FFFD
0025
FFF5
FFF5
FFD5
0004
0005
001C
001F
0017
FFDD
0024
0011
002A
0008
FFE9
0020
FFEB
FFEE
FFF0
FFEB
FFFE
FFF3
0015
000C
FFE1
FFF2
000F
000E
FFEF
0002
000E
001A
002D
0012
FFFE
FFF2
0022
0024
FFEC
FFE0
001F
0005
0026
0018
FFE0
FFE2
000C
FFF7
0019
0012
FFFC
0015
000D
0008
001A
FFEB
000A
0023
FFE5
0008
FFEA
FFE0
FFF5
FFEB
FFFB
0016
FFFB
FFF3
0015
000E
0013
FFF9
0022
001E
FFEF
0013
FFEC
FFF6
001B
FFF6
001E
0001
001F
0009
FFEE
0007
0018
FFDD
0005
001D
FFFC
FFF7
0028
0033
FFD7
FFFC
0020
0022
FFFD
0022
FFF9
0005
FFE8
FFEC
0033
FFFF
FFD7
0017
0010
000A
FFEB
FFFF
0029
0010
FFE4
FFF7
0005
FFF6
0008
000A
FFF1
FFF7
0004
FFFA
FFF6
FFE5
FFFE
0000
FFF2
0008
FFF2
FFEB
0019
0012
0015
002F
FFF7
0008
FFE0
FFE4
FFE1
FFF3
FFE4
FFEC
0029
FFF1
FFFF
0000
FFF9
000D
FFEC
0005
FFFE
001E
000E
0002
FFFD
0002
FFEB
0008
0009
0002
FFDA
FFEB
0014
0002
FFF8
0017
0001
0004
0001
FFDC
FFFA
FFEA
FFF2
000C
0018
FFF7
FFEF
FFFD
001F
FFFE
FFE2
001B
001D
FFEB
FFD9
0003
FFF8
0013
0008
FFFA
0025
0002
0008
0013
FFE1
FFFB
FFFE
001E
FFD3
001F
001F
FFDC
000D
FFFB
002B
0021
FFF6
001C
FFE6
FFF7
FFF2
000A
FFFF
FFFD
FFF2
0010
FFF7
0011
FFFF
0031
FFF7
FFD1
001A
FFF9
FFFD
FFF5
0004
FFFD
0005
FFFA
FFE8
0008
000C
001F
0005
FFDD
FFF8
0011
000D
FFE0
0028
0017
000D
0002
FFFC
FFFF
000C
FFF1
0019
FFD9
0021
FFF3
0000
FFF1
0013
000D
0017
001A
FFF3
0011
0002
FFFC
0030
0007
FFE4
FFF1
0009
FFD8
0007
0020
0033
0007
0010
000A
0012
0004
001F
000B
FFE3
FFF0
FFF7
000B
FFD8
FFDA
001A
FFF9
FFFA
FFFD
FFF5
0002
0022
FFDA
FFFF
001C
0032
000C
0017
FFDC
0004
FFE1
FFF2
0014
0000
001F
FFF6
000B
0023
FFFA
FFF1
FFF9
FFFC
0014
FFCD
0008
0013
FFEF
FFED
000D
0007
FFFD
000E
FFF5
0015
0011
FFF7
0016
0018
0012
001A
FFF1
001A
0005
0033
0013
FFCE
000E
FFE2
0005
FFFB
0011
0000
FFFA
FFE5
FFDD
FFD9
FFFB
FFEC
0008
0000
0005
0007
FFF5
0025
0007
FFEC
001B
0003
FFFA
FFE8
FFE7
0014
0016
000E
0000
0012
FFEE
FFD8
FFDC
0004
001C
FFF9
0015
0012
FFFE
FFE7
0007
0008
FFFF
001F
0015
FFF1
000A
0014
FFF8
0014
FFCE
FFFE
FFCD
FFF4
000A
0014
002A
FFF2
001A
0011
0001
001D
FFDF
FFE4
FFD1
FFED
0008
002D
FFFF
FFFF
FFE9
0014
FFF4
002A
FFE7
0028
0018
FFF4
FFDD
FFF1
0002
FFE1
FFD3
FFF1
FFDA
0014
0002
001E
FFFA
0002
FFDA
001F
FFF8
FFEF
FFFD
FFFC
0018
0031
0006
FFE8
0007
0025
0000
0004
0012
0003
FFD5
FFF8
FFEE
0004
001F
002C
0008
FFE4
000F
0017
001B
0003
0014
0013
0000
001A
000A
000F
FFED
FFE8
0006
FFFA
FFF2
FFE8
001B
001B
FFE2
FFE8
0002
FFDD
FFEE
FFED
FFFC
FFE5
FFF5
FFEA
FFEE
FFF6
002C
0010
0029
001C
FFF2
000A
0000
FFF0
FFFB
FFE1
0012
FFE2
FFEB
FFE5
FFDD
0026
FFD9
FFF4
FFEB
FFE4
0011
0005
0022
FFE7
FFF4
FFF8
FFF5
FFDE
001B
0026
FFEA
000A
FFE5
FFF9
FFD6
FFEC
FFFB
000C
0001
0004
0013
FFEB
002A
0011
001D
FFFF
FFF0
FFF3
FFFD
FFED
001C
0005
0000
FFE0
FFE0
0019
FFFF
0002
FFDA
002A
0022
0011
001C
FFDF
FFF8
000A
000D
FFEB
FFE9
FFF0
001F
0028
001C
0009
FFF4
0019
0029
0011
0003
0003
FFF7
FFF9
FFF5
FFED
FFF9
000F
0000
FFFC
FFFD
0012
0016
0030
FFFB
FFFC
FFF7
FFFB
FFD8
FFFE
000D
FFEC
FFE5
0011
0007
FFFD
FFF0
0001
0008
FFE4
FFCE
000F
000A
FFDB
FFEC
FFF2
FFDB
FFEA
000E
FFE4
FFF2
FFE2
FFEE
FFF1
FFF4
0005
000D
FFDB
000F
FFF6
001F
000C
0024
001E
001F
0023
0021
000F
001E
0004
FFEA
FFF7
0017
FFF0
0002
FFD9
FFE3
FFF6
0020
0009
001F
0017
0033
0007
FFF6
000C
FFF8
FFF3
FFE0
0005
0012
0004
0004
0016
0002
FFE7
FFD3
FFEC
0018
FFE8
000E
FFF6
0005
FFFA
0001
FFE6
001B
0018
FFE3
FFFD
FFD8
FFF6
000F
0010
0008
FFFE
0019
000D
FFF5
001A
0023
002B
FFFF
0005
0008
FFE9
0010
0013
FFF1
0003
FFD7
000B
0002
0009
000E
FFE9
FFF8
FFEB
0003
0001
0014
FFF4
FFF8
0007
000E
000F
001A
0006
0007
0020
001C
FFE2
0019
0008
000F
FFF2
FFEF
FFEB
0015
0029
FFF4
000F
FFE8
000F
0011
FFF2
FFE9
0010
0010
FFEC
000C
0009
FFFE
FFE7
0002
0002
FFE5
FFDB
FFD9
000F
FFE5
FFF8
FFF5
0012
0002
0033
FFE9
000C
0006
0017
FFF8
FFEE
FFEA
FFFB
0006
000C
FFD2
FFF8
0015
0001
000B
0008
0023
000B
000B
0009
0022
0003
FFFE
0026
FFEF
FFF5
FFF9
FFFD
FFDF
FFF4
FFEE
FFE5
FFEB
FFE8
0019
001E
FFE6
0011
FFCF
001A
0011
FFF0
0028
FFED
FFF0
FFD4
FFF9
FFFE
0005
000B
0023
FFEA
0005
FFF5
FFF7
FFDE
0011
0007
FFFE
FFF4
FFFB
FFDD
0013
0001
0006
FFF4
0001
0011
0009
FFFE
0000
FFDF
002B
001D
FFE7
FFF5
FFE9
0008
FFE6
0011
FFEC
0011
0004
0003
FFE0
FFFA
FFDF
000A
FFFD
FFF1
FFEC
FFD0
0001
FFF4
0019
FFE5
0001
FFD0
0003
FFFF
FFDC
FFF0
0010
0002
FFF0
FFE1
001D
0002
0007
0011
0015
FFE7
FFEB
FFEC
0017
001C
FFF4
0005
FFE5
FFE7
0018
FFF8
000F
0006
FFE7
FFF1
FFFF
FFFB
FFF3
0019
FFF7
000E
001A
001D
0025
0002
0021
FFEE
FFE8
0010
0003
FFFE
FFFA
FFE2
0027
001C
000F
FFE8
FFE9
FFF9
FFEF
FFDF
0007
002C
0012
FFD7
000C
0004
0010
0010
000B
FFE1
FFF4
0021
0003
0011
FFFB
0001
0023
001F
FFFE
0017
000E
000C
FFDC
0015
0011
FFEE
002C
001B
0001
0009
FFF2
FFF5
FFFD
0005
0011
0003
0023
FFDF
0010
FFFE
0002
FFF5
0012
002E
000D
0002
FFDB
001E
0000
0005
FFE1
FFF6
FFE3
000F
000C
FFE5
002A
0000
FFFB
FFF5
FFE6
FFF3
0010
FFD6
0009
FFD5
FFFB
FFDB
FFDF
001B
FFE3
FFE5
0021
FFF2
001E
001D
FFF1
0026
0005
0014
FFFC
FFD3
000A
FFE5
000B
FFE4
0021
001C
FFED
FFF4
FFFF
FFE6
FFEC
0000
FFE7
FFED
0015
FFE9
0027
FFEF
0008
FFDC
FFFB
FFF6
0007
FFEC
002B
FFFB
FFDF
0019
0016
002F
0007
0029
FFE4
0032
0022
0019
0001
0014
0018
FFF5
0007
001C
FFFE
FFF5
FFE5
002A
0016
0005
0004
000A
000C
0013
0022
FFEC
FFF5
002E
FFD9
0009
0017
0029
0027
FFD6
001F
FFD0
000F
FFD2
0017
0011
000C
FFDA
FFFF
FFE5
FFE4
0010
FFDE
FFFF
FFF6
0011
FFF2
0012
0003
FFE9
FFF6
000C
0005
0015
FFDE
FFE5
0000
FFEA
FFEF
0001
0005
FFDC
0026
FFF5
FFEA
000A
0008
0032
0001
FFF4
FFEE
0026
000A
0000
FFF6
FFE3
000D
0028
0001
FFDF
FFDF
0009
0014
FFF8
001C
001C
0018
FFFF
000D
0023
001E
FFFA
FFF2
FFFE
FFEC
FFF7
0010
0001
FFF0
0000
0000
002A
FFE7
FFE9
000A
FFFC
0002
FFD5
0013
0020
0020
FFEF
FFFF
FFFF
FFF5
FFFD
FFF2
FFF0
FFF4
FFFF
0017
FFE6
FFF7
0001
0004
000F
FFF8
000C
0004
FFEE
FFD3
FFE9
FFDE
FFE5
FFE6
FFFB
0020
FFDD
0002
0013
0003
0027
FFD8
FFFA
FFE7
FFEB
FFD4
000C
0013
0018
FFE3
FFFD
000C
FFE4
FFFC
FFFB
001E
FFFF
FFF9
FFE8
FFF1
0020
0002
FFDF
0000
0020
0013
FFFC
FFF4
FFE0
0004
0016
FFE8
FFF5
FFF3
FFFE
FFEC
0009
0003
0033
FFEB
FFFF
FFE1
FFFB
0007
FFEE
FFE8
FFFA
FFD5
FFFB
0001
0003
0010
FFF3
0002
FFFE
FFE9
FFF8
FFDD
001E
FFFA
FFF9
002F
000A
0032
0015
FFF5
FFD9
FFE1
001B
FFEE
002A
FFFE
FFF2
FFF3
FFED
0012
0012
FFEA
FFFF
0007
0001
FFEB
FFF3
FFF2
FFD3
001B
FFDB
000C
FFD3
0016
FFE4
000A
0001
0000
0010
0011
000E
000C
000B
FFF2
0006
FFFE
FFFF
FFF4
FFFD
FFE9
0017
002D
FFFB
0008
0007
FFEB
0006
FFEF
002F
FFF5
0004
0019
FFFB
0001
0005
FFF1
FFE1
0015
0019
FFFF
FFFA
FFEF
FFFF
0027
0003
FFE4
FFE6
FFE9
000F
000C
0027
FFDB
FFF0
0000
0004
FFD2
0033
0028
0014
0000
0026
FFFE
000D
FFF2
0002
FFFD
FFF7
FFF4
0025
FFFB
FFF4
0014
FFF6
FFE1
FFF5
001A
FFF4
0030
001E
0028
0008
0008
0016
FFFC
000F
000A
FFFC
0005
FFFF
0007
FFE1
FFDF
FFE1
0009
0008
0002
FFDE
000B
0029
FFFB
0009
FFF2
FFEA
0010
0011
FFEC
FFEE
FFE7
0008
0018
0004
FFE1
FFF6
FFF7
002D
0014
FFFD
FFDD
FFEE
FFEB
FFF7
FFE6
0023
FFFE
0004
FFFC
000B
0003
FFFB
FFCF
0008
FFF2
FFF8
FFFC
FFE8
FFF3
FFDF
FFE9
FFEC
0005
FFE2
FFFC
0024
0005
0003
FFDA
FFF6
FFF3
0000
FFF7
0011
FFF9
FFF6
0030
000D
0021
000D
FFF8
0005
000C
0001
000B
FFFB
FFF3
0017
FFFD
FFEB
FFE3
000D
001E
0018
FFF1
0008
FFFF
FFEB
0021
FFD9
FFD8
0002
0016
000C
FFE1
001B
FFF7
FFDA
FFEC
FFDE
FFF3
FFDB
FFDC
FFFB
FFEF
0028
0019
0010
0003
0029
FFEA
0001
000D
0016
0024
0001
0007
000B
0003
0011
FFEC
FFE0
FFE5
FFF9
0008
0010
0011
FFFF
FFE8
FFFA
FFDB
0021
FFE5
FFE3
FFFB
001E
FFFC
FFF5
0007
0022
0000
FFF7
0002
FFE0
0000
FFD7
FFF9
0006
FFF6
0033
FFFA
FFF9
000C
FFE8
0015
002A
001C
000F
001A
001B
0010
0019
FFD6
FFE4
0008
0008
001C
001A
FFFF
FFF6
0006
FFF9
FFEE
0001
FFF9
0032
000B
0015
FFEF
0007
FFE3
FFF1
FFFC
FFFE
FFE5
FFF5
0003
FFF0
FFED
FFDA
0000
0010
FFD9
FFE1
0031
FFF8
0003
FFED
FFF3
000B
0009
FFD4
FFDA
FFF4
0021
FFFD
0007
0005
0017
000E
FFEB
FFD9
FFF4
000B
0022
0016
FFFD
000C
FFFA
0007
FFD2
FFE4
0018
FFEF
000C
FFFF
FFFD
0022
FFD1
FFED
FFE9
001D
000A
FFF2
001D
FFF2
FFEB
0006
000A
0015
FFF1
FFFA
FFEB
FFFD
001F
FFF5
0002
FFF8
0011
FFE9
0026
FFEC
0017
0009
001D
FFFB
FFEF
0014
0022
FFFE
0010
FFE0
0014
002D
FFD1
0007
FFED
0012
000C
FFFA
FFF4
0003
0002
FFE8
0012
000A
FFDA
FFF9
0004
002C
FFD3
0004
FFF2
0017
FFF4
0004
FFFA
0007
000D
FFF1
FFDB
FFDA
FFFF
0007
0009
FFEE
000F
FFFB
FFEA
0003
FFF7
0000
FFD7
0007
FFE0
FFF5
FFDE
FFF2
000B
FFFF
FFEA
0008
001E
FFE2
000E
0002
FFDF
0004
FFF3
FFEF
0000
0001
FFD6
000B
001C
0001
FFE6
0015
FFF7
FFF7
0006
FFF6
FFEB
FFEC
0000
FFF9
FFE9
0016
001A
FFD8
FFFC
FFFE
0011
000E
FFF9
0024
FFDB
FFFE
0018
0020
000E
FFFA
FFF3
FFE4
FFF5
0019
FFE6
0023
FFE4
FFE2
0007
FFDD
FFFB
FFEE
FFD7
FFDF
FFE4
FFF6
FFD0
0005
FFE3
FFCD
0004
0009
0033
FFFF
000E
0008
0026
FFDF
FFDF
FFF0
FFF5
0002
001A
0004
0021
FFE2
0002
0017
FFF9
FFF3
FFDE
0028
000D
FFF6
0000
FFDB
FFF9
000C
FFF7
0013
0007
FFEB
0010
0011
0014
FFF4
FFFC
FFD4
0005
0006
FFED
FFEF
FFE8
FFFC
0026
0017
FFE2
0015
000B
001E
0005
001D
FFF7
FFE8
FFDF
0003
FFFE
0007
000E
000C
0014
FFF0
0009
0007
FFF7
FFE5
0005
FFF2
FFF6
001D
FFE6
FFCD
FFFD
0025
FFD8
FFEB
FFEA
FFD3
001A
FFFD
FFF2
0013
FFF2
FFEA
000A
FFF3
FFEC
FFFE
0000
0000
FFDF
FFDE
0001
FFF9
FFED
FFF8
0002
FFDE
0019
FFE1
0033
FFE7
001A
FFE2
FFF1
FFFD
FFFB
0006
001D
0018
0004
0006
FFE4
FFF5
0005
000E
FFFC
FFFA
FFE2
0025
000B
FFF4
FFFC
FFFD
FFE0
0012
0013
0008
001B
FFFA
000E
FFFA
FFDB
FFCF
002D
0008
000B
FFF8
0014
0003
FFFF
FFFB
FFFD
FFE9
000F
FFEC
0005
0003
FFFE
FFF8
001E
FFFF
001F
FFEB
000D
FFE8
000B
0022
FFE7
001A
0005
0031
FFE9
FFEB
FFE6
FFEE
002D
0014
002A
0010
000A
0003
001E
001D
0027
002D
FFDD
001B
FFF7
FFF8
FFD2
FFF4
FFEB
0014
FFFD
001B
FFFE
0006
0010
FFF4
FFED
FFCE
FFF2
FFD1
0001
0011
0001
002A
0014
000C
000F
0005
0025
FFFD
0001
FFF2
0001
FFE2
000E
0022
FFF4
FFEC
FFF9
000F
FFF2
001A
FFE1
0000
0006
0001
0029
0010
001A
0007
0022
FFDB
000B
000E
000C
0023
FFFC
FFFE
FFEA
0031
0002
000C
0005
0028
0010
FFE2
0008
000B
000E
FFDD
002B
FFE9
FFDE
0030
FFF4
FFF5
0008
0010
0019
FFF3
FFF0
0013
FFF4
FFE5
FFEF
001C
FFDD
FFE3
000E
FFFD
000D
FFDC
0003
FFFA
0027
0007
002E
000E
FFF8
000B
FFE3
0016
FFE6
FFE9
001D
FFE3
FFFE
FFDD
FFEF
0018
0004
001A
0015
FFF0
0026
000D
FFDD
000D
0007
FFFF
000F
000C
0013
0012
FFDE
0010
FFFF
0016
000B
0006
0002
0014
001B
0017
FFD9
000B
0029
0009
FFF0
0001
FFF9
FFD8
0032
FFFE
0000
FFE1
FFE7
FFDC
FFEC
FFFE
FFE3
FFD0
001B
001D
FFFF
FFF7
FFEC
FFDF
FFE0
FFDC
FFF8
0001
FFFE
0029
000E
FFFB
FFEC
FFFC
0015
FFF6
FFE1
0007
FFEE
000D
FFEA
0000
FFF6
FFE1
FFF2
FFF1
FFE6
FFFE
FFE6
FFF4
0014
FFEB
FFFC
FFF4
000A
0030
0006
FFD2
FFE3
002D
001D
FFE7
0018
FFE7
0014
001C
000F
FFF4
FFF2
FFFD
FFDB
0019
FFDE
FFFF
FFFD
0012
000D
0007
000D
0015
0011
FFFF
0014
FFF5
0007
0008
0027
FFF5
FFEE
FFDC
FFD1
FFE4
FFE8
FFE3
FFE1
FFEB
0011
FFE4
FFEA
001A
002D
FFED
FFF5
001E
000B
0006
0019
0017
FFF8
FFF9
0005
0010
000C
0015
FFE7
000B
FFE4
0009
FFE9
0017
FFFC
FFF8
FFFE
0001
0017
FFFA
FFFB
FFF9
000B
0014
0027
0001
FFE7
FFF9
0020
FFE9
FFD3
0005
0003
FFF1
0018
FFF2
FFF5
001E
0015
0008
FFF0
FFCF
0026
002F
0001
FFE7
FFE9
FFF5
0004
000D
0007
002A
FFDD
FFF0
0006
001A
FFF7
0005
0014
FFF8
FFFC
FFFC
0003
0011
0008
0028
000F
FFE3
FFEB
FFF4
002D
FFFA
0010
FFF3
FFF1
0002
001C
000A
FFDF
FFE4
FFE6
002D
FFEE
FFF6
0016
0027
FFE1
002E
000C
000F
FFF4
000C
FFFD
FFEF
FFCF
FFD4
0021
0026
002C
0033
FFF5
0010
FFD4
FFF6
000A
0021
000D
FFD6
FFEB
FFE2
0007
0005
FFE6
000D
FFF2
0008
001B
FFDE
0025
0017
0013
0022
0007
FFF1
0015
000C
FFD1
FFFA
FFE7
0012
0000
0003
001C
0004
001C
0005
FFE8
000F
FFDD
002D
FFF9
FFE9
000E
FFFE
0007
000D
0016
000E
001A
0008
FFFE
0003
FFEF
0021
0005
000A
FFE9
FFEC
0003
0009
0019
0013
000E
FFE0
0004
0001
002C
FFF5
0014
0004
FFFA
FFF1
0022
FFE3
0022
FFF8
FFF8
FFF9
FFF5
0002
FFE9
FFEB
0000
0030
FFD1
FFFC
001B
0018
0010
001C
FFFC
FFEB
000B
FFDD
0022
FFEB
001D
0031
0015
FFF6
FFFE
FFE5
FFF9
FFFA
FFFA
FFF9
0017
0000
FFFE
FFFC
FFF2
FFF1
FFF1
FFE9
0007
FFF9
001D
0015
0018
FFD4
FFDD
000C
0000
FFF9
001D
000A
FFEA
FFE6
FFDD
0004
FFF9
0004
FFF9
0007
0024
FFF5
FFD5
FFF4
FFDF
0024
0009
0020
FFDF
0002
FFDC
0018
000F
FFE4
FFF2
0020
FFD1
0009
0007
FFFD
0004
FFDF
0023
FFF5
FFFD
0003
000A
FFD6
FFEB
FFE8
0008
000D
001D
FFEB
0013
FFD2
FFF8
FFDA
0019
0002
FFEA
0014
FFFD
0010
0011
001D
0003
0010
FFF9
FFFF
FFE0
000F
FFF3
FFFA
0023
FFF3
FFE9
0006
FFF2
FFF0
FFE0
FFE3
0028
FFDA
FFE7
FFE2
000B
0019
0007
000D
001B
000E
FFF9
001A
0008
0006
0031
0003
FFEE
FFE2
002B
FFF1
FFE2
FFFE
FFFE
FFE7
FFEF
0011
0017
FFEE
0029
0027
0001
0003
FFE7
FFF6
0009
FFFE
FFFE
FFE5
FFE6
FFE8
0019
FFE6
001F
0020
000B
FFEB
0025
0003
FFF9
0015
FFF2
FFD4
0027
0003
002B
FFEF
FFF9
FFE2
FFE9
FFF1
0003
0019
002E
FFFE
FFF3
FFF2
0012
FFED
FFE7
FFF8
FFD9
0001
0004
000F
0019
001C
FFF0
FFF3
002B
FFF5
FFED
FFD8
0000
FFF1
0018
FFF4
0000
FFF6
0010
002F
FFF9
FFE4
001E
FFFE
000E
000D
0012
FFED
FFFB
000D
FFF5
0020
000B
0007
0007
0010
001B
0012
FFF5
FFF3
FFD6
0021
0017
0023
002A
FFDB
0016
FFF2
FFDF
0012
FFF1
FFF4
0008
FFE5
FFF8
000C
0003
FFF9
FFEC
0018
FFFF
000A
0014
0004
FFF1
FFED
FFF6
000B
000C
FFEF
000C
FFFD
0015
001F
FFE8
000C
FFEB
FFE2
0023
FFFA
000A
0013
000D
FFD0
0001
FFF9
0016
FFDF
FFF9
0003
001B
FFFF
0030
FFDF
000E
FFF0
0009
001F
000D
000C
0025
FFFC
FFFB
000E
FFED
0009
0019
0013
FFFF
0015
0010
FFEE
FFF6
0001
FFFF
FFF7
0002
FFF3
FFE4
FFFD
0013
FFD0
000E
0017
000E
FFDE
FFE8
FFFE
FFF3
0009
FFDF
001E
FFFE
0003
FFE1
FFD3
FFE8
001F
FFDA
FFFA
FFE9
0011
FFFD
0002
0008
000C
FFF5
0002
001D
0010
0007
0010
0005
002B
FFFC
FFD5
FFEA
FFEF
FFF8
0003
0011
0014
FFD6
FFE8
0024
001E
FFEB
FFDE
FFE6
0010
FFF6
0009
0023
001A
000E
0001
0010
0016
FFFD
FFDF
0008
0003
000A
0017
FFFD
000B
001B
FFF4
FFF8
0010
FFEC
FFE0
FFE5
FFF8
FFE7
000D
001A
000B
0004
0008
FFF2
000C
FFE1
0001
0022
0006
0004
0014
FFE6
000E
0022
FFF5
0002
FFE3
FFF7
001D
0015
FFF6
0028
FFF8
000E
0009
FFF3
FFEC
0029
FFFA
0024
FFEB
0012
000A
FFF7
FFFD
FFFA
FFF0
FFED
FFEB
FFF6
FFFE
0007
0010
FFE2
0009
000E
0012
0004
0014
0017
FFEE
FFDE
0008
0026
FFE5
FFEA
FFE1
FFFF
0013
0008
0015
FFFB
0029
001A
FFFF
FFFD
000C
FFE5
0019
FFE6
FFE3
FFE8
0029
0006
0016
0011
000F
0011
0006
000C
FFF4
0014
FFF7
001D
FFE3
0011
0026
FFF9
000E
FFF3
0008
0011
0000
FFFA
FFF2
001C
FFF2
FFF9
FFFF
001D
0012
000C
0013
0017
000E
FFFA
FFDA
000C
FFE7
0028
FFFC
0016
FFF7
FFE3
FFEF
FFFF
FFEE
FFE5
FFFA
0007
0033
FFEE
FFEC
0013
0021
0012
FFF6
001A
FFF8
001F
FFD4
002D
FFFB
0018
0025
0002
0004
FFF1
FFEF
FFFD
0006
0027
0006
001C
FFF2
0025
0031
0004
FFE2
FFE6
FFD7
0006
0024
0004
FFE8
FFFB
001A
FFE6
0003
0003
FFD5
0002
FFF1
000E
FFED
000E
0023
FFDF
000D
FFED
0012
FFF5
FFF4
0014
0002
0009
FFFB
0009
FFEB
FFE5
FFFE
0011
FFFF
0001
0012
0004
000F
FFF8
0002
0015
FFF3
0003
FFF5
FFD4
0000
0002
FFCD
FFF5
FFED
FFFE
000F
0026
FFEC
0029
FFE1
FFFE
000A
0003
FFF4
000B
FFFB
FFDC
0013
FFEE
000B
FFFA
000B
FFEC
0019
0011
FFF3
0005
FFF9
0000
0010
FFD8
0025
0021
0003
FFEC
0013
0030
0001
FFD3
0010
FFE3
0030
0010
0009
FFE3
0002
FFDB
FFF5
FFE6
0002
FFF4
0011
FFE9
FFDC
0008
0012
001A
001D
FFDF
FFFA
001F
FFFC
FFD3
FFDC
0006
002B
0023
002A
FFF9
FFF0
000E
0003
0027
002F
0012
FFF5
0001
FFFA
0015
0025
0012
0007
FFFD
0008
FFD1
FFD9
0025
000B
FFE6
FFD7
FFDF
FFF7
FFFD
FFD3
0009
0018
FFFB
FFFD
FFF2
FFF9
FFF6
FFF3
FFDF
0003
0005
FFE1
0004
000C
0007
000F
0026
FFF4
FFFC
FFEA
FFEA
FFFA
0018
0016
FFF1
0019
FFDD
FFF4
0014
FFFF
FFE4
0016
FFE9
FFEF
FFF6
FFDE
FFF6
FFFD
FFFC
0015
0013
FFF8
FFF4
0012
FFED
FFEB
000E
FFF2
0012
0009
000E
0000
000E
0014
002C
0001
0008
000A
000A
000E
FFFC
0000
FFD3
002C
0013
0019
FFDE
FFF7
FFE5
FFD2
001B
FFE6
000C
FFE2
000B
FFFD
FFF3
FFF9
FFE5
FFFE
0001
FFFA
0009
FFFD
FFED
FFEE
0018
FFF2
FFDC
001C
FFF8
FFF7
0007
FFF0
0018
0009
0022
0009
FFE1
0013
002E
0007
0026
0022
0004
000F
FFDB
0006
FFFB
001B
002F
0015
FFE3
FFE3
FFE0
000F
001E
0007
FFE2
FFD7
FFF3
FFEC
FFFC
0010
0013
0003
FFF7
000F
FFF5
FFE2
FFEF
FFED
0025
FFF1
0001
FFFB
FFF6
001C
001C
FFE1
0011
FFEB
FFFF
0010
FFEB
001E
0013
000C
0022
FFDE
0006
FFF7
FFFA
FFE1
0007
FFFB
0007
FFFA
FFED
0008
FFF5
0003
0020
FFF5
000D
FFE3
FFF1
0015
001D
FFE5
FFF3
FFEC
0012
FFE6
FFEF
001C
FFFD
0010
002E
001D
0001
0021
FFEE
FFD3
000E
002C
FFF4
0018
FFD3
000B
0006
FFF0
000E
0013
001C
000E
FFFA
000A
FFF7
0006
FFEC
FFD9
0024
FFFD
FFD8
FFE5
0013
0002
0020
FFF4
FFED
FFD4
0004
FFFA
0010
FFFA
FFE2
0001
0017
0007
0012
FFE4
0004
000C
0008
0001
FFF9
0024
0002
0011
0011
0006
001C
0001
0007
FFD9
FFE8
0010
0013
FFE4
FFF3
0012
002B
FFDB
FFE9
0004
000B
FFDA
0012
FFF2
FFDF
0020
FFFE
FFEA
FFF3
001F
FFFA
0015
FFE5
FFED
FFDF
0006
FFE4
FFF3
0015
FFF8
0008
0011
0025
FFFE
FFF5
FFFF
0004
FFF2
000F
0000
001E
FFE1
FFE4
FFFC
000E
0027
000A
0025
0006
FFFF
FFEE
0013
0006
FFD7
0005
0011
FFF7
0002
0023
0011
0009
001C
FFE5
FFFB
001E
FFDC
FFF4
FFFE
FFD9
FFFA
0013
FFE2
0010
000A
0026
001F
FFF4
FFF4
FFD0
0033
FFE6
FFFF
0014
000C
FFE8
0020
0004
FFD4
0017
FFD6
FFF6
0012
0023
FFD7
001C
0006
0023
0001
0014
001F
FFED
FFE6
FFF4
FFF7
0001
0005
0029
FFF4
0013
001C
FFF1
FFE5
0023
FFD2
0008
FFEF
0018
FFE8
FFF7
0010
0026
FFE5
0004
0003
002E
FFF8
FFDC
0004
0022
FFF3
FFF7
FFF6
FFF6
FFEF
0011
0005
0003
FFFF
FFF3
0012
0014
FFE9
FFF8
0016
FFF8
FFF2
0004
0008
FFF9
0009
0001
0027
FFFD
0016
FFCD
FFF5
000E
0002
0011
0019
0017
FFE9
FFD9
0008
FFF5
0000
FFE2
001E
FFE9
0009
0011
FFE7
FFF3
FFF9
FFFA
0003
FFFD
0007
0005
FFE5
FFFB
002C
FFF6
FFD8
FFD1
FFFD
0001
0031
0024
002C
0001
001C
FFEC
0025
FFF7
0001
FFDD
FFF4
FFFD
0005
FFF2
0008
FFFD
0015
FFD1
001D
0006
FFFE
0002
FFE9
0013
000A
FFFB
FFF1
FFEE
FFE3
000F
FFED
000D
FFDF
FFD9
FFED
FFE6
000A
FFFE
FFD1
FFF4
0005
FFF8
000C
FFFA
0010
FFF5
FFE8
FFDB
0029
002A
FFF2
0011
FFEA
FFD9
FFD2
000C
FFDE
0008
001B
0005
FFF0
FFDF
0012
0013
0005
0004
001B
001C
FFD8
0016
0013
0012
FFFF
FFF7
FFFC
0013
0004
0016
FFF2
000C
0005
0005
001E
FFFA
0008
0029
FFF7
0010
FFF3
0025
0031
0016
FFF0
0021
0004
0007
0016
FFE9
FFD7
0006
002A
FFE2
FFE2
0010
FFFE
0014
FFD9
0000
000F
000E
FFDE
000B
FFF2
000E
0000
0018
FFE6
FFDC
FFF9
0006
001C
FFEF
FFEE
FFE5
0001
001B
0011
0004
FFE6
000E
FFF3
FFD8
0018
FFFA
0005
001C
0025
0012
001E
FFEB
FFE0
FFFB
FFF2
0021
0004
0010
FFF3
001A
000B
001F
FFFB
0002
0007
000E
0013
0001
000A
0010
000E
002F
FFF3
0003
0025
0031
FFEB
0016
FFE9
002F
0010
0019
FFFD
FFFD
FFE9
0003
FFFD
0018
FFF8
FFF3
0007
0021
0017
FFF3
FFFD
FFEB
FFF4
FFF0
FFF4
000B
FFED
FFE5
FFE6
0001
0017
0013
000C
0017
FFE5
0009
FFEC
000B
FFEC
0005
000A
FFED
0023
0001
001A
FFD5
FFFA
FFF4
0016
001E
FFF9
0001
FFD7
0002
0007
0005
FFF6
000E
FFEB
0003
0005
FFEF
FFEC
0002
0013
FFD5
FFFA
0005
000A
0013
FFFE
FFF9
0018
FFE1
FFE9
000D
FFD2
FFEB
0003
FFE7
0022
FFF9
FFF7
FFFF
0013
000F
FFE7
FFEE
0000
FFF9
001A
0007
FFEB
002C
FFFD
001F
FFF9
0008
0014
FFF0
FFFF
0004
000D
FFF8
FFE0
FFFD
FFFC
FFF8
001F
FFF4
0015
000A
0000
001D
FFFE
0008
FFD8
001A
FFEE
001D
002E
0003
0019
FFF6
FFE8
FFFB
0028
FFE8
FFEF
002D
FFCE
FFF4
FFD7
0013
FFD6
FFF0
000E
FFF4
000E
FFF2
FFCF
000E
FFF2
FFF9
FFF0
000F
FFEA
0002
FFE2
0011
002F
FFD9
001B
FFF8
0001
0019
FFF0
0011
FFFE
001F
0016
FFFD
000A
FFFC
FFFB
FFF2
FFE7
0007
0005
FFE9
0006
002D
0019
000F
FFE6
FFDE
000E
000A
FFF3
0007
0009
FFD0
0003
FFCE
FFEE
0008
0006
FFD9
001D
FFFB
0002
0005
0013
0009
FFED
0017
FFE8
0016
FFF2
FFD7
0011
FFEB
FFF6
0020
0008
FFFC
FFE8
0007
FFFD
0003
0020
FFF8
FFFB
FFF2
FFF2
FFFB
0017
0005
FFFD
FFE7
0002
0019
FFF0
FFE9
FFEC
FFDB
FFF5
0013
0001
000F
0021
0001
0024
0005
0014
0000
FFF3
001A
FFF2
0016
FFEA
001A
FFF4
FFF2
0003
0019
FFF5
0007
FFFE
0003
FFFC
FFE5
FFFB
000B
FFD0
FFFD
FFFF
FFED
FFFD
FFDF
0007
FFFF
0010
FFFA
FFFF
FFED
FFF9
0007
FFE3
0014
0008
0006
0010
0019
FFEC
0001
FFDA
0031
001E
FFFF
0013
002E
0026
FFF6
0012
000D
FFED
0005
0011
0009
FFF8
FFF2
0004
FFDD
FFF8
0017
FFE9
FFDB
FFFD
0013
FFF9
FFFC
0019
0010
FFF8
0017
0006
FFED
000E
000A
0003
0008
FFFB
FFEE
000C
FFF6
FFE8
FFFA
FFEA
000B
FFED
FFFA
FFFA
0016
0016
FFE9
0016
FFDF
0014
FFE5
0023
FFE7
0032
000F
FFF1
FFE2
FFE7
000A
0019
0007
FFF9
FFFA
0018
FFF7
001E
0004
0006
FFF4
0014
0000
0020
0005
FFF5
0018
FFCE
0016
0014
FFE2
002C
0001
0032
FFE5
001C
FFD9
000C
000C
FFE1
001B
FFF9
0002
0020
FFF6
FFE6
FFFC
FFD2
0014
FFDC
0008
000C
FFF0
FFFC
0031
0015
FFFF
FFEF
FFD5
FFE2
000B
FFFE
FFF8
0010
FFF0
FFFE
FFF6
0012
FFF3
FFDE
FFFF
0017
FFE8
FFF7
FFF1
FFEC
FFFA
FFE9
002F
0007
FFEE
FFFB
000F
FFDF
FFE3
FFEF
0021
0001
FFF0
001C
0015
000D
FFDF
FFE4
000A
0019
FFDF
0008
FFE1
0003
FFEB
000F
0002
0008
FFE9
0003
0006
0012
000A
000D
FFEE
FFDE
0010
0000
0019
FFE4
FFF7
FFF5
FFFE
0016
0007
0008
000D
0015
0008
0005
FFFB
0013
0009
FFE4
FFFD
0019
FFFE
FFFB
0000
0015
FFFE
000B
0024
001E
0002
0002
0000
FFE4
0019
0003
FFED
0017
000F
FFF0
FFE4
001C
0016
FFCF
0012
0006
FFFC
FFEB
FFFD
FFE4
0007
FFE3
FFF9
0015
000C
000C
FFF5
FFE3
0000
000E
000D
FFF7
0022
0014
FFFF
0003
FFE4
FFD8
0031
FFF0
FFF6
0017
FFF9
FFFA
FFF2
0006
0000
FFE2
001C
FFFA
0003
0006
FFF4
0025
0001
000F
FFDE
FFE4
FFFD
FFDC
001D
0021
FFF9
001C
FFF6
0028
FFD7
0012
0004
FFF4
001F
FFE7
0000
000B
0014
FFE1
FFFA
FFE4
000D
0013
FFE6
0021
FFD7
001B
000D
FFFC
001E
001B
FFDC
001D
FFFF
0006
000A
001D
0005
FFFB
0001
FFFC
FFF9
FFE2
0029
0024
FFDA
0005
FFED
FFEC
FFE5
FFDD
FFE9
001E
0014
0008
FFF1
FFF8
0018
0013
0012
FFEC
0027
FFF1
0015
0004
FFE2
FFFF
0028
FFE4
FFD6
0003
FFE5
000F
FFF2
FFF1
FFE6
0008
0006
FFF7
0000
000A
FFE9
0010
001A
0009
002B
FFE7
FFF1
0008
FFFE
0016
FFEC
FFF4
0006
FFD7
000C
002E
0026
0000
0012
0005
FFF9
0000
FFEA
FFE8
001D
0023
0020
FFF5
0003
FFE2
FFD7
0008
FFDF
FFD7
0014
0000
0005
0014
FFDD
0018
0000
000A
0006
001A
FFEE
0001
001F
0000
000E
FFEF
000D
0020
001F
0005
FFCF
FFE1
0018
0024
FFFB
FFED
001A
FFF8
FFF3
0003
000D
000B
0010
0025
FFFF
FFEF
0005
0025
0009
0029
FFFB
FFE2
FFF4
001E
FFEA
FFEB
FFD6
0029
FFF3
FFD4
FFF1
000A
0017
FFDC
0012
0008
FFD1
0009
FFF1
FFF0
FFE5
FFFB
FFE7
001E
0007
FFD9
FFE1
FFD4
000A
FFE0
FFE2
001A
0002
FFD5
0018
0005
000F
FFE2
FFED
0008
FFFB
000F
FFF4
0005
0016
0011
FFE8
0009
FFF1
FFFD
FFE2
FFFC
000D
FFFC
FFFB
0002
FFF9
0026
001D
000E
FFEA
FFDB
0016
0009
000C
FFE3
FFFF
0000
FFEB
FFFE
FFEB
0007
FFF9
FFF7
FFF2
0010
000C
FFD3
FFFC
0002
001E
000F
FFFD
001A
FFD3
001D
FFED
FFF0
FFEB
0022
FFF6
0010
FFDF
FFD2
0003
FFFF
FFF1
FFDC
0006
FFEB
0033
FFF1
FFFF
002F
FFDB
0013
000F
001F
0002
0017
002A
0012
FFCD
FFEE
0006
0009
FFD3
0000
FFF2
0006
000C
000E
001E
FFFA
0005
FFF5
000A
FFED
0015
0000
0024
FFFC
001D
002B
001A
0001
FFF7
FFE4
FFD7
FFE9
FFEA
FFFC
FFE7
FFF4
0015
FFEB
FFFF
0011
0007
001B
0008
FFF2
FFFB
FFF4
0018
FFE4
0024
001D
FFEF
FFE2
0004
0010
0021
002E
0001
FFFD
0008
FFE6
0024
0016
0007
FFF5
0004
0007
FFF5
FFE8
FFDF
0002
FFE1
FFF3
0017
FFE7
000B
FFEF
FFED
FFE6
FFFE
FFE5
001A
FFDA
FFD7
0019
FFE7
0003
000F
0009
000E
FFF3
FFDB
0025
FFE9
FFE9
0012
FFE8
0008
0031
FFE0
0027
0013
FFFF
FFDB
FFE3
001C
0018
FFEA
0020
FFEE
0009
0016
0022
0005
0013
000C
FFFF
FFF7
000E
FFF1
0006
0021
001C
FFF8
FFE8
FFE3
FFF5
0024
001B
0000
002E
FFF3
0031
0005
FFED
FFF3
FFE7
FFE5
FFF5
FFDF
FFFE
002A
FFFA
FFFD
0012
FFFF
001B
0021
FFE2
FFF5
FFDD
0023
0011
FFF3
001D
0017
0008
FFE8
FFE7
FFF0
000C
0009
FFEA
FFE3
0001
0006
0007
FFEB
001D
0013
0032
FFFE
0017
FFFB
FFEB
FFF6
000A
0029
FFF7
0002
0011
0009
FFDE
FFE7
FFD8
FFE0
FFD1
FFE2
0010
001D
0025
0000
FFFC
0016
000B
0015
FFDA
FFF4
0005
0014
FFEA
001B
FFFA
0003
FFEE
0002
FFE3
0002
FFF4
FFE1
0000
FFF6
0004
FFF9
0015
0008
FFF9
000C
001E
FFF8
FFD4
0015
0012
FFE3
FFF5
FFE5
0008
000F
0015
FFF2
0015
0012
FFF4
FFCF
0011
FFFC
FFDC
0019
FFEA
0003
FFFD
0008
FFEA
0011
FFE4
0019
0009
FFF4
FFE8
FFD1
002F
FFF8
002D
000A
0002
0024
FFF9
FFEF
FFF3
FFFA
FFFA
FFE1
0026
FFFC
FFEA
0001
FFF3
FFE4
0026
FFDC
FFEF
FFE4
FFF5
0003
FFEF
0009
000B
0026
FFEA
000F
FFF7
FFED
FFFA
FFE9
FFF4
0006
0016
0016
000A
000C
FFDA
FFEE
FFD3
0022
001F
000F
FFFB
FFED
0004
0010
FFEB
0016
0006
0027
FFD7
0015
0022
0002
FFF2
FFEB
FFFF
FFE7
FFFD
FFF2
0001
0004
FFDC
FFD6
001B
FFED
FFF2
0011
FFFE
0003
FFF5
0014
0020
0014
0012
FFF2
FFE3
FFFB
0006
FFD7
0001
FFDC
0017
FFFF
FFDD
FFE9
0009
000E
FFEF
001A
0027
001A
FFF3
0003
FFE7
FFDE
FFF4
0003
FFF6
001A
0003
FFEE
FFD7
FFE4
FFFF
0013
002E
0026
FFCE
FFFC
FFD6
0027
FFF5
FFEC
FFE0
FFF3
FFE9
000B
FFFB
0013
FFE2
FFD5
FFE4
FFF9
001E
FFF4
FFD2
FFFE
FFF1
FFF6
000F
FFE5
000A
FFED
0013
FFE9
0001
0011
FFFB
0002
0005
0016
0022
FFE4
0019
FFE8
FFFE
0009
0000
001D
002D
FFFD
FFE3
FFE2
000E
FFF8
0029
000D
FFFC
FFE0
FFDD
FFF4
FFFF
FFD7
FFE6
0025
FFFC
0011
0004
FFDD
0028
FFFD
FFE5
FFF9
FFE9
FFFE
0014
0001
FFEE
0008
FFE4
FFEC
0003
FFE8
FFF0
0008
FFF9
FFE9
001D
0027
FFF8
FFF0
FFFB
FFDD
FFEE
FFEB
FFFE
FFE5
001B
FFEB
0015
0026
FFE6
FFFB
FFE7
FFE5
000E
000C
0023
0017
0002
0001
0027
0020
0018
FFF0
0004
FFF8
FFD7
FFED
FFF2
FFEC
FFFF
0010
000C
0021
FFEF
0006
FFDD
FFF3
FFCE
0003
FFEA
FFEC
FFF2
002E
000D
FFF4
0009
0018
002B
0020
0016
FFEA
0009
FFE8
0023
FFF1
000A
FFFB
FFFD
FFF3
000F
FFF2
FFEA
FFFE
0025
FFED
0005
0012
000C
000C
FFF2
FFEC
0013
FFD7
FFED
000D
0011
0008
FFE5
FFF5
0000
001E
0008
000A
FFDA
0010
FFFE
FFFF
0013
0021
0000
FFE4
002A
FFE1
FFF0
FFF9
0019
000C
0015
0004
0015
001B
0013
0009
FFF0
000D
FFFC
FFDB
001F
FFFA
000D
FFF3
FFCF
FFFE
0017
FFF9
0010
FFE4
FFEA
FFF5
FFDA
0014
0005
FFE9
0013
0006
000F
FFF8
FFFC
0000
FFF2
0018
001C
FFE7
000B
FFEF
0002
0013
000B
000A
002E
0013
FFE2
0000
FFF1
FFEE
FFD7
0018
0023
000E
FFFA
000B
FFEE
0009
FFEE
0008
0021
FFED
FFEB
000B
0016
FFFB
0006
0001
0002
FFFF
FFE0
FFD8
FFE2
FFE6
FFFB
FFF2
0032
0010
FFD2
0013
000B
FFD7
0004
FFDD
FFE3
0013
0010
0015
0002
FFEA
FFEE
000C
FFF1
000C
FFE6
0008
0008
FFF1
FFD7
FFF0
FFFB
FFF6
0024
FFFF
001E
0004
0017
000E
FFF6
FFF2
0024
FFE8
FFF9
FFF4
0006
FFF8
000B
FFFF
FFED
0011
0005
0009
FFF3
0000
FFF0
FFF1
FFF4
0004
001C
000B
0002
FFD4
001A
001C
FFEE
0008
FFEA
FFFD
FFDB
000E
001F
0030
FFEF
FFFA
FFD3
FFE9
FFFD
FFD9
0002
FFF7
FFFF
0007
0023
FFF5
FFE1
0021
FFF6
0007
0028
0002
0027
FFF4
0027
0024
FFDD
0009
0007
FFF3
0005
FFF2
FFF7
FFE6
FFEF
000F
0024
FFF8
0018
000C
0003
FFF1
FFE3
0027
FFFE
0011
0025
FFFF
FFE5
000C
FFF3
0017
FFF8
000F
002B
001A
FFDE
000D
000D
FFF4
000D
FFFD
000E
0031
0023
0029
FFF2
FFED
0013
001F
0006
0012
FFFB
FFFC
FFF6
FFEC
001E
0014
FFE7
0005
0015
FFD0
0002
FFEB
FFFD
FFEE
0006
FFD6
000C
FFEA
0001
FFD7
000A
FFFD
FFF7
0029
000F
0014
FFD0
FFEC
001C
0010
FFE3
FFE9
0009
0004
001A
001E
0006
0021
FFFB
0009
FFD2
000C
FFEF
FFF6
0009
0014
FFFE
0025
FFF0
0014
FFDF
000D
FFF9
0008
0008
000D
002D
FFFD
FFE0
FFF1
FFE9
0032
FFF3
0027
0017
0006
FFF5
0005
002A
0015
0001
FFE4
0020
0024
FFF4
0007
0021
0032
000D
FFF6
FFD2
001D
FFFA
FFF0
FFFD
0011
FFFC
FFF9
FFDC
0020
0022
FFEF
FFF4
FFF4
FFEF
FFED
FFEF
0006
FFE9
001A
FFE6
FFF5
0003
FFF2
FFF9
FFE5
FFDA
FFFF
000E
0001
001A
0005
FFF1
000D
0024
FFEE
FFF3
FFEC
0006
FFF6
000E
0011
FFE6
FFFC
FFEF
FFE5
FFF5
FFF1
FFF5
FFEB
FFDB
0003
000D
FFFF
0003
FFF0
000D
FFE3
FFF6
FFFF
FFEA
FFF5
FFF8
0010
001F
FFCE
FFEE
0012
001F
0016
FFEF
FFFD
0016
0000
FFE4
FFEF
FFFB
0020
002A
0003
FFF6
FFF4
0006
FFF9
FFDB
FFDB
000E
FFF6
FFD9
0013
0008
FFF7
FFF4
000B
0018
FFE4
FFED
002E
0025
0022
0005
0002
FFFF
0005
0001
FFF6
FFF0
FFEF
000C
0016
FFFB
000F
000E
0021
FFFA
FFE6
0028
0003
FFE8
000A
FFE4
FFCD
000D
0000
0000
0027
002E
FFEC
0003
FFE9
FFE3
000E
001F
002A
FFCD
FFEE
FFFC
FFF9
000A
FFE4
0013
FFEB
FFF5
FFF1
FFFA
FFFD
001E
FFFC
0025
FFE1
0000
0023
FFEC
001C
FFF9
FFE9
000B
FFF5
FFF1
0023
FFFD
FFF9
000C
0007
000C
FFFF
FFEB
FFF9
FFEF
FFFF
FFF7
0006
0001
FFCF
FFF7
FFF0
001C
FFFB
FFF4
FFE1
FFDA
FFE5
FFEF
FFF7
0007
0002
000F
FFDC
FFDE
0015
0002
001F
0017
FFF9
000B
0006
0009
FFFF
0009
0017
FFF5
FFE4
FFF5
001E
0015
002F
FFFD
FFE9
0004
0004
FFD8
FFEB
FFF3
0020
FFDE
000E
FFDA
FFFB
FFE0
FFEC
000B
000D
0002
FFE8
FFFF
FFDC
0006
000F
0018
0026
FFF9
FFF7
FFFE
0020
FFE8
FFDA
0000
002A
0022
0004
002B
0012
0000
FFFA
FFF0
0009
FFFF
0000
0001
FFFE
0001
001D
001C
FFEA
FFED
001B
FFE6
000C
FFE8
0008
FFFE
001C
0002
0000
0000
0001
FFDB
FFE4
FFE6
FFF5
0000
0006
FFF5
FFFB
FFFF
0005
FFE4
0005
FFEA
001F
0000
001C
FFE6
000F
FFE6
FFFE
0026
0025
0012
FFF7
FFF0
FFE1
FFE6
FFE7
001A
FFDE
0014
0003
FFE1
FFEE
FFFD
0017
000D
FFDC
FFDF
000D
FFE8
FFED
0005
0016
FFF7
FFE0
FFED
0017
0031
0000
FFFB
0002
0005
FFFC
FFF0
FFED
001E
0025
000C
0001
0025
FFDE
0002
0007
001F
FFDE
FFE9
0021
FFED
FFFF
0025
FFE3
0018
FFE8
FFEC
0023
0010
FFD3
0024
FFE6
0000
FFF9
0016
000F
0013
001E
0004
FFF1
FFF9
FFF2
FFFA
FFFE
FFE0
0003
0002
0007
FFFB
0020
0008
FFF5
FFF8
FFEC
FFEE
FFD4
0001
FFE7
FFEF
FFE9
FFF8
0003
0011
002F
FFF8
FFF8
FFEB
FFF4
0006
FFD1
FFFD
0019
002C
001B
0027
0009
0002
0022
0003
0012
FFDA
0003
FFFD
FFF2
0002
FFE1
000B
0018
0013
0015
0012
FFF8
FFE4
FFE4
0020
0015
0005
0026
001E
0009
FFED
0022
FFF8
FFFA
FFF4
FFEB
001E
000A
000E
FFF1
FFE0
000F
FFF7
FFEA
FFE8
FFF5
0011
0021
FFF8
FFD8
0012
000D
0011
001D
FFF9
FFF7
FFF2
0004
FFDA
0003
FFF5
FFE0
FFF2
FFEC
FFEC
FFDA
FFFD
FFE9
FFE1
000A
0024
001E
FFE7
001E
FFFE
001D
000E
001D
000F
0015
FFF7
FFFA
FFDE
0001
FFFE
FFEE
FFEE
0032
000B
FFE3
0026
0008
0013
000B
0010
FFE1
0022
000C
0005
FFFD
FFEF
FFFD
0003
FFD8
000B
FFE1
FFFA
FFFF
001A
000E
FFF7
0004
0008
FFFD
0016
FFF7
FFCE
0001
FFF4
FFF4
FFE0
001E
FFE7
FFF7
0008
0023
0012
0004
FFFF
0003
0001
FFF2
0004
0008
0009
0014
FFDE
FFF5
0002
FFF3
0005
0015
FFED
FFFA
FFEB
0001
0018
0020
FFF5
0007
0027
000C
0016
001A
FFF5
FFF2
FFE6
FFF6
FFD5
001A
FFFA
FFFC
FFFE
FFDD
001A
FFDD
FFEE
FFF5
FFFF
002A
FFEB
FFF0
0031
FFFD
0020
FFEA
FFD6
0011
FFF9
FFF8
FFEC
FFEB
FFF8
0008
0019
0011
0015
0006
FFF8
0014
002E
FFFD
FFDE
FFFC
FFF3
0004
000C
0030
FFFB
001B
0018
0014
0019
FFD2
FFD6
FFF1
FFE7
0012
FFFE
FFFF
FFF4
FFFD
0000
0018
000F
0008
FFD7
FFFE
0020
FFE5
FFD9
0021
0013
000C
001B
0006
0008
0033
FFED
000F
0007
0014
FFE4
FFEE
FFF1
000A
FFEF
FFF7
0005
000F
0006
0015
FFF3
FFF7
0021
FFFD
FFFC
0008
0010
001B
0008
000C
FFE7
0008
FFFB
FFE6
001B
0010
FFED
0006
001A
FFF6
0002
FFD5
FFF5
FFEA
FFF7
0015
FFF8
0010
FFF6
000B
FFF7
0011
FFE4
0004
001C
000C
FFF9
0020
0009
FFF4
0007
0007
0013
0001
000A
0005
0008
000D
FFE5
FFDE
FFF8
FFE9
0012
0008
0005
0014
000F
FFF5
FFD6
0007
0015
FFF4
FFDF
0010
FFEF
0002
FFEF
0015
FFF7
FFEF
0012
FFF7
0026
0011
FFE2
000D
FFEA
0024
0027
FFED
000A
FFD2
FFFB
0009
0013
0006
0003
000A
000B
FFF0
FFF1
002B
FFEF
000F
FFDD
FFE4
0008
FFE4
0007
FFFD
FFF5
0020
0005
0020
0015
0005
000C
001A
FFFF
FFF2
FFE1
FFFA
0001
002C
FFE9
0005
FFF3
0021
001A
FFE7
0006
0015
0024
0012
FFED
0007
FFD0
0029
0008
FFFB
0004
0008
FFFF
000B
0004
FFEC
FFDA
FFE0
0004
FFD1
0027
0011
FFD0
0008
FFF1
001F
FFFC
0011
FFE2
FFEB
FFF7
FFEB
FFFE
FFF0
FFE5
FFF9
FFF0
000B
FFD2
FFDC
0008
0001
FFE7
0000
0015
0021
FFF3
FFF0
FFEC
0022
FFFF
FFFD
FFE2
0004
001C
FFE9
0002
001A
FFED
FFE5
FFE6
FFFF
002F
0019
FFF9
0010
FFE8
FFFC
FFE5
0005
001D
FFE9
FFFB
FFF4
FFE2
001A
0022
0020
0008
0000
0004
0006
FFDC
FFED
FFFC
001C
0001
FFE7
0029
FFFA
0025
000E
0003
0018
0017
FFE4
000F
0023
FFE0
FFD0
FFF5
FFE5
FFEC
0012
0000
FFE8
FFDC
FFE2
FFD3
FFD4
001B
0000
000B
0001
001A
000F
FFF7
FFED
0007
0019
FFFE
FFE4
FFE4
0012
0001
FFDB
000B
0005
0016
FFF8
0003
0007
FFDE
0017
000B
001B
0006
FFEB
0017
FFE7
0021
0002
001C
FFF7
FFE3
FFEA
FFEC
FFE9
FFFC
001C
FFCF
FFE4
0005
FFFF
0026
000D
0001
0021
0016
0009
002F
FFFE
0018
FFFE
FFEE
0009
FFF2
FFE5
0020
0009
0002
FFFD
FFFA
0018
FFFD
001B
0011
FFEA
0011
FFF0
0003
FFDB
FFFC
FFFF
0012
FFFF
FFFD
FFE7
0019
0006
FFE4
0005
FFE0
000D
000C
FFED
0020
0010
FFDF
0001
FFDD
FFD8
000F
FFF6
FFF1
0028
0009
FFFD
001A
FFD9
FFCF
0029
FFF7
0004
0014
FFDF
FFE8
0020
0007
0002
000C
FFFC
FFF6
FFF6
FFF2
0019
FFFD
0001
000A
000E
FFFF
FFFF
FFFE
FFD6
0000
FFFB
0001
FFD3
0032
0006
FFE0
0014
FFE5
FFF2
0028
FFE3
FFD9
0000
FFFB
FFE7
001F
0021
000C
001D
0012
002E
FFF0
0000
FFDB
FFE0
0012
000E
001A
FFFE
FFF4
001D
FFEC
0028
001D
0006
000C
FFEA
001B
0008
0005
FFD4
FFF7
FFDE
001D
FFFB
FFDF
FFFB
FFE3
FFF0
0018
001F
0015
FFF4
001D
FFF6
FFEB
000F
FFFF
0010
0007
FFE6
FFF5
FFFB
0004
002E
FFFF
0008
0013
0014
FFEB
FFEF
000E
0001
FFCF
0003
0030
FFED
000B
0001
FFFD
000C
0006
FFF2
001C
001B
0014
FFF7
FFF0
0021
0003
0020
0028
0011
0019
FFFB
FFDD
FFDA
FFD9
0013
FFEB
FFF8
0001
001C
0016
FFEE
FFDE
FFD6
0006
0005
000F
FFDA
FFEE
0018
0017
FFFD
FFE2
0018
FFCE
FFF4
FFF2
0013
0000
000A
002D
0003
000B
001B
FFEF
FFE8
FFFF
0019
0024
FFDF
001C
0013
FFF3
FFFD
FFE7
001A
001E
FFDA
FFF4
0006
0010
FFED
0006
0033
0002
FFE9
FFF3
FFD4
0022
FFF3
0000
0007
FFF3
FFFC
FFEE
FFDC
FFF7
001B
FFE8
FFFD
FFE3
000B
000D
000C
0025
FFF4
FFF6
000D
000C
0018
FFE3
FFE7
0021
002C
0004
FFFE
0001
000F
FFF6
FFDD
FFE5
002B
0015
001A
000B
0018
FFE6
FFCE
FFFE
FFD6
FFEE
FFD5
0009
FFE3
FFF7
000E
FFF2
0008
0025
FFDC
FFD5
FFE2
FFD0
0014
FFEF
0027
001B
FFF7
000E
FFF4
0025
0002
0026
0008
0019
0005
FFFD
000D
0014
000A
FFE3
FFFE
FFEE
FFFB
0022
FFE7
FFED
000E
000E
0007
0019
0005
0016
000F
0005
000B
000A
000D
0025
0026
0025
0011
0009
FFF6
000A
FFFA
FFE7
FFE5
FFF9
FFD9
FFF2
0003
FFE9
FFFF
0010
FFF8
FFDE
001B
0009
0016
FFE7
FFFE
FFDD
FFFF
FFD2
0007
0012
FFE8
0016
FFCD
0001
FFE3
0016
0008
0022
FFDE
0020
FFE5
FFF6
FFFA
FFFB
FFDB
0025
FFEC
0013
0028
002F
0026
001C
FFF1
001C
0005
FFD0
001C
0017
0020
0011
FFFA
002D
0006
FFF2
FFFE
FFE8
0013
FFEC
0028
FFEE
FFDF
FFE0
0016
000B
FFFC
0001
FFFE
0018
FFEC
0010
FFEA
FFE1
FFEB
001F
0023
000F
FFF1
FFFD
FFFB
FFE3
0002
FFE8
0004
FFFE
000B
0016
0009
0020
FFEF
FFFC
FFD3
0011
FFE6
0021
FFD4
000A
FFE5
0007
FFF4
0029
0020
0018
FFF3
FFEC
0001
FFDB
0001
FFFF
002C
FFE9
0011
0014
000A
0009
FFF1
0013
000F
0002
FFF6
FFF9
FFD3
FFF9
FFED
001E
0015
FFD4
001A
FFEB
FFFB
0005
0027
FFF3
0006
0012
001F
001F
0012
FFF0
002D
FFF3
FFF4
FFDF
001E
000A
0019
0028
FFDA
FFDD
FFEE
FFF9
FFE7
0007
0014
FFE5
FFD0
FFF6
FFDF
FFEE
0026
0005
0003
FFF2
0006
001E
000A
FFD0
FFFB
0027
000E
0009
FFE0
FFF4
FFF3
000B
0003
001A
0000
FFEE
FFEB
000F
0013
FFE7
0006
0013
FFF7
FFD8
FFE1
0001
FFF4
FFD9
001B
0001
FFF4
FFF3
FFF3
0010
0031
0004
000C
FFEE
0006
0029
0018
000E
FFF2
FFDC
0016
FFF1
FFF5
FFEF
0000
0001
000D
FFE2
0014
FFF4
001E
0029
FFF9
0001
000A
0013
FFF8
FFFB
000D
FFE4
0013
FFEE
000E
001F
FFFA
FFEE
0011
0012
001F
FFEE
FFFA
000A
0009
0015
0001
001D
0009
FFCF
000D
FFE4
FFF3
FFFE
FFE9
FFFC
FFE9
FFFE
FFFD
001D
FFFA
001F
FFF6
001B
0010
FFF5
0013
001A
0007
FFF1
0020
FFE5
000E
0001
001B
FFF6
0006
FFF0
0017
000A
0019
FFFD
FFF2
FFDB
0006
FFF6
FFE9
0009
002E
000F
FFF2
0022
FFDE
0028
FFE3
FFFF
FFFD
FFE9
FFF8
FFF1
FFE4
0004
0003
0005
002D
FFDE
000B
FFEF
0009
0016
0012
000B
0010
FFFE
FFEE
0021
0003
0015
FFE6
FFE5
FFF1
000C
0017
002B
FFCD
FFEB
FFFA
001E
0029
FFD2
000F
0013
001B
000B
FFE1
FFE3
FFFD
FFDB
FFF4
FFEF
0016
FFD6
FFE5
0017
FFFE
0014
0022
FFD4
FFE8
FFF8
FFE6
FFE2
FFE4
FFF9
0004
0010
FFF0
0015
000F
FFF4
FFD3
FFF4
0012
0007
0002
FFF6
FFFF
FFE5
001C
FFE2
0003
FFE9
000F
0003
FFEB
FFEC
0016
FFF9
FFF6
0025
0020
FFFE
FFEE
FFF8
0027
0006
0025
0005
FFFA
0019
FFE1
FFF7
0023
0022
FFDC
0013
0005
0023
000F
000F
FFED
0021
0009
0026
FFEF
0007
FFE1
FFF6
FFDA
002F
FFD0
FFFC
0006
001B
0024
0011
FFEF
FFE1
FFED
FFE2
000A
001B
FFFE
000B
0008
000B
0003
FFE0
FFEE
0018
0001
FFFE
FFDE
FFF6
0017
0010
FFE6
0000
FFF3
FFF0
FFE6
000B
000F
000F
0000
0011
FFF1
0005
000D
0005
FFE7
FFD5
FFEC
001C
0000
0000
0016
000A
0000
0013
FFE6
FFE9
FFE7
0016
FFFC
001E
FFF9
FFE2
FFE9
000D
0004
002D
0028
FFE6
0008
000E
0014
FFF0
0000
0019
FFF3
000F
FFFB
FFF9
0002
0023
0011
000B
FFF4
0023
FFE5
000D
000D
0014
0015
0008
0005
FFE4
000E
002C
FFF6
0020
FFF1
000A
000B
000E
000A
0013
0018
FFEA
FFEC
FFFE
FFDD
0001
FFF8
000A
0003
FFFC
0021
0007
FFF2
0004
FFFD
0023
000D
0023
FFEE
FFD1
000E
FFF6
0014
0011
0010
FFEE
FFD5
FFE7
0021
FFE1
0021
FFFA
FFE6
FFF0
FFFB
FFF9
FFE9
0005
FFEE
000B
002E
0011
0018
0019
000F
FFE8
FFFD
FFE7
FFCE
0024
001F
FFE2
FFF4
FFF4
001C
0003
000C
0020
0015
002F
FFCF
0005
0009
FFE0
FFF4
002D
0022
FFFB
0026
FFE1
0012
FFE1
0013
000C
FFD4
0016
FFFE
0011
FFE9
FFE3
0011
FFEC
001C
0031
0003
0003
0007
FFD7
0016
001C
FFEC
001E
FFF2
0004
FFDE
001D
0000
0032
FFEF
FFDE
0003
FFE2
FFF0
0014
FFFF
0031
FFFD
FFE0
FFF1
FFE0
0023
FFFF
0007
FFE3
FFFC
0000
0021
0015
FFEC
FFFB
0003
0006
0006
0015
FFD9
0015
FFD7
002A
FFE8
0006
FFE8
FFD2
0022
0029
0023
FFEE
FFF6
FFF4
FFF0
FFCF
FFFD
0012
0005
000A
0016
FFF8
FFE3
FFFD
0006
FFED
FFE4
FFE8
0020
FFD3
0018
0017
FFFE
000C
0022
0003
0029
FFF5
FFF8
000F
FFFE
0002
0007
000C
0003
FFD9
FFE2
FFF1
FFE3
0004
FFF1
000F
FFFC
000F
FFF9
0017
0021
FFE8
0000
FFEE
000C
0004
FFFC
000E
0005
FFE9
FFDD
FFE5
0011
0006
FFEC
FFE4
0000
0000
FFF8
FFEA
001F
FFDC
0006
FFFA
0012
0005
0002
0013
0025
001D
FFFE
FFF7
FFF1
0002
0000
0007
0030
001A
0020
FFEF
0028
FFFF
FFED
0003
0010
FFFE
0015
FFF9
FFE3
0026
FFE6
FFE7
0014
000F
FFEC
FFD8
0000
FFFF
FFF2
FFD7
0010
000E
FFE0
FFF6
000D
000C
FFFD
000E
0006
FFFF
0017
0005
FFFE
FFF7
0001
000C
FFF4
FFF4
0011
FFE8
0001
0000
0008
0006
FFE0
FFDA
001F
FFFC
FFD6
0011
0000
FFFB
FFFD
FFE0
0018
0009
0004
000E
000F
001D
FFDA
0012
0017
FFD0
FFD6
0015
0021
FFF6
000B
0010
0011
FFFB
0009
0005
000E
FFFB
0028
FFE0
0005
0015
FFF3
0012
0010
0020
FFFE
FFF6
0029
FFE7
FFDF
FFF9
0003
FFE9
000F
0010
FFF9
FFF4
0030
0012
0000
FFEA
FFF5
FFF1
001A
000D
FFEE
0014
FFE5
FFEC
0006
FFE6
0011
0002
001B
0008
0023
FFEB
FFF6
FFF2
FFFC
001C
FFD1
0021
FFD9
FFFC
FFF4
FFD2
FFE1
FFDE
FFF7
FFF6
0023
0006
FFEF
FFCF
FFF3
0017
FFDE
0023
FFF7
FFD3
0015
0006
000D
FFF9
FFF0
0005
FFF4
0006
FFF9
FFE2
FFCF
FFFA
FFE6
0016
0011
FFFF
FFF7
0020
000F
FFF3
0008
0003
000E
0008
0002
000B
FFDA
001C
FFF5
FFF6
FFDF
FFF0
000B
FFFA
FFEF
0016
FFF4
0014
0024
0020
FFFA
FFF7
0006
FFF0
FFEF
FFDD
FFF5
FFD1
0002
001D
FFFC
000B
FFEF
FFED
FFE8
0026
0005
FFF6
001A
0015
FFF8
FFF3
002D
FFD2
0011
0012
FFD8
FFED
FFE8
0009
0001
0012
FFF1
0015
0027
0002
FFF4
FFF6
0011
FFE6
FFFD
FFED
FFF2
0003
0008
FFF5
0024
FFEE
FFD3
FFD3
0004
FFEB
002A
0023
FFF6
002C
0007
0008
FFE9
002D
0014
000F
FFD8
FFF3
FFF6
FFF0
FFDB
FFE5
000A
0014
FFDE
FFF3
0012
FFF5
FFD2
002C
0015
FFFB
0003
FFFC
0014
0005
0011
FFD1
000B
FFD7
FFE5
001A
FFE3
FFEE
FFE5
000A
FFFF
001C
FFFC
FFDD
FFDB
FFFC
0001
FFFA
0001
001C
0031
0015
FFF6
FFE2
FFF6
0003
FFFC
000C
FFD6
0000
FFF5
0004
FFEA
FFF1
FFFD
000C
0026
FFCE
FFFA
FFFD
0003
000F
FFFC
0013
FFD5
000A
0033
000E
FFE8
FFE6
000B
0019
0029
0027
FFEC
000B
000B
FFF9
FFEC
000D
000D
FFF6
0006
0011
FFEC
FFF8
FFDF
FFE6
002A
001B
0026
FFFD
FFFE
000B
FFF7
0016
FFFC
000A
0012
FFFC
FFF8
001A
FFFE
0019
FFF8
0016
FFF1
0000
0009
FFD2
FFDC
000C
0017
FFFF
FFF3
0016
0027
0019
000A
000B
FFF7
FFE9
0012
FFFA
0009
FFF2
0004
FFFC
0019
FFF8
0005
FFFC
001D
FFE2
FFF4
FFE8
0015
0031
FFCE
FFFA
000E
000E
FFE2
FFD3
0015
0023
FFD8
0009
0001
000F
0004
0003
000B
000E
000E
FFE7
FFE0
FFEC
FFE6
FFFE
0000
0013
FFF7
FFED
0011
001C
FFF2
000F
FFD5
0002
0013
FFFF
0010
000A
0018
0008
FFE9
FFEF
0024
FFE1
FFFA
FFF4
FFEC
002B
002C
FFEF
0005
0017
0009
FFFD
FFE5
0012
FFD2
0014
000B
0017
FFDB
FFF6
FFF1
002C
FFE8
FFF3
FFFE
FFF7
000B
0015
FFED
0007
0006
0013
001E
0005
0017
FFD2
FFEB
0015
0022
0013
FFD3
FFF4
0004
000D
FFFC
0009
FFEC
FFF2
FFFD
0005
FFEC
0013
FFEB
FFFC
0001
0025
0015
FFFE
0004
FFDF
FFE2
FFDE
0000
0003
0000
FFF1
FFFD
FFF8
FFE5
0023
FFD5
000C
0032
FFEB
FFF6
001D
0006
001B
FFE3
FFEC
000C
0020
FFEA
FFF5
0016
FFE9
001E
FFEB
FFEB
FFFD
0015
0011
FFF0
FFF9
FFF1
FFF7
0011
0001
0007
0000
001F
0006
0000
FFF3
FFE9
FFD7
001B
FFE0
FFFA
0002
001D
FFDC
0012
FFFA
002C
0005
FFFE
FFF8
0017
0009
0011
FFEA
000F
0009
FFEF
0004
0018
0027
FFF7
FFE7
FFEE
0009
000F
FFE6
002A
0003
FFF7
FFE1
FFF5
FFD3
0016
FFF9
FFDF
0012
FFF8
0018
FFF0
0006
002F
FFF7
FFFA
FFD0
FFD9
FFEC
0004
FFE4
0028
0013
FFDF
FFFC
FFF8
FFFD
000C
0012
0003
000D
FFF4
FFFD
001F
FFF1
FFE5
001E
FFFC
FFD9
0025
FFEB
FFF9
0005
FFEA
FFFA
FFF9
FFF5
0024
0010
FFF9
FFEA
FFF0
FFF9
FFE3
FFF5
FFED
FFF6
FFD1
0010
FFEA
000D
FFF8
002D
FFF8
FFE3
0014
002E
000B
0024
0009
0027
0005
0005
FFED
FFF4
0033
FFE0
FFF3
FFF5
FFFE
0012
FFEE
0010
000E
0011
0012
0003
FFF3
0026
0003
000C
000F
FFDB
FFE5
000A
FFEA
000C
FFD2
FFDD
FFCF
0009
000B
FFFF
0008
FFD9
FFFD
FFEF
FFFF
FFF2
FFFA
0000
0022
0018
0018
FFFE
0014
FFF7
0001
0004
0011
002E
0016
FFF6
FFFF
000A
000D
0000
FFF6
000D
FFDF
FFD5
0012
FFEE
000B
000B
0006
0029
002A
FFDB
FFF8
FFD9
0019
FFEC
FFEC
0001
0013
FFEB
FFEA
0007
FFDD
FFE7
FFFD
000E
FFFE
000D
0001
FFCF
0011
0027
FFF9
FFDE
FFD9
0008
FFF6
FFDF
002A
FFD5
FFFF
000F
FFF1
FFE1
FFF3
FFDF
FFE0
FFF5
FFCF
0006
002C
FFFE
0027
FFE4
FFE8
FFE2
0005
FFEE
FFE8
0027
0014
FFDC
FFF4
FFE3
FFE4
FFF0
000C
FFDD
FFEE
000B
FFFD
0003
FFE3
FFF7
FFF8
FFEB
FFD0
FFE1
FFF7
0004
0017
FFFF
0030
0002
FFFC
0018
FFF1
FFF1
0006
001B
0015
0017
000F
001B
001F
0002
0008
FFEC
FFFF
FFFF
000F
FFE6
001B
002B
FFF9
0012
0004
001B
FFFE
000B
0017
002B
FFF9
0017
000A
FFE5
FFD5
FFEE
FFE4
FFDA
000B
000A
000F
FFE2
000B
000A
FFFC
002C
0012
001A
FFED
0028
0010
FFDB
FFFD
0001
FFD2
000E
FFF4
0017
000B
0003
0007
FFEA
FFFD
FFFC
0013
0020
FFF9
FFF6
FFF9
0000
0009
0004
000D
001B
000B
0020
FFF1
0012
FFE9
0032
000C
FFE7
000D
FFE9
0018
0027
FFFA
FFF0
FFFA
0002
0019
0027
001B
FFDE
FFFD
000E
0009
0012
000F
FFFE
FFE4
000B
0006
002F
0029
0002
FFF9
001B
FFE1
0011
FFE8
FFFF
FFFD
0018
0012
000C
FFF9
002F
0001
0022
0005
0001
FFFD
0010
001B
FFEB
FFDD
0000
001E
0012
FFEE
000F
FFF2
0029
002D
FFF5
FFE8
002C
FFFD
0029
001F
0001
FFDD
000A
0012
0001
FFE5
000F
FFFE
FFF0
0008
FFDE
FFFF
0019
FFE5
FFE8
FFD3
FFDD
FFEB
0012
0020
FFE3
001A
FFD3
FFE1
FFF1
FFDC
FFE3
0020
000F
001F
0014
000B
FFE4
000B
0031
001A
000D
0009
001E
FFED
0018
FFED
0033
FFE8
FFF7
0023
001F
001F
0003
000C
001E
FFD3
FFDF
000F
001E
FFEF
FFF4
0032
0031
FFFA
0003
FFFB
0013
0020
002E
FFFA
0000
FFDF
FFF4
0014
001B
000D
0007
FFE5
FFF9
0006
FFE4
FFF5
0019
000A
FFE6
0010
FFEC
000A
0013
0017
0011
000E
0017
000F
0004
FFF0
0002
FFE5
FFFA
FFF3
FFF5
0015
000C
0010
001B
FFD5
0028
000B
0018
FFE5
000C
000A
FFDD
0028
FFE6
FFE6
000F
0014
FFF5
000B
FFED
FFF0
0026
FFF5
FFE6
0007
0000
FFE8
000F
0012
FFEF
FFFE
FFFF
000F
FFED
FFF8
0030
0010
001E
0024
000A
0014
002D
FFE4
FFEF
FFF2
FFF7
0015
0015
0019
FFEF
FFF7
FFF8
FFFD
0019
0022
000F
FFF3
FFE2
FFE3
FFF0
FFD9
000A
FFF5
0009
0028
000F
000E
001A
FFE7
FFFB
FFD9
001D
0007
000E
0001
FFDC
FFF2
0017
0011
000F
FFDC
FFE4
0004
001E
FFE1
FFF9
FFFA
FFE6
0001
0014
0015
0010
FFEF
FFE6
FFFB
FFDD
0013
FFFE
0021
0002
FFF2
FFE1
000E
FFF3
FFDA
001B
FFD2
FFD9
FFE6
FFF8
001F
0021
0030
FFE7
001C
0006
FFDD
FFF1
FFE3
000E
FFFF
002A
FFFF
000D
FFE5
0010
0013
0002
001C
002D
FFF1
0012
0009
FFDF
002C
0011
FFDD
FFFC
FFDA
FFEE
FFE0
0005
FFFC
0017
0019
0002
0000
FFE5
0004
FFF3
FFF3
0011
000A
0017
FFE8
000E
0007
0000
FFE5
001E
0012
FFFF
FFD2
0008
FFFF
0012
FFF8
0004
FFDD
0004
FFED
0020
FFD8
FFE5
FFDF
0000
FFF4
FFED
FFEE
0011
0004
FFFA
FFDF
FFF0
000C
0008
FFE9
0014
0022
FFEE
000B
FFF1
FFE9
FFE0
FFF8
0026
0021
001A
FFFF
FFF9
FFCE
FFD0
FFF4
FFF3
FFF5
FFE6
FFEE
0007
000C
000C
001D
FFF1
002D
0003
000D
0023
0012
0007
0026
FFEB
000B
FFF7
FFEF
0024
FFE9
0018
FFEF
FFD0
0022
FFED
FFFE
FFF5
0010
0024
FFE8
0015
FFE0
FFDC
001E
FFFA
FFF1
FFFF
FFF3
FFF3
FFFC
FFE8
000F
0013
FFF8
FFF7
0021
0000
FFF7
0014
FFF4
FFD1
002A
FFE2
0020
0029
001E
0001
0001
FFDB
0007
0007
0013
FFED
FFE9
0012
FFFC
0004
0011
FFF9
FFF8
FFCF
FFE7
FFF8
0010
FFE9
0015
FFE3
FFEB
FFEF
FFEC
0019
0033
0024
000B
0018
0000
FFD6
FFE9
FFF2
0007
0017
0003
0012
FFD4
0022
0005
000F
0005
000B
FFF9
FFF3
FFF1
FFFE
FFE8
FFFC
FFFB
002B
002B
000B
0006
002B
FFD3
002C
FFF9
FFF3
FFF6
FFF2
000B
FFDD
000D
FFED
0016
001B
000D
FFEC
FFF3
FFDD
0029
FFF1
0005
FFF0
FFF7
FFD7
0001
000E
002C
FFF3
FFEC
FFE2
0010
FFD6
000F
001B
FFDE
001A
FFD3
0000
FFEA
0013
FFE1
FFE9
FFFE
FFE9
0014
FFD7
FFE2
0024
FFEB
0009
000F
0002
000E
0012
FFE7
0008
0006
000F
000D
0031
0009
0000
0006
FFF2
FFF4
FFF3
FFE3
FFF2
001C
FFF6
000B
0007
FFF7
FFFE
0006
000C
FFFF
FFFA
0008
0007
001B
001A
FFFB
0005
FFF0
001E
FFFC
FFF7
0005
000A
FFEF
FFFD
FFFF
0008
0005
FFF3
FFF7
0006
FFFF
FFE3
002C
FFF3
000A
FFFE
FFF0
0012
0001
FFF8
0019
0016
FFF4
000F
0027
FFFA
FFD2
000B
0004
0003
0004
FFFE
FFFE
FFFF
000D
0001
FFEF
FFF1
FFE4
000C
0012
FFF3
FFE7
0018
FFFD
0000
0006
FFFD
001C
FFF9
0005
0027
0001
FFF2
0011
0008
FFD8
FFEC
FFEF
0009
0001
FFEC
000E
FFF9
0009
0020
FFFF
FFFA
FFFE
0019
FFFC
FFF2
FFE6
FFFA
0006
FFEF
FFF3
FFE7
0000
001E
0010
FFEA
FFDB
FFF7
001C
0003
FFFB
000E
000F
0007
0012
0002
0017
FFFF
0019
0012
FFF4
FFFF
0006
FFD3
0003
FFF9
FFE6
FFFC
FFF1
002B
FFED
FFEA
FFFC
FFFF
0007
0006
FFEE
FFFF
0026
FFF0
000E
001B
000B
FFF9
0009
000C
0007
FFFD
0019
FFCF
001C
FFF5
FFF2
0024
FFD9
0003
0018
FFFD
FFF4
0013
FFFA
0028
FFEE
FFED
FFE8
FFF1
0028
002C
FFF2
FFFC
0005
0002
FFE2
000F
0002
0017
FFFD
FFEB
FFD8
FFFF
FFD3
FFF6
FFD3
0017
FFD8
0003
001A
FFFF
FFFE
FFE1
FFF5
0019
FFE3
0013
FFFA
FFEA
001C
0006
000F
0013
0007
FFF7
FFFE
FFDC
FFFB
0015
0011
FFDB
FFEF
000C
000B
FFFE
FFF8
0007
000F
000B
0029
FFE8
FFDB
FFEE
0024
000E
0020
FFF1
001D
0001
0007
FFE5
0001
FFD9
0010
0003
0030
FFCD
0013
FFF0
0011
001F
001A
0003
FFFB
0000
001C
0017
FFF5
0002
FFEE
FFD6
0007
FFCF
FFF9
FFEC
0019
000B
0005
FFFA
0012
0009
FFEB
FFE8
0006
001D
FFF5
FFFB
001E
0014
0011
0004
FFFF
0011
FFF3
FFEE
FFEE
FFF4
FFEE
FFEE
0016
000F
001C
001B
0001
FFDD
FFFC
0017
FFEF
FFFC
FFF9
FFE0
FFF4
FFF5
FFE5
000B
FFF7
000D
FFFE
FFFD
0016
FFE8
FFFD
FFF9
000B
FFF4
FFD0
FFEB
FFDE
0008
FFF8
001C
0018
0002
0014
FFF9
FFF7
FFCE
000B
0009
0015
FFFF
FFE3
0022
0004
FFEB
000F
0010
000C
FFCF
001F
FFFF
0014
0013
001D
FFFB
FFD9
FFE4
FFE0
FFEE
0005
FFF1
001C
002A
000E
FFF3
0010
0027
FFEB
FFF9
FFDE
0001
FFDA
FFEA
FFE3
FFD4
FFD3
FFE7
001D
FFE6
001A
FFFA
FFE8
FFF1
FFEF
0011
000A
0001
0006
FFF1
FFFE
FFFD
FFFB
FFE0
0000
0023
0017
0031
FFF6
0022
000F
FFDA
FFF9
FFDE
FFF6
FFD9
FFE1
000C
FFFF
000C
000E
FFF0
FFEA
0010
FFF5
FFF4
FFF3
FFFB
FFE7
0003
FFEF
0007
0009
002A
FFFF
FFD1
FFFE
FFF7
FFD2
0006
FFF1
0007
FFED
FFDC
FFFF
001D
FFE4
0024
0024
FFEB
001B
001B
FFEA
0001
0007
000D
0010
0011
FFE6
0006
0001
0025
FFE6
0025
FFE7
FFFE
0008
FFFC
0009
001C
0001
FFFE
000E
FFFD
0028
0007
FFF3
0011
000A
FFFC
000C
FFD7
0011
FFE5
0017
0004
0014
FFF8
0005
FFED
0006
000E
001F
FFE2
FFEE
0023
0001
0017
001F
FFFD
0002
0013
FFDB
000D
FFFE
FFE9
000F
FFE8
001D
001F
0020
FFEF
0011
0016
FFDD
0018
000F
0004
FFE9
FFF7
FFED
0005
0022
FFEE
002F
FFEE
0029
0005
0006
0014
0010
FFEB
000E
FFF3
FFE9
002A
FFE6
0006
0015
FFFB
FFF5
0002
0027
FFDB
FFE1
0006
FFDF
0027
001B
FFDF
FFE5
0001
FFF8
FFF3
FFDC
FFE8
FFFF
FFF7
000C
0010
FFFA
0026
FFFD
FFD2
FFDE
0026
0004
FFED
FFE7
0004
FFEB
0007
0000
FFE9
FFF3
0026
FFF4
0023
FFF9
FFF7
FFF3
0012
FFF6
000F
0007
FFEC
FFE8
0003
0008
FFF7
0003
0028
0000
0011
0013
FFFD
FFF0
0010
FFFF
0000
FFF7
FFEF
0007
FFEB
FFF5
000D
FFDD
FFEA
0015
FFFB
FFE3
FFEB
FFFE
002F
000E
FFDF
0020
0020
FFE6
0013
FFD0
0020
FFF6
FFF7
000A
001B
FFEF
FFE3
FFFC
002D
0006
FFFA
0007
0001
FFFC
000C
FFDF
FFE7
FFE1
FFF4
0002
FFE5
FFE6
000E
0028
000C
FFDC
FFF5
FFEC
0011
001B
002D
FFF3
0026
000C
FFDF
FFE7
FFF5
FFE8
FFE8
0018
0023
0000
FFE3
001C
000D
001D
0013
000F
000F
0000
001C
FFDD
FFEA
FFF9
0003
0021
FFF3
FFEE
0004
FFF8
FFFF
0006
0009
0014
001A
FFF7
0015
0005
FFF5
FFEA
FFF3
FFD6
0015
0013
FFF4
001C
FFD2
FFED
0012
FFFB
FFD9
FFF9
FFF5
FFD9
0019
000F
FFFB
FFF0
0014
0007
FFEB
0007
0015
000D
FFFF
0009
0019
0024
000D
FFFF
0006
FFF3
FFE7
FFE3
FFED
FFFE
001B
001C
0007
0014
FFFA
FFFE
FFE6
FFE6
0012
FFF8
001B
FFE9
000F
0000
FFEF
FFF9
FFFC
FFED
0021
0001
000B
FFEC
FFF4
001A
0000
FFDF
FFD6
FFEE
001A
FFFB
0000
0004
FFFC
FFFF
000E
0016
002D
0000
002A
002C
0001
FFFD
000E
FFE4
FFD3
0001
001B
FFE7
0004
0019
0007
FFFF
0016
FFEF
0032
0019
0003
FFD9
001F
FFF1
0006
FFF2
FFFF
0006
FFDC
0008
FFD3
0009
0029
000F
FFF2
001B
0005
FFF7
FFFC
FFEA
0023
0020
FFD9
FFE8
FFF5
FFE3
FFFC
002F
FFDC
FFFF
0007
0026
0014
000C
000C
0025
FFFE
0003
000A
002A
0003
FFEC
0001
FFF2
FFF6
000E
FFD0
FFED
0006
0025
FFEF
FFF4
0022
FFFD
FFD1
0000
FFDA
0005
FFE7
0000
0010
FFD6
000A
0004
0004
FFFA
0002
0005
FFDD
001A
FFEE
FFFA
0009
0001
0016
FFDB
FFEE
FFE9
001E
FFF8
0006
FFFA
FFE5
0007
0008
0008
0007
000D
0001
FFFD
0030
FFFB
FFF8
FFFE
000F
000D
0005
0015
0025
FFF6
FFFF
002C
FFE9
FFE7
FFF9
FFE2
FFF8
0009
0001
FFFD
0007
001A
FFE7
0005
000C
FFF2
FFF9
FFF8
0002
FFFD
0016
000F
FFE2
0008
FFEF
0001
0024
FFE8
0007
FFF8
0006
FFF1
0015
0010
FFFD
FFE7
FFE6
FFFA
0003
001B
FFEB
FFED
FFF6
001F
0006
001D
000B
FFF4
0014
001D
FFE2
000C
FFCF
FFE9
FFE2
FFDE
0010
0000
FFF0
0018
FFFB
FFF9
000C
0006
0006
FFFB
000F
0002
FFF6
FFFE
FFF5
FFE5
FFEE
0003
001B
0021
0013
0006
FFD6
001A
0002
FFD5
FFFD
FFE4
FFEC
0020
0000
FFF1
FFF2
0000
FFF9
FFF1
001D
FFFF
0024
FFEF
FFE0
FFE1
000A
0000
FFEC
0030
FFD9
FFDD
001D
FFEC
FFF6
FFEE
0011
FFD7
FFF1
FFE9
0011
FFE0
FFF4
FFF7
FFF3
FFFF
001E
FFF7
FFF0
FFE4
FFFC
FFFF
FFFB
FFED
0010
FFEA
FFFC
FFD4
001C
FFFD
001A
000B
0016
0021
FFF5
FFE0
FFFC
000B
FFCD
0014
000D
001B
FFE8
0009
001B
FFE7
0006
000B
0002
0012
FFEE
0022
001C
0008
FFCE
FFFE
FFFE
0012
0005
000F
FFEE
FFFF
0004
002A
000E
0025
0024
FFFA
FFE6
000F
0008
FFF4
FFDC
0012
0013
0007
FFF1
FFEE
000D
0011
0015
FFFC
000B
000C
FFF1
000B
FFFB
FFD8
FFE1
0000
002F
FFF2
0012
FFFA
0024
FFF5
0004
0029
0006
000B
FFE4
0023
FFE1
0010
0014
FFF6
0017
FFE5
FFF4
FFE6
0001
FFFF
0002
FFF8
0018
000A
FFED
FFDF
FFCE
FFE6
0015
0018
FFE4
FFFF
FFF8
0018
FFE0
FFFD
0007
FFE9
FFEB
0022
FFF2
FFF5
0017
0007
0002
FFFC
0007
0028
FFE4
000B
FFE8
FFF6
0011
FFFB
0000
FFE7
0000
0006
0018
FFE3
FFF4
0000
0015
FFFE
0001
FFD5
FFE3
FFF6
FFEB
FFFB
0030
000B
FFD7
FFCD
0005
002C
001C
0009
0011
0017
000D
FFF9
FFF8
FFF2
0013
0006
0014
FFFF
FFD9
FFE5
FFF5
FFE8
FFF3
FFD0
FFF6
FFE8
0008
002D
0003
FFF3
FFD8
0010
000F
FFE2
FFE1
001D
000B
0001
0005
0013
FFFB
FFFE
0013
FFFC
002A
0008
000C
001F
0021
0002
FFFE
FFEF
0010
FFEF
0026
000A
001A
000C
FFFF
0001
001B
FFF2
000B
FFEC
FFEA
FFDF
001A
FFFB
FFF2
0031
0004
0017
000A
0003
FFFB
0010
FFFC
0017
FFEF
FFF6
FFED
FFED
0017
FFF4
0010
0011
000B
0004
FFCE
001C
001F
0013
0014
FFFD
FFF5
FFD5
FFFF
FFEE
FFD3
FFF4
FFF2
FFEB
0016
FFFB
0015
FFF3
0029
FFF3
FFFC
FFE9
FFE7
FFFC
FFE9
FFF8
0030
001F
FFFA
FFD4
000D
0009
000A
FFF2
0017
FFDE
FFFF
0026
FFF6
0013
FFFB
0001
0010
FFCD
FFED
FFEF
FFD2
001B
0011
0012
FFF2
0004
000C
FFEF
000E
FFF4
0008
FFF7
FFCF
FFD2
FFF2
0002
FFFB
FFF5
FFFD
FFEE
000A
FFE2
FFE7
0012
FFE3
0025
0028
FFE2
FFD4
FFE9
002C
0006
0008
0007
002B
000F
0006
FFF1
000C
000D
0007
FFF5
FFF9
FFE7
FFDA
002F
FFEC
FFE2
0007
FFE2
0018
FFD3
001C
FFE9
FFF8
0007
002B
0006
000A
FFDB
000B
FFFC
001A
FFD6
0001
FFFD
FFED
FFFA
000B
0001
FFE1
FFE4
FFE5
FFFC
000F
FFFA
000E
001D
FFF1
001D
0003
FFF6
0006
001E
FFE2
0017
0004
FFFF
0007
0011
0015
FFDF
0012
0002
0014
FFF6
001D
FFEE
FFF2
001D
0010
0002
FFE3
0026
0008
FFF7
0006
0001
FFDE
FFEC
FFFA
FFE2
FFE7
0003
FFED
0020
FFE6
FFFA
FFE9
000C
FFF0
0008
FFFF
001D
FFED
0013
0024
FFEF
002C
FFEA
FFF0
FFDC
FFE7
FFEF
FFFE
0026
0016
000B
FFEB
FFE2
0007
0000
0018
FFF2
FFE9
FFE3
FFF5
FFFD
FFE7
FFF6
FFFB
0009
000F
FFD3
002D
0019
FFEE
FFF3
FFEE
0022
FFFF
FFFD
0010
0026
FFF8
0016
FFF6
0013
0005
0000
0008
FFF8
FFF2
0019
0004
FFDF
FFD9
001E
FFED
0024
001F
000F
000C
001F
0010
0003
FFFB
0013
FFE7
0002
FFFC
0002
002D
0010
0009
0004
FFF5
FFE9
000B
FFFF
FFFB
0004
FFF9
FFE4
0000
0004
FFF1
001F
FFF0
0004
FFF9
FFDF
FFF6
000D
0005
FFF4
FFFF
FFD5
0003
0002
0008
FFCF
0023
FFEE
FFFC
FFF9
001A
FFF9
002E
FFFC
FFF5
FFF2
0021
FFED
0020
002D
FFCE
FFCF
FFE0
FFDA
0004
FFFE
0009
FFE0
001C
FFE7
000E
FFDF
0013
0007
FFE7
001A
FFE9
FFEE
FFFE
0006
FFF7
FFFF
FFDD
FFF1
FFF2
FFE5
FFFB
000F
FFF8
FFF3
0001
FFED
000D
0022
FFF3
FFDE
001C
0001
0016
FFD6
FFF7
000E
FFE8
0004
0006
FFE8
FFEE
0031
FFE1
FFEF
FFFF
0006
0004
FFEC
0003
0010
FFF3
FFEB
FFE4
002F
0012
FFF4
0027
001C
FFDB
001D
FFF2
FFE5
FFF8
0001
FFF7
FFF1
FFD9
FFEB
FFFD
FFF5
FFF5
0007
000B
FFED
FFEB
001B
FFF9
FFFD
0003
FFF7
000A
FFEE
FFF8
0010
001F
0016
0011
0026
0011
FFE9
0024
FFF6
FFDF
FFFA
FFF6
0003
FFF9
0005
000A
002D
FFF7
FFFC
0001
0005
0015
FFEC
0009
000C
FFFF
FFDB
0015
0008
FFF0
FFF0
0028
FFF3
FFFA
0004
FFF8
0001
FFDB
FFFE
FFEE
002B
000F
FFE7
0007
FFF2
FFEE
FFF4
FFE4
FFED
FFCE
FFE8
0004
FFF9
0014
0025
0010
0016
FFEE
FFDF
0001
FFDD
000A
FFFD
FFFA
FFE9
0017
0028
0010
0002
FFF3
FFE1
0007
000F
FFE7
000D
FFDC
0009
0026
FFF7
0008
000B
000E
0011
FFFE
FFFB
FFD3
0027
FFDC
FFD5
0015
FFD0
000E
FFD6
001A
FFE2
FFFE
FFF2
0017
FFFE
0024
0014
0008
000D
FFF1
0007
FFD6
FFE8
0018
FFFA
0021
FFF1
FFED
0003
FFF0
000B
FFF5
000D
FFFF
000D
FFFE
001E
0028
FFE2
001A
FFF5
FFDE
0002
0018
000D
FFEC
001B
0004
FFD7
FFCF
FFFB
FFF3
0012
0030
0007
FFDA
0009
001C
FFFB
FFE8
FFE3
FFFA
FFE7
FFE1
0017
FFE4
0017
FFD1
FFE2
FFEE
0014
FFFC
FFEE
0019
002A
0001
FFF0
0004
FFDE
0011
FFED
FFF5
FFE0
FFEF
0007
0008
0023
FFE5
0001
0014
000F
FFFB
FFCF
FFF5
FFE8
FFF3
FFFE
0007
0000
FFE6
0005
0002
FFF7
FFFF
0013
FFF4
FFFE
FFD7
0003
0021
0008
FFF4
000F
0006
FFDC
FFE1
001F
FFFC
FFE2
0006
0002
0026
0012
FFFD
FFE6
0005
0008
0029
0007
0004
0005
FFF8
0006
FFFC
FFD1
000F
FFF1
FFDE
0022
000E
FFE1
FFEC
0007
FFE1
FFF8
000F
0016
FFE5
FFF2
FFF6
FFE3
FFF1
FFE9
FFEE
0020
FFEB
0004
FFF9
FFF2
FFE1
FFD5
0007
0007
0007
FFD9
0020
FFEA
FFCD
0003
000A
FFE2
FFE8
0031
FFDC
FFFE
000A
FFE3
0006
FFF4
FFF3
FFD9
0014
FFF7
0033
000C
001D
0013
FFEF
0017
FFE3
0008
000A
000A
001D
001F
0011
0008
0006
FFE3
FFE1
FFE5
FFE6
000A
FFDE
0001
0008
0000
FFD7
FFEE
FFE9
0011
FFCE
0012
FFDE
FFDB
000A
000F
FFEB
FFF0
FFFA
0000
0002
0001
0006
000F
0017
0020
001E
FFFB
000A
0000
002B
0002
0003
FFD9
FFE5
0012
002C
FFED
0017
FFF1
0011
FFE1
000C
0009
0029
0006
0002
FFFA
0012
FFFE
FFF5
FFFE
FFE4
FFF7
FFEB
FFD6
000E
0014
0011
FFF1
0019
0009
0004
FFE4
0004
0009
FFFB
0008
000E
FFCE
0003
0012
0019
001F
0032
001F
FFFD
0012
0011
0000
FFF0
FFEE
0004
FFED
0000
FFE3
0005
FFEF
0021
FFE3
000C
0029
FFF5
0003
0008
FFEB
FFF2
FFF0
0002
FFE0
001C
FFE8
002B
0027
0005
FFE0
FFEB
FFF3
0010
FFFF
FFEC
FFDC
FFEF
0013
FFFC
FFF5
FFF7
0000
FFFB
FFF1
0007
0013
FFF0
0004
FFDF
FFD8
FFFB
0013
FFFC
FFE2
FFF1
FFDF
0004
0000
FFF1
FFE9
FFFC
FFEC
FFE5
FFF8
0023
0017
FFFB
FFDD
FFE1
0021
FFE8
0012
0026
FFF9
0015
0020
FFFF
0002
000B
FFEF
0012
0021
0010
FFED
FFFE
001B
002A
FFF3
FFD8
001D
FFF8
0028
000F
FFDF
0003
FFF3
FFF6
FFEF
FFE4
FFDD
000B
FFF9
0017
FFF6
FFF8
FFF7
000F
0002
FFE0
001D
0011
FFDC
001F
FFF9
000B
0008
000A
FFFB
FFE4
0022
FFED
0006
FFF4
FFCD
0007
0011
0007
FFF0
FFE9
0026
000E
FFCD
FFE8
0002
FFE0
FFE9
0006
000C
000B
0029
FFE4
FFEA
FFFB
0026
0027
FFF8
0005
000B
FFDB
FFE2
FFF6
FFEA
FFDB
FFE7
0003
0018
0002
FFF2
0018
FFF5
000F
0010
000D
FFD6
0025
0001
0007
FFD9
FFF3
0014
FFE9
0019
0013
FFF0
0019
0016
000C
FFF5
0007
001D
0019
000E
FFF3
FFF2
0013
FFF6
FFFC
FFEB
0012
FFFB
FFE3
FFF3
0007
FFF8
FFDE
FFF2
FFF6
000D
0001
001E
002B
0001
0031
FFD0
FFEA
0016
0005
001D
FFFE
0021
001B
FFEE
FFF4
0012
0007
0004
FFF0
0000
000E
001F
FFFE
FFFE
001A
002A
000C
0007
FFE8
000B
001E
0012
0015
FFFB
0022
FFD3
0006
FFD5
FFE6
000A
FFF5
FFD4
0030
0002
FFD4
FFF6
FFF4
0010
0014
0009
FFEB
0017
000C
001A
0009
FFFD
FFF7
0006
FFED
0010
000C
0006
FFF8
FFFE
FFF4
FFF5
FFF1
0012
0025
FFD9
0000
0002
FFFA
002D
0005
FFE0
000C
0013
FFE9
FFE3
0010
001A
FFF7
FFEF
FFF5
FFFB
FFFB
0013
0031
FFD1
FFF0
000F
FFFA
0003
FFF8
FFD1
FFDD
FFDA
0000
FFE6
FFEA
FFEB
FFFC
FFF3
FFEE
0027
FFFE
FFDF
FFE5
0002
FFEC
FFE0
000C
0003
FFF1
001B
000E
0004
FFF6
0005
FFE0
0000
FFF8
0003
000E
FFE6
001B
001B
FFF1
0014
002C
FFFA
FFE3
FFFB
FFF5
000F
0026
0018
0014
0020
0003
FFF8
0017
FFF5
0007
FFD1
FFD3
001F
FFFF
FFFE
FFDC
0012
000E
FFFF
001E
FFED
FFF6
0015
0023
0013
0001
0012
002E
0004
FFE3
0008
FFDC
FFD8
0006
0016
0020
FFE5
0009
FFF5
0014
0001
000D
001F
FFFF
FFF8
0015
001F
FFFE
FFD9
0028
FFDB
FFF6
FFFF
FFE4
FFE8
FFEC
0015
0009
000B
FFFF
FFDD
FFEF
FFF7
001D
FFFF
FFD3
FFEE
FFF7
FFFC
FFDA
000F
000A
FFF3
FFE7
0000
001D
0009
FFEB
FFD1
FFEF
0010
FFF1
FFF1
FFF8
FFFD
FFD9
0007
0033
FFFE
FFF4
0003
001E
002A
000C
0026
000D
0016
FFDD
0000
FFF5
FFED
0007
0008
002E
0007
001C
FFF7
0005
0003
FFF0
FFEA
0020
FFFE
FFE1
0019
FFFC
FFF8
0006
FFFF
FFF9
FFD1
0013
FFDB
0010
001B
FFFF
000C
FFF8
0032
FFE4
000E
0019
FFF0
0012
001F
001C
0001
FFEE
0008
0013
0009
FFF3
0006
FFF2
FFF9
FFFF
0028
0033
0007
002A
0004
0029
FFF2
001F
FFE2
FFF7
0007
0009
FFD9
FFF0
000E
000F
0030
FFEE
FFFB
FFF1
001A
001B
FFF8
0003
002E
FFF9
FFEC
0021
FFE8
0024
FFF4
0016
0005
FFE8
FFED
0002
001E
0005
FFD8
000B
0008
000A
0005
000A
FFF6
FFF7
FFE9
FFFF
000B
0003
002D
FFEE
FFD6
000E
FFE4
001D
0022
0013
FFD6
0018
000B
0031
FFEF
0016
FFF7
0018
FFDE
0005
FFF8
FFE0
000E
001E
FFDD
FFD9
FFE3
001C
0004
FFF3
FFDC
001D
002E
0004
FFCF
0023
FFEB
000C
FFF0
FFEC
FFFD
000A
0002
0005
FFF8
000E
000E
FFDF
FFFF
0001
FFCD
FFD7
FFF8
FFF3
FFE2
000C
FFDB
FFD5
000C
0019
FFE8
002E
000E
0007
FFEB
0003
0002
FFF2
FFEF
000C
FFE2
FFFA
000C
FFE1
FFFC
002D
FFDB
FFEA
0025
0014
FFFE
0012
FFE8
0010
FFFE
FFEE
002C
0001
FFE9
FFDD
0012
0028
FFD9
000A
0002
000A
001D
0006
0003
0012
0001
FFF4
FFF4
001D
FFFA
0002
FFD1
FFF2
FFF7
000A
FFFF
FFDD
FFF2
FFF8
FFFB
002D
FFD2
FFF4
FFF5
FFDF
0004
FFF0
FFE6
FFE4
FFED
FFD9
FFFD
FFE5
FFF7
FFEA
FFFD
FFFF
FFF3
FFF1
0006
FFDE
FFEB
FFD9
002C
0013
0023
000A
FFF1
0011
000C
FFE3
FFEF
FFE5
0006
FFD5
0005
FFF7
FFF1
FFD9
FFE0
000F
0014
FFE1
FFF3
FFF5
FFD1
FFED
FFD0
FFEE
FFF0
FFFE
0004
FFF5
000E
FFF9
FFFA
0002
0001
FFEC
0002
0018
000B
0002
FFD7
000D
000A
000D
FFE4
000E
001D
FFF7
000D
001C
FFDF
FFEA
FFEA
0025
FFFB
FFEF
0016
FFF3
FFF7
FFFA
0019
FFFE
FFE1
0024
0014
0004
FFFE
0005
FFEE
FFFF
000F
001A
FFEE
FFE1
0019
0001
FFF9
FFDF
FFFC
FFE8
0000
FFF8
0005
FFE0
0006
000A
FFF5
FFFE
0014
0017
0001
FFF9
FFFA
001B
0008
000C
0000
FFF4
0028
0001
FFD8
FFFE
0011
FFE7
000B
FFF7
FFFF
0016
0006
FFF7
FFEB
0030
0005
FFCE
FFD1
FFEF
FFFF
0003
0017
FFD7
001C
0002
000A
FFF4
FFE0
0010
0004
002A
FFF3
FFFB
FFE1
FFF2
FFE3
FFFC
FFE8
001F
001A
FFFA
FFE8
FFE7
0021
0016
FFE3
0010
FFF2
0017
FFE5
0002
0029
FFE0
0028
0014
0032
0016
FFEC
FFFC
FFE9
0002
001E
FFEF
FFF2
FFFE
FFE4
FFED
FFEA
0024
0003
0024
FFED
FFED
000D
0015
001B
000C
0003
000C
001A
FFD6
FFF3
FFFF
FFFD
FFF9
0022
0020
0006
000F
FFE2
000A
0025
FFFE
FFE1
FFFF
0011
0009
0003
000D
FFFF
FFF3
0013
FFF8
0019
001D
FFF5
0019
0013
001F
0031
0010
FFFB
0003
0007
FFFB
FFFF
FFF6
FFE7
FFEF
0001
0005
0010
FFEA
0000
0005
FFF4
FFF7
001B
FFD2
FFDC
FFFC
0029
0001
0016
0011
0012
0011
0002
FFED
FFF9
FFE3
FFF3
000A
FFF2
0004
FFF1
0025
FFFD
FFFE
FFED
0023
0027
FFE8
FFE9
FFDB
001E
0004
FFF6
FFF8
0000
FFDC
0000
FFDB
FFCD
002D
FFFC
FFEA
000F
FFFC
FFF7
0024
FFFC
FFF7
001B
0020
0009
0005
000A
FFD6
0028
0007
0024
FFF4
FFFE
0013
000A
0005
0005
001D
FFE1
0008
000F
001D
0021
FFE4
FFDD
FFF8
FFF2
000F
FFEA
FFE5
000C
FFEC
0001
FFFC
FFF8
0015
0030
0018
0018
0017
000F
FFDE
FFDF
0007
0029
FFF7
000A
0002
0029
FFFE
FFFE
FFF5
0005
0003
0032
0005
000B
000A
FFE7
FFEE
FFD8
FFE5
FFF9
001C
0006
FFF5
FFF4
0019
FFFB
000D
FFFD
0009
0017
0002
0022
0022
000D
FFEF
0000
0031
0019
0029
0029
0013
0021
FFE9
FFE0
FFE6
FFD8
000F
FFE8
FFDC
0011
FFF7
000B
FFE0
FFE2
FFF4
000E
0001
FFF2
001A
FFF3
FFFE
0016
FFD7
0018
FFD3
0006
FFFB
0001
FFF7
0021
001E
0015
FFE1
FFF9
FFF7
FFFC
0008
000E
FFEC
FFD5
0024
FFF7
0009
